#version: 0.2 - Trained by `huggingface/tokenizers`
Ġ t
h e
Ġ a
i n
r e
Ġt he
e r
o n
e n
Ġ ,
Ġ s
Ġ .
a t
Ġ o
Ġ c
Ġ p
e s
o r
Ġ w
in g
i s
e d
i t
a n
Ġ f
Ġ b
Ġt o
Ġo f
Ġ in
a l
l e
i c
r o
Ġ m
Ġa n
i on
Ġ d
a r
en t
Ġ h
o u
Ġan d
Ġ e
c t
Ġ n
a s
Ġ re
v e
i l
Ġt h
Ġb e
l y
l o
Ġ is
l d
o m
at ion
Ġ g
Ġ T
e t
s t
c h
Ġp ro
c e
v er
s e
m ent
Ġ 2
i d
i m
Ġ l
0 0
i g
u r
o re
Ġ on
o t
Ġth at
Ġ S
Ġ I
Ġf or
u t
il l
o w
i r
Ġ u
Ġa re
Ġ )
Ġa s
u c
Ġ (
Ġd e
Ġ A
Ġc on
Ġ2 00
b le
u l
Ġ it
Ġ en
he r
ĠT he
o p
n t
r i
a ct
o l
es s
a y
ou ld
Ġh a
g y
Ġ R
Ġa l
Ġs u
Ġ :
Ġ H
it h
Ġn ot
Ġa g
u re
Ġw h
i f
r a
Ġs t
er s
n o
Ġ he
c i
Ġn e
Ġc an
e l
ro m
le ar
t t
Ġw ill
t h
it y
an t
Ġw ith
e m
Ġs h
i es
Ġf rom
Ġ C
uc lear
Ġha ve
a p
Ġe x
w w
i v
a m
or t
Ġthe ir
e ct
a re
u s
i ve
Ġ '
u n
d ing
Ġc om
ĠI n
g e
Ġ M
e ch
Ġ F
es t
u m
act or
a d
p en
t her
ig h
Ġ im
Ġw or
o ver
Ġs o
Ġb y
ou nt
Ġg en
at e
ld er
lo p
Ġ 1
c ess
f f
ve lop
Ġm ore
o st
ech no
echno lo
ic al
k e
Ġim p
Ġo r
Ġ N
e op
ig n
Ġde velop
ic h
eop le
ĠT h
d u
Ġ P
a c
p p
Ġn uclear
Ġre s
Ġ /
an ce
e re
tt p
Ġ/ /
p er
Ġh ttp
as t
Ġwh ich
Ġp eople
Ġh as
Ġd is
a in
Ġ W
Ġe lder
Ġt echnolo
Ġ r
Ġsh ould
in e
Ġ B
s o
Ġ200 9
Ġthe y
o s
Ġc h
q u
b l
Ġelder ly
Ġ O
Ġin c
Ġth is
r y
om e
over n
Ġ E
Ġc ount
Ġ G
Ġu s
overn ment
is t
as e
an d
Ġd es
c on
er gy
ul t
ci al
Ġ "
v ed
Ġp l
Ġg overnment
ble m
u e
c c
Ġs a
a ble
Ġal so
Ġpro blem
et y
Ġre actor
Ġa d
e ver
b er
g h
Ġw e
o d
Ġo ther
Ġsu ch
Ġdes ign
Ġcom p
Ġtechnolo gy
Ġ D
Ġin t
on e
Ġw he
Ġpro cess
Ġ lo
p t
Ġ y
ou r
Ġne ed
Ġp re
al th
u bl
at ed
Ġwor k
ww w
Ġen ergy
i al
ow er
ar t
et ic
Ġthe re
ou s
Ġs e
ubl ic
Ġu n
on g
i re
Ġdevelop ment
Ġa b
id ent
e w
ou t
v ent
c es
Ġm an
ul ation
u al
ing ap
f or
ingap ore
Ġ v
ow ever
id e
Ġhe l
g ine
ĠTh is
er ation
Ġm ay
Ġm a
ar ch
e f
i z
Ġthe m
Ġcon t
ĠS ingapore
er n
en ce
op ulation
ĠH owever
Ġw ould
ion s
Ġe ff
c om
Ġs pen
igh t
Ġag ed
Ġhel p
con om
Ġ V
du ct
e ved
Ġc ost
Ġp ublic
a ge
Ġ L
d er
Ġd o
el l
Ġ le
Ġp ower
i a
Ġhe alth
Ġa t
Ġcount ry
Ġres ult
s s
at er
Ġre se
d s
et ri
Ġsa f
Ġp opulation
a u
il y
Ġon e
Ġinc re
le ct
Ġe conom
Ġt a
ĠR etri
y st
f ore
Ġen gine
Ġa cc
Ġag ing
ĠRetri eved
ver y
yst em
Ġs ol
Ġspen ding
r ic
an s
Ġgen etic
e ar
for m
Ġ k
at ure
Ġc ar
ation s
u d
d it
Ġw as
au se
Ġf in
Ġp ol
Ġbe c
ĠThe re
Ġne w
Ġ U
Ġin d
Ġu se
v en
c y
i ent
Ġrese arch
Ġcon c
p e
Ġh igh
Ġe m
re at
u st
a b
Ġpro duct
ro u
ĠS e
al l
il ity
Ġ ]
Ġ [
Ġman y
Ġthe se
Ġt est
Ġu p
Ġs ystem
Ġre l
Ġwh o
Ġit s
ĠA s
Ġbe en
h t
im e
ar y
Ġ %
er ing
Ġsu pp
t er
a g
k ing
d uc
Ġs ur
Ġm ed
ĠI t
Ġf am
Ġ ra
il d
iv es
Ġp er
Ġag e
a ce
ht m
Ġ J
Ġo ut
r u
p le
ou gh
Ġt ra
Ġon ly
Ġs ome
T R
Ġreactor s
Ġcon s
Ġm e
v ing
Ġproblem s
Ġf un
ĠV H
Ġab out
s i
ĠVH TR
Ġ =
Ġb ut
ĠF or
Ġpol ic
Ġal l
Ġl if
ou n
i ke
im it
p lo
Ġth an
Ġy ear
no v
re n
Ġ if
Ġpro v
Ġc ould
Ġc are
n ow
Ġwhe n
Ġpl ant
i le
ar d
Ġ1 9
ci ety
ri es
ere n
if f
ay s
I D
i p
it ies
Ġso cial
Ġsaf ety
E R
Ġl imit
I N
Ġr is
iv id
Ġex am
um an
Ġm ost
Ġe lect
Ġgen eration
Ġimp ort
Ġa r
Ġacc ident
Ġ2 0
Ġin nov
g er
or s
al ly
o ol
p ect
ivid ual
Ġt ime
Ġus ed
Ġsupp ort
ĠG en
Ġa m
Ġo ur
Ġd iff
en cy
u ch
Ġind ividual
Ġso ciety
ment s
lo w
Ġp os
Ġbec ause
i e
ĠThere fore
o lo
Ġk now
p ort
Ġw ell
P ER
Ġo ver
one y
u el
F ID
L IN
ĠH Y
Ġwor ld
PER LIN
ĠHY PERLIN
ĠHYPERLIN K
en ef
Ġis s
ac k
Ġ j
Ġ ed
ir st
Ġfam ily
Ġint o
Ġ {
Ġ }
Ġdis c
Ġl ike
Ġb enef
rou gh
Ġg o
ĠR FID
dit ion
Ġimp ro
o se
Ġm oney
ut ure
Ġa pp
en s
Ġin v
Ġde c
ro w
ĠO n
it e
Ġl ong
Ġad v
ĠN uclear
Ġch ild
Ġb u
i o
s y
t ain
ur ther
Ġa ct
Ġ ?
ation al
ĠA l
Ġed uc
Ġcom m
Ġa ble
Ġin form
Ġcount ries
Ġincre as
ur re
ĠR e
Ġdis e
re ss
Ġh uman
Ġf uel
ĠC h
em ber
Ġf uture
p l
if ic
ĠO ct
at ive
i ous
a il
Ġexam ple
Ġeconom ic
ers on
Ġlif e
en d
du ce
Ġelect ric
Ġyear s
Ġn o
Ġ very
plo y
tt er
ru ct
Ġp art
Ġst ill
ĠSe pt
o ber
Ġ200 8
Ġd ue
Ġin st
in d
o b
Ġeff ect
Ġbe ing
Ġbe tter
Ġbenef it
Ġm ain
Ġengine ering
Ġma ke
at ing
sy ch
Ġimport ant
Ġ 3
em per
emper ature
ir on
or g
Ġm uch
re e
i um
sych olo
htm l
v iron
f ul
e p
2 00
ĠSept ember
ĠA n
Ġo per
Ġw ere
Ġgen er
ĠW ith
g o
Ġo ld
urre nt
Ġre qu
g ra
ic s
Ġt r
ĠE n
viron ment
Ġ ro
Ġtechnolo g
Ġg row
Ġe ven
Ġre t
ut ion
ĠOct ober
g en
un d
Ġmed ical
Ġh is
Ġpre vent
Ġc r
c he
at es
Ġchild ren
c are
Ġ 4
ve ill
c k
Ġeff ic
veill ance
Ġtest ing
er m
our ces
Ġpolic ies
o ve
Ġeduc ation
Ġf e
Ġs er
Ġ K
ow n
Ġincre ase
Ġris k
p h
or y
Ġa tt
Ġa ff
Ġlo w
Ġinform ation
as es
u es
c ed
Ġp ri
Ġf actor
v es
Ġw ast
Ġen vironment
Ġneed s
ri b
Ġp h
ĠI V
Ġare as
am e
are nt
in ce
ic e
Ġfin an
Ġan y
us ion
g et
Ġun der
Ġ qu
Ġs p
Ġch an
ad e
ĠS t
ĠTh us
Ġc urrent
is e
Ġrequ ire
ur ing
Ġconc l
ĠR ef
i ver
ot her
Ġp sycholo
Ġ200 7
Ġp erson
se l
t ed
Ġp at
Ġm ight
Ġl ar
ent s
a ch
ĠRef eren
Ġresult s
Ġl ess
Ġconc ern
p d
Ġengine ers
Ġse c
ĠH ence
as s
f ter
ĠU n
ew s
ual ly
ce pt
o c
on s
Ġ 6
Ġfinan cial
c ent
Ġem ploy
Ġex pen
o k
at ives
Ġ 5
Ġth rough
Ġcons id
Ġra d
t en
Ġf ac
pd f
it al
t ing
a k
ent ial
Ġa c
Ġam ount
Ġta ke
Ġhealth care
Ġt w
duc ed
w n
Ġpos si
j ect
are d
Ġsur veillance
Ġcomp an
Ġimpro ve
t s
s ure
pe cial
ag es
Ġplant s
Ġe very
id es
Ġ200 4
go v
Ġbu il
ar k
Ġsu b
arent s
r ing
Ġw ay
Ġad dition
l i
Ġwast e
Ġle ad
le ment
Ġex t
b ility
Ġin f
ur ity
Ġconcl usion
s ion
iv ing
Ġ ;
Ġc a
Ġdise ase
ac y
w e
ot h
Ġinv est
Ġar g
Ġde f
Ġeconom y
Ġpat ient
Ġg et
er r
e x
Ġlimit ed
Ġc re
Ġn ow
ur n
Ġy oun
g ing
Ġtw o
Ġwhe re
Ġm ade
Ġe as
Ġt emperature
Ġwork ing
Ġrel atives
Ġin vent
ĠP ro
l es
ater ial
pen d
ĠB ut
Ġcont rib
Ġ200 5
Ġpri v
Ġca us
r act
Ġprov ide
Ġf act
ical ly
n ess
p ro
ic es
Ġal low
b y
ve l
an n
Ġc it
y s
Ġelectric ity
Ġlar ge
p on
or ding
m ore
ure s
Ġor der
ĠCh in
Ġp arents
Ġcon st
Ġh and
Ġth ose
v i
Ġret ire
ist s
ere nt
Ġw ater
Ġimp lement
Ġiss ue
Ġde m
Ġdo es
Ġdevelop ed
lo b
Ġcar ri
Ġm in
ar m
Ġh ig
th ough
Ġha d
ĠM ore
Ġp o
Ġincreas ing
con d
Ġe ar
our ce
ool ed
m e
er tain
Ġdiff erent
Ġinnov ation
ic le
el f
Ġm aterial
Ġ ke
Ġd et
ion al
Ġbenefit s
ĠReferen ces
ut ions
Ġth us
Ġ19 9
Ġsec urity
Ġre as
ĠF urther
iz e
Ġtechnolog ies
Ġ &
ĠA cc
ĠF irst
Ġre duce
ĠT o
Ġe ase
Ġst ud
Ġf irst
im in
ĠGen eration
w or
et h
Ġen sure
Ġfactor s
ĠI nt
b ers
Ġa fter
Ġres ources
ere d
i ency
Ġs ign
Ġus ing
Ġaff ect
Ġs ince
l ess
Ġiss ues
l ed
in k
Ġgrow th
Ġ Y
Ġg reat
ĠFurther more
Ġs im
d en
Ġ200 6
Ġhig her
Ġex per
Ġproduct s
Ġs ci
Ġb oth
Ġof f
Ġ es
Ġen c
ut e
ent ion
lob al
Ġm em
Ġre g
Ġo pp
os p
Ġd uring
Ġc l
im es
ff ic
ou ra
Ġtr ans
s g
Ġt erm
in t
ĠRe actor
Ġo b
Ġage ing
Ġcomm un
Ġgo od
Ġn um
e ad
Ġs it
ĠOn e
a w
Ġ ide
Ġa v
Ġpsycholo gy
Ġs k
or d
ro und
Ġrad io
Ġf urther
F R
Ġb as
ĠThe se
ĠC om
ab ility
Ġj ust
du st
Ġc o
ĠI f
Ġo wn
Ġh ow
Ġwith out
g es
Ġl iving
Ġeffic iency
r it
pecial ly
ĠS o
Ġin s
il ities
iv en
Ġo lder
Ġpro t
ĠThe y
he n
Ġs ame
Ġr ight
ĠChin a
Ġg re
Ġbec ome
Ġcomp ared
l u
p os
Ġf ast
Ġc ause
Ġg as
ĠW e
ar ds
v ices
l er
d e
Ġretire ment
Ġh y
Ġs m
Ġp ot
rou p
Ġb ur
Ġpriv acy
re d
oun d
ve al
Ġsol ution
Ġfun ds
Ġm ark
Ġb ring
ĠH e
Ġwhe ther
Ġdem and
ill ion
Ġes pecially
d ro
iv ity
Ġin dust
ĠMore over
is h
d ay
Ġc ertain
Ġaccident s
Ġc ap
Ġre veal
Ġsaf e
Ġpossi ble
Ġpot ential
ul ar
Ġcont ro
Ġmem bers
o g
Ġre f
Ġst r
Ġres pon
it ed
ĠW or
Ġv i
Ġcont in
Ġbe fore
her no
Ġcit iz
Ġas s
ie ld
Ġenc oura
Ġprov id
herno by
Ġt reat
sel ves
Ġcost s
Ġtra ck
Ġbuil ding
Ġ1 0
hernoby l
Ġwork ers
n ews
ĠD e
ific ant
Ġm ust
ĠAl though
Ġpolic y
Ġindividual s
ĠEn ergy
Ġne g
Ġm on
Ġc ase
osp ital
Ġdevelop ing
Ġse e
Ġsh ow
Ġre m
Ġfun ding
Ġc he
l ic
Ġm od
err or
Ġexper i
iz ed
e e
ire ct
p pen
Ġha ppen
Ġ her
Ġcompan ies
Ġmark et
Ġr un
ĠAcc ording
Ġthem selves
ruct ure
it ion
Ġl ives
i ed
m er
r ast
Ġme ans
gra m
Ġexpen s
dro gen
Ġha ving
Ġcom e
Ġle vel
Ġinnov ations
Ġsign ificant
ĠR es
Ġde pend
echnolo gy
Ġeffect ive
Ġs ect
Ġwh ile
r on
ĠInt ern
re s
Ġsh ort
a v
Ġre al
ĠW h
Ġpre ss
1 0
Ġto o
Ġne cess
Ġd own
in ist
Ġsol ve
j or
Ġr ate
Ġme et
Ġthe n
Ġd iver
se qu
Ġj ob
Ġs et
Ġv ar
ĠSe cond
Ġta k
Ġo cc
Ġlo t
ie ve
Ġc ool
Ġf ail
Ġcitiz ens
Ġag ain
Ġper form
ĠGen etic
Ġpatient s
Ġbur den
is ion
Ġwh at
Ġapp ro
act ive
ud get
Ġg lobal
uc cess
Ġ 8
Ġbe t
Ġch o
Ġsol utions
Ġpro m
Ġcarri er
ĠC hernobyl
we en
k s
re ad
ant ages
i k
Ġbet ween
ĠS ome
Ġprocess es
Ġma jor
Ġsit u
t he
it ive
ffic ient
Ġp ur
Ġas pect
W R
Ġp ay
Ġpro duce
Ġarg ue
ic les
Ġre c
ra in
Ġdise ases
ail able
Ġnum ber
Ġs ource
Ġ 9
ĠBut ler
es ides
at her
Ġprot ect
Ġf ew
Ġg roup
Ġcons um
Ġmaterial s
is m
a ir
Ġl ack
s id
Ġ ident
t y
Ġd one
Ġe qu
Ġa round
Ġimp act
Ġt e
ant s
Ġknow n
ri end
Ġ200 3
Ġint ro
an ced
t ern
Ġfor m
Ġex pect
ĠM ed
os s
Ġeffic ient
g ical
Ġs ay
ud e
Ġp ut
Ġs che
Ġf ace
n uclear
Ġsm all
Ġrespon si
ĠFirst ly
Ġ 7
all en
g an
Ġcon cept
ĠWor ld
Ġs uccess
Ġth ough
Ġpro f
00 0
i or
Ġab ove
Ġ $
g ed
Ġc reat
200 9
Ġcaus ed
er t
is sion
Ġan other
ĠSecond ly
5 0
Ġf ul
Ġs pe
Ġdisc over
Ġlong er
Ġto day
o od
p r
Ġd a
c ooled
Ġhy drogen
Ġ ve
ill s
Ġper cent
oc us
for ce
Ġpre s
Ġdef in
ou se
Ġke ep
Ġs en
ate ly
c al
Ġst and
ĠM an
ĠS C
Ġcar s
t op
ur al
Ġconst ruct
ol l
ĠB esides
elf are
Ġh ospital
Ġo bl
Ġen ough
i ble
Ġth ink
Ġpro ject
iz ation
Ġ ess
oss il
Ġ ent
Ġsa ving
riend ly
Ġobl ig
Ġ *
Ġt urn
at ter
ĠSC WR
w ays
Ġinst ance
Ġve h
P F
ic ult
led ge
Ġsci ent
Ġcontro l
Ġf ocus
ĠN ew
Ġdiff icult
m al
l and
Ġsystem s
Ġyoun g
Ġfin d
Ġa w
Ġb o
Ġvar ious
Ġfe el
Ġradio active
n ing
Ġw elfare
en ces
Ġc ent
Ġp ast
it able
Ġsitu ation
Ġg iven
Ġc or
Ġinc l
Ġincreas ed
. .
Ġ ill
Ġreas on
Ġph ys
Ġtra in
Ġinv ol
c er
Ġam ong
Ġ +
eth od
at ors
Ġproduct ion
in ess
Ġf ossil
Ġnecess ary
Ġtak en
ur ance
Ġb udget
Ġmin im
i x
Ġpro per
r imin
ĠAn other
Ġst ep
Ġpl ace
Ġp ass
Ġgovernment s
Ġs al
is ing
al ity
Ġal ways
Ġm ethod
Ġst art
Ġsub sid
i er
ĠB y
Ġint er
Ġt y
is ed
il it
duc ing
Ġt error
Ġhelp s
a bl
ic k
ĠEn gine
Ġser ious
Ġyoun ger
ĠA d
ed u
Ġe vent
a ve
Ġother s
Ġinst ead
est ing
Ġt ell
Ġa ch
Ġpress ure
Ġspen d
Ġeffect s
ĠHe alth
it t
ap an
f t
Ġcomp et
ort un
ĠC PF
l ing
Ġare a
Ġsol ar
ĠU S
Ġtechnolog ical
Ġb est
Ġhe at
Ġn ation
Ġlow er
ous ing
al s
ĠJ apan
u g
it s
if y
ech n
Ġma k
an ger
ir d
Ġrese ar
Ġme as
ĠUn ited
Ġac cess
Ġe ach
Ġlo ok
iver s
2 9
a f
il ar
ĠM inist
Ġmed ia
Ġneed ed
Ġwork force
Ġa ut
c o
ĠD es
Ġterm s
ic t
ĠC on
Ġim m
Ġb ack
in f
or der
Ġknow ledge
Ġagain st
Ġ -
ĠN ational
Ġv al
b r
ĠT echnology
Ġch allen
Ġwho le
Ġf ore
er y
Ġcon f
ĠC ent
Ġeff ort
so ci
Ġex plo
Ġ ur
Ġre cent
Ġpro gram
i an
r al
Ġl ive
Ġp r
pt ion
Ġma king
ex t
ĠIntern ational
u b
ing s
Ġcommun ic
Ġfin al
ĠCom m
at h
Ġcon vent
Ġexpen dit
Ġa id
Ġal tern
Ġy ou
Ġta g
Ġinc ome
Ġ19 8
Ġconsid er
Ġimplement ed
2 0
o id
Ġre ce
Ġadv ance
4 0
Ġex ist
Ġcomm on
Ġ est
an ces
Ġe v
Ġsp ent
Ġperform ance
Ġbe l
Ġ200 2
Ġstr ong
st ain
velop ment
Ġcon sequ
Ġdis order
b ot
ed ia
Ġtrans port
Ġfam il
Ġinf rast
Ġd irect
ar ing
ent ly
Ġcr it
Ġ2 3
Ġsu stain
Ġbu ild
Ġcompan y
Ġ1 5
vi ew
Ġp ract
Ġav ailable
Ġro le
Ġsa ve
Ġa ir
Ġan al
Ġad d
Ġhelp ed
Ġof ten
ĠW hen
Ġ200 1
ad ays
Ġind e
Ġconcern s
Ġb ig
3 0
Ġg ra
ann ed
Ġindust ry
Ġpo int
p ite
in es
on ents
Ġvi ew
g ress
w ards
Ġpro duced
Ġpl ay
Ġmain tain
Ġfac ilities
c king
Ġc lo
s ing
Ġfuel s
Ġchan ge
l ine
od y
he d
Ġre act
Ġen h
ever al
Ġgre en
Ġtreat ment
n e
n ce
o ld
ĠIn st
Ġh ard
Ġgener ate
Ġocc ur
Ġf ield
Ġcontrib ut
us iness
Ġfun d
Ġf l
Ġm ention
Ġhe nce
a im
g est
Ġs c
ific ation
an g
Ġwith in
Ġoper ating
Ġser vices
ĠS ince
Ġdisc rimin
e arch
Ġre le
Ġre st
v ice
Ġre port
Ġor gan
Ġpl an
Ġf ound
Ġst ate
duc es
u ge
c le
Ġfe ature
read y
Ġarg u
t e
Ġm y
as p
Ġco al
n er
Ġta x
g ency
S R
Ġw ant
Ġw ays
Ġcre ate
Ġcool ant
Ġal ready
Ġsu ff
Ġreas ons
Ġcl aim
Ġh uge
ist ics
ger y
Ġact ually
Ġgener ated
Ġs everal
ri ed
at or
Ġcon dition
ap er
arm ing
rit ical
ar s
Ġne ar
ap top
ĠRes earch
c ing
per c
Ġre duced
Ġpre p
ob ile
o f
Ġadv antages
Ġstud ents
Ġatt ention
Ġd anger
Ġbuil t
1 1
on es
Ġrel ative
Ġon es
Ġcomp le
Ġqu ality
ĠMan y
w ik
Ġfun ct
Ġaff ord
Ġadv anced
Ġcre ated
Ġsect or
Ġfamil ies
Ġd id
b o
Ġbe com
v ious
Ġs ources
it or
Ġto wards
Ġ1 6
ĠDe velopment
Ġoper ation
ron ic
is s
Ġperson al
h ip
Ġide a
Ġdiver ted
Ġta king
Ġconstruct ion
Ġmention ed
Ġm illion
Ġact iv
Ġaspect s
at ural
Ġpart ic
Ġt echn
Ġg ive
Ġess ential
Ġl aptop
Ġrequire d
Ġext ent
Ġexpendit ure
Ġl aw
Ġph one
ĠI s
Ġprovid ing
Ġinfrast ructure
as ed
ĠS FR
Ġde al
ĠL ast
u p
Ġthere fore
Ġneg ative
ĠAn d
b s
Ġp ric
Ġh ome
ab ly
Ġill ness
Ġmak es
h i
Ġo il
Ġwe ap
ĠA ug
b on
if ied
Ġdesign ed
Ġsk ills
Ġins urance
p ri
Ġab ility
Ġtr ue
x t
an ium
Ġ1 2
sel f
or ity
Ġl ight
Ġdec re
Ġl ab
Ġro bot
Ġsaf er
Ġeas ily
ĠH igh
n et
Ġth reat
ĠV ery
i qu
Ġb re
Ġh ousing
Ġdet erm
at a
an ding
ĠA t
Ġse em
Ġresponsi bility
Ġmeas ures
re qu
ĠAl l
Ġsim ilar
Ġexpens ive
Ġsche me
ilit ary
p ut
lo c
Ġbas ed
Ġass ist
Ġsu m
Ġwh y
ĠG overnment
perc ritical
p or
he re
Ġh arm
Ġen d
Ġac cept
Ġdiscover y
m es
Ġr ather
Ġear ly
Ġencoura ge
e c
Ġg u
Ġav oid
Ġintro duced
t icle
ĠIn d
Ġcontrib ute
Ġus age
Ġt al
ĠA ging
ĠM ay
pl ace
mer ic
Ġd ou
ĠP et
Ġacc ount
r ig
Ġc all
Ġn or
ĠM SR
Ġ1 3
Ġcontin ue
Ġc ore
Ġ1 1
ere st
Ġus ually
Ġactiv ities
Ġd ay
ĠS ur
Ġsu fficient
Ġgeneration s
Ġscient ists
ĠMinist ry
is es
Ġcomp ut
0 9
m ost
o y
Ġst age
Ġdis t
Ġimport ance
Ġne xt
ĠN ature
Ġconsid ered
ĠA meric
Ġpos itive
rough t
Ġallow s
p art
Ġmed ic
Ġaltern ative
Ġc le
c ome
Ġb rought
dit ions
gra ph
ic ial
Ġcon ven
Ġimp l
ĠAl so
p id
Ġs low
ivers ity
d own
Ġto t
f act
e g
ĠA fter
her s
Ġconvent ional
our n
Ġenvironment al
Ġb anned
Ġin it
Ġm ove
ĠP ower
ist ory
Ġunder st
s p
s ed
Ġs ix
Ġme an
Ġrad i
Ġide as
Ġm ilitary
Ġda ily
Ġpro gress
ĠSingapore ans
Ġapp lic
Ġexpens es
Ġsaving s
Ġth ree
ĠP ublic
Ġhigh ly
Ġphys ical
d ip
an ge
ol ten
eren dip
Ġbas ic
Ġw arming
Ġha m
Ġpol l
Ġcommun ity
Ġw ide
Ġl ast
ir th
d oc
l l
Ġ ut
Ġn atural
Ġdis ast
g ies
Ġb illion
Ġle ast
Ġra pid
ĠReferen ce
ĠEngine ering
Ġus ers
e es
Ġbe h
Ġg r
art icle
Ġrequire s
ci ence
Ġrel ated
Ġimpro ved
e v
Ġc lear
0 7
Ġt ry
at istics
ad es
Ġlike ly
Ġgrow ing
ĠA ct
Ġch ance
ite ly
Ġc am
Ġdec ision
Ġpres ent
p ower
Ġn on
ant age
ĠF rom
Ġint ern
pl es
Ġcon ditions
Ġhealth y
Ġris ing
Ġproduct ivity
Ġjob s
Ġcle an
Ġde vices
Ġfail ure
Ġ err
op e
ĠE ven
ĠSt ates
Ġinf lu
Ġbel ieve
Ġprom ot
Ġdesign ing
Ġrel i
Ġfeature s
ĠP eople
Ġtra cking
eren ce
Ġconsid eration
Ġsci ence
h and
Ġs erendip
Ġf ol
Ġman age
ĠAug ust
o h
Ġsur gery
Ġprovid ed
Ġwhe el
u ro
un k
Ġopp ortun
Ġsuccess ful
en ds
Ġc ut
Ġre ally
Ġcan cer
Ġem er
p ress
at s
Ġpsycholo gical
Ġinvent ions
Ġequ ip
Ġb irth
Ġad op
Ġmon itor
Ġdiscrimin ation
re en
Ġchan ges
Ġinvent ion
Ġdefin itely
Ġal loc
ad v
ip edia
Ġgreat ly
Ġt end
Ġne ver
ĠF in
Ġ6 5
p in
Ġn ational
Ġgre ater
u k
Ġe l
Ġcho ice
Ġerr ors
it ous
Ġmod ern
ĠS h
bo ok
Ġuse ful
Ġthe r
Ġpro b
Ġsh are
Ġdesign s
Ġse en
Ġrem ain
Ġpl ac
Ġint erest
ourn al
l if
Ġst ress
Ġ5 0
ar ri
Ġ1 7
ĠS ystem
Ġemploy ment
Ġconsequ ences
Ġpartic ular
Ġ lear
Ġ200 0
ĠR og
Ġdevelopment s
Ġdisc lo
Ġfore ign
a h
m an
Ġcar bon
Ġget ting
Ġstand ard
Ġaw are
Ġadd ress
Ġb ody
Ġ2 5
Ġse cond
Ġact ive
Ġsub st
Ġcaus es
Ġveh icles
ĠE x
Ġk ind
ĠN ow
he s
Ġf riendly
at ory
Ġm ent
Ġ1 4
af ety
1 2
Ġs elf
Ġc y
Ġh um
Ġto p
Ġm obile
cy c
wor ld
Ġty p
Ġs he
Ġus es
Ġach ieve
Ġ 0
ens ion
h ouse
i bility
t o
Ġc ases
Ġsupp ly
Ġexperi ence
Ġs om
s er
Ġcon duct
Ġhe art
Ġhel ium
Ġmain ly
Ġstud y
Ġrelative ly
Ġradi ation
ĠRog ers
Ġp ar
ĠS u
ap p
Ġacc ording
ann ing
e b
Ġ1 8
Ġup gra
ten ance
Ġsignificant ly
p ose
t on
Ġpossi bility
3 3
Ġf ar
et s
ed i
Ġh im
ld ers
Ġde ath
Ġpre d
Ġf ood
Ġhospital s
Ġcommunic ation
Ġe th
Ġaffect ed
Ġref rig
at t
Ġad ult
Ġlo ss
ĠUn iversity
Ġdet ect
the less
Ġincl ude
Ġch ar
j oy
en ced
form ation
in ed
ver s
1 9
Ġg ases
Ġshow s
ĠWh at
ur y
uc ial
Ġaut om
s c
es e
Ġen joy
un e
Ġle a
Ġsubsid ies
c hers
ut h
Ġright s
Ġur anium
Ġexist ing
Ġag ree
ist ic
inf o
Ġt imes
it ute
Ġl ater
Ġcr ucial
n el
Ġdo ing
Ġ3 0
Ġemploy ers
Ġb usiness
ĠA ge
ag ing
i od
an i
an k
Ġm or
Ġon ce
ol ic
Ġsh own
che s
Ġpric e
Ġsh ap
con t
Ġserendip itous
u fact
Ġprov ides
Ġprevent ed
Ġsa id
Ġatt ract
li ed
Ġopp os
Ġneg lect
Ġo pin
Ġre ad
ĠN ews
in king
Ġf il
Ġke y
Ġdepend ency
Ġd am
Ġsu g
duct ion
g in
Ġdec ades
ove red
Ġatt ack
Ġqu ite
Ġspe c
Ġchallen ges
Ġhum ans
Ġs pecial
ĠN ever
Ġcar ry
Ġemploy ees
x ide
or k
port s
Ġut il
& _
Ġcom b
get her
Ġsect ors
Ġinc ident
Ġexpect ed
Ġrece ive
' t
Ġcontin u
Ġrefrig er
u se
is on
el t
pro cess
Ġveh icle
Ġfol low
or n
Ġprof ess
Ġp ort
ch ool
ut on
Ġconcern ed
Ġident ify
Ġevent ually
f riendly
Ġem ot
Ġimpro ving
Ġfac ed
ĠWh ile
Ġadvance ment
1 3
Ġc ell
Ġl and
itt le
ĠNever theless
Ġcom es
Ġman ufact
Ġdemand s
Ġma ch
ĠI d
ĠE lect
Ġdisc us
Ġfac ing
wor ks
Ġinde pend
uton ium
a vi
Ġper iod
m s
Ġth ings
est y
ĠTh ree
Ġlo c
an cy
Ġris e
Ġweap ons
Ġo pen
Ġm is
Ġgen es
ĠE duc
Ġst ructure
o graph
r ation
Ġm ult
Ġn et
Ġre ducing
ĠCom p
in ation
as h
Ġcon ver
ri ends
Ġal most
Ġstr ate
Ġinvol ved
x im
on d
id ence
Ġst ay
Ġadv antage
Ġincreas es
Ġconcept s
Ġtag s
d ium
n ew
Ġb atter
Ġth ird
Ġg ain
ph as
ĠDes ign
ĠP l
Ġsen ior
l t
m ber
Ġf all
om es
ĠP opulation
Ġpol it
Ġconst ant
Ġsug gest
Ġs at
Ġresult ed
Ġlif esty
200 8
uro pe
1 4
Ġf riends
ĠF und
Ġinvest ment
hi b
c a
Ġc at
Ġd ri
ĠA pr
Ġevery one
ĠLast ly
Ġcomput er
f er
Ġa im
Ġw ar
p s
Ġb lo
Ġqu est
Ġtransport ation
Ġe t
em ploy
Ġdis adv
pect ive
Ġ199 9
Ġda wn
Ġoblig ated
Ġgreen house
Ġh owever
Ġre ach
ĠB o
7 0
sycholo gy
Ġham per
ar ding
ly ing
Ġwork s
Ġther mal
i ence
is is
Ġ2 9
ĠA r
Ġst op
Ġso dium
Ġresear chers
ore d
ĠCent ral
Ġre place
Ġhe av
Ġdou b
y ing
er al
en g
Ġf ree
Ġfor ce
ĠE conom
our s
Ġgo ing
wor k
Ġimpl ant
b e
art icles
ĠPro v
Ġshort age
Ġ2 1
ĠK hand
c l
en se
Ġo pt
Ġw ind
it her
ĠS afety
Ġcam er
Ġt re
Ġm ass
Ġl ittle
ĠAs soci
Ġimprove ment
Ġcap ital
Ġem phas
Ġreveal ing
Ġp op
o king
Ġsk unk
pos ed
2 5
I O
Ġd ata
Ġinnov ative
io xide
Ġsal t
Ġanal y
ĠPet erson
ĠEduc ation
ĠApr il
ĠKhand ani
- -
Ġal though
pp ed
Ġmethod s
ĠAd v
Ġsuff er
is hed
ĠL ee
Ġenh ance
Ġt ar
Ġst e
ĠF ast
Ġbenef icial
Ġnow adays
Ġeas ier
og n
ĠIs land
Ġwide ly
Ġw r
Ġf ear
Ġe lders
Ġwor ry
Ġpl anning
ip s
ro ad
Ġre cyc
im ate
ĠIn formation
ud es
iven ess
a king
f ort
ill ed
lu ding
I F
om en
ĠT emperature
iv ed
ab y
Ġpri ority
requ ency
1 5
a ke
Ġb urn
Ġto gether
Ġgener al
Ġte am
ri al
Ġun able
Ġinvent ed
Ġimm edi
T A
is f
ĠTh ird
Ġcit ed
Ġhappen ed
Ġin her
Ġin ev
Ġm ind
Ġy our
ident ial
Ġtot al
Ġmanage ment
u ly
Ġh ouse
Ġpl utonium
Ġk in
Ġpo or
ĠN or
ire d
ph p
Ġob ject
Ġoper ate
Ġpur pose
Ġdanger ous
1 7
i ety
Ġs chool
Ġwill ing
ĠM ile
Ġwe ak
Ġoper ators
Ġeffective ly
Ġful ly
Ġdecre ase
ĠE urope
urre d
Ġlar ger
Ġtechn ical
Ġseem s
Ġfil ial
G en
l ight
or ies
Ġre process
ve re
lder ly
per t
ĠO pp
Ġar ticle
Ġcr isis
Ġunder go
ĠIntern et
asp x
Ġopin ion
Ġtar get
ou th
Ġpro s
ĠO ther
Ġdes pite
Ġsche mes
u nt
w h
ĠM e
dition al
ĠY ork
Ġpoll ution
m ed
w ard
Ġd ia
Ġcurrent ly
Ġclo se
Ġillness es
Ġcall ed
t ion
re me
Ġf ert
ĠH uman
Ġinc luding
ind ex
Ġche aper
ĠInst itute
l ike
ro ss
Ġit self
Ġopp onents
ord ers
Ġbring s
ĠComm un
Ġ198 6
Ġmedic ine
p ly
Ġf ive
il es
6 0
Ġan t
ĠM ost
ĠJ une
Ġsp ace
ĠDes pite
as ing
ĠP ress
ĠD ue
Ġproject s
Ġty pe
Ġappro ach
Ġpop ular
d o
n ature
Ġlimit ing
Ġbre ak
Ġopportun ities
Ġcy cle
Ġd ioxide
ĠS uch
Ġde b
ri v
Ġres ource
ĠJ uly
ĠNow adays
Ġlifesty le
ĠFor um
ĠSo cial
Ġoblig ation
S t
Ġcont ain
Ġext reme
Ġpriv ate
Ġmon th
Ġeffort s
ĠSur veillance
Ġc over
Ġh istory
Ġas soci
Ġdisc overed
Ġimplement ation
Ġnor mal
lif eration
ĠT imes
Ġr ates
Ġrec ogn
D B
Ġ2 8
ĠL FR
Ġbecom es
Ġbeh avi
Ġmor al
Ġmult i
Ġsat isf
Ġgen e
ab or
che d
ĠProv ident
Ġn ur
Ġpro ced
a z
w ay
ĠA m
art ment
Ġapp lied
Ġprogram s
cont ent
2 40
C ooled
Ġb al
ad s
Ġlo cal
si ble
Ġeth ical
d ed
Ġm ist
Ġdo ct
Ġfin ding
Ġinst all
Ġfe as
Ġsec ure
2 3
6 5
r ate
at ic
Ġe ither
Ġre duces
Ġrisk s
Ġob tain
Ġful l
Ġspe ed
y m
Ġwor th
ĠN o
Ġy et
Ġcomm er
Ġdisast er
Ġd ra
Ġde vice
Ġwor ds
iz ing
Ġtra vel
Ġdet er
Ġaw ay
i et
el s
ĠW il
Ġem ission
Ġtyp es
n ect
ĠS cience
ter m
Ġgener ating
Ġ4 29
Ġcho ose
Ġanal ys
Ġemer gency
Ġc oll
Ġm atter
Ġde g
ĠC an
Ġcom fort
ĠB e
Ġinc ent
Ġse lect
Ġle ak
ep artment
200 7
Ġte le
Ġcontribut ed
Ġs ing
Ġp p
ĠA v
Ġsu per
Ġprotect ion
Ġinit ial
Ġsu itable
Ġm et
Ġd est
Ġpro duces
Ġmain tenance
Ġconsum ers
ĠAge ing
d es
Ġa ver
in s
Ġc ol
Ġm ot
Ġimp os
Ġhelp ing
ru g
Ġdec ide
Ġappro pri
Ġpract ical
Ġequip ment
Ġc ir
is ions
ow ered
ĠN ot
Ġse vere
Ġ6 0
ĠMed ical
wik i
Ġcommer cial
he alth
Ġpl ays
Ġc ope
ĠP sychology
Ġpre vious
li er
Ġcent ury
Ġcomple te
Ġto ol
ĠM al
Ġad ver
wik ipedia
Ġment al
Ġprofess ional
Ġm olten
Ġpro ducing
ĠAs ia
Ġ23 8
f id
h igh
Ġ id
Ġp ers
Ġu nt
ci es
Ġv ia
Ġproduct ive
Ġconsum ption
Ġb r
ĠS um
ĠO r
Ġtra ditional
Ġmin ds
Ġtreat ments
in ts
Ġp ension
is c
Ġl ed
ĠD epartment
end ed
Ġfinancial ly
Ġreg ard
in al
re ct
we igh
Ġtrain ing
itt ee
Ġest abl
Ġrapid ly
u ments
u fficient
pen ding
Ġtest s
Ġterror ists
ĠAssoci ation
2 7
n s
ĠChin ese
Ġanaly z
Ġs ize
Ġm elt
od e
Ġcr imin
Ġsee k
Ġcompet itive
iqu e
0 8
m a
m ap
Ġm o
Ġra ised
Ġpolit ical
Ġb l
ur b
ous ly
Ġexpect ancy
Ġbo ost
et ro
Ġso ci
Ġus er
Ġcost ly
Ġwast es
Ġrest ric
Ġbecom ing
Ġemot ional
ĠAv ailable
a un
Ġsu re
Ġgroup s
Ġsen se
Ġel imin
t emperature
Ġc ater
ol ine
ident s
ĠJ an
Ġan n
ĠI I
and s
Ġcomp ar
ĠWith out
Ġhappen ing
Ġbatter y
Ġquest ion
Ġdisadv antages
Ġc ou
Ġcon nect
ay ing
Ġrel ations
Ġeas ing
1 8
Ġle ft
ann el
Ġear n
Ġident ification
Ġimpact s
Ġkin ds
in ing
ul ner
ĠH DB
ĠM arch
qu ate
Ġcare ful
Ġinde ed
Ġdoub t
7 9
Ġd en
Ġex p
ust om
Ġover come
sequ ently
br id
Ġreact ion
iss ions
Ġsing le
Ġwe alth
Ġaver age
n us
en ic
Ġc ame
Ġb ad
Ġre new
Ġeconom ical
Ġsur v
Ġout weigh
eren ces
Ġsim ply
Ġsit es
Ġorgan iz
C R
Ġpro liferation
ot y
Ġst ated
ulation s
com m
ĠJ ournal
Ġgas oline
Ġcreat ivity
Ġdifficult ies
Ġprep are
ĠCommun ity
re t
al f
Ġres ist
Ġchan ging
Ġlead s
Ġfunct ion
Ġunderst and
P S
it ing
it ted
Ġd ays
Ġsol ved
Ġsol ving
Ġexam ples
Ġdiff erence
.. ..
Ġprob ably
g no
ve y
Ġdis orders
Ġche m
Ġmajor ity
Ġspec ific
Ġre ly
ch air
Ġpro port
Ġ2 6
act er
Ġv ital
Ġexplo sion
E N
r fid
w ise
Ġh omes
ul ate
Ġal one
Ġbeing s
Ġresponsi ble
Ġstart ed
Ġapplic ation
Ġadult s
ĠBo ard
enic ill
v ant
is ave
as ia
th ing
ĠC urrent
Ġbe gin
ĠTh at
os hib
Ġcr ime
Ġindust rial
Ġresear ches
Ġreprocess ing
r ated
an cing
Ġtest ed
Ġdirect ly
ĠInst ead
Ġfield s
bs ite
Ġrobot ic
Ġincent ives
p ar
Ġengine er
Ġeas y
Ġcarri ed
Ġconven ience
2 8
I V
ion ally
Ġsupport ing
Ġpos ition
Ġreg arding
ĠReactor s
Ġcreat ing
Ġent ire
Ġstep s
Ġ20 30
pos es
Ġful f
ĠWil pert
1 6
ĠA pp
ĠP olic
Ġle g
ĠSu percritical
Ġindepend ent
an y
ĠT oshib
Ġsu percritical
Ġst ates
Ġint eg
Ġaddition al
Ġconven ient
employ ment
Ġwr ong
2 6
Ġp ost
Ġd oll
if t
Ġr ange
ĠO ver
ĠG r
Ġcont r
Ġfew er
Ġharm ful
Ġfert ility
p ing
Ġde l
us es
Ġun f
Ġear lier
Ġindust ries
Ġcap able
ĠComm ittee
enicill in
ĠToshib a
4 5
c urity
Ġ \
Ġ er
re l
le x
Ġm ut
ĠT esting
Ġv ulner
Ġfeas ible
n d
Ġc ult
Ġst ages
Ġv ol
Ġnew s
Ġser vice
ak es
eth ing
Ġprom ising
s h
ro un
om et
Ġde ple
ĠF ried
ĠG IF
Ġup on
Ġtemperature s
Ġpercent age
ĠThird ly
Ġrelations hip
g ard
m ing
at ch
Ġin j
Ġh old
ĠS im
ci ent
ĠG FR
Ġover all
Ġpart ies
Ġminim ize
Ġterror ist
Ġsom ething
Ġmelt down
a ff
Ġ error
Ġb aby
lo g
ĠI ss
ĠA gency
Ġst at
Ġcont rast
Ġem issions
Ġpart s
ĠSystem s
Ġanalys is
Ġcir c
Ġproport ion
Ġc ustom
ĠSo ciety
Ġdepend ent
ĠAmeric an
Ġrenew able
N ews
Ġ ign
Ġp etro
ĠP riv
ia bility
Ġph ones
Ġencoura ging
Ġassist ance
Ġt ack
om ic
ĠI m
am ily
us h
ĠP h
Ġimprove ments
lic ations
Ġest im
Ġgra du
Ġreli able
Ġmonitor ing
ĠSum mer
Ġrefriger ator
k ind
v al
ar ant
Ġen abl
eth ics
ĠMed isave
Ġprof it
Ġafford able
Ġassoci ated
Ġmulti ple
0 6
4 9
Ġf our
iv il
Ġcont act
Ġout put
Ġdec isions
Ġret urn
Ġ4 0
Ġsim pl
Ġess ay
Ġinev itable
b ly
b ilities
f ace
Ġbe li
ce ed
Ġ2 2
Ġl aun
Ġst able
ĠC ons
Ġacc om
Ġcreat ive
Ġaut h
Ġpr im
arri er
IO N
Ġappropri ate
b c
c f
i h
p a
p ublic
u ary
x y
Ġt as
Ġc ure
Ġto ur
Ġg iving
ĠT w
Ġpro ven
Ġhe re
ph one
Ġcontrib ution
ĠEngine ers
Ġcrit ical
Ġdia gno
A R
i eved
Ġe ver
ment al
Ġen g
ĠE m
Ġse arch
gen etic
ĠSt atistics
Ġaffect s
Ġinter act
Ġlab or
Ġsubst ant
Ġconstant ly
Ġskunk works
Ġg ather
Ġha z
ĠH y
ĠF eb
Ġlo oking
Ġv ir
Ġenvironment ally
Ġlevel s
D P
H igh
T ION
r ans
Ġth ous
Ġres ol
ĠE very
ĠE lderly
ens ive
Ġqu ick
Ġear th
Ġterror ism
Ġchallen ge
Ġwheel chair
Ġextreme ly
E n
in l
or por
om s
Ġ2 7
ĠL abor
Ġconduct ed
Ġdam age
Ġcaus ing
Ġencoura ged
Ġpur poses
Ġargu ment
ĠAmeric a
Ġbal ance
C A
Ġp ace
Ġlo st
Ġeduc ated
Ġchan ces
Ġimplement ing
Ġins ufficient
Ġgra ph
Ġn ations
ĠD o
ove mber
Ġchan nel
Ġ199 8
Ġpromot e
Ġunt il
w ide
Ġt ren
er c
Ġn ature
Ġre ven
Ġon line
Ġ1 000
Ġv is
Ġeconom ically
Ġstud ies
ĠS che
ĠR ad
Ġst ability
us ed
Ġind ic
ab ilities
Ġcl ass
Ġincl udes
Ġach ieved
Ġval ue
Ġargu ed
Ġorganiz ations
ĠFried land
7 7
_ _
en ergy
ĠThe n
Ġal ong
Ġelect r
Ġret ri
ĠOpp onents
s html
Ġf lo
Ġst or
ĠG DP
Ġma xim
ag ed
olo gy
Ġche ck
Ġfunct ions
ĠInd ia
Ġlea ding
Ġheav y
w ater
Ġ Ã
ro p
ĠC o
Ġsocial ly
Ġscient ific
Ġconf idential
Ġlear n
ah o
Ġshap ed
ĠElect ronic
Ġdoll ars
s ingapore
ing ton
Ġh ar
op h
Ġst atistics
ĠN ovember
Ġblo od
Ġet c
s ive
ĠF r
ide o
Ġcont ext
Ġra ise
Ġapp ear
Ġdec id
Ġupgra ding
ĠJan uary
s u
en n
Ġth ing
ut ed
ĠH ow
ĠIn nov
ren g
Ġche ap
Ġinit i
ĠFin ally
c ar
ĠS W
ĠP r
ĠG PS
Ġdesign ers
Ġind irect
Ġ20 50
Ġdiff erences
Ġgo es
ĠRe port
Ġconcl ude
Ġpur ch
Ġsustain able
Ġrele vant
Ġclear ly
Ġmanufact ure
2 2
n am
r s
Ġs ens
Ġw a
Ġm ar
Ġg ives
Ġsupport ed
Ġpsycholo g
Ġsub ject
li b
Ġthough t
Ġprep ared
Ġlab our
3 9
T emperature
m oh
p age
re actor
at al
Ġas ide
um p
ff ect
od ium
Ġab s
Ġcarri ers
Ġsim ple
pos al
Ġalloc ated
ograph ic
Ġvulner able
re ed
it ude
Ġu lt
ĠTh rough
ĠB u
Ġinvest ing
Ġreport ed
Ġdeterm ine
Ġunderst anding
Ġpar a
Ġsubstant ial
C E
a ving
s ess
t ies
in ent
Ġw ww
ĠL o
Ġresult ing
Ġlimit ations
Ġless er
Ġprot oty
Ġaware ness
Ġport ion
Ġproced ures
ĠSW CR
a ily
st and
ĠR o
Ġplac es
Ġcell s
ar th
Ġ1 00
ĠTh ough
ac c
od ay
Ġlimit ation
port al
Ġrequire ments
cal e
p o
Ġf is
Ġf ission
Ġ2 4
ĠC l
Ġso on
Ġman kind
Ġtak es
Ġcor rect
Ġmist akes
ĠPriv acy
Ġ #
Ġm ic
Ġre p
ĠA c
Ġres pect
Ġsp read
Ġlarge ly
Ġob st
ĠMinist er
br ary
Ġrecyc ling
Ġs ite
or ities
Ġcomp rom
Ġact ion
Ġtry ing
ĠNor r
al t
le t
Ġre v
Ġun like
Ġfin ally
Ġpract ice
St ory
Ġde v
ĠR ober
ĠC ar
Ġser ve
Ġinvest ments
ĠPro gram
Ġreg ulations
Ġestim ated
Ġelectr ical
3 8
c p
Ġ !
an e
ĠS odium
Ġor ig
ĠG as
Ġad e
Ġlo se
Ġeconomic s
pro xy
Ġcomple x
ĠSche me
f ect
w are
he ad
Ġc our
ĠIn c
Ġneed y
Ġprevent ing
Ġprevent ion
ĠSt ra
a ult
e y
um e
ĠG lobal
Ġsur ge
Ġact ions
Ġlead ers
Ġcamer a
Ġsoci et
Ġgraph ite
lib proxy
A N
g n
er ous
ar ily
ir ing
Ġacc um
Ġneglect ed
2 4
T he
Ġb ills
Ġth inking
Ġpro posed
im er
ĠA ust
Ġen able
ĠH ospital
th ics
Ġsh ut
ays ia
Ġshow ed
ec ause
doc uments
Ġinflu ence
Ġplac ed
ĠAm ong
ĠMal aysia
ĠRad io
ĠNorr gard
9 9
i pped
in der
Ġp hen
Ġh alf
ur ies
Ġcom ing
Ġar ise
Ġ199 6
Ġob vious
ortun ately
Ġgu arant
Ġcontr ary
I d
S T
Ġ Z
in ci
Ġb i
ĠT ra
ĠW ar
Ġpl ans
Ġphys ically
Ġval u
Ġintern et
Ġpred ic
ĠId ent
a ding
l ies
m inist
s ia
le ments
ot e
ĠB ecause
gen eration
Ġinvol ves
Ġimm ig
5 5
b log
h old
m od
Ġf ig
Ġb om
ĠS k
if e
over ty
ab out
Ġob ser
ĠWe b
Ġcontro vers
Ġocc urred
Ġdiscover ies
Ġdeath s
Ġburn ing
ĠLabor atory
R e
s is
Ġc ooled
Ġd om
ĠT echnolo
Ġst reng
ud ed
io ethics
Ġstand ards
Ġcommunic ate
Ġdeg ree
Ġreven ue
0 1
l ish
Ġ X
ĠC I
and on
ĠD uring
Ġfac es
Ġvi ol
Ġreal ize
Ġcool ing
Ġmeas ure
Ġlaw s
Ġsuccessful ly
Ġstrate gies
a i
y ond
Ġo ption
Ġh und
se arch
Ġsu s
iv al
Ġfe es
Ġperson s
Ġtal ents
Ġintern ational
i ors
z he
Ġ ir
th rough
ap se
Ġpre fer
ru ary
Ġ4 5
Ġpass ive
Ġpred ict
Ġopt im
Ġprim ary
Ġphen omen
p an
ce ll
ĠH el
Ġrun ning
Ġrobot s
Ġant i
Ġcol lect
ĠRober t
C T
i ans
Ġc ivil
ĠM olten
ech an
Ġpart y
Ġrequ esting
ĠPro cess
Ġoff er
Ġdiver t
Ġlear ning
ĠId aho
Gen etic
ĠFeb ruary
c il
g round
ĠH ousing
ap s
Ġwor se
Ġat m
Ġacc ur
Ġelect ronic
Ġapp ly
ob ot
200 6
Ġph ase
Ġincreasing ly
Ġsmall er
Ġattack s
Ġadver se
ent ed
em ic
Ġex erc
am es
ĠIn de
Ġimp lications
Ġem b
Ġinvest ig
Ġweap on
be ing
Ġtre m
Ġimpos sible
Ġindirect ly
s he
it ect
Ġin ert
ch itect
ĠA b
ĠN ext
Ġcar d
Ġtot ally
Ġminds et
0 5
Ġf av
vent ion
ĠV ol
Ġallow ing
Ġhand le
Ġfl aw
Ġnet work
Ġemphas is
Ġinher ited
s et
Ġs ide
Ġs ick
Ġp overty
al d
Ġl ink
ĠC rit
Ġk id
oun cil
Ġapp lying
Ġadv ances
Ġtr uth
Ġallow ed
Ġnum erous
Ġfast er
Ġexperi enced
Ġefficient ly
Ġimmedi ate
Ġatm osp
g u
Ġde press
ĠM ac
Ġch ips
iz es
Ġro ad
ĠAcc ident
Ġbuilding s
ĠEconom ic
zhe imer
0 4
r inking
ul ated
ĠP re
Ġab andon
Ġfac ilit
Ġcap ac
ik ipedia
Ġtack le
a id
b ack
t ime
Ġb rain
ĠH ar
ĠB i
ĠO f
ĠAl zheimer
pro duct
Ġcrit ics
Ġtax es
Ġdoct ors
ĠOr gan
Ġstor age
ĠCrit ics
B C
N A
W ater
c an
e ed
s es
er o
Ġn ame
ĠS ol
Ġex pl
Ġr at
Ġbec ame
Ġtra ffic
Ġinst it
Ġext ra
Ġintro duction
Ġclaim ed
Ġcrimin als
er ve
at ically
ill ing
ĠF amily
ĠN on
ĠE arth
Ġse par
Ġle t
Ġdec l
Ġgener ally
ĠK ore
Ġenh anced
Ġsuff ering
ĠÃ Ĥ
Ġobst ac
Ġtrem end
4 8
h ing
p owered
s ur
he l
at est
Ġal le
ĠD iff
Ġpos sess
Ġrec over
Ġfl ats
Ġdisclo se
Ġcompar ison
Ġhaz ard
ĠStra its
g i
Ġs w
Ġag o
ĠW ater
Ġsur roun
Ġlif ts
Ġar t
ish ing
Ġbo om
Ġcor por
Ġchar acter
Ġmach ines
m ak
Ġa part
Ġbe yond
ac hed
pl ac
Ġinvest ed
Ġev ident
Ġmanufact uring
Ġtren d
l ong
Ġ ver
Ġs cale
Ġc op
or m
Ġw ise
an ks
ar ies
ĠT oday
ac hes
Ġper fect
Ġcontrib utions
Ġensure s
ĠWor k
Ġval ues
Ġrecent ly
c n
u ff
Ġ z
Ġe y
ĠT rans
Ġun ne
Ġworld wide
Ġpo ints
Ġfail ed
Ġyou th
Ġsom et
wh ile
Ġbehavi or
Ġpers pective
ĠCurrent ly
Ġfis cal
Ġunne cess
O E
s w
s en
u gh
w here
Ġ i
en cies
Ġp e
Ġd rug
ĠF ree
Ġ199 0
Ġreveal ed
Ġconsequ ence
Ġdiscus s
Ġstat us
Ġsurroun ding
6 7
ct ion
Ġde pen
Ġst ore
Ġwith stand
Ġcl imate
ĠCon t
Ġcontribut ing
ang ers
Ġadop ted
ĠIss ues
ĠEm ploy
Ġdepen ds
m y
al u
et he
actor s
ate g
Ġcount er
Ġun p
ĠL ead
Ġhealth ier
pect ed
ob ility
rain ing
Ġloc ation
Ġcareful ly
ĠSim ilar
ĠAust ral
is k
Ġr ul
Ġsa ved
age ing
Ġeffect iveness
ĠSt ate
Ġdef ense
ĠY outh
Ġreg ular
Ġide al
Ġform s
Ġdisclo sure
Ġfollow ing
TA TION
Ġcomfort able
Ġtour ism
ĠCI TATION
R C
Ġp iety
Ġb on
Ġm echan
Ġad ap
ight s
Ġwhere by
Ġexper ts
Ġhy brid
Ġdist rib
Ġapplic ations
Ġmach ine
Ġchem ical
Ġgradu ally
cf m
Ġalle vi
k now
s ystem
v ision
al e
im ately
ĠB rit
Ġsome one
abl ed
Ġmak ers
Ġoppos ition
Ġvalu able
i able
o v
Ġ Q
he st
Ġto ok
Ġdis posal
gine ering
Ġle ave
ĠSe p
Ġsur vey
ild ren
pl ay
ĠSt ud
Ġeas ed
ĠCent er
Ġrele ase
Ġretri eved
U S
d om
ĠM ain
ell ed
Ġdef ect
Ġset ting
Ġrece ived
Ġev idence
Ġimmedi ately
Ġunnecess ary
b ased
c ast
e ffect
j ournal
p ub
t esting
Ġp an
Ġn ut
ĠS cient
ra d
Ġhe aring
ĠG e
Ġsal es
Ġcamer as
Ġcomplete ly
Ġade quate
ĠInde ed
Ġsomet imes
s k
Ġm us
lo ok
act ivity
Ġne ut
em pt
ĠB BC
ber g
Ġdec line
ruct ures
Ġimportant ly
und ant
Ġdefin ed
Ġinvol ve
Ġstrong ly
Ġrele ased
Ġimplant ed
Ġprofessional s
ethe less
7 5
E A
a ur
Ġf requ
Ġb ound
ĠW ikipedia
Ġinc ur
Ġwe bsite
Ġ19 79
ens ions
Ġoff icial
Ġcho ices
Ġreason able
ĠInd ones
rel ated
Ġenabl es
cp f
f ree
r ants
re am
Ġp ain
ro l
Ġre tain
Ġl ine
ĠS p
ĠA part
ĠD is
Ġknow ing
200 5
Ġperson nel
ĠUn der
Ġtrans fer
Ġconsum er
Ġcommon ly
ĠPet er
Ġdeter ior
ĠPolic y
Ġphenomen on
N uclear
c ra
g ent
s ci
Ġex cess
Ġres pective
che de
Ġser ies
Ġrem o
Ġsitu ations
Ġrec ord
Ġent er
Ġproper ly
Ġcrit er
Ġsustain ability
Ġmove ment
Ġbeh ind
Ġopportun ity
Ġstrate gy
Ġbreak through
Ġcour se
ĠIdent ification
C Y
T echnology
f erence
Ġs ound
Ġs oph
Ġb road
Ġl ist
ĠP arents
ĠE d
ĠG erm
Ġun c
Ġenc ount
Ġequ ipped
Ġaid s
Ġquick ly
Ġcapac ity
C D
a el
b i
l ation
Ġt en
is ory
Ġl atest
ure d
ĠV iet
Ġthrough out
Ġcertain ly
Ġmod el
Ġsimilar ities
Ġcut ting
Ġflo or
e conom
e fficient
Ġf lu
Ġre duction
Ġpro ve
Ġfor ward
ut es
Ġsur gical
Ġbas is
Ġinstall ed
Ġconfidential ity
ĠSimilar ly
0 3
3 4
d is
is ation
Ġm obility
Ġh ours
st anding
ill ions
Ġun employment
Ġv ideo
cy s
ĠSe curity
Ġar chitect
Ġconsid ering
ĠUS A
ĠCon sequently
Ġtool s
Ġestabl ished
ĠT an
ĠS en
ir able
ol ution
igh b
Ġch ronic
ĠCh allen
ruct ion
Ġfe ed
Ġocc up
Ġminim um
Ġmaintain ing
Ġaccept ed
ĠEurope an
ĠCan cer
isc rimin
Ġatmosp here
A S
c ap
e k
f e
m cys
t le
lo ad
uc k
ĠM c
ĠP at
au gh
Ġinform ed
Ġdetect ion
Ġvol unt
Ġbeli eved
ĠNon etheless
m it
t ech
Ġp enicillin
al k
ce mber
Ġst rain
ĠB oth
Ġfin ance
ĠGen eral
gra ding
cept ion
Ġac ross
Ġconst rain
Ġrespon se
ĠHealth care
Ġaccess ible
ĠHy drogen
ĠFr ance
Ġsoph istic
6 6
h ield
m o
Ġc al
Ġf ight
Ġf reed
Ġe co
il ing
ĠS er
el si
em por
ĠF ace
ĠU r
Ġrel iability
ĠAs ian
Ġout come
oun sel
ĠCh annel
Ġevent s
Ġcat ast
road map
D F
Ġf air
Ġf lex
Ġfor get
ir m
ĠM ich
Ġbu y
erson al
Ġnum bers
Ġradio activity
top ic
Ġorgan ization
Ġtre ated
Ġsatisf y
Ġcustom ers
Ġobstac les
8 9
c or
e a
in y
Ġc ash
Ġp ush
Ġst ri
Ġst aff
Ġex pos
Ġdis abled
ĠO b
Ġun s
ric t
ex pected
Ġref ers
Ġdou ble
Ġrefriger ators
Ġste am
Ġmot iv
ĠTw o
iscrimin ation
Ġsophistic ated
I n
p ers
s ory
Ġs ym
Ġin ade
Ġl atter
ĠS ports
ul sory
Ġne ighb
ĠD r
ĠL i
Ġra ising
Ġatt itude
res pon
Ġdifficult y
Ġsubsid y
Ġsc reen
Ġargu ments
Ġprob ability
Ġheav ily
Ġdeb ate
Ġpredic ted
A r
a x
b bc
c gi
n ih
t ual
in ter
Ġw omen
an o
Ġres idents
Ġra w
we b
Ġdiver ting
ub e
Ġconvent ionally
Ġev alu
Ġgu id
Ġparticular ly
in a
re port
on t
Ġp ose
ĠM CY
Ġcomm it
Ġcre ation
Ġ8 0
ft ware
Ġcompet ition
Ġaccess ibility
ĠElect ric
Ġnur sing
Ġcoll apse
Ġthous ands
minist ration
ĠMCY S
2 1
R T
f i
i j
s ide
en ing
Ġp ensions
Ġf low
Ġh ire
Ġh inder
ĠS pe
ĠC ouncil
ĠN ations
ĠD a
ĠD OE
for d
Ġoper ates
ĠY et
Ġcitiz en
Ġavoid ed
Ġconsideration s
Ġdiscus sed
Ġleak age
pa ign
Ġorig inal
Ġstreng th
Ġfreed om
3 7
Ġre plac
et ary
Ġnot hing
ad emic
Ġso le
Ġext ern
Ġcontin ues
Ġminim al
Ġconf idence
Ġdra w
Ġanalyz e
ĠTechnolo gies
ĠIndones ia
5 2
f r
Ġt urb
en ed
ent y
Ġsh aring
Ġinc orpor
Ġinvest ors
Ġ199 7
Ġass ess
Ġcor ro
Ġinter p
Ġpromot ing
Ġmonth ly
Ġcontrovers ial
ĠKore a
ĠMain tenance
ĠFace book
c u
f ra
p arent
le y
ĠG roup
Ġcomp lic
Ġpre c
ĠEn vironment
ĠDe cember
Ġproper ty
Ġcompet it
Ġprogram mes
Ġsc ar
Ġdeterm ined
Ġmean ing
Ġcontinu ous
Ġobject ive
h ow
t ise
t echnology
ĠS w
Ġag es
Ġsh ift
ĠP ost
ast er
Ġpre ca
Ġun ique
lect ric
Ġk il
Ġresearch ing
Ġamount s
Ġhand s
Ġpres ence
Ġfocus ing
Ġill ust
ĠAt omic
Ġpros per
ĠBe ing
En gineering
ĠPr ime
Ġprototy pe
b ody
h ood
o ff
er ves
Ġs ell
Ġw ants
Ġb ase
Ġd ut
Ġh ind
Ġg lob
Ġl ate
ĠA ss
Ġha pp
Ġst im
Ġcomp are
Ġun expected
ren ce
ĠCh an
Ġpay ing
Ġident ified
ĠGovernment s
Ġdoct or
Ġobtain ed
Ġtas k
Ġimmig rants
Ġfacilit ate
Ġcriter ia
p olic
t ect
y ed
it iz
Ġb orn
st m
ĠI T
ĠH unt
ĠH aving
ĠC elsi
ap ers
Ġv ast
ru ption
pect s
Ġdef ence
ĠCent re
Ġair cra
Ġreact ions
Ġnear ly
Ġremain s
Ġaccom mod
system s
ĠCelsi us
0 2
re es
Ġpro ved
ĠP er
Ġcomp ulsory
Ġchan ged
Ġwhere as
Ġexperi ences
Ġoccur ring
Ġpric es
Ġtal k
Ġequip ments
Ġbegin ning
ĠGr aying
Ġinteract ion
Ġpurch ase
A P
k ra
p opulation
s cience
Ġf ra
Ġb arrier
ĠS m
ĠThe ir
ĠC ol
ĠD em
Ġconc ent
Ġcons ist
Ġj o
ĠOn ce
Ġoper ations
Ġemploy ee
Ġhig hest
Ġencoura ges
af e
Ġclo sed
Ġcam paign
Ġclean er
Ġcou ples
public ations
Ġrat io
ĠDiff usion
kra ine
m ission
Ġre d
ĠT e
Ġl ay
ĠS outh
Ġit em
ĠR obot
est ic
ĠG reen
Ġv acc
ile m
Ġeduc ational
Ġatt empt
Ġqu al
Ġsec ret
ict ion
Ġpr one
Ġexpendit ures
Ġpartic ip
Ġadop t
Ġconver sion
Ġfulf ill
ĠMich ael
3 6
O M
p ass
r c
Ġc ateg
it er
Ġf requency
st at
ut ers
ĠC are
us er
os ing
Ġgo al
dition ally
ĠRe cent
ĠRe view
Ġ3 1
Ġcr imes
pdf s
Ġref lect
Ġexperi ment
Ġreal ity
Ġpass ed
Ġtele phone
ĠAc cess
ĠGerm any
t hen
v est
in ted
Ġf ault
ver sy
ci ous
Ġinc urred
ĠL e
Ġhigh light
200 4
Ġrequire ment
ĠPro f
Ġke pt
air s
Ġfl at
Ġaccount s
Ġdisast ers
ĠAdv isory
Ġmut ation
Ġextern al
4 7
8 7
i ar
i ew
u x
ed ical
Ġf it
il ver
Ġbe ar
ul l
Ġen s
Ġsu n
Ġex posed
Ġex cell
Ġso ld
ĠD NA
ire ment
ĠU kraine
Ġcons ent
Ġinv as
Ġph ot
Ġ6 2
Ġsk illed
Ġthreat s
Ġcomput ers
Ġmove ments
Ġincident s
Ġrul es
Ġa fra
Ġp age
un g
ĠF uture
Ġab use
Ġpower ful
Ġpopulation s
ric k
Ġme ant
Ġemploy er
Ġdef ic
Ġcontro versy
Ġexperi ments
Ġur gent
ĠAct ually
Ġdecid ed
Ġfig ure
Ġafra id
3 1
e ve
v is
in el
re p
Ġw on
Ġb ar
ri ef
Ġdes c
Ġint r
Ġcar ing
cy cle
Ġj ud
ĠMan power
Ġcontrol led
Ġaltern atives
Ġbel ong
Ġdeal ing
iqu es
Ġden y
Ġresist ance
Ġcirc um
A sia
R es
g on
j ust
p grading
Ġp arent
Ġp owered
Ġw rit
ed uc
ic ed
Ġd ilem
Ġre ject
Ġth or
Ġsh rinking
ad get
Ġso ftware
ĠO ur
ubl ished
au st
Ġpart ial
Ġdem ographic
Ġcap ability
ĠGenetic s
Ġplay ed
Ġoccur s
Ġlaptop s
Ġgr ant
Ġlaun ch
ĠOrgan ization
ĠAustral ia
aur a
3 5
P M
U R
g reen
k m
n l
Ġa head
Ġc ounsel
le um
Ġcon v
if ically
Ġex ec
lop edia
Ġman power
ag n
Ġsur face
ĠEn g
Ġhappen s
Ġcreat es
Ġstate ment
graph y
doc s
des ign
Ġelimin ate
Ġgather ing
Ġcircum st
re li
Ġc ity
Ġp aper
or b
Ġf atal
ic ians
Ġg ot
ch annel
ig ital
ĠL aura
ell ig
Ġext ensive
Ġpotential ly
Ġprof its
Ġcarry ing
Ġmo ving
Ġleg al
Ġbom b
6 9
f uel
g lobal
s pe
Ġan sw
Ġbe low
ĠS ch
ĠC N
ĠE ast
Ġpl at
ĠJ ust
ru pt
Ġlif es
ie ving
ful l
Ġro ads
aterial s
Ġdet ail
Ġ10 33
Ġappro xim
Ġprotect ed
Ġadvance ments
Ġhim self
sc itable
Ġmonth s
Ġcover age
Ġdest ro
ĠII I
Ġdel ay
know n
topic page
o oth
al y
ic ation
Ġm ember
Ġh ot
op eration
ri f
ĠR et
Ġst ored
Ġex press
Ġwor ried
ĠE s
Ġun den
Ġact ual
Ġpri or
Ġless en
ĠUn ion
Ġcre dit
Ġsal ary
Ġcontribut es
Ġsc en
Ġdecre asing
Ġinflu enced
Ġrestric ted
Ġsurv ival
comm un
Ġname ly
Ġunc ertain
Ġens uring
6 4
w ell
on ym
Ġp ack
Ġin put
Ġd ate
Ġd rast
Ġre view
Ġas k
ĠA f
op ping
Ġch ip
Ġwe b
ĠSingapore an
ĠJ oh
Ġatt rib
Ġany one
li brary
ĠPro duct
Ġretire d
Ġins ide
Ġtechn iques
iqu id
Ġgr aying
arri ers
Ġautom obile
Ġsurv ive
Ġpetro leum
ĠInnov ation
Ġaccum ulate
Ġguarant ee
Ġdepress ion
ĠUr anium
cor p
ĠHunt ington
Ġplat form
b usiness
h aust
re search
er gies
ic ip
Ġm id
Ġwor sen
ĠP res
Ġcomp onents
Ġwork er
ature s
Ġbring ing
Ġmon etary
Ġsen iors
Ġpr inci
Ġconsider able
Ġdist ance
ĠSh ould
Ġupgra de
-- --
omet ric
ĠCons um
Ġmaxim um
Ġult imately
Ġdrug s
E S
I S
h y
m om
Â °
Ġp ict
ed eral
ĠC al
Ġex ch
ad a
ĠD ise
io graphy
Ġte ach
ix ed
Ġment ally
Ġaim s
Ġblo ck
ĠAr ticle
Ġweak ness
Ġregard less
.... ....
Ġhund red
Ġexcell ent
Ġdilem ma
Ġt empor
re le
Ġm other
Ġl ies
ĠC ount
Ġex act
ĠB udget
os en
Ġsupport s
Ġover look
Ġopp ose
Ġsafe ly
Ġvi able
Ġmon it
Ġbig ger
Ġbig gest
Ġhouse hold
ĠRo ad
Ġsurge ons
ĠAb out
G R
a ut
l imit
m ary
er v
it ions
it ably
il ding
ĠS alt
Ġde em
Ġnot e
ĠIn s
ĠF requency
Ġhttp s
ĠD ay
Ġlo ts
Ġgo als
Ġapp re
Ġact ivity
Ġtr ust
ĠUn like
Ġemploy ed
Ġpossi bilities
Ġext end
pri v
ograph y
Ġdeg rees
Ġsuper ior
Ġden ied
Ġauth orities
onym ous
b re
e lectric
Ġs ays
Ġh op
Ġe lements
Ġg e
Ġst ations
ĠD ef
Ġy ield
Ġsur pr
Ġlimit s
olo gical
Ġevery thing
pon ents
Ġes cap
Ġmem ory
Ġput ting
ĠComm ission
Ġfunct ional
Ġinterest s
Ġlea ving
Ġoppos ing
Ġidentify ing
augh t
Ġsym pt
1 00
8 0
I B
d b
h l
m at
p op
in c
Ġb ed
Ġm om
ment ia
ĠH istory
Ġst rict
am er
ĠM on
ast ic
bl iography
Ġpre m
Ġse a
ĠL ong
all s
ag az
Ġdisc oura
ĠRe g
Ġpat h
Ġext ract
Ġreg ards
news asia
Ġmedic ation
Ġconver t
Ġcult ure
Ġpetro l
Ġpace mak
Ġmic ro
Ġtremend ous
Ġexpos ure
Ġinade quate
Ġcomplic ated
Ġlifes pan
h aps
v ard
Ġ ~
Ġt ill
Ġs ac
ic ations
Ġd ow
Ġd angers
Ġde pending
un ction
ĠO E
Ġad just
Ġlo ved
ĠL imit
Ġem it
ht r
ag ers
Ġper t
go ing
Ġpossi bly
Ġtrain ed
Ġimpl ies
Ġaddress ed
app ed
ĠComp ared
Ġsuggest ed
Ġresist ant
Re actor
Ġexcess ive
Ġsole ly
Ġdut y
Ġvacc ine
Ġapproxim ately
Ġsac rif
Ġdow nt
8 4
B M
p es
r um
y ear
st ats
ĠB ar
Ġother wise
Ġab undant
ĠU sing
ient s
ust ion
ĠCh ildren
Ġro ot
Ġ5 00
Ġac qu
Ġsay ing
Ġbo ok
Ġserious ly
Ġnor m
Ġcrimin al
Ġlaun ched
Ġmar ried
Ġdev ast
ĠBi bliography
Ġinterp ersonal
Ġinvas ion
Ġcircumst ances
3 2
en ding
Ġm ess
Ġm and
Ġh ope
id er
Ġde li
Ġde part
ra w
Ġex c
Ġget s
Ġpo inted
Ġkeep ing
Ġbatter ies
Ġrecyc led
Ġinitial ly
Ġinj uries
Ġtas ks
Ġflaw s
Ġz ero
Ġallevi ate
Ġpert inent
Ġdownt urn
T esting
b ioethics
f ile
h ost
m itted
t ure
re st
Ġf if
ic oll
ro ph
Ġm illions
Ġd rop
Ġl iquid
ĠA ir
Ġr ich
ia ea
Ġlif t
Ġmost ly
ĠAn onymous
Ġgener ators
Ġoff ers
Ġshort er
Ġpress ing
Ġintro duce
Ġproper ties
ĠAd ditionally
Ġtop ic
Ġopt ions
Ġer a
ĠProgram me
Ġsociet ies
Ġcharacter istics
h a
or ing
Ġm ature
Ġd ied
Ġd rain
Ġre form
Ġpro long
im b
Ġfor ced
Ġde ad
Ġex haust
pen dit
Ġwor d
Ġwor ries
Ġch air
ĠO ff
Ġv ision
Ġwho se
Ġcons ult
Ġexpen se
Ġgood s
Ġmarket ing
Ġident ity
Ġdefin ition
Ġent ertain
Ġminim ized
Ġfund ed
Ġautom atically
Ġschool s
Ġsw it
Ġadap t
effect ive
ĠOE CD
n y
u plo
Ġthe ory
on ent
en cing
Ġc e
Ġc ode
Ġp ump
Ġto uch
Ġd ur
ar in
ar ation
st ory
Ġfor ces
Ġal ert
ĠH si
ra ph
Ġhe ad
ap pro
ĠE thics
ĠL ike
Ġra m
Ġpos es
che m
Ġext ended
res ent
Ġappro aches
Ġte ac
Ġresponsi bilities
Ġcent res
Ġincl uded
ĠJapan ese
Ġstrong er
Ġadd ed
Ġaccept able
Ġinev itably
__ __
Ġmanufacture rs
ĠLo ong
ĠHsi en
P ro
Ġ ing
Ġb arriers
Ġan x
ur s
ĠH ome
ĠC ost
ĠW ell
ĠB ased
os ition
od ies
Ġprocess ing
Ġwork ed
ew able
Ġv ict
Ġevery day
Ġinter vention
Ġfund a
Ġutil ize
Ġutil ized
Ġport able
Ġmass ive
Ġant icip
Ġconnect ed
Ġsus cept
Ġrespective ly
E thics
l v
r ay
r un
x ic
it es
Ġb ul
se curity
ĠC CT
ĠO ut
con s
Ġwe ight
out ube
ĠU K
Ġcons ists
ĠGen er
ĠAn n
ĠUn f
Ġ5 5
Ġinf ect
ĠWe bsite
Ġcap abilities
Ġvi ews
Ġequ ally
.. .
Ġpass ing
ĠAd ministration
Ġexplo re
Ġtyp ical
ĠSu pp
Ġdri ve
Ġproced ure
Ġanalyz ing
ĠApp le
Ġinteg rated
moh corp
Ġmic row
Ġkid n
Ġpe ace
Ġenter pr
Ġprec ise
nl m
ĠAf ric
ĠJoh n
ĠCCT V
I T
p at
r d
on ald
Ġto ugh
Ġn ight
Ġg l
ĠF uel
Ġim age
Ġr an
Ġwork place
Ġover se
Ġprevent ive
ĠY ou
Ġtell ing
Ġinfrast ructures
lif e
Ġread ily
Ġrecogn ized
Ġann ual
Ġign ored
Ġdecid ing
Ġsociet al
ĠHar vard
Ġfrequ ently
ĠChallen ger
4 3
4 29
5 1
h ome
v htr
Ġt ri
Ġt ried
es sel
it ro
st ract
st ories
ver se
ĠS ub
ill i
ol ute
Ġdes ire
Ġmed ian
Ġfam ous
IN A
pect rum
ĠOn ly
Ġact in
Ġdef ine
ĠInt er
Ġvar iety
sing stat
Ġcomb ustion
Ġcontinu ously
orn ia
do e
Ġexpl ain
Ġey es
Ġconstrain ts
Ar ticle
channel newsasia
Ġappre ci
Ġmom ent
D A
r an
Ġs end
Ġb odies
Ġm ere
Ġd etri
Ġre cycle
Ġen ergies
ĠM o
ĠM od
pen s
ĠB ef
Ġlo sing
com ing
Ġk illed
ĠOn line
Ġlar gest
ron t
Ġreal ized
ĠWh y
Ġ7 0
Ġsal ts
Ġhard ly
Ġshap e
ash ington
ĠMe an
Ġdra m
Ġann oun
Ġeng ines
Ġhar der
Ġpsycholog ists
ĠInc re
ĠScient ists
Ġaircra ft
Ġaccommod ate
Ġmonit ored
Ġpacemak er
pendit ure
C FR
H Y
I ns
M edical
O R
v ity
re ports
on y
Ġb an
Ġb uses
ro om
Ġe lement
Ġre pos
ĠS c
ĠR el
Ġag encies
if ornia
ĠM iz
ĠF un
ĠP enicillin
ĠG u
ĠD av
Ġint ended
Ġun d
Ġun w
Ġar ises
Ġapp e
ific ial
ĠK h
Ġtrack ed
echn ical
ne y
Ġalloc ation
Ġalloc ate
Ġbusiness es
Ġutil ization
Ġreplace ment
65 1
Ġmet al
Ġrestric t
Ġrelationship s
Ġthous and
Ġdom in
sci enced
ĠViet nam
Ġwon der
ĠIns urance
ĠUnf ortunately
Ġmicrow ave
b et
h one
er ved
Ġs y
et ically
ig ation
ĠS pending
Ġfor mer
am ed
ĠG M
Ġeconom ies
ĠIt s
Ġtr ig
Ġ199 4
ffic iency
Ġturn ed
Ġback ground
Ġreli ance
ĠPolic ies
Ġleg is
Ġresol ve
Ġcorro sion
ĠMean while
5 9
I nt
e u
g ic
n a
on st
Ġc ities
Ġin ex
le g
ic ro
Ġre cess
ĠT est
Ġst ory
tt ing
ĠM ar
ĠN AS
Ġma gn
dit ary
Ġup d
Ġover w
Ġgo ld
Ġhand ling
ĠY our
Ġsk in
Ġequ al
Ġintro ducing
Ġcor ruption
Ġresear ched
ĠMSR s
Ġgr and
ĠFin ance
Ġcat ch
Ġdri ven
eng lish
23 8
Ġunf air
Ġvir tual
ĠHel ium
can cer
ĠSol ar
ĠEs chede
ĠCal ifornia
ĠRoad map
Ġdeem ed
priv acy
E D
b u
c les
d le
d den
t imes
er ted
Ġs ent
le ming
Ġm ig
ĠT ake
Ġl uck
Ġsu dden
du le
Ġsol id
ĠU pgrading
Ġra il
Ġpolic e
Ġar ising
pl ed
pl ant
200 3
Ġrequ est
Ġqu ant
Ġemploy ability
Ġ199 5
Ġensure d
ound ation
ĠHe art
Ġshow ing
Ġnecess ity
ĠHigh way
Ġsuggest s
Ġwar ning
Ġclose ly
Ġbl ind
Ġaccur ate
Ġcal c
Ġvict im
ĠMiz og
5 8
P age
c ern
f o
f arin
h ard
l ig
n or
t ic
er ated
it an
Ġb ro
Ġb us
Ġb io
Ġb esides
Ġd iet
et ail
ot t
el lect
ĠC or
ast e
Ġpl anned
Ġv essel
Ġsur f
Ġra ce
Ġ19 70
uch i
Ġadv oc
Ġ3 3
Ġ3 00
Ġoper ated
Ġro om
de velopment
Ġmeet ing
Ġdefin ing
Ġ198 0
ĠAnd re
Ġtal ent
sp ring
Ġgr ants
att le
ĠNor th
Ġcommercial ization
Ġdiagno sed
Ġhazard ous
T h
d ens
i i
l aw
m ark
Ġs qu
Ġto xic
ic ine
Ġg adget
Ġsu it
ĠC lear
ĠF leming
ĠN US
pp ing
ĠB usiness
Ġch at
ĠE lder
ult s
ĠK ing
Ġinf ring
Ġtrans l
Ġown ers
Ġfocus ed
Ġstart s
vious ly
Ġadop tion
Ġexp ans
Ġbeli ef
Ġcompetit iveness
Ġentertain ment
ĠBef ore
4 2
C h
F A
L IO
P DF
b an
s on
Ġt ap
Ġw ire
it ter
ar a
Ġre ached
st ate
Ġde pri
ĠC itiz
est ern
ĠN et
Ġr ig
ĠB IB
Ġch osen
ĠL aw
ĠL ife
ĠJ ac
Ġimpro ves
Ġ3 5
Ġtechnolog ically
Ġ6 6
ĠPro blem
ĠY ear
Ġsafe gu
Ġmod els
Ġconstruct ing
Ġfeel ing
Ġexist ence
Ġpoll ut
app ing
19 9
Ġquest ions
Ġundergo ing
Ġelimin ated
Ġpsycholog ist
Ġabs olute
ĠBu ilding
Ġexerc ise
she ll
Ġinstit utions
ĠBrit ain
Ġnut shell
AP HY
ĠProf ess
Ġansw er
GR APHY
Ġdevast ating
uplo ad
ĠNAS A
LIO GRAPHY
ĠBIB LIOGRAPHY
I A
n ers
r isk
s ite
Ġs pl
Ġc ur
or ized
Ġw ent
lo s
Ġl ik
ĠI N
Ġas sure
Ġde ep
Ġha b
ĠM ot
Ġcomp onent
Ġeduc ate
Ġaff lu
Ġac ademic
ĠPro ject
ĠAcc idents
wor king
Ġass um
Ġneg lig
Ġinvol ving
Ġbudget s
iss ues
here nt
Ġel se
Ġread y
Ġgain ed
employ ed
Ġregard ed
Ġestabl ish
Ġreturn s
sur veillance
ĠGe org
Ġturb ine
ĠMizog uchi
ĠClear ly
Ġexpans ion
6 8
P A
R FID
c hernobyl
f requency
g if
h uman
r ink
on line
Ġs l
Ġs uc
or row
Ġf irm
Ġb ab
le ge
ro bot
Ġd ream
Ġis ol
st ra
Ġpro ceed
ĠI CE
ay a
Ġha ck
ĠR us
Ġst ation
Ġsh all
Ġsh ared
ĠC O
ĠC ooled
Ġex cept
us ing
ĠM r
ĠTh ose
ĠP o
ĠP enn
ac es
Ġr u
Ġun av
Ġun des
Ġman ner
ef ul
Ġcont ent
Ġper ce
Ġact s
Ġgener ates
Ġfactor ies
Ġaffect ing
Ġass et
Ġrem ember
Ġfail ures
Ġval id
30 3
Ġdiscrimin ated
att ers
Ġsatisf ied
ĠCan ada
Ġtele vision
Ġexp and
Ġdeple ting
Ġdecl ining
ĠSpe ech
Ġitem s
Ġsympt oms
roph ic
Ġdetri mental
Ġoverw hel
g r
p apers
re hen
Ġw is
le ts
id den
Ġl eng
00 00
ĠA g
Ġst ead
am il
Ġcomp r
Ġthere by
Ġcont ract
ag s
ĠJ ames
Ġout side
Ġtra de
Ġdiff er
Ġdec ade
ative ly
Ġfinan cing
Ġconcern ing
Ġrem ote
res h
Ġwheel s
Ġactive ly
Ġcontinu ed
ĠComp any
Ġfall s
ours es
Ġtarget s
Ġnur ses
Ġselect ing
Ġappear ance
Ġwa iting
Ġrecover y
Ġunden iable
ĠCount ries
Ġmand atory
ĠKing dom
D is
P ublic
b udget
c d
e z
e lderly
r ange
re ds
an ia
ch ips
id ge
ĠA uth
Ġal arm
Ġag ent
ĠM RT
ĠM aterials
ĠN eed
ĠN icoll
Ġch ain
Ġinc om
Ġra ises
ru it
Ġprov ision
Ġ19 50
Ġ20 12
ens us
sy lv
ific ations
ck now
Ġser ves
Ġear ning
Ġ199 3
Ġoff ered
ish ield
Ġdepend ence
Ġnecess arily
ty pe
Ġform ed
ify ing
Ġev ol
Ġcrit ic
Ġchar ge
ĠEconom ist
Ġcomprom ised
Ġunlike ly
ĠSk unk
Ġcorpor ate
ĠStud ies
Ġpan els
ĠSen ior
fe atures
Ġvolunt e
ĠDa wn
Ġcampaign s
iction ary
ĠDise ase
agaz ine
ĠAfric a
ellect ual
B S
S S
Ġs light
an el
ol it
Ġst rug
ĠC he
ĠM ark
ĠF ac
ĠE r
Ġsa ves
Ġun st
Ġun iversity
ĠAn g
Ġoff spring
Ġrun s
Ġcor respon
Ġach ieving
Ġcompet e
Ġest ates
Ġview ed
Ġaccept ance
arri age
Ġsubst ances
Ġpopular ity
Ġmist ake
Ġbr ight
nd rom
ĠPh ys
Ġresol ved
ĠQ u
Ġpreca utions
ĠConsum er
Ġfunda mental
Ġstrug g
5 6
8 2
c ular
d ef
k y
l an
p read
s ions
Ġt ro
Ġt rou
Ġt ru
at he
Ġp ool
Ġw ides
it ory
al ing
Ġan im
ar p
om el
Ġon to
Ġfor um
ir ty
Ġen viron
am a
am i
ac king
Ġres erves
ĠB ern
ĠE th
Ġdesign er
Ġat omic
ab ase
Ġ20 20
ail ability
Ġinst ru
Ġany thing
Ġinvent ing
pro d
vi et
Ġdem onst
Ġexper tise
Ġsm art
Ġvi br
Ġcent re
Ġplay ing
hip s
Ġtechn ique
Ġattract ive
Ġfall ing
Ġhere ditary
Ġcomprom ise
Ġabandon ed
Ġarchitect ure
Ġcatast rophic
ĠCN G
ĠRet irement
Ins urance
nor mal
ĠPenn sylv
Ġtrou ble
Ġwides pread
ĠPennsylv ania
h op
Ġp ublished
Ġw atch
Ġin ject
ic ated
om y
Ġg one
ĠT our
ch ar
Ġl ang
Ġde mentia
ĠH aw
ke y
ĠN E
ĠG iven
art er
ous es
Ġun ivers
Ġv o
ren ewable
Ġro ds
Ġpri orities
Ġac ute
de velop
Ġass ets
uccess ful
Ġoblig ed
Ġrece iving
Ġdia bet
Ġinvestig ation
Ġdesc rib
Ġscen ar
Ġenviron ments
F ree
R etri
f iles
g as
r ich
re te
Ġs pectrum
at ur
or ds
Ġf ire
Ġf arm
Ġb ra
om ics
Ġen orm
Ġsh opping
ĠC r
am m
ĠIn dust
ĠM ass
ĠB er
so ft
ĠL ew
Ġconc rete
Ġsupp lies
Ġbut ton
Ġed ge
og le
Ġprof itable
Ġoblig ations
Ġslow er
Ġham pers
cyc lopedia
ĠPl an
Ġdisadv antage
Ġdoub ts
Ġrecogn ize
Ġprevious ly
Ġfour th
Ġwheelchair s
Ġindic ates
po ints
Ġhund reds
Ġfav or
Ġver sion
Ġdistrib ution
Ġglob ally
ĠEng lish
Ġfif ty
Ġoverse as
Ġgold en
Ġbab ies
c ity
m on
r or
Ġt ext
Ġa cknow
er ative
Ġc ra
Ġp ill
Ġin herent
ou ch
Ġg round
Ġl on
ul ating
ĠC orpor
Ġres ort
ĠB as
ist ant
Ġdes irable
Ġint ensive
ĠJ e
Ġro les
Ġatt ain
Ġsub sequently
Ġmin or
Ġbur dens
Ġrem ove
ĠMed i
ĠMed ishield
pr int
Ġent it
Ġoccur rence
Ġcall s
ĠNews Asia
Ġcomb ination
ĠIss ue
Ġiniti atives
Ġrep resent
Ġrev olution
ĠRecent ly
ĠDav id
Ġspl it
Ġunst able
ĠHaw k
Ġdiabet es
Ġenorm ous
5 3
H S
V RC
b ro
f rom
i os
l in
m ar
n km
p ed
p ubl
z e
at abase
Ġo ven
Ġp en
Ġw alk
it ness
Ġf elt
Ġf ixed
Ġb acter
ro us
Ġd ie
il ot
ĠT en
ill er
un der
Ġdis abilities
ĠO VRC
ĠG CFR
Ġwe ather
ag raph
Ġper man
Ġadv ice
tain ing
Ġinst ant
Ġgrow n
ĠK now
Ġcre w
ior no
Ġconstruct ed
Ġproject ed
Ġturn ing
Ġscient ist
Ġbo iling
abl es
Ġexplo ded
Ġenh ancing
Ġreport s
Ġdisast rous
Ġopin ions
Ġspec ifically
eng ers
Ġign ore
Ġsimpl er
ĠTrans port
Ġencount er
Ġneighb our
Ġswit ch
Ġteac hers
Ġunav oid
Public ations
Ġtru ly
i ers
r ating
Ġt able
Ġthe ft
Ġp ie
Ġw ish
Ġd ed
Ġre in
et own
ap ter
Ġgen etically
ĠO ld
Ġcomp rehen
Ġab normal
for ced
Ġtra ged
Ġ20 52
ĠAl tern
ĠDe cl
Ġappro val
Ġkeep s
Ġamong st
Ġfore most
Ġintern al
Ġdest ruction
Ġcou ple
Ġentire ly
Ġdiagno sis
Ġchannel ed
Ġwa ves
Ġart ificial
Ġboom ers
Ġapart ments
Ġneut ron
polic ies
Ġtempor ary
ĠOff ice
Ġsuscept ible
Ġmere ly
itan ic
8 8
A EA
C PF
C ont
D oc
E E
S hield
g m
h istory
n ed
o o
Ġ _
he ast
in ations
at imes
Ġw in
Ġw itness
an cial
Ġf o
Ġto ld
Ġm en
as on
ce l
ver sion
se m
Ġde ploy
ĠA re
ĠH ere
if und
el ines
ĠM or
ost er
ĠTh om
ĠP art
ĠE V
Ġcomp l
Ġun less
out heast
Ġdo i
ia one
Ġknow s
Ġoper ational
Ġprevent s
Ġ4 00
Ġtw enty
ĠPro tect
Ġfast est
Ġsee king
Ġmod er
Ġprom inent
Ġpur su
Ġ9 0
Ġprotect ing
Ġsubsid ized
20 50
ĠFin ancial
ĠPl ant
ĠPl ants
Ġ29 3
Ġinher it
Ġimpos ed
Ġhar ness
ĠInnov ations
ĠBu ong
Ġhighlight ed
rele ases
Ġnorm ally
Ġing red
Ġtro ubl
Ġlang u
Ġunavoid able
b ig
i ro
i ef
in ical
Ġh our
ĠT aking
Ġon going
ĠS pecial
ĠA nt
Ġnot ed
Ġst re
el ih
am in
us ive
ĠM a
ĠN e
ĠB ioethics
Ġinc on
ĠE vent
Ġlo ve
art in
ag er
Ġdiff usion
Ġinform ing
ruct ural
Ġfinan ces
Ġpat tern
Ġstud ent
Ġgreat est
Ġsm ooth
red ict
Ġcool ants
Ġclo ser
Ġwant ed
Ġclaim s
Ġinterest ed
Ġpar agraph
Ġshap ing
Ġoppos ite
Ġcomb ined
Ġloc ate
Ġhamper ing
ĠAdv anced
Ġearn ed
Ġvis it
ane ously
Ġbom bs
Ġemb ed
ĠBrit ish
Ġreplac ed
agn etic
limit ed
Ġdeli very
Ġenterpr ises
Ġannoun ced
Ġrecess ion
Ġlik elih
Ġlikelih ood
1 000
M E
e in
f ind
t ra
y n
Ġt ank
re g
ing ly
it a
it st
Ġm el
id ing
Ġcon ce
ĠR E
Ġwh om
el ong
Ġex ists
ge vity
ĠM oney
ĠF ortunately
ĠW ij
Ġcomp aring
ĠD om
ĠD aily
Ġlo ad
Ġab ilities
ĠL in
ĠL et
ĠL iving
ĠL WR
IN G
Ġcomm itted
ck et
Ġevery where
pro ject
pro gram
Ġhand ic
ĠRes ear
ĠRes ources
res ources
Ġrec ords
Ġcent er
Ġprogram me
Ġtag ged
Ġdirect ion
Ġbre ast
ĠInd ividual
Ġserendipitous ly
ms n
Ġmis use
Ġstay ing
Ġcontain ment
ins on
Ġsimpl ified
Ġguarant eed
ST I
ĠTra cking
Ġviol ation
Ġunp re
Ġmechan ism
Ġofficial s
Ġbreakthrough s
Ġflex ible
Ġram ps
Ġafflu ent
Ġundes irable
ĠEth ical
ĠBuong iorno
ĠWij aya
4 4
g ment
r ons
s ol
v as
Ġ vers
Ġc urb
Ġp ark
Ġp aid
Ġin sure
Ġh ur
Ġbe g
Ġbe gan
ĠS ing
Ġal t
Ġal lo
Ġwith d
Ġex ceed
ĠP ark
ĠB l
os ed
Ġint ention
Ġhelp ful
Ġcar ds
Ġuse less
ust ain
Ġper haps
Ġcare er
Ġconsum ing
Ġcent uries
ĠCon cern
Ġlight en
Ġtend ency
Ġindepend ently
Ġdeb ates
Ġtravel ling
ĠOver view
Ġobser ved
Ġmotiv ation
Ġescap e
ĠGeorg etown
H uman
L M
S ingapore
b orn
c ost
h db
m d
u ment
Ġa st
in ary
Ġp ick
lo cal
Ġg ave
ce ler
ĠI AEA
Ġfor t
ul atory
ĠR ally
if ies
ra il
Ġst ra
ĠC ong
pen sive
Ġdevelop s
ĠD est
Ġint ellig
ĠV iew
age ment
Ġnew sp
pe ace
Ġout let
Ġout standing
ĠFor s
oun ds
ĠRe uters
pl ants
ced ented
Ġemploy ing
Ġinvent ors
wor d
int ern
Ġav ailability
Ġspe aking
ĠSur vey
Ġreli ant
Ġserendip ity
ser ver
Ġupgra ded
Ġfollow ed
Ġemot ionally
ond on
Ġworry ing
Ġwilling ness
Ġexp anding
Ġdeple tion
inl portal
ey e
Ġbi ometric
Ġaccur acy
Ġlink ed
Ġtremend ously
Ġcorpor ations
ĠOb viously
ĠDem ography
ĠRobot ic
Ġthor ough
Ġdrast ically
Ġattrib uted
Ġoverlook ed
Ġrepos itory
Ġwire less
Ġsuc ceed
eful ly
R I
h ab
i ation
o ke
Ġ il
Ġt ons
Ġc ourses
Ġp ra
it udes
Ġb ank
Ġn av
Ġre lying
Ġre comm
Ġl ie
Ġnot ice
Ġsh if
ĠF act
ĠF all
ĠF oundation
per ate
ĠD iscrimination
Ġun employed
ough t
ren e
Ġexam ination
Ġgrow s
Ġatt end
Ġany where
Ġfact s
vi ation
ĠAcc ount
Ġsign s
Ġcommun ities
Ġsk ill
Ġref use
ĠMed ifund
Ġstand s
Ġlook ed
Ġair port
Ġmaintain ed
Ġgu il
ĠEx per
Ġmaxim ize
Ġabs orb
Ġdefect s
Ġscar city
ĠSm ith
rep rene
Ġprem ium
Ġlegis lation
anel los
C H
H e
W h
a uth
b al
m ode
n ational
r ight
w ith
Ġt ends
in st
Ġthe ories
Ġp eb
Ġw al
Ġf riend
al ys
Ġm atters
Ġd igital
Ġre put
Ġg ap
am s
ĠM icro
um b
Ġor d
ĠB aby
ĠG INA
ist ance
ist ry
Ġdes ired
Ġgovernment al
ĠD ata
Ġint ellectual
Ġun re
ĠL TA
Ġrel ieve
ag ger
Ġper ception
Ġaccident al
Ġeduc ating
Ġgener ator
Ġsp an
Ġsp ouse
Ġ6 00
Ġhy dro
Ġ7 5
Ġ7 00
Ġent reprene
Ġstudy ing
lders hield
13 6
ĠMe hl
Ġfinding s
Ġselect ed
Ġsevere ly
ns f
Ġinj ured
Ġcustom er
nam ic
Ġorig in
ĠX iaone
Ġcatast rop
Ġstim ulate
Ġconv in
Ġexact ly
Ġanx iety
Ġactin ides
ĠAuth ority
Retri eved
atur ally
agger ated
ĠMehl man
ĠXiaone i
b ate
f ield
n c
p ir
p ay
u f
re ading
en e
Ġf ederal
Ġm atch
Ġd ro
Ġh iring
ĠT V
ĠT itanic
ot ed
ĠR ich
ĠF our
Ġwor st
ac ed
Ġun limited
Ġper mission
Ġper taining
Ġprov es
Ġ19 60
ivid ed
Ġapp li
ĠCh ar
Ġret raining
Ġpriv ile
Ġoff ic
Ġcl imb
Ġco operation
ĠDe c
Ġexperi encing
Ġappro ved
Ġbre ach
Ġstress ful
Ġemphas ize
Ġcou pled
Ġprefer red
Ġexerc ises
ĠCont rol
ĠEmploy ment
Ġbon ding
Ġmechan ical
Ġneut rons
ĠEnvironment al
ĠSw ed
Ġsell ing
appro pri
Ġdram atically
Ġunivers ities
4 6
7 3
A C
A L
B re
d ata
i ary
j sp
r ative
v ation
w an
Ġ ri
Ġc ents
Ġc overed
Ġp ilot
Ġf resh
Ġin efficient
Ġin effective
ic ide
Ġm it
Ġh it
Ġg am
Ġl iability
Ġen force
Ġag gress
Ġst em
Ġcan d
ĠC ity
ĠIn vest
Ġimp art
ĠP a
ĠP an
ĠP sycholo
ĠB on
ist er
Ġwe ar
ĠL oc
ĠL ondon
ric ult
ab stract
Ġcons erv
ile y
ie ves
ĠRe vis
ĠCh ang
Ġmin ing
Ġref er
Ġrespon d
Ġprovid ers
ĠRes ults
Ġcontrol ling
Ġpass engers
Ġexplo it
Ġur ban
Ġ198 7
ĠSur gery
Ġadop ting
adv antages
Ġel ig
Ġsecond ary
Ġdetect ed
Ġchar ging
Ġindepend ence
Ġdri ving
Ġmot or
Ġdeple ted
ĠTw itter
Ġvir us
Ġiniti ated
Ġprototy pes
back s
product s
Ġcop y
dis play
Ġlay er
gon omics
ĠGener ally
ĠSupp ort
ndrom e
publ ish
ĠCong ress
c her
f amily
m en
Ġt aught
Ġto ile
Ġg ames
se e
Ġl i
Ġl iter
ĠI D
Ġfor th
ĠA ff
ĠM IT
ĠF actors
Ġdis ag
ĠW ashington
qu ality
bl es
Ġinc ap
ĠD isc
ĠL ine
ear ning
ĠJ ones
Ġar ms
Ġany more
ĠUn ivers
Ġoff ering
Ġthough ts
Ġtrain s
Ġstart ing
up s
Ġreach ing
Ġrecogn ition
Ġvol ume
ĠSp ace
Ġvolunt ary
Ġteach ing
Ġweakness es
Ġdepart ment
chem ical
Ġanim als
ĠEvent ually
Ġil leg
He alth
/ .
0 10
9 7
A ge
C O
F iles
d a
m ate
o e
o int
w in
y a
Ġc ross
Ġp ure
is me
Ġf al
Ġb rief
ic ious
Ġm al
Ġd ict
Ġd atabase
Ġh ol
Ġh idden
Ġe ight
as k
Ġre ct
Ġre pe
et p
ch ip
id s
im a
Ġl ux
ant on
ĠC a
Ġex cl
over y
ĠP M
ĠO lder
Ġpl ag
Ġpl astic
ĠD irect
Ġman aged
Ġnew ly
Ġrel ation
Ġwhen ever
Ġelect rom
Ġsupport ers
ĠGen ome
Ġatt itudes
Ġsp ite
Ġwhere about
Ġpo ly
ĠInt eg
Ġsign al
Ġco efficient
ĠSo viet
Ġpress ur
10 38
Ġpur s
Ġfocus es
co generation
Ġdirect ed
Ġair b
ars h
Ġtal ented
ourn als
Ġapplic able
Ġfol ks
Ġenjoy ing
Ġloc ated
Ġste el
Ġfert il
Ġbehavi our
Ġfig ures
Ġdom estic
my cpf
Ġdefect ive
Ġremo ved
Ġassess ment
Ġhapp y
Ġcounsel ing
Ġprinci ple
Ġgadget s
Ġassure d
ĠAng el
ĠLew an
itst imes
Ġunpre cedented
local news
ĠDest iny
ĠFors berg
Ġdisag ree
Ġfal se
a ment
i as
p ered
u ct
Ġ ice
ore t
Ġnot ion
ĠC ertain
Ġim aging
ast ers
ĠB re
ĠB ur
ĠG o
Ġdes erve
ult aneously
Ġcomp elled
ĠL and
ia bly
ĠU s
Ġsupp osed
ĠK anellos
Ġlow est
Ġsp ot
Ġinf lation
we ek
Ġrem ind
Ġpay out
Ġpract ices
Ġplay er
iss ue
Ġdecre ases
Ġsum mary
Ġham pered
Ġinflu ences
Ġreli ef
Ġmis sing
Ġinher iting
Ġpros pects
Ġfeas ibility
oms day
Ġsurge on
mak ers
Ġbon us
ĠSer vice
Ġreplac ing
Ġconcent rate
ĠCitiz ens
ĠCorpor ation
Ġtraged y
Ġreput ation
Ġwhereabout s
8 6
A T
C om
L E
P P
b in
c ri
d anger
g ence
j ID
o ck
s ource
w ill
Ġs ports
Ġc as
Ġw om
ic ian
Ġm iles
il ed
Ġpro hib
ot o
ot ic
ut ing
ut tle
ow att
ĠR en
ĠR isk
ant ed
are n
ive ly
un ami
ĠM O
ĠM in
ke pt
ĠN am
ac he
Ġres idential
Ġr ank
ĠB ro
ĠB ell
ĠB CA
ĠG ra
Ġsa ke
ĠD C
Ġun known
ide os
com es
Ġdo cu
Ġcare g
ob iles
ob jID
Ġ3 6
Ġ3 7
ĠAn y
Ġatt ached
Ġ5 14
Ġac celer
Ġtw ice
ract ical
Ġmin ority
Ġstud io
Ġes cal
Ġass ume
Ġ8 5
Ġprom ises
Ġface book
Ġback up
Ġpr ison
Ġconsequ ently
Ġreact ivity
ator ies
Ġdeterm in
Ġgu ide
Ġdist urb
Ġinterest ing
Ġdisclo sed
Ġautom atic
Ġread er
Ġdiscus sion
Ġtarget ed
Ġappropri ately
Ġauth ority
Ġvis ual
singapore localnews
Ġmar gin
lies t
Ġcontrovers ies
Ġwise ly
Ġparticip ate
Ġphot os
reli ance
Ġpict ures
scienced irect
Ġquant ity
ĠProblem s
stra itstimes
ĠRus sia
Ġoverwhel ming
Ġleng then
Ġcomprehen sive
Cont ent
Ġingred ient
Ġembed ded
Ġentreprene urs
ĠRevis ited
Ġdocu ment
f ts
p eople
r ity
s l
s m
u a
Ġt ight
in ct
Ġb ill
le ase
Ġm alf
Ġis land
id ences
Ġnot es
ĠC reat
Ġimp ed
ĠP ri
ist ed
ubl ishing
Ġv oid
Ġnew er
ĠU N
Ġem itted
Ġrel uct
ard ed
Ġ20 10
Ġpos ed
Ġunder t
ark ed
Ġreg ulation
Ġreg ions
ĠDe velop
ĠRes ource
Ġfail s
Ġcho osing
Ġpay ment
ĠNew ater
Ġbo x
ĠCon st
Ġlight s
ĠAll en
Ġdist ress
Ġshe l
Ġworth while
Ġoutweigh s
Ġhaz ards
Ġsubject ed
Ġey e
Ġregular ly
econom ic
Ġscreen ing
Ġincorpor ated
Ġmid dle
Ġexch ange
ĠIncre asing
Ġentit led
Ġpie ce
Ġpurs ue
A b
A n
A ging
I C
I t
L C
L O
V ery
c ology
e bs
f an
h cf
i isme
k en
m orrow
p sychology
t est
Ġ 09
Ġt um
Ġp us
Ġp ads
or ient
Ġw at
ed y
Ġf ract
Ġf ront
Ġb attle
Ġto morrow
al ination
Ġd ry
Ġh omel
lo gin
ĠT echnical
Ġl acking
ĠR ose
Ġag ricult
ra p
Ġst ick
Ġex ten
Ġimp ress
eop ard
ign ificant
ĠO pen
ĠE l
and er
ĠU lt
Ġlif elong
Ġover he
Ġj eopard
row n
ific ance
Ġpart ly
Ġac id
Ġoff set
Ġ9 9
Ġturn s
Ġcontrol s
Ġcent ral
Ġpass port
Ġconf lic
Ġexplo de
Ġrest ructure
Ġfound ation
perc us
Ġprep aration
Ġones elf
Ġdeterm inist
Ġsix ty
Ġremain ing
Ġ0 8
Ġnet working
Ġlifesty les
eral d
IF E
ĠOther wise
Ġadver t
Ġchem ically
sh ima
Ġrep air
mod erated
Ġobser ve
aid u
Ġnut rit
ĠScient ific
Ġpain ful
Ġremo val
Ġuns afe
Ġguid elines
Ġmeaning ful
Ġwrit ten
Ġdestro y
ĠPres ident
ny times
ĠAnn ual
ĠFun ds
Ġpollut ants
ĠBern hard
develop ed
ĠPa ul
Ġelectrom agnetic
b as
c ol
r ance
Ġw estern
is ons
Ġf at
Ġin appropri
Ġm ix
Ġd rinking
Ġd ivided
Ġre percus
Ġg overn
ĠT H
ĠT om
et ime
ch ildren
ĠI M
ow ers
ir ms
uc le
Ġen em
Ġhe ld
am ples
ĠIn f
qu ately
Ġinc omes
Ġad ding
Ġint erm
Ġpre val
Ġun it
ear ing
Ġaccident ally
Ġour selves
ens ity
Ġconcl uded
Ġpat ents
Ġoff ice
ĠCom put
Ġmod ified
Ġprom pt
Ġconsum ed
ĠMed icine
Ġimpl ants
Ġslow ing
ĠEx penditure
Ġachieve ments
edi ate
Ġneglect ing
Ġfree ly
Ġcontain s
ĠEvery one
ĠDo omsday
Ġsens or
Ġstreng then
Ġflex ibility
Ġglob e
polic y
Ġcateg ories
ĠKh al
Ġinex pensive
Ġvictim s
Ġcorrespon ding
Ġincon ven
Ġwithd raw
N R
P R
P ower
W P
d aily
f uture
i ate
l ia
p aper
s afety
u an
y le
in come
in ancing
Ġs ides
Ġp ip
it i
ic ing
Ġh ouses
Ġre n
Ġre ap
st ers
Ġ2 25
Ġde af
ĠR ap
ĠH er
ure au
Ġst ructures
Ġst ructural
Ġcom pens
Ġimp air
ĠW illi
ĠB ureau
od es
ĠD en
Ġmay be
arch ive
form ed
ĠU se
ĠFor rest
Ġar range
olo g
ful lt
Ġro ut
Ġph arm
Ġunder ground
Ġpat ent
Ġsign ificance
ĠY ap
Ġgre ying
Ġmon op
mer ce
res istant
Ġperform ed
Ġcompet ent
Ġconsider ably
Ġenh ances
Ġdecre ased
ĠAmeric ans
Ġslow ly
ĠAct ive
book s
Ġautom obiles
Ġmor ally
Ġcomb at
orn l
Ġloc ations
Ġconver ted
Ġdri vers
Ġimplant ing
ĠAdv antages
Gen eration
ĠOpp osing
Ġcontain ed
Ġsecure d
Ġmut ated
Ġauth or
ĠFr ank
Ġiniti ative
ĠTechnolo gical
sur gery
Ġmus ic
Ġbroad cast
Ġkil owatt
Ġprosper ity
ĠAccess ibility
ĠLimit ing
Ġacqu ire
Ġmess age
Ġpump ed
pat ient
Ġperce ived
Ġstead y
STI Story
Ġwal king
ĠBon us
hcf inancing
fullt ext
a gine
e fficiency
l ar
n as
t echn
z z
er ate
Ġs we
or ide
Ġw ider
ct or
Ġn amed
st or
Ġpro of
id ering
Ġl one
ul a
Ġen forced
ay si
ra int
Ġhe ated
Ġcom ment
Ġim agine
Ġch ose
ĠO per
ĠG ross
ist or
con ds
Ġpre cious
Ġinnov ators
Ġj et
Ġdec ay
Ġadv ancing
pl an
Ġro b
Ġlow ering
ĠPro gress
Ġsign als
Ġtreat ing
Ġmeet s
Ġaltern ate
Ġtag ging
Ġplan et
Ġlight er
Ġtal king
Ġther m
Ġforeign ers
Ġaddress ing
Ġmach in
Ġaim ed
ĠEconom ics
Ġfear s
ĠCons idering
su pp
Ġsens itive
Ġflaw ed
uff ield
Ġunp redict
Ġdistrib uted
Ġfrequ ent
Ġarchitect ural
ĠTe le
ĠResear chers
Ġappli ances
Ġunpredict able
1 10
7 6
G E
N E
a o
b ide
d ated
f a
f in
g b
h am
p et
p ages
t a
x ford
Ġthe oret
er ry
en z
Ġc row
an obot
Ġm at
Ġd er
Ġd ign
et ter
id eop
Ġl ens
ĠS P
ĠA N
ĠA ut
Ġen rich
ol en
ĠR em
ĠR ights
ĠH iro
ra m
Ġst ro
Ġst olen
ĠC A
ĠC ivil
ĠP ass
ac cess
ac ific
ĠB ack
Ġch rom
Ġdes alination
gh r
Ġwe igh
vent ors
ĠV inci
ĠRetri ved
Ġk illing
ĠSe y
Ġra re
ĠAn alys
Ġcr ash
Ġ4 4
Ġ4 8
Ġfe e
Ġevery body
Ġarg ues
ĠPro ponents
ĠY outube
sequ ent
tern al
Ġrele ases
Ġorgan is
Ġcomple ted
hand book
Ġalloc ating
Ġstress ed
Ġsubst it
Ġsubst ance
ĠComp ar
Ġconver ting
med ical
Ġbal anced
Ġcoll abor
Ġmot ion
Ġcir cle
Ġadver tise
Ġbr idge
brid ge
EN T
roun ds
ĠIm pro
Ġlabor atories
Ġindic ate
blog s
ĠVol ume
Ġtransfer red
parent id
Ġpreca ution
ĠCol lege
Ġdetail s
Ġuncertain ty
Ġpict ure
Ġsurpr ising
Ġextract ed
ĠAndre w
Ġdescrib ed
Ġtroubl es
ĠPark inson
Ġcand id
Ġmalf unction
Ab out
Ġpreval ent
Ġ225 1
Ġlone ly
Ġdign ity
ĠHiro shima
c ue
k es
l iness
p re
Ġa il
in ate
Ġs ch
or ial
Ġw all
ed s
Ġto ward
Ġm arriage
Ġre vel
se c
ot ing
ĠS chool
ol es
Ġsu ns
are s
un ct
Ġim ag
ĠW he
os es
qu est
Ġse gment
Ġman agers
Ġgenetic s
Ġfin ds
Ġind is
all ed
Ġfam ine
ace ut
Ġlif etime
Ġam en
Ġbu ff
ĠRe c
Ġno body
Ġpart icles
Ġret ail
ck ed
ĠInt ellig
pos ition
Ġmod ification
Ġconsum e
ĠMan agement
Ġsustain ed
Ġnegative ly
reen ing
Ġdisclo sing
Ġinstall ation
ĠNo v
Ġdest ruct
Ġcompar able
Ġcult ural
Ġinj ury
Ġaccom pl
Ġeng age
Ġpurch asing
Ġcollect ed
Ġadverse ly
Ġmus cle
ĠSer vices
Ġturb ines
Ġthor ium
Ġsacrif ice
Ġunw illing
Ġded icated
Ġstre ets
ĠIndividual s
8 3
A V
C S
G roup
e ches
g l
g one
g ans
i encies
j p
l or
l ive
m agazine
n ame
o C
p ost
p ace
p arents
s uccessful
w r
Ġt iny
Ġs pecially
Ġs kept
es a
es chede
Ġw ars
ed ing
an ford
Ġf a
Ġf i
le vel
Ġm er
Ġd y
Ġre b
Ġl ic
ot es
ĠS y
ir tual
Ġcon gest
ol ars
ĠH op
Ġag reed
Ġhe ar
Ġhe ating
th an
ĠC ode
ĠM y
ĠM OM
ĠF ood
ate ver
ĠN um
ĠP aper
ac u
Ġdis ability
Ġdis play
Ġr ic
os h
Ġlo gical
Ġun auth
Ġv ary
Ġrel ating
ht a
Ġout comes
Ġcare less
Ġinnov ate
Ġapp arent
Ġbenefit ed
200 1
go ogle
Ġrequ iring
ĠK LM
ĠSt at
oc ol
Ġ5 6
Ġsub sequent
Ġconst raint
Ġdifferent ly
Ġnecess ities
Ġlook s
Ġ198 8
Ġfamil iar
SR C
Ġdeal t
Ġsimilar ity
sp ot
Ġautom ated
Ġdam aged
Ġnet works
ĠMe hta
Ġbreak down
Ġestabl ishing
Ġsure ly
comm ission
Ġcult iv
Ġhold s
AR S
Ġretri eve
ĠCo generation
reactor s
Ġult imate
po x
ĠCar l
Ġobvious ly
Ġsick ness
Ġsepar ate
ĠEmploy ers
Ġevalu ate
mom portal
ĠLike wise
Ġtrig ger
upload file
Ġvo ice
Ġscenar io
Ġbacter ia
Ġperman ent
Ġmel ting
Ġnewsp aper
intern ational
Bre aking
Ġhomel ess
ĠUlt imately
ĠRap id
nas a
ĠSey yed
S h
T H
U C
c r
w ing
Ġ vent
ic a
Ġm il
Ġd ying
Ġn aturally
Ġre pro
Ġre ading
ĠT r
ĠT u
Ġpro ponents
ĠA T
Ġst airs
ĠM er
ĠM em
ĠM artin
ĠN ob
ain s
ĠW here
ĠB FA
ĠG EN
Ġpl enty
Ġse conds
ĠL earning
Ġk ill
Ġcar ries
si le
ger ies
pect ives
ĠGen e
ĠK e
Ġinvent or
wor th
Ġsim ultaneously
Ġreg ion
Ġbas ically
Ġco ating
Ġpress ures
Ġperform ing
Ġglobal ization
Ġspe ech
co al
Ġplan es
Ġut most
Ġpromot ed
Ġplac ing
Ġloss es
Ġattract ing
Ġoppos ed
Ġskunk work
Ġanalyz ed
Ġann ually
Ġwa it
Ġdeterior ate
Ġfeed back
Ġoccup ational
Ġqual ified
Ġintr usion
Ġgrant ed
Ġprior it
Ġrestrict ions
Ġdomin ant
Ġrig id
Ġneglig ence
amil ies
ĠBas ically
Ġord inary
Ġrank ed
aceut ical
Ġamen ities
8 5
A M
C on
S A
b ur
b and
b ted
c net
m c
p b
r is
s pecial
s unami
t our
u ous
y l
Ġt ension
Ġa ro
in formation
re uters
er ife
Ġs il
at i
Ġo x
Ġw el
ed ious
ro ps
il s
Ġg ame
ĠT error
ĠT ata
ch ange
Ġpro posal
se y
ĠS omet
ĠI BM
ul c
nt hes
Ġwh atever
Ġwith hold
um ps
over view
ĠN ond
ĠP e
ĠP ublishing
Ġr ural
ĠE ldershield
ĠG er
Ġsa w
Ġad minist
Ġlo op
our ney
ĠL im
ĠL ight
Ġdo c
Ġra in
Ġsome how
Ġbu ying
Ġno ise
ob s
ful ly
ep ing
gen IV
Ġ4 9
own ed
Ġlow ered
Ġunder gone
other s
Ġ6 4
ak i
Ġcit ation
Ġpo ison
Ġreal ise
Ġrec re
Ġte en
Ġpres ident
co host
20 8
Ġthreat ening
Ġprogress ion
Ġ0 3
Ġconduct or
Ġprofess or
Ġmis under
Ġsat ell
ĠBo ok
ĠAr t
Ġstop ped
Ġenhance ment
Ġobject s
Ġbehavi ours
ĠMal aysi
Ġminds ets
Ġconnect ion
Ġfulf illing
ĠRo ger
Ġshut tle
Ġimmig ration
Ġanti bi
Ġkid s
product ive
ugh t
Ġsurrounding s
ĠPat ients
Ġillust rate
Ġhind ered
iar ism
Ġjud ge
commun ication
Ġdrast ic
Ġblock s
____ ____
Ġkidn apping
ĠSub sequently
Int ro
ĠHeart mate
ĠProfess or
Ġru le
def ault
Ġfarm ers
gm atic
Ġpark s
rail fan
ĠMicro soft
Ġmit ig
Ġcas ual
Ġwom an
ebs cohost
Ġren der
Ġrout ine
ideop hone
Ġric her
ĠSomet imes
ĠNond iscrimination
e ment
f ired
m ail
o lder
s ight
s ufficient
y al
Ġ iron
Ġs ight
Ġs ilver
Ġp ul
it le
Ġm ission
Ġd rink
lo ads
Ġon set
ĠS elf
ĠR a
Ġimp ose
ĠE v
ĠD et
ell ing
Ġup coming
Ġsupp lements
Ġsur geries
Ġexam ine
Ġinnov ating
ĠEn cyclopedia
ĠK ey
Ġqu arter
Ġsp reading
Ġcontin ual
Ġsect ion
Ġreal istic
Ġdiver s
Ġrec u
Ġsen ding
Ġimm ense
Ġchallen ging
Ġest ate
Ġfl ight
Ġorgan ized
Ġaddress es
Ġeth ics
Ġlea king
Ġanaly se
Ġdel iver
Ġtack ling
Ġprim arily
AR P
Ġtren ds
Ġclass ified
Ġsubject s
ĠLo oking
po int
Ġshut down
ĠHel p
Ġsepar ated
Ġencount ered
Ġsold iers
ĠReg ulatory
Ġran ging
Ġdepri ved
Ġhack ers
ĠDom estic
Ġcatastrop he
Ġincap able
Ġinappropri ate
Ġrevel ation
A c
F P
L ee
T O
V iew
W S
a head
d etail
e em
e ia
g al
n es
p olit
r ist
s cient
t ext
u ed
y our
y outube
Ġ @
Ġ Ċ
Ġt edious
he ed
in ics
re ference
Ġs ul
at ric
Ġf irms
Ġd ensity
ou bted
ĠT ime
Ġpro p
ĠS M
ĠS ources
ĠS ource
ir it
Ġde commission
ul let
act ion
Ġsu icide
ĠH en
ĠH ong
ĠH ave
Ġhe avi
el iver
ĠM W
ad ed
Ġor gans
ĠW est
ine articles
so ciety
ĠG SRC
Ġdes erves
ult ation
ĠD onald
pt ember
vent s
ĠV ar
ĠL ow
ĠL ist
ĠL eg
ĠIt aly
Ġelect ro
Ġar ri
ĠAl an
end ers
Ġunder lying
ĠPro s
pend ix
ann y
Ġhand led
Ġdem anding
ĠInt ro
round ed
Ġref erence
Ġrem ark
ron ics
Ġexpect ations
Ġpres erve
top ics
Ġinter ference
ĠCon ference
Ġfore see
Ġexplo sive
30 10
Ġsc ope
11 9
bs ites
Ġthreat en
Ġavoid ing
Ġlear nt
hes ive
Ġpar ad
Ġlea ves
ĠPl utonium
Ġwar farin
ĠCommunity Page
Ġenabl ed
Ġlabor atory
Ġearth qu
singapore budget
Ġsens ors
Ġult ra
ĠCl imate
ĠCar bon
Ġbi ological
Ġfav our
Ġdepress ed
ĠPre vention
Ġcop ing
Ġhind ers
itiz en
Ġconsist ent
Ġred undant
Ġcateg ory
Ġdefic it
Ġexec ut
ĠDef ense
Ġdiscoura ge
Ġanticip ated
Ġinfect ions
Ġappreci ate
Ġbro ken
Ġhab its
ĠMot ors
ĠPo ly
Ġcontract ing
Ġinstru ments
amm ad
Doc ument
Ġhandic apped
Ġstra ight
Ġpra gmatic
uf l
Ġconserv ative
ĠInteg rated
ĠMO H
Ġreluct ant
orient ed
Ġwat ched
lia ment
anobot s
Ġchrom os
oubted ly
ullet in
Ġheavi er
N ew
R P
f ty
k top
o le
r ates
t ons
Ġt issues
in sp
Ġw ave
Ġin ability
al es
ic ators
Ġd ire
Ġn ucle
Ġre hab
Ġg ross
Ġg athe
et ing
ĠA lex
ri ble
Ġhe fty
ĠC ase
am ination
ort ality
ĠM as
ĠM ult
ĠE ach
Ġse qu
ew ork
ĠV al
Ġsystem atic
Ġthan ks
Ġexam inations
end a
Ġwast age
rain ed
Ġminim izing
Ġsal aries
Ġinter f
Ġconf ident
Ġessential ly
Ġmedic ations
ĠEx aggerated
Ġachieve ment
Ġdam ages
Ġcontinu ing
Ġemphas ized
Ġobject ives
Ġpers ist
Ġign or
Ġvir t
car bon
ĠOrgan isation
Ġinstit utes
Ġyouth s
Ġrecord ed
Ġflu oride
Ġstri ke
Ġguid ance
Ġscar ce
educ ated
Ġfunctional ity
Ġslight ly
ĠTour ism
Ġlon gevity
Ġneighbour hood
ĠAff airs
Ġimped e
Ġexten ding
ĠComput er
Ġorganis ations
Ġdestruct ive
Ġrehab ilit
Ġgathe red
1 20
9 6
B News
I M
K H
N ST
S u
a e
c lopedia
d y
f ive
f ast
f idential
g a
j ournals
n r
n atural
p oll
s ilver
t ab
t rans
Ġt ert
Ġt anks
Ġt sunami
he art
Ġa viation
er pr
or ig
Ġw ages
Ġf em
Ġb anning
al o
ic an
Ġm ould
Ġm ish
ar act
Ġn itro
il i
ĠT ay
et ts
se en
Ġl ig
ur l
ot echnology
op ic
ers ion
ĠC lo
ĠC ensus
iv ision
us etts
ĠM oh
actor y
ĠP osition
Ġdis char
ĠB ig
so le
ĠE nt
Ġus able
Ġse x
Ġun its
vent ions
for um
Ġv ideos
com merce
oun g
Ġris es
Ġ20 40
ency clopedia
Ġj ourney
Ġbenef ic
ĠRe lease
pl ications
Ġ3 8
Ġoper ator
Ġcr ude
ph ones
Ġany time
ach usetts
cent ral
pro of
pro tect
Ġconst it
Ġear liest
Ġ199 1
Ġcl inical
Ġtrans mit
Ġco ld
Ġco gn
Ġref uel
Ġmarket s
sid er
ĠMed ia
Ġhospital ization
ĠUS D
Ġ198 4
Ġdeterm ining
Ġend less
Ġmedic ines
eg roup
Ġread ers
Ġadvantage ous
Ġimplant able
ĠAssoci ated
Ġwr ite
wh at
do ctor
Ġincent ive
Ġcol le
EN CE
Ġconvenient ly
ĠGr ant
Ġhold ing
ĠWar farin
ov rc
Ġpan el
Ġdeterior ation
econom ist
Ġdefic iency
Ġpartial ly
Ġsurpr ise
Ġbook s
Ġdead ly
Ġchat ting
ez inearticles
ĠMass achusetts
Ġcompl ain
ĠLin ux
Ġhur t
Ġpremium s
Ġdro pped
ĠOpen Document
Ġconflic ts
Ġinterm ediate
WP Dis
Ġimpair ment
ĠSP UR
Ġsch olars
tour ist
gal egroup
Ġtert iary
9 5
T S
c re
e as
g s
n elled
o on
Ġ rough
in o
re y
re et
Ġs le
Ġc ures
Ġp ic
Ġw o
Ġto ll
ic y
Ġan g
Ġl ines
ĠI phone
ĠH um
Ġnot iced
Ġsh arp
ĠM A
ĠF ederal
ĠTh anks
bl ed
ĠE ver
Ġad ministration
Ġcomp lications
Ġman aging
Ġle tting
Ġsaf est
ab il
Ġmed ium
Ġpolic es
ren ch
Ġinst ruct
Ġsp aces
Ġchan nelled
ak er
li hood
vi ews
Ġretire es
ĠTo gether
Ġown er
Ġrem inder
Ġmod ifications
Ġher self
ron ary
Ġrec ruit
Ġconf irm
Ġlive lihood
Ġexist ed
Ġstress es
ĠComp aring
14 4
Ġcover s
Ġcomfort ably
Ġselect ion
health y
Ġrestric tion
Ġinteg rity
Ġcirc u
genetic s
ĠDo es
Ġindic ated
ĠCo al
Ġsus pects
Ġinstit ution
Ġdeterior ating
ĠChallen ges
Ġkil omet
Res erved
Ġexhaust ed
Ġbus y
Ġstrugg le
Ġacknow ledge
Ġwitness ed
Ġmoder ator
ĠMa jor
Ġbeg un
Ġnav igation
ĠSwed en
ĠUnivers al
Ġdict ronary
Ġshel ter
Ġpus hed
Ġrepercus sions
ĠTH E
Ġpharm aceutical
7 4
7 8
C N
E M
N P
R O
T here
b it
b ca
c s
c ars
d eliver
h r
i bl
i brary
n ight
r actors
s ub
s alt
v esting
y pe
er ts
Ġs ess
Ġs lop
Ġp le
is ure
it age
an ies
Ġf ruit
Ġb ott
Ġto wn
Ġh or
Ġh ards
Ġe ating
Ġn in
Ġn us
il ight
lo sure
Ġis ot
st art
ce k
op ia
op tion
ĠR BM
Ġag gra
if ul
Ġst ig
th rit
Ġsh ip
ĠC R
ĠC ore
ĠC am
ĠC amer
ap y
ĠM ent
Ġimp lic
ĠP ar
ĠB en
ĠE J
ĠG oh
Ġwe ek
ĠD u
pt ions
Ġab und
Ġman ual
com fort
ĠV irtual
ĠL ift
Ġle isure
ĠRetri eve
yst ic
ric hed
ĠJ ur
Ġ20 25
Ġinv ades
Ġinv aded
Ġdec ides
ĠCh ange
Ġ3 4
ĠWith in
gen ome
ck heed
Ġwast ed
Ġperson ally
ex penditure
aw s
Ġsk y
Ġco ord
Ġins ignificant
de ep
Ġmarket ed
ĠRes ort
Ġfail ing
nuclear tourist
Ġsmall pox
50 2050
Ġphys ician
Ġval ve
Ġconvent ion
Ġtax ation
Ġsuff ers
Ġsuff ered
Ġaccept ing
sp ace
doc Id
Ġemer ged
ĠSh uttle
world ageing
Ġaccording ly
19 502050
sc wr
Ġattract ed
Ġland s
ĠComp anies
Ġcat aract
ps on
Ġimplant ation
15 7
Ġteam s
Gen IV
Ġreprocess ed
Ġcontain ing
content S
Ġinstall ing
Ġdra wn
Ġcoll ision
Ġbr illi
asia one
ĠApp lied
Ġinteg ral
Ġcult ures
Ġaccom pan
Ġsearch ing
genetic testing
Ġappear s
Ġsubstantial ly
blog spot
Re port
Ġir respon
Ġemb ra
ĠPre p
Ġart icles
Ġinvolve ment
Ġretain ing
ĠDis aster
ĠEd ison
Ġpush ing
ĠOb ama
Ġevalu ation
parent name
Ġprosper ous
ĠAss ess
user Group
Ġsun light
Ġdestro yed
commun ities
---- ----
ĠYear s
Ġsafegu ard
Ġcritic ism
hop al
bro sis
ĠTen erife
ĠThom as
ĠProtect ion
ĠView points
Ġguil ty
ĠUs ually
Ġnutrit ion
enz a
Ġbuff er
Ġcongest ion
ĠHop efully
Ġcareless ness
Ġnitro gen
deliver ables
Ġnus self
ĠRBM K
Ġabund ance
Ġbrilli ant
userGroup N
a ired
d ri
h us
m iss
r id
s ort
t d
u w
Ġt er
Ġt issue
in ated
or ous
an ch
an cies
Ġf ell
Ġf ab
Ġf usion
Ġd imin
ar row
ĠT reat
et on
st ic
ig m
ot el
ĠS un
ĠA ged
Ġst ar
el ine
el iness
em pl
ĠC oll
ive red
Ġdis rupt
ĠB arrier
ĠO F
Ġdes ktop
Ġrel ax
Ġ3 2
Ġless ons
pend ent
oura ble
ĠSo ci
Ġins ist
Ġhy pert
Ġput s
Ġent ering
Ġfeel ings
Ġminim izes
Ġinter face
ortun ate
Ġ- -
Ġfore cast
Ġpr ud
Ġfamil ial
Ġplay ers
bo ard
Ġencourage ment
Ġprogress ing
Ġpresent ed
Ġemer ging
ĠSh aring
ĠSu per
process ing
Ġdeb ated
Ġbehavi ors
Ġcoll ap
Ġinteg rate
Ġdel ivered
Ġunf ortunate
Ġer ad
ĠEvery thing
Ġcheck s
Ġinert ia
Ġperfect ly
Ġstore s
ĠPat rick
Ġcommit ment
Ġbelong s
Ġreject ed
design ed
Ġfatal ities
Ġask ed
Ġmess ages
Ġanticip ate
Ġfavor able
Ġlangu ages
Ġinsure rs
Ġfort un
ĠPsycholo g
Ġtoile ts
Ġfertil ization
Ġail ments
Ġimag ination
Ġmisunder standing
Ġrecu perate
ĠAlex ander
B arrier
F ER
L A
O r
Q K
S I
W eb
b a
b ul
e h
e uro
e urope
e vents
f low
i aries
j z
k i
m et
m ay
m illion
m edia
m aking
s rc
t uring
t echnical
y car
Ġ >
Ġt ies
in is
in nov
er ies
on ing
on ly
on ik
Ġs ibl
Ġc aught
Ġp and
or al
Ġf oster
Ġto mat
ic he
ic on
ic app
Ġh ide
Ġh ub
as aki
Ġre con
Ġth ick
lo gy
ĠT ech
ĠT ren
ĠT ai
et ooth
Ġl ived
ig ration
ore s
ĠS everal
ĠI ran
ill a
uc s
ĠA D
ĠR ob
th ink
ĠC H
am p
ĠM eg
Ġim ages
Ġimp erative
Ġimp ractical
ĠN ation
ĠN ag
ĠP A
ĠW ill
ĠW ang
ĠW iley
Ġelder care
Ġr ational
ĠB ill
ĠB og
ĠB etter
os is
ĠE ffect
ĠD ivision
Ġv ap
ĠL S
ĠL IFE
ven s
Ġout er
Ġout dated
ĠFor d
Ġar thrit
olo s
enef its
Ġimpro v
Ġpart ner
Ġ4 3
ĠK ong
Ġqu oted
ass ets
Ġ6 7
Ġ5 2
Ġ5 3
Ġ5 4
pro f
Ġfirst ly
Ġtrans mission
aw a
Ġco ated
Ġmod e
Ġprom ise
Ġ9 00
Ġequ ival
Ġminim ise
Ġconf ron
Ġexplo sions
Ġcommunic ations
Ġaid ed
Ġsustain ing
Ġhard ware
Ġcontribut ors
Ġdiscrimin ate
Ġthreat ened
ec olo
Ġdist inct
Ġpoll ute
ĠFin ancing
Ġther mo
ah n
Ġtop ics
Ġ0 5
33 3
Ġchar ged
Ġdri ver
Ġste pped
Ġweak er
Ġsatisf ying
Ġlocal s
Ġworth y
rfid journal
Ġfulf il
ĠApp ro
ĠOver all
Ġmut ual
En ergy
ĠSol utions
ĠTrans it
ĠSen iors
ĠMc C
Ġfair ly
Ar t
Ġkil o
ĠPer cy
ĠPer haps
ĠGreen peace
ĠAccess ed
educ ation
Ġcounsel ling
fuel s
spe ed
Ġdelay ed
........ ........
ĠMod el
Ġowners hip
Ġbelief s
Ġabsolute ly
Ġcompr ises
Ġevol ved
prod Id
ĠDecl an
ĠBl ack
Ġpeb ble
nc bi
abstract s
Ġelig ible
Ġilleg al
Ġrect ify
ĠDevelop ing
Ġoverhe ating
Ġrestructure d
bas ics
ĠAnalys is
Ġdy namic
Ġunauth orized
ĠTu cek
ĠWhere as
Ġrecre ational
Ġantibi otic
Ġcasual ties
Ġdecommission ing
ĠHen ry
Ġremark able
insp i
NST L
Ġrefuel ing
ĠJur ong
contentS et
ĠPrep aring
FER ENCE
inis nkm
onik olos
Ġtomat o
ĠBog onikolos
C C
a ments
f are
f inal
g ments
l on
n atal
p ons
r ust
in ity
Ġs izes
Ġp ir
Ġf ill
Ġb le
Ġb ars
Ġm iss
Ġn arrow
as ons
Ġre verse
il t
Ġbe aut
Ġg i
et us
st er
ur ious
ĠS ci
ri an
ĠR ather
Ġal arming
ĠH is
Ġsh op
un ity
ĠF amilies
ĠN atural
ĠP rom
ĠP red
ĠP olit
ĠW atch
Ġch ief
ĠO xford
Ġcount less
Ġus ages
ĠD ictionary
Ġint ent
Ġk new
Ġem its
Ġsupp lement
ĠJ ul
ple te
Ġbut tons
Ġris en
Ġcomm ittee
Ġro d
Ġro und
Ġph r
Ġsp ons
cept ions
ak en
Ġoff ices
Ġtrans it
aw ay
Ġjust ify
Ġins p
de av
Ġcap ture
Ġass ign
ĠWh o
Ġdiscover ing
Ġpres ents
Ġincl ined
soci ated
Ġcommunic ating
Ġfl our
Ġrele asing
Ġprep ar
Ġcy cles
Ġupgra des
Ġautom ation
cont rol
Ġspecial ized
Ġmis used
Ġstop s
Ġdeter rence
Ġorganiz ational
Ġenabl ing
Ġchannel s
Ġcour t
Ġir re
Ġinvestig ations
ĠDiff erent
Ġcompetit ors
Ġaircra fts
Ġqual ities
Ġreflect ed
Ġtempor arily
Ġdepart ments
mitted ly
Ġappe al
Ġadvoc ate
ĠElder Shield
Ġearning s
Ġstrugg ling
ĠMedi Shield
Ġvers us
Ġhydro electric
ĠRich ard
Ġdetermin ism
Ġagricult ure
stor ming
Ġstro ke
Ġparad igm
ĠPoly techn
ĠHum ans
Ġfab ric
ĠSci ences
. ,
4 1
5 4
6 1
9 8
A l
C are
C ost
E T
E TR
I PA
M W
M CD
S e
S Files
U P
b iz
c pp
c ateg
e per
h ub
m of
n ext
o ok
p res
s cale
v n
v ar
v able
v itro
Ġ 000
he tic
re view
Ġthe rap
on a
en ger
at able
Ġo xide
Ġo ught
Ġp owers
Ġp umps
or rect
an asia
Ġf ing
Ġf end
Ġb or
Ġb row
Ġd iv
Ġn one
ve ys
om al
om ark
Ġg ale
et t
st ud
ch in
se ey
ore r
ot s
ĠS yed
ĠS outheast
ir med
ĠA tt
ĠH ans
ĠH arm
ĠH old
Ġst yle
ĠC ell
ĠM ax
est ions
ĠN ano
Ġdevelop ers
Ġdis app
ĠW H
ĠW elfare
ĠW aste
ĠB lu
ĠB ank
qu es
ĠO il
ry pt
ĠG et
Ġwe bsites
od ed
ĠD ou
Ġint ense
Ġwork load
Ġun healthy
arch ives
ĠV ideo
ĠL a
Ġat oms
ear th
Ġfin ish
ht gr
Ġsupp lied
ag u
Ġage ism
Ġtra ce
oun ow
Ġcomm and
Ġhuman ity
ĠCh apter
ind v
gra de
Ġ4 7
ph ys
Ġsp arked
other apy
Ġ6 9
Ġ5 50
ential ly
Ġext ension
pro liferation
Ġpo orer
ĠY oung
Ġterm inal
int end
Ġmark s
ĠHe ath
Ġdemand ed
Ġsee ing
the mes
the doctor
nuclear power
Ġ7 8
Ġess ence
Ġcor rupt
Ġpass es
ĠEngine er
Ġimm une
inf omark
Ġaid ing
Ġplan e
Ġnear by
11 6
Ġsum mar
Ġsufficient ly
Ġinflu enza
Ġpromot es
Ġsubst itute
Ġsupply ing
uth anasia
Ġemot ions
Ġmis con
Ġpolit icians
light s
Ġbr and
Ġmo on
Ġbl ue
Ġbl ame
Ġsoci o
Ġindustrial ization
sh ow
Ġcirc ulation
CA I
Ġstor ing
22 1
Ġpsycholog ically
Ġfis sile
Ġrespect ed
Ġoptim istic
Ġapart ment
cn n
ĠAustral ian
sk in
Ġbound aries
Ġfight ing
ĠLi brary
Ġfault y
Ġphot o
Ġdetail ed
Ġhousehold s
100 8
Ġadjust ments
Ġconsult ation
Ġce ment
Ġdur ation
pens able
ĠFun ding
scienced aily
Ġsy ndrome
Ġupd ate
Ġgrand children
Ġassum ed
ĠNeed s
ĠIndust ry
Ġacknow led
ĠJe ff
Ġparagraph s
Ġvisit ors
ĠRE FERENCE
ĠLWR s
ĠConcern s
ĠChar les
Ġpoly cl
will seey
ĠBell is
Ġundert ake
ĠConst ruction
Ġindis pensable
nthes is
ĠGer st
Ġchromos omes
fidential ity
ĠMoh ammad
src prod
ĠNag asaki
ĠLS D
Ġarthrit is
IPA A
MCD SFiles
ĠBlu etooth
thedoctor willseey
thedoctorwillseey ounow
b ed
c lo
d isc
g uments
l ink
m oney
p ic
p act
s a
er g
er ving
Ġs ever
Ġs word
or ation
it ation
it ate
Ġb anks
Ġb illions
Ġb icy
as sociated
ĠT ax
ĠS afe
ĠS ilver
ut ious
ir s
ĠA ARP
Ġen deav
nt il
ĠH ig
Ġst agn
ĠC ra
ĠC ap
ĠF ore
Ġimp ly
Ġimp aired
ĠN RC
ĠP erson
ĠP arent
Ġdis miss
ain d
Ġshould er
Ġinc orrect
ĠE mer
Ġus ual
Ġcomp at
Ġcomp act
Ġint ens
Ġlo ans
Ġlo yal
Ġab used
arch y
Ġincre ment
Ġsol ves
form ance
ĠU ntil
Ġsur pass
Ġcare d
Ġpos itions
Ġimpro per
Ġapp lies
ĠRe ason
ĠSt ep
oc king
Ġinf er
Ġcre ations
Ġins ur
Ġgre w
Ġmod ify
ĠRes pon
Ġshort ages
Ġlack s
Ġcent ers
Ġcor ner
Ġresear cher
Ġaccess ed
Ġev olution
Ġtax pay
Ġthreat ens
Ġopen ing
ĠAr chitect
Ġunf ortunately
ĠIm m
Ġtour ists
Ġeng aging
Ġeng aged
Ġreven ues
Ġade quately
Ġaccum ulated
Ġir rele
Ġcivil ian
Ġcharacter istic
ĠWork ers
rad iation
Ġoccup ied
Ġfra m
ĠSm all
reli ant
Ġuncertain ties
Ġprinci ples
bre ak
ĠReg arding
Ġanx ious
Ġunw anted
Ġmig rate
Ġadvoc ates
Ġsqu are
Ġwis er
ĠJe an
Ġrein force
Ġlangu age
ĠAnt i
Ġallo ys
Ġfriend liness
ĠFour th
Ġfract ion
Ġimpress ion
Ġadvert ising
istor ical
Ġteen agers
Ġrough ly
Ġsibl ings
pons es
associated content
Ġirrele vant
0 22
2 33
5 00
7 1
7 2
7 00
B Or
C ent
D T
F i
L ibrary
M on
M em
O f
O ct
V AN
a uc
b b
b uff
b aidu
g ig
g ps
h our
h ire
l fr
n an
o ly
r ong
s afe
s ustain
t echnolo
w p
w ired
Ġ <
Ġt ech
Ġa ven
in ds
er i
Ġo ri
Ġp g
Ġp ion
Ġp el
Ġp ays
Ġw id
Ġw ife
Ġf ine
Ġf ile
Ġto ug
Ġm ortality
Ġd i
ar r
Ġh osp
Ġh arsh
Ġe at
Ġn anobots
as er
Ġre ward
Ġth irty
ĠT rib
ĠT raining
st atistics
Ġpro xim
ce u
Ġ2 40
im ated
ĠS ri
ĠS pen
ĠS aving
ĠS BS
ĠI ra
ĠA p
Ġcon du
her ic
op es
Ġst ays
Ġst ream
no cent
ĠC ited
Ġex cel
us a
ĠM id
ĠM agazine
ĠF u
ĠF requ
Ġim pending
Ġso il
Ġso aring
Ġ1 50
ost on
ĠP op
ĠP ric
ĠP DF
ĠW al
Ġr id
ĠB ry
so cial
qu ir
ĠE ds
ĠE co
ĠG ood
ĠG ale
Ġsa bot
ber ry
Ġprocess ed
Ġse ven
Ġman ager
Ġv ill
Ġv ending
com ings
Ġspen ds
ĠL ater
ĠL ab
Ġat om
Ġind uc
ag ging
ĠJ ack
Ġcons cious
ren der
Ġ19 55
Ġar my
Ġinv ade
ĠRe v
ruct uring
200 2
gen e
ck er
Ġfactor y
Ġunder m
ĠSt anton
pd ate
Ġtw ilight
Ġdem oc
Ġ199 2
Ġsci ences
Ġmem ories
Ġsit ting
aw are
Ġfurther more
ĠHe jz
Ġref used
ĠWor king
mer cial
Ġshort comings
Ġreal ised
Ġ8 50
Ġprotect s
Ġconstruct ive
Ġthink s
Ġent hus
Ġpass enger
Ġconf ig
Ġconf irmed
ath a
20 1
Ġev idences
Ġev acu
Ġbel ieves
ne i
Ġsc ann
net t
Ġnor ms
07 6
Ġ25 2
Ġfood s
aging research
ograph ical
Ġwr ist
TA GE
med icine
Ġdeb atable
Ġassoci ation
rate gy
Ġanalys ing
ĠIm plications
Ġtour ist
genetic info
Ġhar vest
ĠSk ills
Ġobser vation
Ġviol ates
Ġcollect ing
ĠProcess es
Ġinvestig ate
ĠPre vent
Ġi P
ĠStud ents
pub med
Ġincur able
ĠDis orders
mo dule
Ġmotiv ated
In fo
Ġillust rated
ĠCol umb
Ġconcent ration
Ġlay ers
Ġattempt s
Ġfault s
UR E
UR L
Ġplatform s
electric ity
pop n
Ġdiscoura ged
Ġsacrif iced
Ġdeli ber
Ġdur able
Pro gram
cons um
429 238
Ġappe ared
Ġmagn etic
Ġmig ration
Ġrail way
PDF s
Ġisol ated
ĠAg atha
Ġincom plete
Ġvolunte er
lan cast
ĠTour ist
ĠIndust rial
Ġlon eliness
ĠKnow ledge
ĠDecl aration
Ġdeploy ed
Ġalt ered
Ġast ron
Ġintellig ent
Ġconvin ced
Ġenforce ment
ĠSupport ers
ĠCa uses
cri pt
Ġdoc uments
Ġdrink able
Ac cess
Ġsequ ence
Ġinterf ere
Ġisot opes
Ġaggra v
ĠMeg aw
Ġequival ent
Art icles
Se ptember
ĠHeath field
ĠGerst ner
VAN TAGE
buff alo
Ġpion e
Ġpel lets
Ġtoug her
ĠIra q
ĠColumb ia
A E
I I
O ne
U s
d ep
d og
g ot
m ain
m ade
n um
r ant
s aving
v y
Ġt rial
Ġa er
es ide
or ge
Ġre nt
Ġre aches
et er
st uff
im bs
Ġl uc
Ġl imbs
ur ric
Ġfor got
ul es
Ġen cyclopedia
Ġag enda
Ġst anding
em an
ap e
Ġex pon
ĠM et
um ping
Ġres cue
Ġad ds
Ġcomp lement
Ġcomp ound
Ġlo g
Ġpre gn
Ġv ic
Ġv ideophone
ern ity
ĠL ar
Ġnew born
Ġup set
Ġtra um
Ġinst ability
Ġro ute
Ġser ving
ĠSt ill
Ġsec re
less ly
Ġass ert
Ġform ation
Ġbo ard
Ġphys ics
Ġsubsid ize
ĠAd mittedly
ĠHealth y
Ġpr ime
Ġcomple tion
Ġseem ingly
Ġsum s
ĠInd icators
Ġdist ances
down load
down loads
Ġinflu encing
app y
Ġcomb ine
Ġcomb ining
Ġgain ing
Ġsuggest ion
hib it
Ġdri ves
ĠAr guments
ĠOther s
Ġpers pectives
Ġmo ved
Ġelimin ates
Ġbad ly
Ġbegin s
Ġfulf illed
Ġinteract ions
ĠÃ ĥ
Ġvalu ed
Ġpredict ion
Ġoptim ize
Ġbrain storming
Ġobstac le
Ġremo ving
Ġlist ed
Ġcommit ting
ĠSw RI
Ġstim ul
Ġscen e
Ġhop es
Ġreform s
Ġprolong ed
Ġkidn apped
verse ly
Ġinfring ement
ĠMot or
ĠAg ain
Ġdemonst rated
Ġneighbour ing
ĠAltern atively
Ġthorough ly
Ġrecomm ended
Ġoffic ers
Ġclimb ing
Ġliter acy
ĠKhal ik
Ġcomment ed
Ġsuns h
ĠIntellig ence
Ġreb ates
Ġrehabilit ation
Ġcircu it
Ġhypert ension
Ġphr ase
2 17
3 00
4 00
D e
D r
I R
I m
I CA
M aterials
Q E
S ave
U pgrading
a us
b iqu
c ir
c over
d p
d na
f m
f cgi
h is
h ttp
k r
k ed
l ived
m i
m ath
p ric
u ya
Ġ 07
Ġt on
er am
Ġ. ..
Ġo wing
Ġc ush
Ġc odes
Ġc eram
Ġw age
Ġw arm
Ġf ish
Ġf illed
Ġf itted
ic o
Ġm aster
ar b
ar n
Ġh on
Ġre ci
il st
il ience
Ġg un
ĠT her
ĠT ri
ĠT am
ĠT ok
ch ing
Ġpro pose
id US
ot a
ĠS ARS
Ġu biqu
ul ous
Ġsu sp
ĠH earing
if lu
Ġst one
Ġst ating
Ġst ring
Ġhe ight
Ġne ither
Ġsh ield
ies el
ĠC ou
ĠC ould
ĠM at
ĠM un
ĠM obile
ĠF ol
Ġ1 119
ĠN an
ĠN ur
ĠN ER
ĠN LC
ĠP u
ĠP os
ĠP age
pp er
pp le
ĠW ong
ĠW ald
Ġr ats
ĠB rain
ĠO S
ĠO pin
Ġinc ulc
ĠG ill
ist ical
ist ically
art s
Ġse at
Ġun h
ire s
vent ional
com pass
ĠV el
ĠL ank
Ġdo ors
Ġle tter
ans w
ĠU AV
pect ion
Ġsupport ive
Ġam az
Ġj ournal
ĠRe al
pl us
pl anned
ail and
Ġro of
Ġ4 1
Ġeffic iencies
Ġwast ing
Ġsp irit
ĠSt e
ĠUn less
Ġ6 3
Ġca utious
ex ternal
ĠPro t
pro s
Ġallow ance
Ġexper t
Ġmem or
Ġtreat able
Ġexperi mental
10 1
Ġocc as
Ġ8 8
sid ies
2009 09
Ġspe cies
Ġphys icians
Ġsubsid ised
Ġsubsid izing
ĠAd ding
Ġaut on
Ġconf ined
Ġpr inter
Ġ198 5
Ġcrit ically
Ġrest ructuring
Ġdeterm ines
09 07
Ġunderst ood
Ġpoll uted
Ġlast ly
press ure
Ġnever theless
Ġstress ing
Ġcy ber
ser v
Ġpred is
Ġenjoy able
Ġagree ment
elt down
Ġopen ed
Ġstrate gic
Ġgain s
Ġmass es
15 8
Ġpros pect
wh y
ĠCommun ication
60 3
Ġrecogn izing
Ġmoral e
Ġobtain ing
ĠBe ij
Ġmet all
Ġmo le
Ġdoll ar
ĠGr ay
Ġer gonomics
Ġstat istic
Ġabs ence
ĠThrough out
sess ion
ĠLo ckheed
acc ident
Ġcomprom ising
Ġrev ol
Ġcomplex ity
Ġpassive ly
Genetic s
Ġexerc ising
Ġsick le
Ġatmosp heric
Ġchemical s
ov ol
ĠStud y
ĠSp ring
Nuclear Power
fe ature
66 6
Ġincorpor ate
Ġcorro sive
ĠAss istance
Ġhapp iness
population asia
Ġfra me
Ġconsist ently
Ġjo in
Ġjo int
Ġparticip ation
Ġbelong ing
Ġunden iably
well ness
Ġinput s
Ġweb works
ometric s
ĠDise ases
inc eton
amer ican
Ġdur ability
ĠWell ness
cons ultation
rd only
Ġactin ide
Ġdram atic
Ġund oubtedly
Ġupd ated
Ġsudden ly
ĠJac ques
Ġvolunte ers
ĠQu estions
athe mat
mon itor
Ġpill ars
ouch ard
Ġwalk way
project s
ĠFact s
Ġoffic er
ĠLine berry
Ġcareg ivers
Ġentrepreneurs hip
An n
Ġmix ture
ĠWilli am
Ġarrange ments
Ġrob ust
Ġmachin ery
ĠImpro ve
Ġaccompl ish
Ġmitig ate
scient ific
Ġexecut ives
tab ID
ĠPosition ing
Ġsess ions
Ġirrespon sible
userGroupN ame
uw en
Barrier Free
innov ation
ĠAD VANTAGE
Ġconfron ted
cpp r
categ ory
Ġbor ne
ĠWH O
phys ics
Ġmiscon ception
Ġpolycl inics
Ġloyal ty
technolo gies
Ġproxim ity
Ġforgot ten
ĠTam iflu
Ġstring ent
Ġ1119 89
ĠNER AC
ĠBeij ing
rdonly res
N C
b ra
c ers
c ount
c ase
d ictionary
e ins
r ights
s hip
s pending
in ition
or ium
Ġd on
Ġd ys
Ġre active
Ġre wards
Ġre char
il os
ver sible
im ming
ot al
ĠS erendip
Ġcon j
Ġcon duc
Ġen ds
if est
Ġst abil
Ġhe ads
Ġsh ocking
Ġimp er
ĠN T
ĠN uffield
Ġdis sem
ĠW ood
ĠW arming
ĠW estern
Ġwork plac
Ġun con
Ġun fore
Ġdo or
ag o
ĠRe gency
erm an
Ġsec uring
Ġconst itute
ĠInt erest
ĠY es
Ġtrans mitted
Ġtrans formed
Ġprot eins
Ġass urance
Ġmod ifying
the s
Ġpay ers
Ġspe ak
Ġcontrol ler
ier archy
Ġcompet ing
ĠCent ury
ĠSur gical
Ġslow s
Ġprogress es
Ġpromot ion
Ġadop ts
ĠEx amples
Ġconduct ing
19 99
Ġutil izes
Ġwar n
Ġemphas izes
Ġste al
wh o
gard less
Ġdiagno stic
Ġcheck ups
Ġsens es
Ġrev ised
Ġphenomen a
Ġlink s
Ġpe ak
Ġadap ting
Ġconstrain ed
Ġstaff s
ĠPer formance
iter ate
Ġreflect s
Ġpack ages
year s
Th is
Ġhab it
Ġcompr ise
Ġdemonst rate
Ġscenar ios
Ġpen et
Ġfo ot
Ġsmooth ly
vas ive
Ġpick ed
Ġli ber
Ġlux ury
Ġplag iarism
ĠCreat ive
Ġinconven ience
Ġtheoret ical
access ible
ĠWhe ther
Ġadminist rative
natural news
Ġinstruct ions
Ġslop es
Ġaccompan ied
Ġcollap sed
Ġpand emic
Ġsever ity
Ġluc rative
Ġvic inity
Ġconduc ive
Ġworkplac es
/ _
1 40
2 18
A e
B erry
C hernobyl
D S
D aily
H P
I L
L ift
M I
O L
P I
R IS
S B
S ur
S outheast
T ype
U n
c ard
d st
d ra
e lder
e ks
g az
i y
i ative
m ach
m olten
s fr
t u
t w
t ures
v s
v ideo
w s
y o
z one
Ġt im
Ġt un
he m
Ġa ud
in ventors
re al
re ens
en gineering
Ġs an
Ġs ort
Ġo zone
Ġc ate
Ġc ast
Ġp it
Ġp our
Ġp sych
an c
Ġf el
Ġb ond
Ġin nocent
le v
le an
le tt
ic ate
ro sion
Ġm ixed
ion ed
ar ly
ent z
Ġh ost
Ġh orm
ou red
Ġe host
as i
as ant
Ġre w
ld om
ĠT ets
ch ina
ment ation
im ary
im plants
Ġl ump
ĠS O
ĠS us
ĠI ma
ĠI CT
Ġde pos
ĠA h
Ġcon vers
her land
ĠR M
ĠR P
ĠR oy
ĠR OM
ĠR IM
ĠH a
ra cy
Ġhe ights
ĠC y
ĠC ars
ap in
ap on
Ġex ception
iv a
iv ities
am u
am ount
un al
ĠIn come
ĠF Y
est eem
ich ip
ĠP ers
ĠP ach
ĠP oll
Ġres ponses
ance ment
per ty
ĠW i
ĠW ii
ĠW FP
ĠB ult
ĠB rief
os m
ĠE qu
ĠG l
Ġdes perate
Ġad vent
Ġad hesive
Ġcomp osition
Ġun int
Ġun aware
Ġman ip
Ġma il
Ġma vens
iz ations
Ġcont amin
Ġcont amination
ĠV eh
ĠL ink
ĠL td
ud i
ĠU pon
Ġconc urrent
ab in
all iative
Ġrel ig
Ġtra cing
ĠVH T
si p
Ġexam s
Ġimport ing
Ġam pl
Ġdiff ers
low ing
ens ing
Ġbu g
Ġbu h
ĠCh apin
ail ure
Ġpart ners
Ġinst ill
Ġmake up
200 0
Ġold sters
Ġret ro
Ġret rain
gen cies
Ġ4 6
ck s
ĠK n
ĠK im
Ġrisk y
Ġatt ach
other mal
Ġ5 7
Ġinf ert
Ġwhere ver
Ġmin i
Ġtrans plant
int osh
ĠCom mercial
Ġprot ocol
Ġcap tain
ĠRes ilience
av a
10 8
Ġconsum es
Ġexpect ancies
ĠMed ic
nuclear info
Ġcontrol l
Ġpass ports
itt ees
ortun e
Ġimm inent
Ġur l
Ġ198 1
Ġ198 3
Ġrece ives
Ġgreen er
ĠInst it
Ġtax ing
Ġprep aring
Ġend ed
Ġlast ing
Ġgr at
Ġemer gence
Ġemer gencies
Ġuseful ness
Ġattract ions
Ġprofess ion
ms r
Ġopen er
Ġpolit ics
ĠAdv oc
ĠAdv ances
ĠMe eting
ĠCan ad
Ġcommercial ly
Ġbr ands
Ġelimin ating
Ġconnect ions
18 076
Ġprepare s
Ġcontr actors
Ġunf av
Ġcure d
ĠHy att
ĠHy brid
aho o
ĠAc ademic
Ġaccum ulation
ĠTra de
ĠIdent ity
ĠSk ycar
Ġir rig
Ġaccur ately
ĠMac intosh
ĠQ ue
Ġstri ve
Ġexpos ing
ĠElectric ity
Ġhind rance
Ġintr udes
Ġwrit ing
PM C
green peace
Ġextensive ly
spe eches
Ġreview ed
Ġmother s
Ġhop ing
Ġhop efully
Ġge ographical
Ġbul k
Ġbul ky
Ġtri als
ĠMo ore
Ġcalc ulations
Ġsqu ee
Ġtransl ate
Ġtransl ates
cd i
ĠEr gonomics
Ġinject ed
53 18076
ĠTransport ation
ĠThom pson
big uous
Ġpattern s
msn bc
Ġintellig ence
ĠExper i
Ġpeb bles
Ġaggress ively
Ġrefer red
ĠDisc overy
Ġrepe at
Ġairb ag
Ġairb ags
Ġescal ating
sl ip
ĠPri ority
Ġtum ors
Ġenem y
Ġpip es
olog ists
Ġtherm ody
Ġcrow ded
ĠAN D
ĠAut om
Ġadvertise ments
Ġaro used
Ġox ides
polit ics
ĠLeg al
ĠIntro duction
Su percritical
Ġcogn itive
Ġbott om
Ġhards hip
Ġfortun ate
bul b
euro pa
ucs usa
ĠBlack Berry
ĠHarm on
ĠMax well
ĠArchitect ure
ĠSpen cer
Ġcondu it
ĠFrequ ently
pubmed central
Program me
Ġceram ic
ĠOpin ion
ĠTets uya
ĠIma gine
ĠROM AN
ĠBult er
9 3
A d
a ves
b ike
b ound
c ents
c ertain
c ritical
c ifically
g ers
l a
n ot
v ol
Ġt iles
Ġs ingapore
at isf
it ial
an ging
Ġb ike
Ġb ought
ic it
ic ts
ic ago
ro ll
Ġm ir
Ġm alls
Ġd oses
lo t
Ġg ri
st ep
se x
Ġfor ty
ow s
Ġen act
ri ans
ĠR est
ĠH u
Ġst ories
el ior
Ġsh ar
ĠC ritical
Ġex pose
Ġcom ments
ĠIn itial
ĠF ossil
um n
ĠP ract
Ġres erve
Ġdis p
ĠW ide
ĠO rig
ĠG old
Ġwe aring
ĠD igital
Ġman ifest
iz ers
ĠV TH
Ġout break
ru its
ĠVHTR s
Ġar rest
Ġinnov ated
Ġtime ly
Ġam elior
ĠRe ports
ĠRe gardless
pl ane
Ġro se
ĠK ev
Ġinf l
Ġimplement ations
Ġafter math
ĠY e
Ġbur nt
Ġrem edy
Ġrem inds
Ġdiver se
Ġdiver sion
Ġset s
Ġprom ised
Ġrec overed
Ġchallen ger
ian g
Ġgra de
Ġtechn icians
Ġbre ed
Ġclean ing
Ġel abor
ĠSh an
Ġrefrig eration
Ġshap es
Ġdam aging
Ġcontinu ation
Ġfollow s
ĠProv iding
Ġapproach ing
Ġsatisf actory
Ġnur turing
ĠBe h
Ġleak s
Ġleak ed
Ġtele communication
Ġmet ers
ĠSum mary
Ġcompar atively
Ġsimpl ify
ĠCl inical
Ġoptim al
Ġcivil ians
gu ide
Ġpossess es
Ġboom ing
Ġcounter part
Ġbon ds
ĠGerm an
econom y
load ed
ĠSpe cifically
Ġdraw backs
ĠDem ographic
Ġhighlight s
Ġexec ute
ĠEast ern
Ġworsen ing
inc re
Ġexc use
Ġund erest
ĠCitiz en
Ġrig orous
Ġbright er
ĠPhys ical
Ġmechanism s
Ġguil t
Ġconvin cing
Ġimpart ing
Ġrespond ents
Ġtight ly
Ġenem ies
ĠInf rast
Ġswe et
Ġsatell ites
Ġprepar ations
Ġirre versible
ĠPolytechn ic
Ġacknowled ged
ĠHig her
ĠFore ign
Ġfram ework
Ġexpon entially
Ġdys f
ĠNT UC
ĠVTH R
0 45
1 60
9 1
9 00
A ct
A pr
A ll
B usiness
C l
E duc
F requency
M A
N o
P ages
R CA
S o
T M
T ube
W O
a a
a q
a ver
b m
b ar
b st
c at
c est
d h
f p
f u
f irst
f und
f ossil
f cd
i ac
j a
j i
k a
k g
l at
m ount
n ell
o x
o ec
p mo
p mc
t m
t z
t ical
t amu
u is
w ind
w ashington
y si
z ona
Ġt apping
in h
re f
Ġs and
Ġs ought
at l
at rick
Ġo xy
Ġc ru
Ġc rop
Ġp ed
Ġp ull
Ġp alliative
or hood
Ġw ild
it em
Ġf ate
Ġf ans
Ġf ix
Ġb ow
Ġb ath
le br
ic ted
ro t
Ġm athemat
Ġd ig
Ġd ial
as ure
Ġre used
il ial
Ġbe at
ly m
ation ally
ĠT O
ĠT y
ĠT im
ĠT able
ĠT od
ĠT MI
id a
id one
ĠS A
ĠS ign
ĠS ony
ĠS ME
Ġde eper
ĠA ri
ĠA ID
Ġen ding
Ġen compass
ol ler
ĠR educ
Ġal ike
ĠH ap
Ġag ency
if iable
Ġhe ard
ci pl
em ot
em ia
ort on
ect ed
un ger
ĠIn fo
ĠIn iti
ĠIn vesting
ĠM ount
ĠM ary
ĠM arsh
ĠF OR
ĠF oster
Ġgen ome
ĠN G
ĠN atal
ĠTh ailand
ĠP ol
ĠP ort
ĠP ension
ac lu
ere oty
ere ano
per idone
Ġdis sip
ĠW NA
Ġr ice
ĠB log
ĠB hopal
ĠB enefits
ĠB ouchard
Ġch a
qu ire
qu otes
ĠE ric
ĠE dit
ĠE dition
ĠG reat
ist an
Ġwe eks
od a
ĠD own
ĠD iver
ĠD anger
Ġpre ced
Ġse ats
Ġse ldom
ual ity
for ces
ĠV I
ĠV WO
ĠL if
ss on
ear s
Ġk n
Ġk iller
Ġcar bide
ven e
Ġem pt
ab s
ĠJ en
ĠJ un
Ġout do
TR E
Ġ19 40
Ġelect ronics
Ġ20 15
Ġinnov ator
ie vable
port ant
Ġover night
Ġdec ent
row ing
io vas
ĠAl ong
ĠCh ild
ĠCh air
200 70
Ġret iring
gen et
gen eral
ĠK W
ph ur
Ġqu ote
Ġ5 1
Ġfac ility
Ġinf lic
we ight
pro blem
pro gress
Ġmin utes
ĠY ew
Ġreg ional
Ġreg ulated
Ġsm oking
Ġreveal s
Ġref erences
Ġ10 1
news hub
ĠDe atrick
Ġpolicy makers
Ġneg ot
Ġreal ities
10 208
Ġpur ification
Ġrec all
Ġ9 50
Ġform al
Ġexpect ation
50 2
pr inceton
ĠSCWR s
Ġpass ion
ĠCon versely
Ġimm unity
br is
Ġtransport ed
Ġdirect or
Ġpract ic
Ġpract ition
Ġview points
Ġclo thes
ang ible
Ġrest aur
te en
Ġgu ard
ĠMay be
Ġdou bled
Ġcore s
Ġcomput ing
article render
Ġclear ance
Ġemer ge
ser vices
sc rib
sc reening
sc ape
Ġdam s
Ġspecial ists
13 2
ĠComp aq
ĠPl us
Ġkin etic
Ġarticle ID
wh ite
Ġcover ing
Ġassoci ate
Ġnur se
els on
Ġdest ination
Ġmo v
Ġbl amed
etro it
Ġquestion ed
CR P
ret irement
rfid consultation
16 4
Ġcontr actor
ĠIm pact
Ġdiagno se
Ġresol ution
ĠCo hen
ĠInnov ative
Ġcheap est
ĠBu y
stand ards
Ġcorrect ive
ĠZ ha
ĠTra ffic
Ġviol ated
Ġweapon ry
she ets
Ġkid ney
Ġart id
Ġz one
Ġallevi ated
pub s
Ġneighb oring
Ġstrength s
ĠGroup s
Ġprec ision
Ġillust rates
Ġdut ies
ĠTe ck
Ġreject ion
PM Ann
reli able
spe ech
ĠConsum ers
hy drogen
Ġexch anger
ĠArticle URL
ĠMon itor
ĠLong er
agaz ines
Ġmicro chip
Ġteac her
Ġgl ue
ĠFuel s
Ġappreci ated
ĠKh oo
Ġlegis l
Ġdepri ve
ĠNet work
ĠJac obs
Ġassum ption
Ġneglig ible
PA CT
robot ic
Ġisol ation
Ġperce ive
Ġstead ily
ĠFac ility
Ġperman ently
ĠKnow ing
ĠNe il
ustain able
Ġrecomm end
Ġshif ted
Ġshif ting
Ġprivile ges
Ġelig ibility
Ġhol istic
ĠDirect or
Ġpressur ized
ĠAngel ique
ĠCertain ly
cri ption
Ġcareg iver
It em
Ġcompens ate
Ġmonop ol
supp ort
Ġcandid ate
Ġcandid ates
Ġskept ics
Ġfi brosis
ĠMem ory
AM CRP
ĠMalaysi an
detail s
Ġsul phur
ĠVar ga
erpr ise
Ġbenefic iaries
Ġcolle ag
Ġstig ma
ĠMent or
ĠPar liament
ĠAssess ment
Ġprud ent
ĠHans en
ĠGet z
Ġdismiss ed
quir y
ĠHejz lar
ĠTok yo
ĠPu at
Ġauton omy
Ġimper fect
Ġtun nel
Ġcate red
Ġfel low
Ġrew arding
ĠPoll ution
Ġgrat itude
ĠAri zona
iovas cular
ĠZha o
PMAnn ex
g ile
h ospital
i en
i pping
l ines
m as
o or
Ġ x
Ġt u
Ġt ries
Ġt ens
Ġa est
Ġs ounds
Ġp y
is ive
is fact
Ġf ruits
Ġd im
Ġd edu
Ġe ases
ct ors
Ġbe aring
ĠT ill
st reet
Ġpro duc
Ġfor cing
ĠA ward
ĠR am
Ġal ter
ĠH otel
Ġst ereoty
Ġsh o
Ġsh rink
Ġex port
am ple
ĠF A
Ġim bal
ĠTh orium
ĠW W
Ġr ub
ĠB r
ĠB an
ĠB anks
Ġcount y
Ġad mit
Ġle ver
ĠSe lect
Ġrel ies
Ġtra ced
Ġtra pped
Ġar ray
Ġj ump
ose ph
Ġadv isory
ĠRe processing
ail ed
Ġinst illed
gen erate
ĠK el
Ġlow ers
ĠUn it
ex as
ex ts
Ġhand y
Ġstud ied
Ġreg ist
Ġtrans ition
de pend
Ġche cking
Ġ9 11
Ġent rance
Ġbo il
Ġfeel s
Ġminim ization
Ġsubsid ise
Ġconsider ate
Ġest imate
Ġlight bulb
Ġbre aking
Ġseem ed
Ġharm s
Ġgu ards
Ġenvironmental ists
Ġinflu x
Ġremain ed
Ġ14 6
Ġdetect ing
Ġperiod s
Ġstructure d
ĠDesign ing
Ġaim ing
Ġworks hop
Ġburn s
Ġinher itable
Ġpros pective
ĠLFR s
Ġnur ture
Ġspeed s
Ġsuper v
Ġquestion able
Ġconnect ing
Ġpost ed
omet er
Ġgradu ate
Ġrep res
Ġexpl oration
Ġver ify
ĠWork force
Ġstore y
Ġrul ing
sk illed
ĠPat ient
empor ary
Ġstim ulated
Ġexec uted
Ġsympt om
Ġbed s
ĠLimit ed
Ġprecise ly
ĠSc reening
ĠRel atives
Ġsafegu ards
Ġdeep ly
Ġisol ate
Ġleng th
Ġpursu it
Ġharness ing
Ġexploit ation
Ġpure ly
ĠBre ast
Ġenrich ment
ĠNob el
Ġignor ance
Ġvirt ually
ĠColl apse
Ġpir ated
Ġbeaut iful
ĠPred ications
ĠWatch dog
ĠEmer gency
Ġcompat ible
Ġinfer ior
ĠiP hone
dep th
stuff works
ĠLar ge
Ġamaz ing
Ġshar ply
isfact ion
2 20
4 40
4 38
5 7
6 3
6 09
7 17
8 1
8 00
8 39
A A
B I
C M
C urrent
C hem
D I
D ate
E L
F eb
G T
G IF
H DB
I nd
I ST
N et
Q u
R F
S pe
U N
V ol
V ersion
b id
b aby
b entz
c in
c ure
d i
d em
d ia
e ing
e qu
e uthanasia
f oundation
g p
h d
h on
k o
k ol
l ap
n st
n man
n rc
n uffield
o en
p g
p al
p ie
p any
r doc
r ank
t j
z S
Ġt ire
in ational
re ach
Ġs em
Ġs port
Ġo ct
Ġo st
Ġc uring
Ġc rops
es ign
or osis
ed ge
Ġf ut
ic ity
Ġm ill
Ġm ac
Ġm ice
Ġd irty
Ġd iesel
ar i
Ġe rect
Ġre design
Ġth ri
Ġg ift
ĠT rain
st anford
ch m
ch t
Ġpro active
se in
ig ra
ĠS al
ĠS ter
ĠS ie
ĠS eng
ĠI ll
ut ting
uc l
uc ca
Ġcon ve
Ġen riched
op in
op ics
ol ved
ay ton
ĠR ight
ĠR EA
Ġal erted
ĠH T
ĠH am
ĠH ouse
ĠH omel
ĠH anny
ith ium
Ġag ents
Ġwh ilst
Ġhe s
tt a
th al
ies t
ĠC i
ĠC re
ĠC ard
us able
ge red
ĠM ail
ĠM ilitary
ĠM iles
ĠF is
ĠF ar
ĠF ull
Ġso ar
ĠN ish
eop orosis
ĠTh ink
ĠP g
ĠP ad
ac ct
Ġres ident
Ġdis put
Ġdis posed
ĠW ind
ĠB al
ĠB ra
ĠB all
ĠB urn
ĠB rad
ĠB rown
ĠB aidu
ĠB oston
ĠB RCA
qu ez
ĠO cc
ĠO ffic
ĠE xt
ĠG ord
and al
Ġad here
ĠD i
ĠD rug
ĠD etroit
Ġlo cked
Ġpre f
Ġpre v
Ġun im
Ġun comfort
Ġun reliable
Ġab stract
Ġman ually
Ġv s
Ġv icious
ĠL ou
ĠL aptop
ĠL aun
ĠL UP
Ġle ase
Ġem ail
ab t
ĠSe ah
ter ity
Ġper ceptions
ĠJ on
ĠJ ae
Ġcons ensus
si an
Ġ19 30
Ġimport s
Ġar bit
Ġed ition
Ġapp oint
row se
row th
ĠOn cology
io kol
Ġcomm ission
Ġcomm ittees
ĠRe public
Ġro t
gen ic
Ġ4 2
ck ets
Ġser ved
ĠK enn
ĠK uan
Ġph ysi
ĠSt aff
ise ase
Ġ6 8
Ġ5 10
Ġ5 000
Ġcompan ions
ring s
Ġinf ant
Ġinf lex
Ġcre d
by opia
ys pace
ĠTo ck
Ġsign ed
ĠY ucca
Ġoff enders
Ġcl ick
int ensive
Ġob sole
Ġco op
Ġco ok
hen g
pos itions
Ġsm og
Ġsm oke
ound ed
Ġstr angers
Ġmod ular
ee b
ron ically
10 11
Ġset t
Ġvar ies
Ġglobal ised
Ġ8 00
Ġequ ate
Ġprof ile
Ġpres cription
Ġdefin ite
Ġaw arded
Ġcent igra
Ġsal e
ier ce
Ġinter vene
Ġtell s
29 5
Ġexplo red
20 9
30 9
Ġgra ce
itor ies
Ġassist ing
rig er
doc anch
Ġinflu ential
Ġreli eved
uk es
Ġshare s
Ġ25 3
Ġ0 1
Ġ0 2
Ġchar ity
Ġchar ges
19 51
sc reen
ĠNews paper
Ġattack ed
Ġutil ised
Ġdiscus sing
Ġcat al
Ġobject ed
Gen ome
65 67
ĠScience Daily
ins ight
Ġboost s
Ġposition ing
Ġdel ays
Ġvulner ability
Ġresol ving
Ġvis ually
Ġflo od
ĠCo operation
enn a
ĠPr imary
Ġmanufacture d
ĠCl ar
ey nman
Ġleaders hip
ĠRadio active
Ġbi om
Ġviol ence
Ġoptim ized
Ġemb ry
she et
ĠAb ra
Ġcard iovascular
ĠMac book
Ġroad map
Ġabandon ing
Ġfacilit ates
Ġcapac ities
ĠKore an
hel p
Ġcorpor ation
Ġdiscuss ions
Ġadap ted
Ġdistrib ute
pub n
Ġpan ic
sk i
Ġincur ring
ĠDis advantages
Nuclear power
dis asters
ĠMc K
tech resources
ĠOb st
37 1
Ġinterp ret
Ġhapp ier
Ġtalk ed
Ġred ef
ĠLe ase
PM GT
Ġconv ince
Ġexpress ed
Ġattrib utes
bre cht
file Library
Ġce lebr
resent ation
ĠOut look
Ġpeace ful
ĠYou Tube
Ġtri ple
Ġappreci ation
ĠGu ide
Ġwonder ful
Ġtrig gered
Ġmagn itude
Ġrail ings
Ġcalc ulated
Ġbro ke
ĠCor rosion
Ġvessel s
Ġsurf aces
Ġsurf aced
ĠNet herland
Ġpollut ing
Dis play
ĠChe m
Ġcorrespon d
Ġsmart phones
Ġbra ke
Ġpill ar
ĠMedi Save
sem bly
Ġdeploy ment
Ġcompl ac
find articles
tra ck
Ġallo y
pir atory
Ġprivile ged
Ġtoile t
ĠDisc losure
Ġrepe ated
ĠAny way
Ġprison ers
Ġfat ig
ĠIM PACT
Ġprompt ed
daily mail
Ġpip ing
ĠWilli ams
ĠDen ise
ĠDen mark
fa q
ĠCompar isons
Ġsurprising ly
ĠSy ndrome
Ġvary ing
Ġsil icon
sight ed
Ġarri ve
poll uting
Ġmish ap
ĠTay lor
url Version
protect ed
Ġcomplain ts
Ġkilomet ers
ĠCam bridge
ba ike
ĠTren ds
Ġvap or
prof it
Ġkilo gram
ĠPolit ical
Ġspons ors
Ġinsp ired
Ġflour ish
control led
ETR Y
Ġtherap y
ĠAtt ack
Ġsummar ize
aind ur
ĠStep hen
Mem bers
ĠAp pendix
Ġconfig ur
ĠMegaw ati
aus ible
cover Date
fm t
Ġubiqu itous
Ġsusp icious
Ġshield ing
ovol ta
scientific american
Ġunfore seen
Sur veillance
ĠPach ano
Ġirrig ation
Ġsquee ze
ĠInitial ly
washington post
Ġped est
ĠTod d
ĠAID S
ĠHap tic
ĠMarsh all
ĠNG NP
ĠPol ice
ĠDiver ting
Ġempt y
Item id
Ġcolleag ues
839 371
nuffield bioethics
ĠSter bentz
ĠSie berg
Ġuncomfort able
ĠJae ger
Ġobsole te
Ġcentigra de
docanch or
A D
M ay
b ase
b urn
c amer
c alled
d ate
f ight
g overnment
g rounds
h ang
m ally
m ates
r ary
s ides
t ask
u ity
in ic
re c
re w
Ġc ub
is er
ed ay
ed ged
it ting
Ġf ed
Ġb one
Ġd are
Ġd ual
Ġe c
as hes
ld ly
om ical
Ġg rounds
ĠT op
Ġpro ving
id st
ir ds
Ġde p
Ġcan cers
th is
Ġex ac
Ġex aggerated
ĠM us
ĠM uch
ad em
Ġwor n
ĠN O
Ġdis appro
ĠB lo
Ġpre de
Ġab ort
Ġab road
Ġv it
Ġv ig
Ġv ac
Ġcont ing
Ġcont emporary
Ġacc ord
ter ror
ĠJ oseph
ĠFor ce
Ġyear ly
ren ched
Ġcare ers
Ġexam ined
Ġwell ness
Ġover ly
Ġdisc arded
Ġgo v
Ġdec isive
Ġadv ised
ress ing
ĠCh icago
ail ing
Ġno vel
Ġatt ended
Ġatt ending
Ġqu iet
ĠSt and
Ġrad ar
Ġdet ractors
Ġtrans form
Ġtrans formation
Ġterm ed
ĠWor ks
Ġcontin ually
ĠDe mentia
Ġ9 6
ism s
Ġform ing
Ġsche dule
Ġsen sible
Ġmethod ology
Ġ- --
Ġair plane
Ġview point
Ġclaim ing
Ġafford ability
Ġdeterm ination
Ġassist ant
Ġaccount ed
Ġapplic ants
Ġcut s
Ġtyp ing
Ġsom eday
Ġheart s
Ġeth ically
Ġutil izing
Ġopen s
ĠEconom y
cl ass
-- -
ĠNor mally
Ġrecogn ised
Ġfull est
Ġvia bility
Ġboost ing
Ġfunction ing
Ġunderstand able
Ġchem istry
Ġdeple te
ĠPriv ate
ĠIm ple
Ġprofit ability
Ġinteract ing
Ġvis iting
Ġflo ors
Ġsoon er
Ġcorrect ly
Ġpredic ting
Ġfav ourable
Ġsepar ation
Ġcop ying
ĠTrans fer
Ġallevi ating
ĠGe orge
Ġmus cles
ĠUnder standing
Ġstri kes
Ġevalu ating
Ġhinder ing
cu it
how stuffworks
Ġaccommod ation
Ġparticip ating
Ġdesc end
ĠEs pecially
Ġpack age
Ġescap ing
Ġenterpr ise
ĠIncre ase
Ġinex per
Ġquant ities
mark et
Ġoverwhel med
Ġwis dom
Ġvibr ation
Ġwatch ing
Ġburdens ome
Ġpursu ing
word press
ĠPsycholo gical
Ġexcl usive
Ġmargin al
Ġgovern ing
Ġtheoret ically
Ġretail ers
Ġcultiv ating
Ġpriorit ized
Ġearthqu ake
Ġearthqu akes
ĠMult i
Ġfem ale
Ġlig aments
There fore
Ġhor rible
Ġembra ce
Ġgi ant
Ġassign ed
ĠPerson ally
Ġtaxpay ers
Ġori ent
Ġinduc ed
Ġcush ion
ilos oph
Ġconj unction
Ġdisp ute
Ġexac er
Ġprede cess
0 20
2 11
4 49
4 77
7 09
8 19
8 65
8 45
9 0
A s
A TION
B E
B u
B ulletin
C an
C ity
D O
D own
D onald
D etail
E AR
G L
G S
G lobal
H ome
H TR
H istory
I Q
N SS
O P
P r
P olic
R L
S afety
T C
T E
W ork
b our
b ia
b ank
b rowse
c ool
c ouncil
c urric
d iscrimination
e en
e lect
f ig
f ac
f all
g c
g g
h ill
h att
h az
i ences
j m
j ud
k ids
m m
m in
m ann
p ersonal
p ublished
p aren
r m
r atic
s est
s ens
t rain
t ai
v o
v ob
w atch
w inter
w aste
y ours
z V
z o
Ġ 00
Ġt ear
he um
in itely
in ction
re v
Ġthe at
er ating
er sey
en vironment
Ġs li
at y
Ġc ul
Ġp a
Ġw et
it ance
Ġf an
Ġf ly
Ġf ather
Ġf ash
Ġf ierce
Ġb oss
Ġin duce
ic ks
ro ft
Ġm ount
Ġan cient
Ġan cest
Ġd il
Ġd ark
Ġd umping
Ġh alt
Ġh unger
Ġe lev
ct u
as quez
Ġre pl
il ia
lo ved
Ġg lo
ĠT s
ĠT em
ĠT ef
et itive
et te
ch ill
se vi
id ed
Ġl ung
ur anium
ot ive
ĠS her
ĠS ay
ĠS ons
ĠS vob
ĠI de
ow der
Ġas king
Ġde bris
op o
ĠH and
ĠH appy
Ġnot ify
if ier
Ġst ock
ant i
ant ly
Ġsh ot
Ġsh ock
ĠC op
ĠC ult
ĠC hen
ĠC OM
ĠC arriage
ĠC lean
are r
un ch
ĠM ic
ĠM ag
ĠM ex
ĠM ath
ĠM orton
ĠM yspace
ĠF DA
ĠF ailure
est er
um es
Ġ1 20
echno vel
ĠN elson
ĠP U
ĠP ublished
ĠP acific
ĠP RO
ast s
ast ava
Ġdis ting
Ġdis par
Ġdis cipl
ĠW ider
Ġr ing
Ġr ated
ĠB ed
ĠB est
ĠB ush
ĠB ulletin
os omal
ĠO st
ĠO ak
ĠE arly
ĠG i
ĠG ar
ĠG ree
ĠG raph
ĠG erald
ist ive
con f
Ġpl ausible
Ġcomp os
Ġcomp ress
Ġcomp ounds
Ġlo ses
Ġun ion
Ġcont rad
ĠV is
duct ions
ĠL ess
ĠL yn
ear ly
Ġk ills
Ġk Wh
ĠAs ked
ter ms
ĠJ oint
ĠJ ersey
Ġtra its
oun ding
Ġ19 64
Ġris peridone
Ġ20 2005
ĠGen IV
olo gies
Ġiss ued
Ġadv ise
ĠAl brecht
Ġinform al
ĠRe ad
ail ment
ĠAn aly
ĠEn h
Ġro cket
Ġ4 000
Ġfe ared
ĠK y
ĠK ahn
ph y
Ġph ases
ĠSt ar
ĠSt one
ĠSt ructure
ĠSt ump
ĠSt anford
ĠSt rong
ĠSt rategy
ok en
Ġ5 8
li ance
oth ing
ĠPro duction
lob e
eth ical
Ġsim ulation
Ġtrans m
int eg
ord able
Ġco inc
Ġown ing
Ġins erted
Ġins pection
Ġhy p
Ġsm ell
ĠHe at
ĠDe bate
irect ly
Ġdepend able
Ġshort est
ĠWh it
ĠWh ittle
Ġappro ve
Ġcho oses
Ġ7 47
Ġprof ound
2009 07
Ġpres byopia
Ġdefin es
Ġsen ile
Ġyoung sters
Ġcor ners
Ġserious ness
ĠAd ams
Ġaut osomal
ĠCon fidentiality
Ġimm oral
ath s
Ġ23 9
Ġgra vity
Ġclo sest
Ġreact ants
Ġwant ing
bo om
Ġactiv ate
Ġtechn ically
net wellness
Ġend anger
ec ology
ĠInd ian
Ġpositive ly
fact s
sp y
Ġut ility
Ġmanage able
Ġbirth rate
ĠFin land
ĠSh ort
12 8
Ġcy cl
Ġ0 6
Ġeth ic
19 5
Ġ30 3
Ġspec ified
use um
Ġloc ating
ĠAr range
25 9
Ġanaly tical
Ġburn ed
TA R
Ġpoor ly
ĠOpp ortun
do ck
riv al
Ġsatisf ies
23 9
Ġsuper vision
ins urance
rug ge
health care
isc oll
Ġcater ing
Ġden ying
Ġinteg ration
Ġvol at
ĠPh D
Ġcontact s
Ġsimpl ification
Ġsimpl icity
Ġvis its
Ġclass es
oph ilia
arth a
Ġ24 00
ĠCl ayton
ĠAc adem
Ġrev ise
Ġdev ised
Ġaccum ulating
ĠCI A
Ġpredict able
Ġpredict ions
Ġcivil ization
ĠBi ometrics
can o
Ġexpl an
Ġsw ift
ĠEmploy ees
ov t
ĠQ uality
rad io
ĠGe ographic
Ġbroad band
Ġflu ctu
Ġoccup y
Ġstri king
Ġneighb orhood
ĠLi ber
Ġincorpor ates
Ġillust ration
ĠChan ging
ĠRobot s
ĠGreen ha
Ġcateg orized
user id
Ġfit ness
Ġbar rel
Res ource
Res earch
35 3
Ġexec ution
ĠSch oen
ĠCN N
business week
ĠPres ently
aut o
Ġge othermal
Ġmicro chips
ray ton
Ġinfect ed
Ġinfect ion
... /
Ġran ges
ĠSub sidies
Ġban king
Ġrepos itories
Ġappe aling
Int ern
ĠTest s
Ġtransl ated
Ch apter
Ġexpand ed
ĠPhys ics
Ġinject ion
ĠNE Water
Ġvo ices
Ġcra ck
Ġwalk ways
Ġabnormal ities
ĠAltern ative
Doc uments
Ġpursu ed
Ġinherit ance
Ġharness ed
Ġstre et
Ġconce al
Ġbiometric s
ĠExper ience
Ġcross ing
Ġlux urious
anton io
Ġprohib it
Ġwithdraw al
ĠHer ring
ĠCA I
ĠCompar ison
ĠAndrew s
ĠCarl sson
Sh aring
ĠMer cer
ĠNob ody
ĠMalaysi ans
Ġelectro ly
ĠClo tting
Ġscholars hips
ĠCamer a
Ġter rible
ĠTai wan
Ġshop s
var ian
ĠREFERENCE S
Ġaven ues
Ġhosp ice
ĠMid dle
ĠPop atl
ĠLab our
Ġscann er
217 29
his i
ĠTher mal
ĠFol lowing
ĠNur sing
ĠVel asquez
ĠLank a
serv lets
Ġmetall ic
mach ine
ĠRoy al
ĠCanad ian
ĠYe oh
oec d
wind ling
ĠMount ain
ĠEdit orial
ĠJen ner
genet est
Ġmill enn
ĠPad dock
ĠGord on
Ġcompanions hip
eeb rugge
1951 6567
NSS C
curric ular
hatt an
paren cy
yours dp
heum at
sevi er
ĠSvob oda
echnovel gy
ĠGreenha ven
ĠPopatl al
G as
H R
H y
N O
S ystem
b lo
c ence
c oll
d d
f am
r ances
w est
en c
en ess
Ġs on
Ġs ad
Ġs care
Ġs amples
Ġo ce
Ġc ouncil
Ġp oured
or ised
it ic
Ġb rib
Ġm ile
Ġm ood
Ġd ump
Ġh ierarchy
Ġre ass
Ġg ate
et ies
st op
st ream
Ġ2 50
ĠS he
ĠS ect
Ġfor k
Ġcon vey
Ġen rol
ol a
Ġal erts
Ġsu ited
Ġst uff
us ions
ĠF ight
ĠF ocus
Ġby product
ke ley
Ġimp etus
Ġr anks
ĠB el
ĠB io
Ġus ability
ist ing
ult y
Ġun know
Ġun educated
ident ification
for th
com ed
ĠL on
Ġle ap
Ġmed isave
Ġtra gic
ĠFor m
Ġam ple
Ġwell being
ĠRe veal
ĠRe asons
Ġbenefit ing
Ġret renched
und ay
Ġsp o
ĠSt ein
Ġca ution
Ġmin es
ĠTo y
imin ary
Ġcl ients
ĠCom ing
ĠSo on
Ġins ert
Ġpot able
Ġprovid er
Ġshort en
Ġreal izing
Ġburden ed
Ġform ula
Ġill iterate
Ġback grounds
Ġknowledge able
Ġpr int
Ġ198 2
Ġtransport s
Ġdirect ions
Ġcontribut or
Ġsc r
te le
Ġhousing s
Ġslow ed
ĠEx cess
Ġbusiness men
Ġoppos itions
Ġspecial ist
Ġutil ise
Ġport ions
14 6
Ġbreak s
Ġpractical ity
Ġpers u
Ġboost er
Ġvir uses
Ġchannel ing
Ġvis ible
Ġalong side
Ġabs or
Ġcorrect ed
Ġobst ruct
Ġdev oted
Ġdom ains
Ġoptim um
ĠHel ping
Ġcollect ion
ĠInde pendent
ĠVol unt
ĠOf ten
Ġsepar ates
Ġdecl ined
Ġi i
Ġpe ers
Ġstrain s
Ġuns atisf
pers ed
Ġinade quately
Ġevalu ated
Ġflow s
Ġincorpor ating
Ġfra gile
rep ared
Ġgot ten
Ġhot els
ĠProduct s
ĠProduct ivity
Ġemit ting
Ġroot s
Ġacqu ired
Ġexc ite
Ġexplain ed
Ġcalc ulate
ĠFac ilities
Ġvibr ations
Ġattain ed
Ġpen al
ĠConcern ed
Ġcatastrop hes
ĠChang i
ĠGo ing
Ġfat ality
Ġbroadcast ing
ĠOper ating
Ġmat ernity
Ġcollabor ate
Ġvent ure
coal ed
Ġwel come
Ġsatell ite
Ġnucle us
Ġlig ament
Ġang le
ĠMajor ity
ĠRespon se
Ġdeliber ate
Ġpione er
Ġtraum a
cir cuit
Ġcounterpart s
ĠInfrast ructure
Ġdysf unction
Ġmov ie
Ġimbal ance
Ġconfigur ation
Ġpedest rians
Ġdep th
Ġaccord ance
Ġgov t
ilosoph y
Ġfash ion
Ġmillenn ium
0 40
0 60
0 26
2 13
4 50
4 70
4 26
6 2
7 11
8 49
9 2
9 56
A ug
C r
C oll
D D
E C
E s
F ast
F ile
F lat
G EN
H L
H owever
I G
I H
J V
L ink
L IFE
N um
N ature
N RC
N icoll
O n
Q s
R o
R et
R el
S C
S m
W K
W or
Y our
a fter
a cious
b od
b illion
b ism
c m
c ke
c aring
d av
e o
e ldershield
e quality
f lu
f ood
f ang
g ling
g ently
h o
h or
h ol
i br
j u
j une
l able
l ans
m ot
m ag
m pr
m its
n p
n uc
n est
n ia
n av
o ia
p y
p ol
p ool
r ue
r ish
s im
s hi
t ers
t itle
u pl
v in
w a
w ent
w ire
w age
y ahoo
z ed
Ġt ub
in i
in able
Ġs cal
Ġ. ................
at o
Ġc ri
Ġc oura
Ġc attle
Ġc ystic
Ġp in
Ġp ages
or ious
is ks
it z
it ative
Ġb ol
Ġb ure
Ġb ones
Ġb irds
Ġin active
al id
ic ient
ic ating
ro logy
Ġm ur
Ġd windling
Ġd upl
Ġh ired
Ġh tm
ct er
Ġn an
as ures
Ġre cept
Ġre ductions
il ly
Ġth in
om b
Ġg ym
ĠT agging
st one
st orm
Ġpro st
ce a
ig est
ur able
ot ech
ot hes
ĠS ens
ĠS riv
ĠS ands
ut s
ut t
ut ive
ut ron
ĠA head
Ġcon sole
Ġen vision
Ġen lar
ri ption
act iv
ay ak
ĠR ate
ĠR os
ĠR out
ĠR onald
ĠH as
ĠH all
ĠH ug
ĠH az
ĠH IPAA
Ġnot ified
if th
Ġst ove
Ġst air
no de
Ġhe m
Ġne uro
Ġcan s
Ġcan cel
ĠC ool
ĠC arrier
ĠC RC
ap ons
ap pendix
am ber
ort ium
us cript
ĠIn sider
ge ographic
ĠM P
ĠM aterial
ĠM ink
ĠM ah
ĠM aking
ĠM iller
ĠF ed
ĠF rench
ĠF eynman
um mary
ad o
ost i
ical s
Ġimp over
ĠN Y
ĠN ich
ĠN oy
ĠTh reat
ĠP al
ĠP ope
ĠP ara
ĠP redict
per ts
Ġhas s
Ġdis integ
ĠW ay
ĠW ired
Ġr ating
Ġr heumat
ĠB a
ĠB ereano
ĠB rayton
so c
qu e
ĠO N
ĠO tt
ĠO lym
Ġinc ision
ĠE st
ĠE cology
Ġcount ies
ĠG ru
ĠG ather
ist rib
and parents
con dition
con nect
Ġpl ural
Ġad mitted
Ġcomp elling
ĠD el
ĠD ub
Ġint angible
one ous
Ġpre jud
Ġse vent
Ġse aw
Ġse eds
Ġun aff
Ġman uscript
Ġv en
Ġma gaz
ĠV er
ĠV ia
ĠV ulner
ĠV ersion
ĠL y
ĠL ind
ĠL CFR
Ġle ct
Ġle thal
ia h
reat able
Ġrel ate
Ġrel ied
Ġrel ieving
ĠAs h
Ġcons ortium
oun der
ard ation
Ġ19 00
Ġ19 75
Ġlimit less
Ġimport ed
Ġ20 11
Ġam biguous
Ġover flow
Ġj oy
Ġed ges
ĠRFID s
ens es
ens ed
ĠRe in
ĠRe views
ĠCh ris
ĠCh rist
ind ia
Ġbenefit ted
Ġ3 000
ics w
ĠEn c
Ġ4 36
ĠK ar
ĠK aly
ĠK aren
arent ly
Ġunder went
Ġsp are
Ġsp ew
ade h
ĠSt an
ĠSt op
Ġ6 70
Ġdef end
Ġcre atures
ĠPro cter
pro ve
Ġcarri age
Ġmin ist
Ġmin ute
Ġke en
ĠY ang
Ġenc rypt
Ġide ology
Ġjust ified
Ġco als
Ġins isted
pos ing
Ġmark ed
Ġcap s
Ġcap ita
Ġref ined
Ġass ists
Ġ10 4
Ġshort ened
Ġreal ization
Ġreal loc
Ġperform ances
Ġ8 1
Ġ8 2
Ġ8 6
Ġ8 09
Ġ9 5
Ġ9 7
Ġlack ed
Ġequ ation
Ġform ulated
oss foundation
Ġ7 6
Ġent ry
ĠAd am
Ġpressure d
29 3
ĠDes ert
ĠCon ventional
Ġur gently
ath y
Ġ198 9
Ġ15 8
Ġpract icing
Ġgra b
Ġgra ms
Ġgra des
Ġgra cious
Ġview ing
Ġhard working
ang a
Ġorgan ize
Ġargu ing
iss ance
Ġlaw su
Ġsum mer
Ġ13 6
Ġslow down
Ġmean while
Ġradi us
ĠAct ivities
Ġmodern ization
ĠSh opping
ĠSh rops
Ġprob able
Ġ25 20
Ġment ality
Ġcy c
to gether
Ġpar amount
edi atric
Ġsug ar
Ġport ability
Ġperiod ically
Ġcat aly
Ġwar ned
ĠAr my
work place
cl imate
ĠAssoci ates
Ġemphas izing
Ġenhance ments
Ġste aling
Ġwr ink
Ġyour self
Ġkin ship
Ġobject ion
Ġpopular ization
Ġworth less
Ġtravel ers
Ġdeter red
ĠWil cke
ĠBe yond
Ġsuper iors
Ġsuper vis
Ġcol on
Ġmot orb
Ġimpos ing
health topics
Ġsize able
Ġwealth y
Ġwealth ier
Ġsurv iv
gno sis
ĠApp lying
ĠApp arently
Ġleg s
Ġpost s
Ġunf ounded
sh ared
sh uttle
ĠIm portant
Ġestim ation
Ġgradu ates
Ġcreative ly
High lights
En g
erc ity
Ġindic ation
Ġclass ic
Ġpurch ased
Ġmanufacture r
Ġfission able
ĠAust rian
Id ent
ĠZ e
ĠZ hang
Ġmeasure d
Ġmeasure ment
Ġsus pected
Ġir radiation
Ġoptim ally
Ġemb arr
Ġbrain storm
Ġexpl icit
Ġdecl ared
ĠWork place
know ledge
Ġbound ary
Ġofficial ly
Ġcriter ion
Ġlist ening
Ġencount ering
mit ting
mo e
Ġuns olved
ĠAss istive
Ġunexpected ly
ĠIT ER
Ġvast ly
Ġconcent rated
Ġjo ining
Ġqual ification
Ġinvas ive
Ġphot ovolta
Ġdesc ription
Ġjud gment
iced etail
ĠEng land
ĠEast on
Ġdestro ying
commun ications
Ġworsen ed
Ġprinci pal
hy brid
ĠCount ry
bre aking
Ġstrict ly
ĠBar b
Ġexc iting
Ġreform ing
Ġchair man
Ġram p
Ġfunda ment
Ġsuscept ibility
Ġgl ass
Ġdesire s
Ġeyes ight
ĠMo dule
ĠSc ott
Ġund et
ĠVietnam ese
icro soft
Ġupd ates
ED IA
bu ilding
bu zz
Ġluck y
Ġsurf ing
ĠJac opo
Ġsafegu arding
ĠProfess ions
human resources
robot ics
Ġdream s
Ġwis hes
Ġevol ving
Ġvolunte ering
ĠFac ing
ĠEr ror
ĠPhys icians
ĠBern ard
ĠNE WS
ĠCr ime
ĠBer g
Ġinherent ly
Ġrepresent ing
Ġsplit ting
Ġbacter ial
Ġabnormal ity
big future
Ġalt eration
Ġnewsp apers
Ġnotice able
Ġabsorb ed
bal anced
national geographic
inst ein
wan fang
Ġgam ing
Ġgam ers
Ġaggress ive
ĠLoc al
display story
family test
Ġli brary
Health care
Age ing
Ġmal ign
Ġhol id
Ġeight y
Ġrect ified
Ġice berg
ĠBur ton
AT URE
ĠRen ewable
ĠMin im
ĠBro ther
ĠGra ham
Ġacceler ate
Ġacceler ated
Ġdry ers
Ġagricult ural
ĠEl sevier
ĠTom ita
ĠKhal il
Ġinconven ient
Ġmonop oly
NE WS
Ġder ived
Ġprecaution ary
Ġsuns et
ĠIntellig ent
Ġfa ith
Ġfa cial
Ġlic ense
ĠNum erous
Ġmil est
ĠTr uth
ĠAT C
pb ma
Ġox id
________ ________
ĠRa ven
ĠEv ans
Ġsul f
ĠVar ious
3010 220
Ġnucle i
Ġignor ant
Ġmish aps
ĠEnt erprise
Ġnin ety
ĠCamer as
ĠPsycholog ists
ĠAppro ach
NSTL QK
Ġble eding
next bigfuture
stud ents
agu ilar
intend o
clo tting
Ġbicy cles
022 116
Of NuclearPower
ĠTrib unal
Ġsabot age
Ġvill ages
ĠRev olution
consum ing
lancast ercity
Ġrent al
idUS TRE
ĠCou pled
ĠPos itive
ĠSpring er
Ġstabil ize
Ġsan itation
Ġconvers ation
ĠMedic are
Ġthermody namic
ĠAutom otive
incre asing
Apr il
Educ ation
fu elled
fund ed
Ġoxy gen
problem s
Ġpractition ers
ĠMonitor ing
hospital s
Ġpy ram
depend ency
Spe eches
Ġoct ober
Ġost eoporosis
Ġmac ro
opin ion
Ġappoint ments
Ġcatal yst
Ġbiom edical
ĠNetherland s
Ġfatig ue
Ġconting ency
Ġdescend ants
Ġpredecess ors
Can cer
Ġcul p
ĠTef lon
ĠHand book
ĠArrange ments
ĠOpportun ities
ĠAcadem y
Ġexplan ation
ĠForm ula
Ret irement
bism uth
oia f
Ġcoura ge
Ġbure auc
Ġhtm l
ĠSens ory
ĠSriv astava
ĠNoy es
Ġseaw ater
ĠVia gra
ĠKaly ani
ĠShrops hire
Ġsupervis ors
Ġphotovolta ic
wanfang data
9 40
E lectric
d ible
l ate
m are
m ile
p aced
t able
t ically
z y
he ld
he res
er able
er ting
Ġs ister
Ġo vere
Ġc ry
Ġc osm
Ġp apers
Ġp estic
Ġw ond
Ġw ikipedia
Ġw alls
is en
Ġf ake
Ġin human
Ġin hab
le w
ro oms
ent h
Ġh older
Ġe commerce
Ġn ice
Ġre ck
Ġre use
Ġre nd
lo gical
om ed
Ġg od
ĠT exas
ver sed
ment ioned
im age
ot ion
ĠS ad
Ġde le
Ġde lic
Ġde als
ĠA viation
Ġhe ater
Ġhe ading
ant aged
em ics
ĠC ir
ĠC aring
Ġex ert
ĠM ad
ĠM asters
ĠM NC
ĠF e
Ġimp ul
ĠN aturally
du ates
ĠP ersonal
ere r
Ġdis pose
Ġdis sol
ĠW alk
ĠB irth
ĠB eside
Ġch ores
bl ing
ĠG re
Ġproblem atic
Ġint ru
Ġlo oph
Ġwork able
Ġse es
Ġun related
for ward
Ġv ice
Ġhelp less
ĠV acc
Ġeconom ists
ric tion
ĠU p
Ġproduct ions
all ing
ag iarism
Ġsur veys
Ġra iny
ĠJ ud
ren ces
ER S
Ġdisc re
Ġinv ading
Ġact ing
Ġinst ances
Ġbenefit ting
ach s
Ġless ened
Ġsub sides
Ġmin istry
Ġterm inate
Ġco in
Ġins u
ĠWe ek
dro pping
Ġset tle
ik es
Ġpres ently
Ġent ered
Ġtrain ings
Ġminim ised
Ġmak er
Ġaut o
ĠCent res
Ġexplo ited
Ġexplo iting
ĠComm on
Ġgra ve
Ġclo ver
Ġdiscrimin ations
Ġrest ore
Ġpric ing
Ġsimilar ly
Ġtal ks
Ġtyp ically
Ġeth n
Ġdetect s
ĠPl agiarism
Ġsuggest ions
Ġcat ers
Ġdisadv antaged
Ġreplace ments
Ġste pping
Ġrecyc les
ĠOpp osition
ĠCommun ications
Ġcontain er
Ġanalys es
Ġstat istical
ĠCons ult
ĠDo ctors
Ġdev ote
ane ous
Ġbi ased
generation al
Ġdom ain
Ġviol ate
Ġsus pect
ĠPre viously
Ġpossess ed
Ġmus ical
Ġneut ral
Ġbound ed
ĠIndones ian
ĠSp ain
Ġguid ed
Ġcommit ments
Ġdraw ing
Ġfra il
Ġconsist ing
Ġqual ifications
Ġmeant ime
Ġdefic iencies
Ġjud ging
Ġjud gments
Ġhot el
ĠDef ence
Ġprolong ing
Ġswit ched
Ġnight mare
Ġexplain s
ĠMod ern
Ġdomin ate
Ġrequest s
Ġcur ren
Ġcritic ize
ndrom es
Ġanim al
Ġdescrib e
ĠBer keley
Ġbank rupt
ĠExper ts
Ġilleg ally
Ġprohib ited
Ġdisturb ance
ĠPri ze
Ġmachin eries
ĠStat istic
cr ime
Ġrepro duce
worth y
Ġpriorit ize
Ġwithhold ing
Ġpul led
Ġarri ved
Ġfem ales
Ġdischar ged
Ġconstit utes
Ġcoord ination
ĠTreat ment
Ġerad icate
ĠPsycholog ist
Ġstagn ation
Ġpregn ancy
Ġsunsh ades
ĠPract ice
Ġunderest imated
Ġinflic ted
Ġdedu ct
Ġrub ber
Ġworkshop s
Ġcub ic
Ġcompos ite
Ġhyp othes
Ġexcite ment
Ġembarr ass
ĠMNC s
2 10
2 30
2 65
3 25
4 12
4 14
4 23
4 22
5 50
6 1011
9 39
A cc
B i
B ull
B ook
C F
D E
E O
E V
H EA
H IPAA
I P
I s
I LE
J une
L e
M e
M s
M ode
M agazines
P ar
P sychology
R A
S oo
T ech
T ext
U L
V G
W e
a er
b el
b io
c op
c am
c row
c itizen
c roft
d n
d article
d ioxide
d igital
d isease
e ce
e ff
f y
f ather
f ocus
g ering
g awa
h id
i el
i us
i pe
i enced
j un
j html
j amin
k as
k ov
l ives
m ac
n g
n u
n w
o op
o ding
p ad
p url
p owder
r pt
r ations
s pect
s darticle
t at
t im
t raining
t rained
u ation
u ine
u pdate
v ag
v isions
w ch
w all
w ave
w arming
w ii
w iley
z il
Ġ ion
Ġ lying
he aged
Ġa p
Ġa Mode
in ating
in ting
in dust
in iti
in formed
Ġthe fts
on ic
on io
en ious
Ġs ample
at illa
Ġo varian
Ġc olo
Ġc hernobyl
Ġp ubl
Ġp ills
Ġp unct
es cap
Ġw ro
Ġw ood
is dom
ed ition
it on
an ol
Ġf ired
Ġf rust
Ġf umes
Ġb other
Ġb att
Ġb ioethics
al and
al ph
le f
le in
ic ular
Ġd GL
ar ified
Ġh i
Ġh us
Ġn ano
as ian
Ġre productive
Ġre generate
ve t
lo ss
Ġg au
ĠT et
ĠT ags
ĠT itle
st y
st on
st ar
st yle
ch allen
ch apter
Ġpro lif
Ġpro sec
Ġpro cre
se ver
ment ary
id al
id elines
im atic
im pa
Ġl ou
Ġl anding
Ġl az
Ġl iable
Ġl ithium
00 5
00 000
ur m
ur u
ĠS om
ĠS ir
ĠS low
ĠS hel
ĠI R
Ġfor bid
ut rit
ill ips
Ġde com
ĠA C
ĠA P
ĠA ch
ĠA ero
Ġcon qu
ul f
ul ic
ul um
her itance
op ular
ol f
ĠR osen
ĠR alph
Ġal together
Ġsu its
ĠH ill
ĠH ol
ĠH ob
ĠH IV
Ġag ility
Ġag ile
ra v
ra cking
Ġst y
Ġst ir
Ġst ood
Ġst ret
Ġst uck
ci a
el chair
lear ning
tt e
tt y
th reat
Ġsh y
ĠC orm
ĠC AS
ĠC ounsel
ap ple
ap hy
Ġex hibit
am ation
are v
us s
Ġ' '
un ning
ĠIn ventions
ĠM is
ĠM ur
ĠM ut
ĠM echan
ĠM OE
ĠM RI
ech t
ĠF ive
ĠF alls
ĠF ortune
ĠF rot
est s
actor ial
ad map
Ġby products
Ġgen uine
Ġ1 10
ĠN ic
du ke
ĠP ack
ĠP ages
ac les
Ġres erv
Ġres piratory
Ġdis s
Ġdis comfort
ĠW ire
ĠW all
Ġr ush
ine a
ĠB I
ĠB h
ĠB oto
ĠB aindur
ĠO bs
ĠO ptions
ĠO gawa
Ġinc idence
ĠE N
ĠE h
ĠE IA
ĠG il
ĠG ut
ĠG ates
ĠG IV
ĠG ovt
and a
Ġpl ug
Ġsa v
ever y
ber t
ber y
gh ai
Ġcomp el
ĠD on
ĠD ioxide
Ġint ake
pt heaged
Ġpre natal
Ġpre tty
Ġwork space
Ġun ve
Ġun att
Ġun eas
ew ish
out s
Ġv an
Ġv end
Ġv ote
Ġcont ag
com b
ĠV ision
Ġcost ing
Ġpublic ize
ĠL ic
au nt
Ġta il
Ġk m
ud hr
ĠU t
ĠU pdate
ĠU rology
ĠSe ating
Ġup load
ĠAs pects
ĠAs sembly
ag ue
ag inable
Ġsur rounded
Ġsur plus
ĠJ obs
Ġout patient
Ġme als
si x
Ġprov ince
Ġprov isions
Ġcare s
Ġ19 45
Ġ19 48
Ġar m
Ġ20 27
Ġ20 61011
Ġam idst
Ġover run
ens ional
Ġadv is
ĠRe form
Ġfuel ed
ĠCh o
ĠCh and
ĠCh ua
Ġinst ruction
Ġbetter ment
Ġmain stream
Ġ3 9
Ġ3 10
Ġ3 13
Ġgener ous
gra p
Ġro oms
Ġret rench
gen es
gen erative
care s
Ġ4 60
erm ined
ĠK oh
Ġaff iche
Ġqu arant
Ġsp in
ĠSt ress
ĠSt reng
ĠSt eve
ĠHence forth
ĠUn d
ĠUn published
Ġ6 50
ring ing
Ġext inction
Ġinf ra
Ġinf ants
we blog
we apon
Ġnow here
Ġinvent ory
ĠPro perty
pro v
Ġmin ers
Ġpo ckets
Ġke ys
Ġ& _
Ġsign ifies
Ġreg ulate
Ġreg ulatory
Ġcl ient
int ro
Ġradio frequency
Ġco hesive
Ġown ed
Ġins ights
ĠWe e
ĠWe aver
de c
de aths
Ġbur chill
Ġref ine
Ġref ining
Ġtrack s
ĠDe g
Ġsee ks
lic k
Ġdepend ents
av ation
10 5
Ġvar iable
the w
rain s
Ġ9 3
Ġ9 8
sid t
Ġexpect ing
Ġ7 1
Ġconcept ual
ĠWorld wide
Ġprof icient
000 1
50 221
ĠMan hattan
Ġbo arding
Ġinter active
Ġty res
ĠAd ditional
Ġcompet ency
ug gling
29 026
af p
co gene
ĠCon c
Ġimm ature
Ġval ves
br aries
Ġchallen ged
Ġfore st
Ġfore ver
Ġfore seen
Ġur ge
ath an
Ġrece iver
Ġest eem
Ġ23 5
Ġclo thing
ne c
ne utron
Ġsc ore
Ġsc reens
Ġstate ments
Ġ16 00
Ġbre eding
loc ation
loc ated
Ġassist ed
ĠInd ex
ĠInd irectly
part ite
Ġprogress ed
Ġprogress ive
ange red
Ġut ilities
adv antage
ĠSh uwen
ĠRog lans
ah a
ĠEx p
ĠEx ternal
app iness
sc itizen
Ġ30 4
Ġfil m
Ġkey board
Ġcomb ating
Ġcontinu ity
Ġcell ular
Ġopen ers
Ġmis communication
Ġblo g
ĠBo eing
ĠAr ch
cl usive
oking s
ĠAdv antage
ĠAdv ancement
Ġste els
Ġfear ing
Ġrecyc lable
Ġobject ions
Ġfert ile
St ats
az u
Ġinstall ations
23 5
ĠBe cker
Ġleak ages
Ġcol lege
Ġcommercial ize
Ġcommercial ized
Ġunt reatable
Ġmo dule
Ġbl ack
Ġann uity
18 5
18 9
ret ri
Ġindustrial ized
16 3
ĠApp lications
45 12
Ġer os
Ġer gon
Ġer oded
Ġmut ations
Ġinj uring
Ġpetro chemical
ĠPh illips
arant ees
49 6
High way
En vironment
Ġindic ator
77 75
enn is
nam ically
Ġmar vel
Ġsubject ive
CE SS
Ġprototy ping
Ġ100 00
acc idents
Ġrep etitive
ĠRober ts
cp sidt
ĠHospital s
Ġshut ting
99 9
Re actors
ĠX ero
Ġmeasure ments
ĠRobert i
CT OR
ĠAb use
ĠMac Donald
ĠPre m
Ġfacilit ating
Ġbrain s
ĠHar iton
ĠSol ution
ĠKore ans
hel ptheaged
Ġver ification
Ġbehavior al
sen ior
67 8
ĠCont ro
ĠCont ent
alu able
Ġrul ed
ĠState ment
effect s
Ġretain ed
Ġdeterior ates
Ġlist en
34 7
dis aster
ĠSen ate
ĠMc G
Ġstrain ed
Ġcal or
ĠUr ge
Ġforget ting
ĠDr iscoll
Ġassess ed
tect ing
Ġjo ints
Ġvacc ines
ĠLe on
ĠLe ong
Ġwrit er
green house
69 89
global aging
ĠSch u
ĠCN ET
Ġmid st
Ġmonit ors
Ġprem ature
Ġdiscoura ges
Ġadjust ment
Ġacqu iring
chem ically
Pro tecting
Ġing enious
ĠWell s
ĠAfric an
ĠRel iability
ĠMar ina
Ġcatch ment
Ġblind ly
Ġbro ther
Ġdiet ary
ĠCor ruption
Ġinfring ed
Ch in
ĠProfess ional
Ġestablish ment
Ġfirm ly
robot s
Ġhack er
ĠRus sian
0000 50221
Ġremote ly
Ġincom pet
type pad
Ġcritic ized
def inition
Ġinject ions
key ind
ĠNE I
ĠCr isis
ĠBer lin
Ġtext books
Ġcra cking
ĠBas ic
Ġrevolution ary
ios k
Ġrein forced
ĠPart y
Ġmoder ate
Ġtroubl ing
ĠAnt onio
Ġincon clusive
tra cking
Ġconce ived
Ġinsure d
cost s
Ġpilot s
ĠInvest ment
Ġmal es
ias m
ĠGo ogle
ĠBro ache
Ġdocument ation
Ġundert aken
Ġjeopard ize
Ġnutrit ional
ĠPaul in
ĠHer itage
olog ist
ĠTele vision
Ġcrow d
ĠRem ember
ĠPass ero
unct ional
ĠRec ogn
Ġskept ical
Ġmer ch
ĠNum ber
Ġmil k
information week
ulc inea
ĠPe ace
ĠSM RT
Ġdischar ge
Ġsex ual
Ġcolle ges
Ġsle ep
CN one
cs monitor
Ġfruit ful
Ġnin et
ĠBen jamin
Ġstar ving
met als
Ġrecon st
think quest
ĠEffect s
Ġintent ions
Ġdiv or
chin ad
ĠDou kas
Ġblue print
disc losure
Ġinsur ances
ĠImm igration
Mon itor
Ġdi ets
ĠPric e
Ġrid ic
Ġenthus i
Ġenthus iasm
Ġevacu ation
ĠMet al
Ġsecre cy
Ġstimul ates
ĠMat thew
answ ers
ĠSte ven
ĠProt ocol
count ries
Ġrechar ge
dra ulic
ĠRM B
ĠPers pectives
ĠVeh icles
Ġinfert ile
Ġprotocol s
Ġunfav ourable
Cl ass
bm j
mount able
Ġmathemat ics
ĠSME s
emot oring
Ġcha os
Ġfut ile
ĠREA CTOR
ĠHomel and
ĠCard iosk
Ġpref erences
Ġunim aginable
ĠLou is
abt ageing
ĠClar ke
Pr ime
bour ne
ĠMex ico
ĠPU B
Ġdispar ity
ĠOst rom
ĠGraph ite
ĠLyn ch
ĠKy oto
Ġcoinc idence
ĠLiber ties
Ġscare d
ĠToy ota
Ro admap
Wor ld
ĠRout ledge
Ġimpover ish
Ġlect ure
ĠAsh croft
ĠStan ley
Ġcataly tic
Ġwrink les
Ident ity
ĠZe aland
Ġmalign ant
Ġsulf ur
Ġpyram id
Ġculp rit
Ġinsu fficiency
wch p
ĠaMode le
Ġwro te
ĠAero vironment
ĠBoto x
Ġuneas y
Ġcontag ious
Ġ2061011 15
Ġaffiche N
29026 666
7775 6
ĠXero x
F or
F riendly
M P
a verse
a iser
b ol
e ving
l s
l iminary
u i
u zz
w he
w as
Â ¶
re gard
on ance
Ġs ou
at ent
Ġp ess
Ġp iv
Ġp ub
Ġp uzz
Ġw ins
Ġf ool
Ġf old
Ġf riction
Ġto ler
Ġin hibit
ion ic
Ġd read
Ġd augh
Ġh ast
Ġh istorical
Ġe ldly
ct ic
as ks
Ġbe ating
lo or
lo oking
om in
Ġg ear
ce ment
Ġl ad
Ġl atent
ĠS D
ĠS el
ĠS uccessful
ow ards
Ġde human
ĠA round
Ġen erg
ol id
ĠH o
ĠH on
ĠH TR
ĠH ub
ĠH oe
lear n
th s
ĠC ustom
Ġex it
Ġex erted
un ding
est ed
est ival
ther n
Ġwor sens
Ġby pass
ĠN C
ĠP ur
ac ing
Ġres id
Ġres cu
Ġr ays
Ġch ina
qu acy
ĠG od
and ering
Ġdesign ated
pt s
Ġpre liminary
Ġse ason
Ġun born
Ġab using
iz er
Ġpublic ity
Ġhealth ily
Ġincre dible
ans as
Ġem power
Ġup b
ĠAs ide
Ġsupp lier
Ġper pet
Ġindividual ly
Ġover weigh
Ġadv ices
Ġchild less
io x
ĠAl most
pl ing
Ġro l
ĠK aiser
Ġsp ark
Ġsp oon
ĠUn den
Ġemploy able
ok es
ok ia
pend ence
Ġallow ances
Ġpo cket
Ġreg ime
Ġjust ification
Ġins pir
ĠWe i
ĠDe bra
res idence
Ġmeet ings
Ġident ities
Ġintro duces
Ġsche d
Ġsuccess es
ert ific
Ġdefin itive
Ġhospital isation
Ġscient ifically
Ġincl usion
Ġpass age
Ġach ievable
Ġconf used
Ġbel t
Ġoccur rences
Ġfl ash
Ġorgan isation
Ġcall ing
ĠSh arp
Ġment ions
Ġ14 4
Ġpred omin
Ġenjoy ed
Ġpolit ically
Ġfriends hip
Ġweak ened
Ġundergo es
Ġdeb t
Ġdra f
Ġrestric ting
ĠFried los
ĠIm plant
Ġaccom pany
ĠHy dro
Ġvir al
Ġlearn ed
singapore s
Ġcomprom ises
Ġbi as
Ġviol ating
cell ence
ĠHel ps
Ġexpl oring
Ġi ii
Ġsetting s
effect iveness
Ġtransfer ring
Ġbroad en
Ġunc lear
Ġfeed backs
Ġcomplic ation
ĠChan ges
Ġred irect
Ġconvert ers
roph y
Ġexhaust ing
Ġran king
Ġtri p
ĠRel ated
Ġrequest ed
Th ree
Ġevol ve
develop ing
amm able
Ġinstant ly
Ġswitch ing
ĠResear ches
Ġvers ions
ĠSing le
Ġshif ts
Ġprivile ge
Ġcopy right
ĠBre ak
Ġescal ate
Ġpus hes
Ġimpress ive
ĠIM H
Ġreap ed
Ġcompens ated
quest ion
ĠKe eping
Ġwel comed
ĠTerror ist
ĠTerror ists
Ġrender ing
Ġdivers ify
Ġkilomet res
Ġpharmaceutical s
Ġimplic ation
dri ven
Ġstar vation
ĠSoci eties
Ġimprov ised
Ġbicy cle
Ġinsur mountable
Ġunderm ine
Ġharvest ed
Ġastron omical
num ber
Ġsecre ts
Ġreci p
ĠImprove ment
ĠSerendip ity
Ġpenet rate
Ġcontroll ers
Ġmir ror
ĠKev in
Ġoutdo or
Ġpractic able
Ġsho es
Ġsuperv ise
Ġthri ving
Ġhes itate
Ġprev ailing
Ġcoop erate
camer as
terror ism
Ġinexper ienced
Ġorient ated
Ġdiscipl ine
Ġunknow ingly
ĠLon gevity
ĠReveal ing
Ġhass le
Ġrend ered
Ġdelic ate
Ġintru ding
Ġcurren cy
Ġeros ion
Ġpess im
Ġdaugh ter
Ġenerg etic
0 50
1 30
2 19
2 70
2 45
4 30
5 19
6 27
7 43
8 07
9 17
B T
D ING
D esign
F C
F und
F ont
F ull
G u
J uly
L ore
L um
L earning
L TH
M L
M Y
M ed
M inist
N ational
N CE
P opulation
P ric
P IC
P acific
R ec
S N
S FR
S alt
S erv
T imes
T ier
U M
U CA
V HTR
Z eebrugge
_ -
a ac
b p
b us
b enef
b ach
b hopal
c rib
c ord
c ne
c ode
c rypt
d f
d an
d ll
d lt
e au
e co
e host
f old
f alls
f agu
g re
g ar
g ie
g ically
g roun
h h
h an
h ours
h uis
i u
j h
j an
j st
j id
k W
k in
k ok
l ay
l atimes
m un
m ills
m obile
m ilitary
m gr
m iller
m oller
n ative
n zo
o bl
o xford
p ract
p itt
p resentation
p athy
r us
r ally
r idge
s j
s n
s r
s af
s ma
s aries
t p
t em
t echnovelgy
v ill
v ance
w o
w ood
x news
x terity
y ou
y nthesis
z en
Â ¢
Â ·
Ġ ip
Ġt all
Ġt ick
Ġt ips
Ġt ube
Ġt apped
Ġt aste
Ġt idal
Ġt ennis
he b
in ium
in ently
re ll
er ial
on ed
on der
on emotoring
en ame
Ġs n
Ġs now
at r
Ġc um
Ġc abin
Ġp al
Ġp ets
Ġp ounds
or r
or ado
Ġw ards
Ġw inter
is u
is ers
ed o
it is
it ations
it ors
it imate
an l
an z
an istan
Ġf re
Ġf et
Ġf ant
Ġf og
Ġf ought
Ġb id
Ġb are
Ġb orders
Ġb orrow
Ġin hib
Ġin acc
al tern
le tter
le eding
le pool
ro id
Ġm yst
Ġm outh
Ġan ger
Ġd in
Ġd educ
ar g
Ġh al
Ġh ay
Ġe p
Ġe pid
Ġn ine
Ġn ative
Ġn ick
as urable
Ġre now
Ġre usable
il ient
il ization
il ename
Ġbe loved
lo sis
Ġg s
Ġg ent
Ġg ase
Ġg ard
Ġg ivers
Ġg rief
Ġg room
Ġg eri
ĠT elf
ĠT ext
ĠT ouch
ĠT opic
ĠT RIS
et ers
st d
st em
st oday
st amp
ch ard
Ġpro sp
ver t
ver gence
ver ichip
im f
im ats
ig ating
ig hed
ur d
ot on
ĠS T
ĠS am
ĠS qu
ĠS port
ĠS ade
ĠS pr
ĠS ix
ĠS ym
ĠS ustainable
ĠI LO
ĠI ronically
ut ation
ut orial
ill an
ir teen
Ġu pper
Ġare na
Ġde ce
Ġde vi
Ġde grading
Ġde xterity
ĠA L
ĠA R
ĠA ra
ul th
Ġen vis
op edia
nt uc
ri ad
ol is
ol ester
Ġha ir
ĠR ow
ĠR enn
ĠR ES
Ġal um
Ġal ign
Ġsu e
ĠH us
ĠH ip
ĠH end
ĠH err
ĠH omes
ĠH erald
Ġnot able
ra pe
Ġst ake
Ġst raining
ers cience
Ġhe aling
el a
el ess
el cano
em phas
em po
em erald
Ġsh ad
ĠC as
ĠC ur
ĠC our
ĠC rimin
ĠC old
ĠC ross
ĠC rick
ĠC INA
ĠC DA
ĠC ystic
ap pl
Ġtheir s
ect ion
are a
are st
ĠIn ventors
ge oning
ĠM C
ĠM Y
ĠF ew
ĠF ert
ĠF SA
ĠF ilename
um s
um ich
ad io
ate ful
ff ice
ke ep
ke eping
ĠN est
ĠN ee
ĠN eg
ĠN ev
ĠN othing
ĠN ATURE
ĠN okia
ich ael
ĠP en
ĠP ot
ĠP eb
ĠP AR
ĠP anel
ac che
pp ro
pp ai
Ġres ent
Ġres ale
Ġdis pl
Ġdis hes
Ġdis hon
Ġdis regard
ain ed
ĠW esting
ĠW ats
ĠW inter
Ġr iding
ĠB M
ĠB U
ĠB ow
ĠB od
ĠB ang
ĠB IO
ĠB ull
ĠB leeding
so dium
os ystem
Ġch ime
ĠO u
ĠO re
ĠO pt
Ġinc idences
ĠE ss
ĠE lders
ĠE val
ĠE cker
ĠG y
ĠG overn
ĠG adget
ĠG ony
ĠG reg
ĠG rowth
ĠG ulf
ase k
and y
and om
and em
Ġdes per
con ditions
con fidentiality
Ġpl us
Ġpl ann
cc er
ber cu
gh anistan
Ġwe bc
ĠD y
ĠD im
ĠD oc
ĠD IS
Ġint imate
Ġlo an
Ġlo ads
art lepool
Ġse al
Ġse am
Ġun m
Ġun if
Ġun ple
Ġun just
Ġun controlled
Ġun ethical
for cing
for change
Ġv id
Ġv ain
Ġma ize
ef initely
iz ab
com put
com par
ĠL am
ĠL ack
ĠL LC
ĠL ARS
ell er
Ġle aps
Ġresult ant
ds cience
au di
lect ions
Ġacc ent
ans ky
Ġk no
Ġwas hing
Ġpol es
ĠU D
Ġind ex
Ġind efinitely
ven ient
pe i
Ġhigh ways
Ġhigh way
Ġem powered
ĠSe x
ĠSe at
ĠSe id
ĠSe arch
Ġrel ates
Ġsupp ose
ter ior
Ġra cing
Ġper cents
Ġper sever
Ġout look
Ġout flow
Ġtra it
Ġtra dition
Ġsome what
Ġfun ny
Ġall ergies
Ġ19 77
Ġ19 47
Ġ19 54
Ġris king
Ġ20 13
pect ancy
ĠGen etically
ie o
Ġj session
Ġinv aluable
row s
sy m
Ġhuman kind
ĠCh ips
ĠCh ief
Ġfuture s
Ġinst abilities
org an
gra d
Ġtr illion
ĠEn d
ĠEn act
Ġret ardation
gen omics
Ġprevent ative
Ġ4 40
ck well
Ġeffic acy
erm e
ĠK o
ĠK azu
Ġqu e
ĠSt ang
ĠSt urm
Ġless on
ass isted
cept s
cept ed
Ġ6 1
Ġ6 10
cent er
Ġexpen ded
ak ers
Ġinf o
Ġinf low
Ġinvest s
Ġdef ibr
ex plo
ex ec
Ġeas iest
ĠPro ceed
ract ion
Ġdifferent iate
ĠY ish
Ġcl oned
int on
int erest
Ġjust ifiable
Ġco generation
rit ing
ĠWe apons
de v
de bate
de pendent
Ġsm o
Ġbur ied
Ġbur saries
Ġbur geoning
Ġcap ped
Ġref uses
Ġrespon ded
Ġass erted
Ġ10 9
news room
lic ensed
Ġmarket ability
mer cer
res man
res cue
Ġset up
Ġset backs
Ġvar iet
Ġglobal ized
Ġ8 7
Ġ8 49
the re
Ġpur ified
Ġrec ru
Ġ9 2
Ġ9 99
sid y
Ġform ulation
Ġ7 9
ged y
2009 0
Ġstand point
ĠMan ufact
Ġcor rel
Ġreason ably
Ġinter ventions
ick ard
ĠAd option
ict ure
ict ory
inf lation
Ġfore sight
Ġconf usion
Ġconf ront
Ġur ged
ian a
Ġpr ide
20 2
Ġ15 30
Ġpract ically
30 5
Ġmaintain s
Ġclo ck
Ġreact ing
Ġreact ant
ne jm
Ġdiscrimin ating
Ġrele vance
Ġfound ed
Ġfound ations
Ġmy self
Ġmy riad
11 12
bo x
Ġ16 7
bon us
Ġlight ly
Ġlight weight
Ġrobot ics
Ġbre ached
Ġbre aches
Ġassist ants
Ġend angered
09 08
Ġdist ract
Ġconven iences
fact sheet
Ġradi otherapy
Ġpoll utions
doc ument
Ġgr ay
Ġgr ateful
article Id
ev al
07 0
07 2
ĠAct ion
ĠAct ivity
Ġpresent ing
Ġintern ationally
Ġerr oneous
Ġfol k
uro logy
press ed
pin al
arri ages
Ġ25 28
ĠEx c
ĠEx pl
ĠEx press
ĠEx change
12 2
Ġself ish
world bank
Ġshe ll
Ġshe lt
33 5
Ġeth anol
Ġmor ning
cont rib
Ġattract s
Ġrefriger ant
Ġland scape
Ġmis inter
Ġmult ip
Ġconver ter
Ġconver ts
new stoday
ĠPl anning
Ġsenior ity
2008 02
ca used
ĠAr gon
be in
Ġopt ional
Ġwind ow
Ġwind mills
25 3
Ġinnovative ly
Ġfear ful
17 3
ĠOpp os
Ġtarget ing
ĠMe asures
med ic
az on
ĠWil son
Ġsing les
ĠNot e
health info
ĠOr well
Ġbl ades
Ġsoci ological
Ġrestric ts
Ġelimin ation
Ġleft over
Ġdoubt ful
comm on
Ġspecific ations
28 32
ĠApp lic
Ġinteg rating
26 711
ĠGr anny
45 8
nd t
Ġproportion ately
News Cent
Ġtack led
ĠIm plants
ĠPh one
ĠCons ultation
ĠEm ily
En riched
Ġindic ators
Ġflo oding
su percritical
Ġiniti ate
ĠPr inci
nam ics
arth y
Ġrep ay
Ġspread s
Ġrev ival
ĠCar bide
38 0
ĠTra ditional
Ġpredic ament
ading s
Ġpredict ive
Ġinvestig ated
Ġinvestig ating
ald Full
time forchange
ĠHar per
can ada
Ġpossess ing
Ġboom er
Ġcop per
ĠWork fare
ugh an
ĠEmploy ability
Ġunp opular
journal winter
sk y
empt ed
cra ft
Ġencount ers
Ġflu id
ĠMc L
augh lin
Ġcal am
Ġfight er
Ġflex i
Ġuns uccessful
In c
21 00
ij n
cu le
off enders
ĠAss isted
ĠCol lect
ĠCol orado
ĠTe o
Ġsecret ly
ĠAccess ible
rick en
Res ources
PM Lee
Ġcircumst ance
orb ell
69 6
spe c
Ġansw ers
ĠSch lap
Ġcredit ed
Ġpack ets
Ġreview ing
Ġattrib ute
research std
hy th
ĠArticle ID
aut ics
limit start
Ġtrust worthy
Ġge ographic
ĠDef ining
Ġyield s
Ġfunctional ities
80 132
ĠMon day
ĠMon etary
Ġprem ises
Ġdiscoura ging
Ġexc avation
Ġfif th
Ġdead liest
uplo ads
Pro blem
ĠCost s
ĠGener ate
IT Y
ĠMod ified
Ins ight
ĠGu arantees
Ġrecess ive
bu y
Ġsent i
Ġmig rating
Ġcalc ulation
cern s
fo xnews
ĠCor win
Ġtoxic ity
Ġinfring es
Ġdepri ving
upload ed
IA L
Ġcur able
ĠIN L
68 5
Ġsuc c
Ġexcept ional
Ġexcept ionally
ĠPo cket
Ġalarm s
ĠSkunk works
ĠMark et
Ġinstru ment
Ġinstru mental
viet nam
arter ly
Ġfarm s
Ġbra kes
ĠCr imes
Ġintensive ly
Ġtraged ies
Ġwin ning
ason able
ĠMor atilla
ĠPart icular
ĠProtect ing
Ġingred ients
ĠMa jid
1000 6
tra ffic
Ġmel ted
ĠLin ares
Ġhandic ap
Ġhur d
Ġast on
Wh at
Ġunre asonable
Ġdro ps
Ġbreach ing
ĠSwed berg
46 00
Ġmit igation
Ġhit ting
Ġgam ma
ĠInvest igation
Ġimpart ed
ĠLoc ating
display Story
Ġli braries
Ġliter ally
ĠUnivers ities
Ġplag iar
ĠInteg rity
Ġspot ted
Ġdisturb ing
Ġdisturb ed
Ġlengthen ed
Content Serv
ĠCreat ivity
Ġtum or
Ġfract ures
Ġbattle field
ĠEl izab
col lections
Ġrepercus sion
stor age
Ġtherm ometer
NE Water
Ġmat urity
Ġlens es
ĠAut o
ĠAnalys es
Ġsubstit ution
medical newstoday
Ġmalfunction ing
ĠWhe elchair
ĠRec ord
ĠRec overy
Ġdisplay ed
Ġcoating s
Ġaro se
ĠTerror ism
Ġpoison ing
ĠArt ificial
ĠArt Num
Ġiron ically
Ġdivers ity
View ContentServ
Ġprop ag
ĠMas low
ĠVal ley
120 6
ili pp
Ġconstit ution
Ġang les
Ġstig mat
ĠDu ong
ĠResort s
GenIV Roadmap
Web Home
ĠTren d
ĠRob inson
ĠPA PER
Ġdistinct ive
Ġthermo chemically
ĠMcC arthy
Ġgi ants
Ġendeav or
Ġstagn ant
bb ss
sustain ability
ĠTrib une
ĠSaving s
ĠBry n
Ġunderm ining
Ġdemoc racy
Ġdemoc ratic
lancast er
Ġpregn ant
Ġsunsh ine
Ġton nes
arb age
Ġinculc ated
Ġunh appiness
answ er
Ġspirit ual
ĠProt oty
Ġoccas ional
session mgr
ĠSerendip itous
218 25
PI AN
card i
dst a
elder rights
Ġpour ing
Ġhorm ones
Ġdepos its
Ġmanip ulate
abin et
Ġretro f
Ġretro spect
Ġtransplant ation
Programme Polic
Ġbreed er
Ġelabor ated
dh s
Ġcru el
Ġwild life
ĠIniti ative
ĠLif elong
Ġnegot iate
502 26711
Ġpassion ate
Ġrestaur ants
Ġmonopol ies
Ġaest hetic
Ġproduc ers
EL SI
baby bonus
dia gnosis
equ ipped
tj gb
ĠIll ness
ĠHT GR
ĠFar ley
ĠNish imats
ĠOffic ial
ĠJon athan
Ġcommission ed
ĠKenn edy
Ġinflex ible
Ġcred ibility
Ġsett led
Ġcorrespond ence
Ġcomplac ent
ĠNGNP s
Ġec osystem
Ġexacer bate
020 80132
211 31
Bu ying
tai wan
Ġtheat re
Ġancest ors
ĠTem asek
ĠSher man
Ġdisting u
Ġvolat ile
Ġbarrel s
ĠSchoen bein
Intern ational
Es chede
Rel ated
eo earth
rish nan
shi ppai
wire dscience
Ġcri pple
Ġnan otechnology
ĠHug hes
ĠMink off
ĠNich ol
ĠThreat en
ĠPredict ions
ĠGru ber
ĠDub ai
Ġmagaz ine
Ġramp ant
Ġholid ay
ĠMinim um
Ġovere st
image key
Ġdeduct ed
HEA LTH
Text Article
ĠdGL zV
Ġhus band
impa ired
Ġlaz y
ĠRosen berg
ĠHob oken
ĠCAS PIAN
ĠMut ual
ĠPack age
ĠWire less
ĠEh resman
Ġsav vy
every thing
Ġvend ors
ĠLic ensing
Ġoverrun s
ĠUnd oubtedly
Ġinfra red
ĠExp anding
Ġblog category
retri eve
senior journal
ĠContro vers
Ġupb ringing
iox id
Ġrecip ients
917 1
Lore nzo
cne af
crypt ome
dlt r
fagu ide
oxford journals
Ġfant astic
Ġinacc ur
Ġrenow ned
Ġgase ous
Ġgeri atric
ĠTelf on
ĠTRIS O
ulth ood
olester ol
ĠRenn ie
ĠHus sein
ĠHerr anz
emerald insight
ĠCINA HL
ĠFSA E
ĠPeb ble
acche tta
Ġdispl ays
ĠWesting house
ĠWats on
ĠBod ansky
ĠGony eau
bercu losis
Ġunple asant
Ġpersever ance
Ġjsession id
Ġdefibr ill
ĠYish un
Ġvariet ies
Ġ849 696
ĠArgon ne
NewsCent er
aldFull TextArticle
ĠSchlap bach
ĠParticular ly
ĠElizab eth
ViewContentServ let
ProgrammePolic ies
ĠNishimats u
A nd
E m
O C
O il
S cience
d irect
d onald
f icial
g ate
h ones
i ot
m ake
n ote
p owers
r im
r ide
u ing
u ds
y et
Ġ q
Ġt it
Ġt ong
he at
he red
Ġa ug
Ġc ite
Ġp lease
Ġw andering
is ition
is hes
Ġf ade
Ġb in
Ġb low
Ġb oring
Ġin ner
ic ists
Ġm ine
Ġd raining
Ġe ager
il o
Ġth rown
lo ading
ĠT echn
Ġl aid
ĠS and
ĠI P
Ġas p
Ġas certain
ĠH ard
el ed
tt ers
ĠC ow
ap ed
am ps
ort s
us al
ĠM other
ĠM iss
ĠM eltdown
ĠN P
ĠN ie
du ous
Ġres erved
ĠW DA
Ġshould ers
ĠB ay
ĠB ionic
ĠO wn
ĠE U
ĠE ither
ĠG ive
Ġdes ert
Ġdes erving
Ġpl ates
cc a
Ġint ends
Ġpre ference
Ġwork forces
Ġun us
Ġun ac
Ġun su
Ġun mar
Ġcont end
Ġcont ented
ĠV ideophone
Ġdo se
Ġle tters
Ġk ick
ĠU C
Ġind ul
ag an
Ġra pe
ĠJ o
Ġsome body
Ġar med
Ġar isen
Ġar duous
Ġam b
Ġpos ing
Ġworld s
Ġdise ased
ĠCh ronic
Ġinst itute
ob el
gra duates
Ġeven ly
che ck
Ġatt ent
Ġsp urred
Ġsp heres
Ġconsid ers
Ġamount ing
Ġbuil ds
Ġinf ancy
Ġdef e
Ġcl ou
Ġliving s
Ġgre y
Ġcap t
Ġpotential s
Ġbefore hand
ĠDe vices
res istance
ĠWh ite
Ġdown s
Ġperform s
Ġpay ments
Ġequ ipping
Ġform ulate
Ġexpect s
Ġdiscover s
Ġent ities
Ġheat h
Ġback ed
ĠCent ers
Ġcommunic ated
Ġsc an
Ġsc anning
Ġreport ing
Ġorgan isms
Ġlab ours
Ġassist ive
Ġdist rict
Ġcle ared
ll a
ĠSh ar
Ġenjoy ment
Ġmor ality
Ġmor als
cont in
Ġprofess ors
Ġport ray
Ġloc ally
ĠComp are
Ġpolit ic
Ġsat isfaction
Ġwar fare
25 7
ĠEurope ans
riv acy
Ġbal ancing
Ġcoll ided
Ġtele visions
Ġsuper ficial
Ġmet als
Ġimpos es
Ġpers ists
Ġpost ure
Ġunf it
Ġestim ates
Ġauth orized
Ġcheap ly
Ġobst ruction
ĠProgram s
The y
Ġprefer able
ĠAb ove
Ġsepar ately
Ġdecl are
sen iors
ĠCont in
Ġbon uses
Ġbroad er
econom ics
Ġoccup ations
Ġconstrain s
Ġcal m
Ġforget ful
Ġsym bol
Ġneighb ors
Ġhapp ily
Ġconcent rating
Ġgrant ing
Ġlaunch ing
Ġcounsel ors
rupt ed
ĠPres ent
Ġexch angers
Ġappre hen
Ġsurpr ised
Ġadjust ed
Ġexcessive ly
Ġsacrif ices
Ġoverse e
ĠIncre ased
hard t
Ġbio fuel
Th us
Ġinfring e
Ġtap e
Ġafflu ence
Ġelse where
Ġsl ip
Ġhack ed
Ġcontent ious
Ġresort s
Ġrepresent atives
Ġrevolution ize
Ġded ication
Ġfo am
Ġexceed s
Ġfriend lier
Ġexcl uded
Ġpressur izers
Ġlengthen ing
Ġreluct ance
ĠDevelop ments
Ġexten ds
Ġjeopard y
Ġconflic t
bas ic
Ġstrengthen ing
Ġenrich ing
Ġsubstit utions
ĠImpro ving
ĠTr ue
ĠDet ractors
Ġprop el
Ġexecut ive
Ġpersist ent
Ġimplic ated
Ġcriticism s
ĠProm otion
Ġfing er
Ġexcel s
Ġdeliber ately
Ġnewborn s
Ġstimul us
Ġreci pro
Ġrechar ging
Ġliber ty
Ġrelig ious
Ġrepres ented
Ġdisput es
ĠObst et
ĠChem istry
ĠImple ment
ĠMic hel
ĠVolunt ary
Ġpestic ides
ĠCir cle
Ġlooph oles
Ġmerch and
Ġninet een
Ġpessim istic
groun der
Ġgent le
Ġsmo other
Ġshelt ers
Ġunsu itable
Ġunmar ried
& &
/ .../
0 33
0 24
1 50
1 65
2 29
3 10
3 11
3 60
3 24
3 75
4 13
4 39
5 18
7 15
7 48
8 29
A tt
A ARP
B F
B ar
C o
C ode
C KH
D m
E B
E H
E X
E lder
E conom
E mer
F F
F ert
F inal
G A
G HP
H C
H z
H ill
H ow
H ospital
H ousing
H ua
I CE
J F
J ul
K A
L ine
L ife
M D
M R
M art
M arch
M Wh
M ENT
N S
O N
O ver
O rig
P L
P ass
P enicillin
P osition
P rivacy
Q U
R D
R CR
S he
S en
S ub
S TA
S odium
S ummary
T Y
T rans
T hing
T racking
U r
V gn
V CM
W EB
Y L
a gh
a arp
a emia
b ut
b ri
b ands
b rief
c g
c ult
c our
c sc
c ms
c ret
c set
c ourses
c odes
c gl
c uts
d ar
d ds
d net
d yn
d asi
e ur
e Monitor
f c
f z
f ly
f uc
f riend
f amilies
f ortune
f ifth
f unding
g ap
g ia
g iver
g roup
g ivers
g mat
g rey
h f
h al
h as
h ig
h oc
h ani
h ole
i b
i w
i ie
i eth
i bilities
i enna
j n
j ob
j rank
k ara
l bl
l ang
l amation
m us
m bre
m icrosoft
n on
n ap
n ds
n als
n gm
n ukes
o ij
o inted
p ur
p ag
p ret
p acific
p icture
r g
r at
r as
r il
r ors
r ats
s ig
s ina
s pectrum
t ol
t ag
t oc
t aking
t oday
t empl
t exts
u le
u ated
u itous
v d
v ac
w hen
w ick
w anted
x iety
x library
y c
y re
y roid
z ing
z ta
z dnet
¬ Â¢
Â º
â Ĥ
Ġt p
Ġt ree
Ġt riv
Ġt andem
he ar
Ġa th
Ġa ust
Ġa kin
in vest
in vasive
re tt
re ated
er a
er ver
er land
on i
on ary
on to
on itis
on autics
en y
en gine
Ġs cept
Ġs ink
Ġs ank
at ts
at isfaction
Ġc ree
Ġc net
Ġp et
Ġp ity
Ġp un
Ġp eop
Ġp aced
es Dm
or able
or ously
or onto
Ġw ake
ed es
ed nes
it ivity
an es
an ges
Ġf n
Ġf ro
Ġf as
Ġf arming
Ġf erry
Ġf urious
Ġb reat
Ġb read
Ġb order
Ġb iod
Ġb ored
Ġb ands
Ġb acking
Ġb eside
Ġin quiry
Ġin equality
al a
al lo
al low
al istic
al lex
le e
le en
ic ism
ro y
Ġm etic
Ġm ism
Ġm arriages
Ġan no
Ġan ten
ion ucl
Ġd ictionary
Ġd aunt
ar ai
ent ieth
Ġh ip
Ġh ung
Ġh anging
ou l
ou aw
Ġe gg
Ġn est
as ir
Ġre imb
Ġre bu
Ġre using
Ġre versed
il lot
Ġth ieves
Ġth irteen
Ġth yroid
lo co
om o
om ing
Ġg ig
Ġg all
Ġg arbage
ĠT al
ĠT ar
ĠT erm
ĠT own
ĠT ak
ĠT FR
st i
st ation
st ore
st ructure
st atic
ch ild
ch ron
ch arts
Ġpro poses
ce e
Ġ2 26
id enced
id rc
im h
im m
im edes
Ġl ur
Ġl iv
Ġl ia
ig e
ig an
ur gence
Ġon site
ot ee
ot land
ot ton
ĠS B
ĠS G
ĠS S
ĠS ue
ĠS ays
ĠS ite
ĠS uccess
ĠS pan
ĠS yn
ĠS ignificant
ĠS audi
ĠS obel
ĠI CA
ĠI ES
ĠI SS
ĠI EE
ut ic
ut ory
ut ten
ut ah
ow ed
ow ski
Ġde grade
ĠA GE
ĠA FP
Ġcon dens
Ġcon dem
ul ace
ul ously
her n
her itage
ĠThe sis
op s
op us
act ions
ol lege
ess ment
Ġha cking
ĠR ail
ĠR IF
ĠR isks
Ġal co
Ġal ien
Ġsu persed
ĠH it
ĠH ear
ĠH ope
ĠH irs
Ġnot orious
if oc
if actorial
ra el
ra wn
ra pped
Ġst if
Ġst ance
Ġst atic
Ġst alk
Ġst ricken
ers en
el ve
el bourne
th y
th Oct
ant a
em b
em er
em aster
em ophilia
ĠC D
ĠC all
ĠC arter
ĠC utting
ap ase
ap edia
Ġex poses
iv le
ect omy
us ers
us news
un s
ĠIn con
ge ography
ĠM E
ĠM en
ĠM it
ĠM IN
ĠM ach
ĠM illion
ĠM ethod
ĠM att
ĠM PR
ĠM igration
ĠM Im
ĠM oller
ĠF re
ĠF ig
ĠF os
ĠF ern
ĠF low
ĠF ront
ĠF ram
ĠF ilial
ĠF ears
um ar
um ors
ad option
Ġso ccer
Ġ1 29
Ġimp at
ĠN H
ĠN ak
ĠN av
ĠN intendo
ĠTh iokol
du e
ĠP S
ĠP ast
ĠP HP
ĠP asir
ĠP utten
ac ademic
Ġres ilient
Ġdis ruption
Ġdis position
Ġdis fig
ĠW ert
ĠW omen
ĠW AN
ĠW IS
ĠW right
ĠW isdom
ĠW riting
ĠW ednes
Ġr ss
Ġr ally
Ġr ationally
Ġr andom
ĠB C
ĠB us
ĠB row
ĠB atter
ĠB order
ĠB urs
ĠB artha
ĠB omb
ĠB illot
so vo
Ġch urn
Ġch olesterol
qu ote
bl ess
ĠO R
ĠO k
ĠO land
ĠO arai
ĠE Z
ĠE fficiency
ĠE instein
ĠG T
ĠG at
ĠG ir
ĠG am
ĠG ard
ĠG round
ĠG ames
ĠG lobe
ist ories
and ez
con v
cc us
able Article
Ġad ulthood
Ġcomp ass
Ġcomp li
ĠD an
ĠD ie
ĠD ob
ĠD rain
ĠD ick
ĠD irty
ĠD igest
Ġlo ose
Ġneed less
art ers
etic s
Ġse p
Ġun wise
Ġun planned
Ġun protected
Ġun balanced
Ġun common
ident ly
ew al
ew art
vent ionally
Ġman eu
iz ont
iz adeh
Ġthem e
Ġcont ents
Ġpublic ations
ĠL at
ĠL os
ĠL ip
ĠL ev
ĠL ittle
ĠL atest
ĠL iquid
ell s
ia healthinfo
ĠRetri eval
yst s
Ġengine ered
Ġspending s
ric ks
ric ulum
ear ance
Ġcar makers
ud ge
ĠU pd
Ġind ent
Ġind iff
ust ible
ab ot
ab we
ĠSe vere
ĠSe cret
Ġup hold
ĠAs her
Ġsur pl
Ġmed ics
Ġra ces
Ġper im
Ġtra ditionally
Ġcons erve
Ġcons olid
Ġme al
ĠVH PR
si bility
Ġprov ident
Ġcare t
ile ged
ard ian
Ġ19 20
Ġ19 52
Ġ19 73
Ġ19 78
Ġ19 57
eren cing
iff er
ER I
ER Y
Ġelect ion
Ġelect ions
Ġar rival
Ġ20 1
Ġ20 5
ĠGen es
Ġam end
Ġindividual ism
ie a
ie u
olo gic
Ġover time
Ġover coming
Ġover crow
Ġj un
Ġj ail
Ġj ournals
Ġed ged
rough ts
Ġgo ogle
ens a
Ġinv is
Ġchild b
sy s
tain ment
ĠAl arm
ĠAl liance
Ġcomm ence
Ġinform s
ĠRe comm
ĠCh ong
ĠCh ia
ĠCh ip
ail s
end y
Ġno ble
ploy ment
ind e
ind icators
ep ress
ĠAn sw
ĠEn nals
Ġprevent able
Ġcr ises
Ġfe et
Ġser v
Ġser ver
ĠK J
ĠK ath
ĠK rist
ĠK lein
ĠK iffer
Ġrisk ed
ph ony
Ġaff ili
ĠIV F
Ġfinan ced
Ġsp ur
Ġsp ans
Ġsp ared
ĠSt em
ĠSt reet
ĠSt ewart
Ġconcl udes
ĠRef riger
ĠReferen cing
ass n
Ġ6 000
Ġrad ionucl
Ġfac ets
ak rishnan
Ġtw elve
ject ion
ts unami
Ġsub mer
Ġsub scrib
ex pert
ĠPro of
ĠPro liferation
Ġfact book
pro perty
pon ed
pon der
Ġmin ister
Ġpo ets
elf t
ĠY ong
Ġoff site
Ġenc lo
Ġreg ain
Ġopp onent
Ġcl inics
Ġcl oning
Ġcl arified
Ġcl imatic
oura ging
Ġtrans parent
Ġtrans national
Ġtrans parency
Ġtrans ponder
int erscience
Ġsk imming
ĠCom b
ĠCom merce
ĠCom pressed
Ġco hes
Ġco oking
Ġins ight
lu b
pos ium
ĠWe ick
ĠWe apon
ler t
de al
Ġhy per
Ġcap tures
Ġref resh
Ġstr ut
Ġrespon ding
news id
ĠDe pending
Ġmon o
Ġmod erated
ee k
Ġher itage
res pect
Ġreal m
10 16
10 55
10 201
Ġdown fall
sequ ences
Ġset back
Ġvar ied
Ġ8 70
the online
the reg
Ġrec ording
Ġrec lamation
Ġ9 1
Ġprotect ive
ism ic
Ġform ulating
Ġsmall est
Ġ7 2
Ġ7 7
gan o
Ġconcept ion
2009 08
2009 010
50 7
50 8
pr ising
ĠNew ton
Ġaw ard
Ġaw ards
Ġcor rid
Ġmethod ologies
Ġinter view
Ġinter cepted
itt ent
its c
29 7
29 33
ĠCon cl
ĠCon vention
ĠCon cepts
ĠCon ventionally
ĠCon sequences
Ġ- --------
Ġur ges
Ġur gency
Ġpr ism
20 4
20 12
40 7
Ġev il
Ġev idenced
Ġbel ieving
Ġtransport ing
Ġtransport ations
Ġdirect ing
Ġ23 0
Ġ15 00
Ġpract iced
Ġair line
Ġanal ysts
ĠWhen ever
ne a
ĠInst ru
Ġfl ip
Ġsc ru
Ġorgan izing
cle an
SR ETRY
Ġcondition ed
11 26
ĠIs rael
ĠAnd erson
Ġlight ing
Ġgu ides
Ġavoid ance
Ġ13 9
Ġ13 00
Ġday light
09 1
Ġdist ant
Ġcle arer
fact iva
ĠPublic ations
article view
ev a
hand le
unk el
Ġbirth day
adv com
ĠFin al
ĠSh ow
Ġ17 2
ah an
Ġstandard ized
ĠEx pensive
ĠEx amination
ĠEx isting
Ġ14 00
12 5
cyc lop
Ġpar king
ĠSu icide
Ġfar away
att ack
Ġdetect or
sc u
sc opus
cont act
Ġfil t
Ġdam ping
Ġspec ulated
Ġemot ion
ĠElect ro
Ġmis ery
ĠEduc ating
Ġmult inational
ash ing
2008 08
Ġfriends hips
ĠBo om
Ġ29 0
Ġstop ping
ĠEconom ically
Ġtre asure
ĠAssoci ate
Ġpop ulace
ĠAdv ance
road s
17 7
17 8
17 21
17 940
Ġschool ing
Gen eral
Ġarticle id
ĠMe hd
60 4
60 8
ĠPress ur
riv als
az i
ĠAm y
23 2
Ġspeed ing
Ġcomfort s
Ġdest iny
Ġcol our
Ġmot ive
ĠAsia one
Ġid Content
Ġproductive ly
Ġbr id
Ġbr anch
rect al
27 33
08 10
Ġbl iss
Ġboost ed
Ġchem otherapy
rfid update
enicill ium
par liament
28 477
Ġleg ally
26 3
Ġpost ing
Ġpost poned
ĠGr andparents
Ġdel aying
rel ations
rel atives
rel iability
lex ibility
Ġvulner abilities
sh ould
sh opping
omet ry
ĠSim ultaneously
ĠSim pson
Ġstat uses
Ġcirc ulating
Ġcustom ized
Ġign oring
ĠPh ilipp
Ġgradu al
Ġgradu ation
Ġoutput s
Ġreturn ed
Ġsimpl est
AR RI
Ġsubstant iate
ĠEvery day
Ġquick er
Ġclass ify
Ġclass rooms
Ġcheck ed
ĠÃ ¢
ĠHow e
ĠHow ard
car bide
Ġmar ry
ĠRo le
ĠRo oij
ĠCl ark
24 1
99 4
Ġguarant ees
ĠZ orn
ĠTra ck
Ġpredic ts
Ġimmig rant
55 9
hold ers
ĠSk ene
Ġobser v
Ġobser ving
ĠWeb Thing
ĠX in
Ġcollect s
Ġcivil ized
Ġcard iac
Ġfav ored
gu ides
ĠBi otechnology
Ġrat ios
Ġsepar ators
Ġdecl ines
ĠÃĤ Âº
sur gical
Ġrecover ing
Ġyouth ful
Ġcounter act
ĠLead ers
ĠStud io
rad inf
ĠDis asters
Ġbroad ly
ĠEd wards
bi os
Ġoccup ies
ĠMc Int
ĠSer ies
Ġfair ness
ĠMich igan
Ġbuy ers
Ġuns ustainable
Ġmotiv ate
Ġmotiv ating
Ġsym pathy
Ġguid ing
ĠSpe ed
Ġextern ally
Ġdraw back
Ġscar ring
ĠSw iss
Ġhind rances
Ġaccommod ating
Ġjo bless
ĠGreen e
Ġexperiment ed
ull agh
Ġexcell ence
Ġdefic ient
Ġintr ude
35 7
35 9
Ġconv icts
Ġbomb ing
Ġansw ered
ĠSch ne
ĠRet inal
Ġpack aging
ĠIns ufficient
priv ileged
Ġsuperior ity
bre ast
ĠDef ine
Ġmom ents
ĠMon ahan
Ġpath s
Ġextract ion
Ġpacemak ers
Ġadjust ing
ĠLimit ations
84 4
Ġmand ated
Ġmature d
Ġdrain ed
imb abwe
Ġexhaust ion
Ġconsult ants
Ġentertain ing
Ġce ased
Ġce iling
Ġtouch screen
ĠWell being
Ġanticip ation
ĠSupp lement
Ġkidn ap
ĠJohn ston
pat ibility
ĠSub st
ĠInter vention
ĠMo ir
ĠMod ular
ĠMar ried
Ġgrand parents
Ġcatch ing
times online
Ġsent ence
Ġblind ness
Ġbio chemical
Th iokol
law s
Ch annel
FA Q
ara oke
state ment
ĠNet t
ĠNet works
ĠLaw s
199 5
199 045
ĠBuilding s
Ġcur riculum
Ġassum ptions
Ġneglig ent
Ġsl ides
stra pped
Ġru in
Ġundes ired
amil ial
amil iar
cd c
ĠNeed less
Ġvibr ant
key issues
ĠNE W
Ġunivers al
Retri ved
Ġbra ve
ĠBer ry
ĠLew is
mon th
mon ia
print ableArticle
Ġentit lement
Ġinstant aneously
Ġignore s
ĠAltern ate
EE L
ĠHere ditary
ĠMor in
ĠMor ning
ĠPart ner
program mes
Ġcurb ing
Ġbeg ging
Ġwithd rawn
Ġast ounding
Ġfort uitous
intern et
Ġpra gmat
ĠFact iva
ĠAccount ability
Ġunre alistic
Ġorigin ally
Ġappli ance
Ġri ver
Ġri vers
Ġaggress ors
Ġstem s
ĠInvest ments
ĠLoc ale
ĠAff ord
ask ar
Ġbehaviour al
ĠBre cher
Ġremind ed
Ġpayout s
Ġrelief s
AT MY
ĠMO X
ĠGra du
sm art
ĠCreat ing
orient ated
Ġacid ic
Ġcentral ized
Ġadvert ised
ĠTom orrow
ĠInf lu
Ġinterm ittent
Ġprompt ly
ĠMedicine Net
Ġarrange ment
Ġbroadcast ers
fin ding
fin ance
Ġder ailment
ĠPass es
Ġweigh ing
Ġfee ble
Ġcollabor ation
Ġadvertise ment
pre vent
Ġail ment
oles cence
unct ions
Ġmer its
Ġlic ensing
acu um
Ġunauth orised
ĠStat us
cr isis
Ġrepro duction
ĠMem orial
Con nell
bur g
bur gh
special reports
Ġsil ence
Ġpoison ous
ĠBook s
Ġiron ic
ĠEv idently
Ac ademic
TO PIC
View er
polit ical
reference content
ĠSM S
ĠMW e
Ġforesee able
ĠMult inational
poll ution
Ġbenefic iary
Ġinstitution al
Ġple asant
Ġhards hips
ĠCR G
ĠCR ETRY
ĠMent al
ĠBen nett
Ġcoord inated
Ġcataract s
ĠAssess ing
rid ers
Ġdimin ished
empl ate
ĠColl ins
Ġerad icated
technical publications
Ġrecon sider
ĠTai pei
ĠEffect ive
Ġthermo chemical
ĠAppro ves
lon gevity
Ġble ak
ĠHis ense
ĠJul ie
Ġfabric ation
Cost OfNuclearPower
Ġbrow se
Ġbrow ser
ĠHold ings
Ġdisapp oint
ĠJeff rey
Ġintens ified
Ġtaxpay er
sustain ed
Ġaven ue
Ġhosp ices
ĠBry an
ĠJack son
Ġscann ers
Ġaer ody
Ġphrase ology
De velopment
Ġhon est
Ġhon our
Ġgun powder
ĠTri partite
ĠNan ayak
ĠGill ian
Ġpredis positions
Ġmole cular
Ġmole cule
Ġdissem inate
140 9
dra ft
ws j
Ġtim ing
Ġpsych o
ĠSus an
ĠSus sex
ĠAh son
ĠEqu ipped
Ġunint ended
Ġmail to
ĠVeh icle
ĠKn op
Ġinfert ility
ĠInstit ution
ĠInstit utes
ĠQue k
ĠQue en
Ad v
Ġgri p
ĠKev an
Ġelabor ate
ĠShan ghai
160 1
ja ea
tz man
Ġsand w
ĠTy pes
ĠSA F
Ġencompass es
ĠReduc ing
ĠReduc ed
ĠIniti atives
Ġdissip ated
quire r
Ġkn ee
Ġkn ife
Ġrestaur ant
scrib d
Ġtu ition
ĠRam dasi
ĠSelect ion
ĠKel vin
Ġregist ered
Ġrepres ents
pie ce
Ġsem in
Ġerect ile
ĠFis her
ĠFis cal
ĠBra zil
ĠBrad y
ĠOcc up
ĠDi Lorenzo
Ġarbit rary
Ġphysi ological
Ġflood s
ĠAbra ms
ĠAbra ham
Ġabort ion
Ġvit amin
ĠStand ards
709 8
Down loads
EAR CH
fac ilities
Ġmount ing
ĠCult ural
ĠGree ly
ĠAnaly ze
Ġtransm utation
ĠWhit man
spy chips
Ġcycl ists
Ġelectroly sis
ĠSect or
Ġenrol led
Ġpersu ade
Coll apase
JV N
cm u
mot or
Ġtub es
Ġscal es
Ġdupl icated
Ġrecept ive
Ġprost hetic
Ġenvision ed
Ġstair case
Ġdisinteg ration
Ġrheumat ism
ĠBa ard
ĠOlym pic
connect ed
ĠVulner ability
ĠEnc ouraging
prove ment
Ġcyc ling
Eng lish
ĠBarb ier
buzz le
ĠWalk er
Par am
nu ke
Ġpubl ish
escap able
loss ary
Ġgau ge
Ġlou d
utrit ion
ĠCorm ode
aphy loco
ĠMechan ical
Ġgenuine ly
Ġreserv o
ĠBh askar
Ġunve iled
Ġadvis able
ĠChand ler
dec ision
ĠArch imedes
ĠMcG raw
Ġcalor ie
chinad aily
ĠUnden iably
Ġpredomin ant
Minist erial
UCA TION
_- _
obl ast
tem p
Ġip hone
Ġdeduc ed
ĠAra bia
Ġshad ow
appl ication
ĠNest ell
ĠNev ada
ĠBM J
ĠBIO S
ĠOre gon
ĠOpt im
ĠGadget s
Ġdesper ately
Ġplann ers
comput er
ĠSeid eman
ĠKo sovo
explo re
ĠProceed ings
Ġcorrel ation
ĠOppos itions
Ġsucc umb
ĠPocket Viewer
Ġhurd les
Ġaston ishing
WebHome CostOfNuclearPower
ĠControvers ies
ioxid ants
Ġinaccur ate
ĠOwn ers
AARP journalwinter
Emer aldFullTextArticle
GHP CKH
Over view
RCR D
Vgn VCM
csc ollege
zta jn
âĤ ¬Â¢
Ġtriv ial
Ġcree p
esDm O
allex perts
Ġanten na
Ġdaunt ing
ouaw ad
Ġreimb ur
ĠIEE E
ĠRIF D
Ġalco hol
ĠHirs ch
Ġstalk ers
ĠIncon venient
ĠMIm g
ĠFern andez
ĠFram ework
ĠWert z
ĠWAN O
ĠWednes day
ĠBurs ztajn
ĠOland er
Ġmaneu ver
Ġsurpl uses
ĠKath leen
Ġaffili ated
Ġradionucl ide
Ġcohes iveness
theonline citizen
thereg ister
ĠMehd izadeh
ĠRooij en
199045 43
ĠNanayak kara
aphyloco ccus
B ER
M IS
P l
T o
b ill
b ug
b bles
d on
f eed
g iving
h ou
h um
h ouses
i ated
i ations
k ward
l ane
m em
m eltdown
p repared
r ays
r ising
r arily
r ung
s ays
s pend
t ouch
y e
z hou
Ġt ur
he nt
in ally
en et
at omic
Ġo we
Ġo sm
Ġc ow
Ġc ertific
Ġp ublishing
Ġf ever
Ġf allen
Ġf lying
Ġb atch
Ġto w
Ġm ap
ion ate
ar at
ent al
Ġh iding
Ġn erve
Ġre views
Ġth row
Ġg ro
Ġg aps
st s
Ġl ag
Ġl end
Ġl agging
ig ated
ur ia
ur ities
ĠS et
ĠS unday
ĠI l
Ġfor ge
Ġen roll
ĠR AD
Ġnot icing
Ġhe al
th at
ĠC WR
ĠC NA
ĠC arriers
am at
ĠM R
ĠF er
Ġso ars
ff orts
Ġimp lied
Ġimp lements
ĠN S
ac ity
Ġr ide
ĠB illion
Ġch airs
ĠO ption
Ġinc ons
ĠE fforts
ĠG P
ĠG rowing
Ġdes erved
Ġpl ate
Ġad vers
Ġcomp ly
Ġlo ves
Ġse gments
Ġun question
Ġab ol
vent ed
Ġman ned
Ġman uf
Ġv ivid
Ġma gic
Ġacc ustom
Ġind oor
Ġconc ise
Ġup s
Ġper mitted
ple tion
Ġtra ding
Ġtra ps
Ġsome where
Ġcons cient
si as
si bilities
Ġthan k
ip ment
Ġar ter
Ġar ran
Ġdiff ering
Ġover loaded
Ġinv iting
Ġchild care
ruct ed
Ġinst il
Ġro ll
Ġaff lic
Ġph ilosophy
Ġunder graduates
Ġsp ill
ĠSt rate
Ġperson ality
cept able
Ġrad ical
Ġtw in
Ġmin ed
wor ds
Ġtrans f
Ġjust ifies
Ġco he
Ġown s
Ġref err
Ġref usal
Ġass ault
Ġche er
ĠRes ident
ĠRes erve
res ult
Ġreal ising
Ġdown load
Ġburden ing
Ġident ifies
Ġte aches
Ġve get
Ġsen ds
Ġconstruct s
Ġconstruct ions
Ġaw kward
Ġbo ils
Ġill um
Ġreason ing
Ġbudget ed
Ġach ieves
Ġaccess ories
ĠCon ditions
Ġexplo ding
ub s
Ġinfrast ructural
Ġair plan
Ġgra d
Ġreact s
Ġassist ances
Ġaccount ing
Ġradi ations
Ġbeh ave
Ġbeh alf
Ġnon etheless
Ġintern ally
Ġequip s
Ġalloc ates
ĠSh aw
Ġtop s
Ġfar ther
ĠEduc ational
be it
Ġwind ows
Ġweak en
wh ich
Ġdeb ating
Ġrecogn ise
Ġcommer ce
Ġtravel ing
Ġdeter ring
Ġinitial ized
Ġsoci a
Ġcompar ative
Ġrenew al
Ġsurv ived
Ġproport ional
Ġfulf ills
Ġunf amiliar
Ġmeltdown s
Ġdiagno sing
ĠRad iation
Ġclass ification
Ġelectr ons
su ite
ĠReport ed
Ġcollect ive
gu ment
ĠMac donald
Ġabandon ment
Ġevident ly
Ġver ified
Ġsomet ime
ĠCont rary
Ġmechan ics
Ġarchitect ures
ĠChallen ge
Ġfeed ing
Ġguid eline
Ġcompetit ions
off s
ĠAss istant
ĠSouth west
Ġparticip ants
Ġfit ting
Ġintr uded
Ġwrit es
Ġexpress ing
Ġtrust ed
Ġhop ed
Ġescap ed
Ġsacrif icing
Ġacqu isition
Ġbul bs
ĠMo ving
Ġsy ndromes
Ġtrig gers
Ġbio fuels
Ġinfring ing
Ġlik es
Ġevol ves
ĠAng st
Ġresort ed
ĠAre as
Ġconce iving
sol utions
Ġvers a
ustain ability
Ġattend ants
Ġskill ful
Ġorigin ate
pay ers
Ġmatch ing
Ġrefer ring
ĠBur den
Ġgovern ed
Ġauthor ization
ĠBack grounder
Ġrare ly
Ġaccompl ished
Ġcultiv ate
Ġwel coming
Ġdeliver ing
Ġstraight away
Ġrehabilit ating
Ġsle eping
Ġconfirm ation
Ġslop e
Ġfing ers
Ġcorrupt ed
clo sed
ĠCra ig
Ġmanager ial
Ġaggrav ate
Ġaggrav ated
Ġpione ers
Ġunh appy
Ġrevol ve
Ġheads ets
Ġspeak ers
Ġrelig ion
aves dropping
Ġenact ed
Ġaest he
Ġproduc er
ĠWW II
Ġregist ration
ĠSal ma
burn ing
Ġdisappro val
Ġvac ancies
Ġsli pping
System s
Ġoce an
ĠStein hardt
Ġgym n
Ġprejud ice
Ġlawsu its
Ġmotorb ikes
Ġmilest one
Ġwond ered
Ġinhuman e
Ġdele te
ĠVacc ine
ĠJud ging
Ġdiscre tion
Ġquarant ine
Ġpiv otal
ĠSel amat
Ġsched ules
Ġdraf ted
ĠBreak through
Ġdin ner
Ġdisregard ed
Ġque ues
ĠIllness es
Ġdistingu ish
Ġtong ue
Ġasp iring
Ġunus ual
Ġunac ceptable
Ġrecipro c
Ġosm osis
ĠCWR U
Ġconscient ious
Ġairplan es
/ -
1 29
2 50
2 12
2 15
3 29
3 21
4 20
4 33
4 31
5 29
5 22
6 07
6 14
6 39
7 33
7 68
8 50
8 40
8 11
8 26
8 05
8 21
8 52
9 26
A F
A G
A meric
A IR
B P
B udget
B rain
B CA
B LE
C or
C od
C ons
C sg
C EN
C lef
D ay
D em
D ong
D ex
D ev
D ulcinea
E F
E x
E ast
E lderly
E ffect
E LO
E UN
F Y
F ac
F ace
F OR
G Y
G i
G INA
H TM
J A
J T
J apan
K K
L ead
L FR
M T
M o
M w
M ess
M EDIA
N T
N W
N u
N ote
O T
O lder
P e
P ress
P resentation
R og
R isk
R adio
S ol
S ite
S ep
S aving
S ME
S achs
T el
T erm
U T
U ID
U CH
U LA
W il
W ith
W ang
Y ear
a ar
a ci
a ism
a issance
b k
b il
b one
b ard
b rain
b atter
b itst
b oston
c ulation
c ases
c ert
c orpor
c rs
c lick
c otton
d q
d w
d ent
d ig
d ish
d angers
d ressing
e q
e le
e ap
e ating
e explore
f d
f re
f as
f red
f illed
f actors
f ront
f aces
f unctional
g reat
g esting
g ames
g fr
g reg
g lobe
g wick
g lossary
h k
h ar
h ot
h ide
h icles
h unt
h iring
i atric
j ou
j ang
j uries
j mc
j rg
k w
k x
k id
k th
l f
l ast
l li
l itt
l atest
l ene
l ko
m r
m x
m arch
m ass
m ethod
m arin
m atters
m artin
m fa
m unity
m illan
n ation
n pp
n ano
n ita
n intend
o i
o ct
o genic
p D
p m
p u
p ast
p sy
q a
r j
r ical
r and
r ational
r ator
r man
r ison
s um
s ives
s ources
s ize
s av
s ale
s worth
s bst
s fp
s unday
s abot
t v
t x
t el
t ire
t ier
t ata
t empor
t ags
t otal
t inton
u en
u itive
u week
v ay
v als
v gn
v ideos
v irtual
w m
w ar
w att
w da
w fp
y ers
Â ¨
Ġ rival
Ġt ie
Ġt empted
he k
he ads
he tta
Ġa rou
in um
in ide
in ite
in sid
in ique
in sider
re z
re ts
re run
re processing
re asons
Ġthe rape
er z
er ious
on al
on duct
on ics
on ology
on win
en af
en itic
Ġs ar
Ġs our
Ġs ong
Ġs pect
Ġs ized
Ġs emic
at z
at om
at oday
Ġc iv
Ġc able
Ġc ens
Ġc ensus
Ġp ad
Ġp ile
Ġp ound
Ġp ave
Ġp orous
Ġp lot
Ġp ipe
Ġp onder
es th
es ity
es co
or a
ing le
is her
is ern
is ite
ed news
it ant
it ry
it ution
an on
an al
an et
an king
an ches
Ġf ost
Ġf urn
Ġf ounder
Ġf estival
Ġb c
Ġb en
Ġb ID
Ġb less
Ġto ys
Ġto iled
Ġin au
Ġin security
Ġin mate
Ġin accessible
Ġin mates
al er
al ities
al ten
al pric
le es
ro st
ro ot
ro ke
ro ckwell
ro lees
Ġm c
Ġm ort
Ġm um
Ġm arch
Ġm ilit
Ġm old
Ġm erc
Ġm atures
Ġd os
Ġd ub
Ġd ried
Ġd ense
Ġd ancing
Ġd rew
Ġd roughts
ar h
ar co
ent ry
ent iful
Ġh o
Ġh ob
Ġh its
Ġh istories
Ġe uro
Ġn d
Ġn om
Ġn iche
as hi
Ġre ag
Ġre public
Ġre think
Ġre iterate
ve hicles
il le
il im
Ġth irst
Ġbe ac
lo ckheed
lo tte
ld en
ld iers
om a
om ous
om nia
Ġg ar
Ġg ir
Ġg arn
ĠT C
ĠT E
ĠT R
ĠT S
ĠT i
ĠT ot
ĠT ry
ĠT ell
ĠT ool
ĠT ek
ĠT aste
ĠT eri
ĠT rev
ĠT asks
ĠT owards
ĠT oronto
ĠT umors
et imes
et work
st b
st ri
st ress
st ick
st aff
st ein
st ige
ch no
ch anger
ch ison
Ġpro ver
Ġpro ud
Ġpro cure
ce ar
ver at
se v
se ment
se ction
Ġ2 20
id ot
id ity
im p
im ers
im ages
im edia
Ġl a
Ġl c
Ġl it
Ġl id
Ġl ip
Ġl inking
Ġl apse
ig en
ig ov
ig gs
ur gery
ore nst
ot ers
ot ors
ot ics
ĠS l
ĠS at
ĠS an
ĠS ent
ĠS ac
ĠS ild
ĠS ys
ĠS eth
ĠS ave
ĠS iew
ĠS TS
ĠS pinal
ĠS anta
ĠI S
ĠI r
ĠI lan
ĠI SB
Ġfor s
Ġfor go
ut z
ut er
ut ors
ow ald
ir a
ir k
Ġu mbre
Ġas pir
uc cp
Ġde fore
Ġde leg
Ġde generative
Ġde grad
ĠA S
ĠA x
ĠA er
ĠA bs
ĠA RT
ĠA PP
ĠA RP
ĠA SI
ĠA EH
Ġcon dom
ul ed
ul ates
ul sion
Ġit erative
her ald
op t
op ath
op papers
op erative
nt rs
act ers
ol i
ol ff
ess ays
ay den
gy pt
ĠR S
ĠR oss
ĠR ising
ĠR uth
ĠR idge
ĠR anking
Ġal ight
ĠH A
ĠH i
ĠH ays
ĠH oll
ĠH eng
ĠH els
ĠH aid
ĠH istor
ĠH ook
ĠH istorical
ĠH ierarchy
ĠH sein
ĠH CF
ĠH echt
Ġst ric
Ġst raw
Ġst icks
ers ky
no Age
Ġne arest
th ler
ant ic
ant ech
em ission
Ġsh ab
Ġsh ips
ĠC S
ĠC W
ĠC at
ĠC ause
ĠC ases
ĠC AR
ĠC EA
ĠC aut
ĠC rown
ĠC odes
ĠC EO
ĠC FC
ĠC abinet
ap ans
ap iti
ap plications
Ġex ports
Ġex empl
Ġex terior
iv an
iv ated
iv ola
am med
am ins
am edical
am biguous
am azon
am otors
ort hern
ect ure
ect able
are t
us atoday
un it
un esco
ĠIn v
ge os
ge org
ge arco
ĠM B
ĠM D
ĠM ans
ĠM its
ĠM ake
ĠM akes
ĠM obility
ĠM aster
ĠM agn
ĠM arriage
ĠM agnetic
ĠM IC
ĠM useum
ĠF i
ĠF if
ĠF ry
ĠF lu
ĠF ield
ĠF ah
ĠF irms
ĠF lor
ĠF BI
ĠF ILE
ad ding
pen sible
Ġim itate
Ġby stand
cess ion
Ġmore over
ĠN uc
ĠN one
ĠN ame
ĠN any
ĠN EA
ĠN urs
ĠN UC
ĠN early
ĠN IH
ĠN ivola
ĠTh ane
du p
ĠP C
ĠP R
ĠP ay
ĠP am
ĠP ear
ĠP ak
ĠP hen
ĠP ars
ĠP eg
ĠP overty
ĠP DA
ĠP ractical
ĠP artha
ĠP ickard
ac illa
pp t
pp ling
pp ery
Ġres h
Ġres idence
Ġres onance
per form
ast ics
Ġdis ables
Ġdis bur
Ġdis heart
ain t
ain st
ĠW as
ĠW ard
ĠW ass
ĠW ik
ĠW oll
ĠW ah
ĠW AS
ĠW OR
ĠW MD
ĠW olff
ĠB O
ĠB ud
ĠB ons
ĠB anning
ĠB uck
ĠB TO
ĠB erman
ĠB EAR
ĠB acchetta
ĠB orenst
os a
Ġch art
Ġch amber
bl iot
ĠO h
ĠO s
Ġinc isions
ĠE C
ĠE er
ĠE fficient
ĠE uro
ĠE asing
ĠE BS
ĠE uthanasia
ĠE RIS
ĠE gypt
Ġcount ed
Ġcount erm
Ġcount ered
ĠG ore
ĠG ol
ĠG iving
ĠG av
ĠG ately
ĠG hetta
and ed
and atory
and events
Ġdes erted
con vers
con cl
con sci
ved ev
Ġpl entiful
cc c
od ong
Ġcomp artment
ĠD R
ĠD ar
ĠD un
ĠD ab
ĠD ani
ĠD ES
ĠD DT
ĠD EV
Ġint end
Ġint ensity
Ġlo oming
Ġy es
our th
Ġneed ing
Ġwork fare
art a
art ments
Ġse ptember
Ġun ified
Ġun cont
Ġun well
Ġun sec
Ġun productive
Ġun reliability
Ġun ambiguous
ong ong
ire r
Ġdevelopment al
Ġab ate
Ġab ide
Ġab usive
ident ity
ew or
vent ing
vent able
Ġman ages
Ġv acuum
iz able
Ġcont est
ern al
ĠV o
ĠV an
ĠV as
ĠV ir
ĠV eg
ĠV CR
ĠV ending
ĠV OL
Ġpublic ation
ĠL ive
ĠL ower
ĠL ear
ĠL oss
ĠL ane
ĠL iter
ĠL LE
ĠL ots
der ailed
Ġle uk
ds pace
au ded
Ġone page
fore ign
ric ted
form al
Ġk wh
Ġk ias
Ġk oop
Ġpol ar
ĠThere after
ĠU pr
ĠU sen
ĠU hl
ĠU RL
pe ck
Ġem ph
Ġem pir
ab us
ĠSe vent
ĠSe cure
all ation
Ġup loaded
Ġsupp ress
Ġsupp li
ag en
ag heb
ag ainst
duc ible
Ġmed ias
ĠIt al
Ġper il
Ġper vasive
ĠJ a
ĠJ r
ĠJ et
ĠJ im
ĠJ ay
ĠJ ob
ĠJ itter
ĠJ erry
ĠJ ewish
Ġout sh
Ġout law
Ġout perform
ough lin
Ġcons oles
si bly
Ġbut ter
Ġplant ing
ard ment
Ġ19 28
Ġ19 49
Ġ19 51
Ġ19 46
ip an
ip old
IN PR
Ġ20 14
Ġ20 55
ĠGen eva
Ġam bit
Ġam monia
Ġdiff used
Ġindividual istic
ie ee
ie eexplore
port ance
Ġover population
Ġover lap
Ġj u
Ġj ur
Ġlike wise
Ġapp alling
Ġinv ited
Ġinv alid
Ġdec k
Ġcomm end
Ġcomm ands
Ġcomm uters
ĠRe qu
ĠRe lying
ĠRe illy
ĠRe adings
ĠCh ron
ĠCh amber
ĠOct ob
end ar
Ġ3 20
Ġ3 70
Ġ3 25
Ġ3 36
ful ness
200 00
200 60
Ġold est
Ġro ck
gen omic
gen erated
und ancy
Ġcr ust
Ġ4 70
Ġ4 39
Ġ4 89
erm ijn
ĠK or
ĠK il
ĠK ur
ĠK ansas
own er
Ġaff irm
Ġwast el
rib unal
Ġunder privileged
Ġsp ike
Ġsp ik
Ġsp ying
Ġsp inal
ĠSt art
ĠSt ern
ĠSt ories
iver se
Ġpat ernity
ach ment
ass en
ass urance
ĠUn ique
ĠUn employment
ĠUn licensed
oc le
cent ers
Ġexpen d
ak s
Ġtw itter
Ġtw entieth
Ġbuil dup
Ġlead er
we alth
oth y
ex ist
ging tech
ĠPro per
les peck
pro files
ann e
ann ual
Ġhand ful
Ġhand rail
Ġretire ments
Ġmin ors
Ġmin eral
Ġmin orities
arm a
though t
Ġear s
Ġear piece
ĠTo o
eth os
eth ane
eth yl
ĠInt ellectual
ink i
ĠY oon
Ġsim ulating
Ġmem br
osp ace
Ġcl inic
Ġtrans action
int an
Ġcommun al
aw i
Ġsk im
ord Display
Ġjust ice
ĠSo vac
Ġins omnia
Ġprot ests
Ġgre edy
ĠWe il
ĠWe bsites
Ġhy gi
red irect
ish i
Ġref res
news andevents
ĠDe vice
Ġrem un
Ġhappen ings
Ġmarket able
Ġmarket place
Ġrun way
Ġrun away
ĠAccording ly
ĠRes istance
Ġdepend ed
res pop
res ults
Ġshort coming
ĠWh ich
10 6
10 7
10 50
10 65
10 173
Ġdown side
Ġvar iation
active wave
Ġglobal izing
Ġ8 3
Ġ8 84
Ġprom inently
read er
the ft
the ories
the fr
Ġ9 14
air port
sid ed
Ġequ ili
Ġimpact ful
ĠMed ium
ĠMed vedev
Ġ7 3
Ġ7 4
Ġ7 50
gan g
Ġprof iling
Ġcreat iveness
50 1
50 34
pr ints
Ġpres um
Ġpres chool
Ġpres idential
Ġpres erved
Ġpres crib
ĠMan uel
Ġproject ions
Ġess ays
Ġent ity
ĠNew staff
Ġbo ld
Ġbo asts
Ġcor onary
Ġbudget ary
ix el
Ġinter ior
ick ens
Ġevent ual
Ġcompet ence
Ġcompet itor
Ġnation wide
echn ica
Ġlook out
29 2
29 9
af er
af ric
ict or
ĠCon d
ĠCon nect
ĠCon nell
ĠCon fuc
inf opedia
br ands
Ġfore father
Ġconf ine
Ġexplo sives
Ġprogram med
Ġpr isons
ub ishi
ath on
20 15
20 440
Ġrece ivers
40 5
40 6
40 44
30 1
30 34
Ġgra pple
ĠInst allation
Ġfl ammable
Ġmention ing
Ġsc anned
Ġsc ores
ang el
Ġmy opic
asp ersky
Ġtax i
11 17
11 99
ones ia
Ġcomple ting
wik idot
bo ats
Ġ16 0
Ġ16 8
Ġ16 072
Ġdeal ers
up grading
up iah
bs on
Ġoil s
Ġ12 2
Ġ12 4
Ġ12 5
Ġlight ens
Ġlab s
Ġlab els
Ġlab elled
ĠHigh light
net work
put ting
Ġharm ony
ec utive
Ġaccount able
Ġ13 5
Ġ11 4
Ġ11 5
Ġ11 28
ĠSur inder
ĠSur anga
ĠSur prising
oy age
fact book
sp aced
sp irit
Ġsix th
Ġsix wise
Ġlast s
ll abus
Ġgr id
article Type
ev alu
Ġclear ing
ĠAct ing
ĠAct inide
Ġpresent ation
Ġnon renewable
Ġclean liness
unk ett
ĠFin ding
book she
man agement
Ġ25 29
ĠEx cept
ĠEx pectancy
12 4
Ġhum idity
Ġ0 4
Ġconduct ivity
Ġpar am
Ġ18 80
33 87
33 56
Ġchar acters
19 7
sc ri
sc opic
sc otland
aging pop
iod ine
Ġfil ed
Ġfil ter
Ġkey ind
Ġsug gesting
Ġspec ify
Ġcomb inations
Ġprofess ionally
13 5
Ġland ed
ĠElect ronics
ms m
Ġmis erable
ĠPl ace
ĠPl unkett
2008 02080132
14 2
14 240
Ġcomputer ized
Ġwar rant
ps in
70 3
70 6
70 19
70 87
70 20440
ĠAr med
Ġdoub ted
eng age
eng adget
ĠProv idence
cl ara
Ġopt ing
Ġopt ical
Ġtre es
Ġemphas ise
ĠFast er
ogn itive
15 4
Ġteam work
ĠNor man
17 39
17 36
17 32
Ġwilling ly
Ġarticle Id
ĠMe ans
ĠMe asure
do es
Ġdeb ts
ĠSocial ly
St r
St ates
St atistics
Ġassoci ations
Ġ28 0
65 55
Ġobtain s
Ġtravel s
Ġtele phony
Ġsuper mark
Ġcol or
health News
ĠAsia One
Ġunt ested
27 4
27 2009010
Ġmo ist
Ġmo ves
aun ches
Ġquestion ing
Ġconnect ivity
18 3
Ġrenew ed
Ġsurv iving
Ġfunction ed
Ġvital ity
par able
28 2
28 4
16 8
26 77756
Ġunf ilial
45 7
nd tjgb
sh u
sh are
Ġhold ers
Ġcirc ulated
Ġign ition
ĠPh il
ĠPh ot
ĠPh arm
ĠPh ilosophy
49 438
Ġreturn ing
bc stats
ih s
ih apiti
public ation
ĠTw enty
ĠTw endy
ĠEm phas
ĠHy lko
rans it
ĠEvery body
CA IB
ĠDo ing
77 84
energy biz
Ġmaxim ise
Ġmaxim ized
Ġmaxim izing
Ġcheck up
Ġhar vesting
Ġappear ances
su ed
reng th
ĠPr ison
Ġpurch ases
Ġsens ory
Ġprepared ness
39 164
page wanted
Ġreported ly
ĠRo che
po on
ĠCl ass
ĠAc ute
ĠMinister ial
ĠInc orpor
ĠStra ughan
AN ET
24 4
24 7
ĠAmong st
99 045
Ġhalf way
Ġbi ology
ĠTra gedy
55 178
blog ging
ĠSk imming
ĠX Y
search Str
zhe imers
Ġir rational
Ġ45 1
Ġoptim izations
cell s
ĠHel en
Ġemb arked
gu ardian
Ġdepress ing
ĠMac millan
aid ed
ĠHar ris
can h
can cert
Ġextra ord
Ġextra vag
Ġsepar ating
Ġdecl aration
Ġsuffering s
48 49
Ġrecover s
Ġsw ine
Ġver bal
Ġcop ied
Ġz h
Ġey eb
Ġi Sh
ĠCont rib
ĠEmploy er
ĠEmploy ee
Ġunp repared
dom ain
dom inate
cast ing
ĠGe ography
sk ycar
Ġmus cular
rol ling
ĠDis ability
ĠDis order
sci am
ĠEd ward
bi omed
bi bliot
Ġten der
Ġfloor ing
econom ical
34 1
dis orders
dis advantages
ĠPat ent
tech Nu
ounsel ing
ĠChannel newsasia
Ġfair s
Ġstri ves
Ġuns ound
Ġmotiv ates
In noAge
pers pective
Ġinade quacy
ĠLi pper
respon sible
Ġscreen ings
inter active
inter view
37 4
ĠTechnologies TM
Ġassess ments
ĠSw itz
off el
ĠAss um
ĠSm il
ĠDem and
Ġjo ined
Ġred istrib
Ġred undancy
Ġlay out
ĠGreen house
ĠGreen Pe
36 8
pass port
pass ports
ĠLe ipold
47 2
Ġbelong ings
Ġwrit ers
PM ENT
design news
orb ache
Ġbomb ings
Ġbomb ardment
fuel ed
ĠJust ice
Ġexpress ions
ĠAf ghanistan
Ġweb page
business dictionary
haust ible
---- --
hy dro
Ġexch anging
Ġblock ed
........ ....
aut s
Ġge o
Ġge ometry
100 0000
pop ul
ĠLong Rec
ĠReg ion
Ġpath way
ĠBar ry
ĠBar nett
Ġdevast ation
32 10
host ednews
Ġfif teen
Ġdrain s
Ġdrain age
Ġconsult ing
Ġconsult ant
Ġconsult ancy
Ġswit ches
Ġadapt ive
Ġhead way
Ġram ifications
ĠGener ating
ĠAnn ex
Ġgl are
Ġgl ance
ĠYou chison
51 7019
ĠInter City
Ġmoment um
DA TA
ĠMo on
Ġannoun ces
OR E
ĠRel ief
ĠGu idelines
bet ter
Ġsy nthes
Ġsy nthesis
Ġsy llabus
Ġtrig gering
59 5
59 6
na issance
Ġinex haustible
ĠMar fan
Ġmagn ify
ED PS
bu ds
bu ilt
Ġwarning s
58 55178
nor th
ĠCor p
ĠAndre a
Ch alk
ĠLaw ford
199 6
ners hip
ĠIN SA
ĠIN EEL
Ġhab itable
ĠMot ion
Ġsl im
Ġexcept ions
using rfid
Ġru pt
Ġru ined
Ġunav ailability
gr ns
0000 200909
Dis advantages
Ġincom patibility
ĠChe ong
ĠChe ung
ĠFac ed
ĠEr nest
Ġforum s
Free Site
Ġfire fight
Ġbra cing
amm ation
ĠIndust ries
Ġdisadvantage ous
ĠCorpor ate
Ġrepresent ative
bro ther
bro okings
ĠKnow n
Ġcrew s
ĠAltern atives
Ġwin ds
Ġwitness ing
Ġfo etus
ĠAre a
ĠMor rist
ĠPart nership
artin ventors
1000 14240
1000 1732
Ġconce ive
ĠRE P
ĠDom inique
program s
Ġunpre ventable
sol ar
vas ion
ĠSing stat
ĠSing Tel
ĠBl um
Ġstra pped
Ġwireless ly
Ġnav y
Ġnav ig
Ġlie u
inst itute
umb alls
Ġunre active
Ġunre mitting
Ġorigin ated
ĠChar acter
ĠChar lotte
appropri ate
AC C
AL QE
AL eq
Bre ast
Ġri pe
ĠPan jang
ĠLoc ation
Ġconserv ation
men u
Age ism
CO N
Ġexcl udes
ĠPM O
Ġpressur ize
Ġfertil izers
ĠAngel es
Ġdisagree ment
ĠBur t
ĠBur thler
ĠUs ers
LE AR
Ġwom b
Ġprohib its
ĠMin nes
ĠGra ce
sm ith
Ġimped es
ĠConst ant
test ed
Ġadvert isers
Ġrepair ing
Ġinappropri ately
Ġgovern ance
ĠIM P
Ġstrengthen ed
Ġimpair ments
techn u
Ġrob bery
supp lies
76 3
fin anced
ĠPass ive
ĠBack ground
Ġsubstit uted
Ġsubstit utes
Ġcollabor ated
Ġtroubles ome
Ġindis pensible
Ġaccompl ishing
Ġfi bers
Ġdy namics
Ġreb utt
Ġlic enses
ĠSy nthesis
ĠStat istical
Ġrepro ducible
ĠTr ust
ĠAT M
ĠKe ane
Con cerns
pb ell
special feature
Ġsil ent
Ġ49 8
Ġantibi otics
Ġmitig ating
older people
Ġpul ling
Ġpul ses
ĠRa ising
ĠRa ises
ĠDet ection
Ġdivers ified
TO N
scient ists
action bios
Ġelectro card
ĠVal ue
Ġconfident ly
120 164
nr m
tab id
trans late
trans generational
ĠBig ger
Ġcogn ition
cre ak
Ġpic king
Ġcircu its
EM S
sub sidy
Ġsess ion
Ġple asing
Ġtown s
start s
ĠCam pbell
Ġcoord inate
-------- ------
userGroupN a
dri ve
dri ves
Ġdimin ish
ĠTreat y
Ġdisrupt ed
Ġrelax ing
Ġrelax ed
Ġcollap sing
Ġmisunderstanding s
SI P
met alpric
ĠCH M
Ġ52 305
ĠMcC ullagh
ĠProm oting
Ġsupplement ary
Ġrod ents
Ġflour ishing
Ġprepar atory
ETR O
Ġfing erpr
Ġdiv ide
stud y
ĠHold sworth
ĠLa ure
Ġ69 16
Ġsummar ized
ĠJeff erson
ĠJeff ery
disc overy
link er
link ed
Ġendeav ours
ĠCra cking
ĠParent hood
aind ian
Ġcompat ibility
Ġintens ifying
Ġsurpass es
Mon day
nan ipan
Ġwid ening
aser domain
Ġreward ed
ĠPric es
ĠEco Generation
Ġevacu ated
Ġwrist band
Ġwrist bands
ĠPrevent ive
Ġastron auts
Access ibility
Articles Page
ĠAgain st
ICA TION
pric e
ĠNan otechnology
ĠLank ans
Ġcautious ly
Ġoccas ions
Ġpredis position
Ġmetall ur
Ġrevol ving
uwen huis
category id
Ġdon ations
IL D
OL ED
Un ited
gaz ette
tu ins
vs renewable
vs LFR
Ġsort s
Ġpsych opath
anc et
lett ers
Ġhorm one
ĠSO DI
ĠHa ber
ĠCy cle
ĠGl enn
Ġcontamin ate
Ġcontamin ated
Ġampl ify
Ġampl ifier
Ġmini ature
ĠAdvoc ates
Ġunfav orable
ĠExperi mental
Ġthermody namically
la odong
roll able
ĠHu ot
umn i
ĠOrig inal
Ġarrest ed
Ġamelior ate
ĠBeh avi
fossil vsrenewable
fcd da
ka isern
Ġbath room
Ġmathemat ical
Ġdig it
ĠTO UCH
emot ional
ĠPort al
ĠPort ability
Ġcha otic
quire ments
Ġpreced ing
ĠVWO s
Ġdecent ral
20070 309
Ġpractic ability
ĠBuy back
ĠParliament ary
Ġtu berculosis
Ġdim ensions
Ġdim ensional
Ġstereoty pes
ĠFA ST
ĠFA Qs
ĠWW I
Ġboil ers
AA nd
Chem icals
Ind onesia
IST ER
Vol ume
tj sj
zS kW
reach ing
Ġsem i
ari at
Ġconve ction
ĠHT TR
ĠHam per
ĠBal akrishnan
ĠBrad ley
ĠLaun ch
ĠLaun ches
Ġinflex ibility
Ġembry o
Ġembry os
ĠObst acles
Ġredef ined
Ġcomplac ency
Ġsponsors hip
government al
ĠMus cular
Ġquiet er
ĠImple mentation
Detail s
OP ULA
cool ing
elect ronic
Ġsli ppery
aty en
Ġpa rolees
Ġelev ators
Ġrepl en
ĠIde ally
Ġstock s
ĠCop ing
ĠPRO CESS
ĠGi Gi
Ġcompress ed
Ġunion ized
ĠRead y
ĠRead er
ĠEnh ancing
boom ers
spy gearco
ĠShort age
Ġcycl ist
Hy brid
fam l
Ġoce ans
Ġunsatisf ying
040 807
849 45
849 994
Aug ust
Cr t
IG N
Sm ell
WK V
bod ia
dav inci
hor izont
Ġmur phy
Ġenlar ge
ĠHas nita
ĠHaz ard
Ġhem ophilia
ĠCool ing
ĠMah owald
ĠPal ihapiti
ĠEst im
Ġsevent y
Ġunaff ected
Ġunaff ordable
Ġven ues
ĠVer ichip
ĠLind a
icsw pd
icsw ppro
Ġspew ed
Ġminist ers
Ġminist ries
Ġencrypt ed
Ġfundament ally
Ġfundament als
Ġundet ectable
building s
Ġalteration s
Ġiceberg s
Ġbureauc racy
Electric ity
lew rockwell
Ġnice ly
ĠSad ly
Ġdissol ved
Ġethn ic
Ġhypothes is
UL T
tat amotors
indust rial
Ġcolo rectal
ĠTet sti
challen ger
chapter ii
Ġprosec ution
Ġprocre ate
Ġdecom pose
ĠHol tzman
rav da
Ġsty les
threat ening
ĠCounsel ling
ĠNic ol
Ġunatt ended
comb ustion
Ġtail ored
ĠUt ilities
ĠStreng then
ĠDeg ree
4512 35
Ġmarvel ous
ĠPrem ier
ĠLeon id
Ġridic ulous
Ġenthusi astic
ĠMetal Pric
Ġculprit s
MP a
Ġdehuman ization
ĠCustom ers
ĠPur sued
Ġrescu ed
270 5855178
743 5034
SFR vsLFR
jh uccp
Ġsnow b
atr ina
Ġfre ight
Ġbare ly
altern ate
Ġmyst erious
Ġhal ted
Ġnick el
ĠSpr iggs
ĠSym posium
ĠAL PA
ĠRES EARCH
ĠCur ry
ĠCour t
ĠMC PS
ĠFert ilization
ĠNeg lect
ĠPot ential
ĠPAR C
ĠBang kok
ĠEval uation
ĠGy ne
ĠGovern ance
ĠDoc ument
Ġseam lessly
Ġunm anned
sym pt
ĠKazu o
Ġ999 849994
1112 3356
Ġdistract ions
ĠExc use
Ġmisinter pret
200802 11123356
ĠOrwell ian
Ġflexi bly
hyth m
uploaded Files
10006 37
4600 25
Ġpropag anda
Ġretrof itting
ĠdGLzV tz
ĠNie uwenhuis
Ġcapt ured
ĠImplement ing
Co hen
Fert ility
Orig in
Pass ports
bri um
cult ural
dar vill
group s
hig hest
job street
ril ov
Ġath let
Ġpeop les
Ġfurious ly
Ġbread win
Ġmism atch
Ġrebu ild
ĠSB RT
ĠSpan ish
ĠICA PP
Ġsupersed e
emer gingtech
uns cear
ĠMIN ISTER
ĠFos berg
ĠFront ier
Ġimpat ient
Ġdisfig ured
ĠDie go
Ġperim eter
Ġamend ments
Ġovercrow ded
Ġjun ior
Ġinvis ible
Ġchildb irth
Ġcommence ment
ĠRecomm end
ĠAnsw ers
ĠKrist en
Ġsubmer ged
Ġsubscrib ers
Ġenclo sed
Ġmono xide
Ġcorrid ors
Ġ--------- --------------
Ġprism atic
Ġscru b
1126 84945
ĠPressur ized
Ġbrid ges
Ġobserv ations
ĠMcInt yre
breast cancer
ĠSubst ant
ĠKnop pers
ĠKelvin ator
ĠOccup ational
ĠAbrams ky
mem bers
atomic archive
Ġincons ist
Ġaccustom ed
Ġarran ged
Ġgrad ient
Ġfitting s
529 7020440
AF QE
Clef s
Dem ographic
Dex terity
ELO PMENT
EUN L
Mess ages
Note book
Rog ers
Saving s
Wil pert
bitst ream
eap blog
litt lespeck
sav vy
sbst ransit
tempor is
Ġarou se
rerun Origin
Ġtherape utic
enaf il
Ġsemic onduct
itry psin
alten erg
Ġdub ious
lockheed martin
ĠTot ty
Ġprover b
ĠSild enafil
ĠSys ops
ĠISB N
Ġumbre lla
Ġdefore station
Ġdegrad ation
ĠAPP L
ĠARP ANET
ĠASI AN
ĠAEH I
ĠHoll and
ĠHels inki
ĠHaid le
Ġstric ter
Ġshab by
ĠCaut ious
ĠFlor ida
Ġbystand ers
ĠNany ang
ĠNUC LEAR
ĠPak istan
ĠPars ons
ĠWoll ongong
ĠWah rman
ĠBons or
ĠBorenst ein
ĠEBS CO
Ġcounterm eas
ĠGav rilov
ĠDES IGN
ĠDEV ELOPMENT
Ġuncont rollable
Ġkoop man
ĠUsen et
Ġempir ical
Ġsuppli ers
ĠJitter bug
INPR O
Ġambit ious
Ġcommend able
ĠOctob or
Ġspik ed
ĠUnique ly
Ġmembr ane
ĠSovac ool
10173 195
activewave inc
thefr aserdomain
Ġequili brium
spaced aily
bookshe lf
6555 14
Ġsupermark ets
272009010 1
7784 77
39164 259
99045 7435034
cancert opics
Ġextravag ant
ĠiSh oe
ĠSwitz erland
ĠGreenPe ace
ĠLeipold t
orbache v
1000000 183
ĠLongRec ordDisplay
ĠINSA G
Ġfirefight ers
ĠMorrist own
100014240 5297020440
ALeq M
ĠMinnes ota
actionbios cience
Ġelectrocard io
metalpric es
Ġpsychopath ology
ĠSODI UM
kaisern etwork
zSkW z
OPULA TION
horizont al
ĠPalihapiti ya
ĠTetsti ya
Ġmisinterpret ation
990457435034 2705855178
1000142405297020440 9904574350342705855178
' s
B ut
K IA
L AN
M od
N ot
a it
b ars
c is
c bs
d ers
d oll
d ict
e enth
f et
f ire
g rowing
h at
i pts
k eton
l en
m ug
o ors
p he
p sych
s aw
s ized
t es
t ake
u er
Ġt ort
Ġt one
Ġt ense
Ġt ired
Ġa pt
in ot
in cent
in eries
re nt
Ġs ne
Ġs ights
Ġo mitted
Ġp ron
Ġp ond
Ġp umping
es cence
Ġw are
Ġw ander
it ated
an tt
Ġf ur
Ġf its
Ġf right
Ġf ares
Ġb ot
Ġb ag
Ġb ags
Ġb ene
Ġin efficiency
al le
ic king
ic ides
Ġm ast
Ġd ust
Ġd ressing
ar king
ar ian
Ġh all
ou ri
Ġe ast
Ġe avesdropping
Ġn ames
Ġre bate
Ġth read
lo ost
ld on
et ite
st ood
im pact
ĠS ame
ĠS ize
ĠS ense
ĠS ustainability
Ġas c
Ġas sem
uc ks
Ġde eds
Ġde pic
ĠA I
ĠA ACC
Ġen forcing
her ing
ĠThe oret
op lane
ĠH uge
Ġst om
Ġhe ctic
Ġne ur
ĠC ire
ĠC alls
am ping
un ed
ĠIn vention
ĠIn vasive
ĠF l
actor ies
ign ation
ĠTh al
ac ces
Ġdis pen
Ġdis able
Ġdis persed
Ġdis contin
ĠW ould
ĠB ase
ĠB WR
ĠG ould
ĠG ab
con st
Ġad hered
Ġad hering
Ġcomp osed
ĠD ist
Ġpre y
Ġun in
Ġun skilled
Ġcont exts
Ġpublic s
ĠL ing
ĠL iang
ia bles
Ġfin ished
ĠThere by
Ġnew est
Ġind oors
Ġind ignation
Ġconc ur
Ġup keep
Ġup rising
Ġper mit
Ġout we
Ġout cast
Ġcons erved
ren ds
Ġaccident ly
Ġover looking
Ġover ride
Ġapp etite
ĠRe le
ĠCh u
Ġgener ic
Ġold s
Ġret ention
che cked
ĠK loost
Ġlow ly
Ġsp ills
Ġsp ouses
Ġperson als
Ġpat ented
ass es
Ġemploy s
Ġrad ically
ark s
Ġsub mar
Ġlead ed
Ġinf ers
Ġca ve
ex am
ĠPro b
ract ive
Ġretire e
Ġdem ograph
Ġdet ers
ĠInt el
bers ome
ĠY uan
int o
Ġco ff
Ġco ven
Ġins pect
Ġprot ein
Ġbur y
Ġbur ying
ĠHe a
Ġref ineries
Ġstr ange
ĠWor se
ĠDe en
Ġrem arked
Ġher itable
Ġvar iables
Ġequ ity
Ġequ ality
Ġimpact ed
Ġspe aker
Ġent rances
Ġpass word
Ġsubsid ising
Ġinter rupted
ĠAd ults
Ġaut hent
Ġfinal ized
Ġconvent ions
Ġbel l
Ġpract ise
Ġair ports
ang or
Ġcomple ments
ĠAt rophy
Ġharm less
Ġend angers
Ġavoid able
Ġalternative ly
Ġcle ver
Ġradi ological
Ġnon polluting
Ġclean ers
Ġbirth s
Ġalloc ations
Ġprob abilities
Ġdisclo ses
ĠEx plo
Ġkind ness
Ġchar itable
Ġbusiness man
Ġprofess ions
Ġport rays
Ġmis identification
Ġblo cking
ĠEconom ical
cl ient
cl aim
Ġdia b
Ġpopular ized
Ġrecogn izes
Ġdeter rent
Ġanalys ed
Ġsing ular
Ġsoci ologists
Ġann um
18 4
Ġexp ed
Ġpost al
Ġdel ivers
Ġinj ure
Ġstat istically
Ġgradu ated
val ue
Ġrespect s
Ġshut s
ĠZ EN
Ġfav oured
ĠPre vious
ĠSol ving
Ġdecl ination
Ġcop ies
Ġadap ts
Ġallevi ation
ĠMain taining
Ġpain s
Ġretain s
Ġoccup ants
Ġfra uds
Ġsecret ary
iter ated
Ġreflect ion
Ġreflect ive
Ġexperiment ation
Ġens ue
Ġsold ier
Ġparent al
Ġdilem mas
Ġconv icted
Ġhot ter
Ġhop eful
84 6
chem istry
ĠSupp ose
pat ients
Ġdetri ments
Ġannoun ce
Ġwonder ing
Ġsent ences
Ġrail s
Ġadvoc ated
mark s
Ġrig orously
Ġcur ios
Ġremember ing
Ġwis est
Ġcompr ising
Ġcompr ised
Ġoffspring s
Ġinject ing
Ġcra f
Ġmen ial
Ġinsure r
Ġexceed ed
Ġsucceed ed
ĠFact book
Ġattend ance
Ġord ers
Ġincap ability
Ġrepe ating
Ġplag ued
Ġsupposed ly
Com p
Ġacceler ating
Ġacceler ators
Ġdetermin ants
ĠTele graph
Ġstro kes
ĠImpro ved
Ġsickness es
yl keton
Ġteen ager
Ġvirt ue
Ġvirt ues
heart ed
Ġrecruit ment
Ġembra ced
uw ait
Ġrelax ation
Ġpand emics
Ġimprov ise
Ġmiss iles
Ġspons or
Ġfabric ate
Al though
Ġintens ify
Ġori ented
Ġastron omy
eter a
Ġlog istics
Ġupset ting
Ġgun cotton
Ġheight ened
Ġmemor ize
Ġmemor izing
Ġdissem inated
Un iversity
Ġconcurrent ly
Ġattach ing
Ġgri eving
sex cellence
ĠOrig inally
Ġinfl ammation
Ġnegot iation
Ġlegisl ated
Ġlegisl ations
ĠBr andon
Ġredesign ing
Ġinterpret ation
ĠNO KIA
Ġvig il
Ġtransform ing
Ġexacer b
environment al
fam ous
Ġbrib e
ĠFight ing
Ġinsert ion
Ġscr ut
ĠExcess ive
Ġabsor bs
Ġpenal ty
Ġfashion able
Ġcancel led
Ġspew ing
Ġrealloc ate
Ġlawsu it
Ġmotorb ike
Ġmilest ones
ĠMad rid
ĠGre ying
Ġneutral ize
Ġembarrass ed
Ġpunct ured
ĠConc urrent
Ġsou thern
Ġrol ling
Ġcum bersome
Ġsenti ment
ĠSand ra
ĠIP CC
ĠCow an
ĠObstet ric
ĠRefriger ators
ĠAdvance ments
Ġtur no
Ġcertific ate
Ġmanuf actories
Ġtransf ers
ĠTR U
verat rol
ĠStart ing
doll ar
fet ched
Ġfright ening
Ġbene ath
alle l
Ġassem ble
ĠTheoret ically
acces sexcellence
Ġoutwe ighed
ĠKloost erman
Ġcurios ity
ylketon uria
, &
, ,
, _
. -
0 38
0 199
0 122
2 25
3 30
3 13
3 17
3 65
3 45
3 48
4 17
4 48
4 67
4 34
4 69
4 43
4 42
5 49
5 77
6 00
6 29
6 30
6 19
6 79
6 87
7 49
7 39
7 87
8 60
8 79
8 04
8 67
8 75
8 502
9 14
9 15
9 06
9 84
9 4512
A O
A v
A ir
A nt
A pp
A ss
B U
B s
B y
B ay
B ack
B WR
B US
B AL
B QE
B aindur
B YL
C L
C a
C ar
C hernoby
C ritical
C ars
C hip
D en
D ef
D ep
D ata
D ec
D eb
D epartment
D isc
D NA
D GE
E j
E ER
E IN
E lement
E ner
E PS
F act
F rom
F uture
F ocus
F EN
G W
G IN
G oh
G LO
G rant
G arn
G uru
H E
H F
H M
H T
H ar
H and
H ING
H erald
I ss
I ME
K U
K ha
K onwin
L V
L ist
L and
L ong
L LC
L GA
M y
M ar
M ore
M us
M ile
M edia
M IT
M iller
M eltdown
M icrosoft
N L
N or
N ext
N ovember
N CY
N IH
N MENT
O K
O S
O b
O ur
O RT
O ffice
P C
P er
P et
P ri
P red
P ub
P EN
P eter
P vd
R en
R ate
R ight
R fid
R EM
R isks
S H
S K
S M
S k
S che
S ources
S ize
S earch
S ec
S pending
S CE
S ales
S aver
T F
T I
T N
T opic
U p
U ES
V ideo
W G
W ill
W alk
W IS
W ashington
W eek
X S
Y ork
Z O
Z OP
a edia
a cies
a rounds
a ji
b d
b f
b j
b es
b or
b ow
b ies
b ons
b rit
b bs
b acter
b arrier
b ags
b enefits
b ereano
b omb
b epress
c it
c et
c se
c ould
c ause
c urrent
c ass
c news
c af
c reen
c arrier
c pa
c sia
c ream
c ensus
c ules
c ws
d c
d et
d est
d ak
d rain
d epartment
d ney
d ivided
d igest
d ulcinea
e i
e ers
e ight
e pl
f b
f ol
f and
f ew
f ix
f ortun
f ah
f atal
f cp
f ederal
f da
f ires
g j
g or
g ro
g ur
g us
g and
g lu
g net
g rowth
g oli
h ors
h ink
h of
h artlepool
i ant
i per
i very
i ami
i erme
j o
j ack
j ewish
j urology
j apans
k u
k ens
k ler
k ins
k iro
k anellos
k ula
k ki
k arh
l c
l is
l ers
l ag
l iving
l av
l pg
l aunches
m is
m ic
m ation
m st
m cc
m ust
m ond
m cl
m outh
m atic
m nd
m buy
n v
n ol
n one
n sed
n aby
n rd
n ucle
n irs
n intendo
n echt
n utrition
o om
o ch
o cc
o val
o xy
o oting
p c
p f
p nt
p erson
p ics
p hen
p rehen
p ulous
p iac
r n
r p
r ds
r ite
r ise
r pd
r unk
r idden
s it
s ers
s un
s ign
s uch
s end
s ports
s pection
s ummary
s aha
t l
t r
t ar
t as
t om
t id
t ree
t oshib
t itanic
t ronics
t aken
t rue
t utorial
u A
u h
u ow
u no
u art
u ating
u encies
u elled
u elling
v at
v ist
v io
v inci
v issues
w f
w en
w ast
w ang
w ps
w ald
w alled
x act
x oo
x inh
y an
y os
y right
y quote
z i
Â £
Ġ |
Ġ ic
Ġ iv
Ġ rib
Ġ ills
Ġ rivals
Ġ iodine
Ġt act
Ġt ant
Ġt ide
Ġt ard
Ġt ip
Ġt err
Ġt ier
Ġt une
Ġt rick
Ġt earing
Ġt angible
Ġt empo
Ġa f
Ġa vi
Ġa unt
in x
in er
in ch
in rich
in quirer
in enet
re r
re put
re lying
re rs
re print
re views
Ġthe ore
Ġthe ses
Ġthe Supercritical
er active
on om
on uclear
on so
on ia
on emaster
en u
en viron
en agers
en kov
Ġs ed
Ġs lo
Ġs am
Ġs hed
Ġs ands
Ġ. .
at on
at ro
at ility
at cher
Ġo stra
Ġo dds
Ġc m
Ġc ig
Ġc art
Ġc ous
Ġc up
Ġc ows
Ġp il
Ġp ig
Ġp etri
Ġp iling
Ġp df
Ġp enicillium
es hield
or o
or is
or ow
or age
or ms
or ney
Ġw ip
Ġw ings
Ġw ished
Ġw ishing
Ġw rap
Ġw ipe
is le
is position
is number
it ch
it ra
it ime
it ives
it ts
it news
it business
it ken
it ching
an a
an im
an um
an ics
an other
an ged
an alys
an xiety
Ġf id
Ġf use
Ġf illing
Ġf ooth
Ġf etus
Ġb ud
Ġb all
Ġb ind
Ġb ird
Ġb ump
Ġin se
Ġin ad
Ġin sec
al in
al ary
al ert
al located
al zheimers
le on
le ven
le moh
le cular
ic ion
ic ap
ic hed
ic ius
ro s
ro bo
ro gers
Ġm l
Ġm p
Ġm ol
Ġm ouse
Ġm ush
Ġm osh
Ġm ichael
Ġm munity
Ġm ingle
Ġan ch
Ġan th
Ġan gin
Ġan emia
Ġan aemia
ion g
Ġd at
Ġd ir
Ġd ol
Ġd ance
Ġd ated
Ġd ivid
Ġd ates
ar us
ar ia
ar io
ar ious
ar ism
ar rel
ent er
ent ing
ent ure
ent ier
ent icide
ent erprise
Ġh om
Ġh yst
Ġh omet
Ġh ij
ou m
ou thern
Ġe g
Ġe Bay
ct ares
as is
as ers
as pe
as ma
as sem
Ġre nov
Ġre ply
Ġre generation
Ġre located
Ġre heat
Ġre naissance
ve ils
il ors
il ments
il ized
il ian
il icon
il kki
Ġth orn
Ġth ief
ly an
lo ck
ld or
Ġg er
Ġg id
Ġg rains
ĠT re
ĠT ig
ĠT org
ĠT ann
ĠT amil
ĠT echnovelgy
ĠT IME
ĠT ilkki
et ed
et ween
et ings
et uses
st he
st ill
st ron
st aking
st rategy
st rength
ch ap
ch ame
ch rot
ch anged
Ġpro pos
Ġpro state
Ġpro position
Ġpro positions
Ġpro posing
ce lets
se ments
ment ally
Ġ2 70
Ġ2 23
Ġ2 28
Ġ2 604
id ers
im s
im ation
im ony
im ensional
Ġl est
Ġl ately
Ġl ub
Ġl ending
Ġl imb
Ġl ament
Ġl aser
00 1
00 6
00 9
ig ent
ig ations
ig rants
ur ization
ur anics
ore xact
ot ation
ĠS ar
ĠS per
ĠS pl
ĠS car
ĠS ott
ĠS kept
ĠS DS
ĠS ERI
ĠS ermijn
ĠS afer
ĠS poon
ĠS FEN
ĠS LV
ĠS outhern
ĠI F
ĠI ce
Ġfor b
Ġfor gery
ut y
ut her
ut able
ut exas
ill ation
ill ness
ir um
ir ability
ir culation
Ġu no
Ġas h
Ġas iaone
Ġas sembly
uc ane
Ġde form
Ġde generation
Ġde pre
ĠA M
ĠA id
ĠA us
ĠA very
ĠA wards
ĠA uton
ĠA ME
ĠA CS
ĠA CC
ĠA BWR
Ġcon form
Ġcon gen
Ġcon veys
ul g
ul pt
ul ative
ul ator
Ġit eration
Ġen zy
her mal
ĠThe ory
ĠThe ft
op en
op hers
op erating
ri er
ri am
ol n
ol ly
ol lo
ol ith
ol ism
ess ed
ess ential
Ġha pt
ĠR F
ĠR ed
ĠR as
ĠR ay
ĠR un
ĠR ech
ĠR and
ĠR ates
ĠR ound
ĠR edu
ĠR olf
ĠR ule
ĠR agheb
ĠR upiah
ĠR iper
ĠR itch
Ġal erting
Ġal umni
Ġsu ed
Ġsu fficiency
ĠH O
ĠH R
ĠH an
ĠH al
ĠH ough
ĠH ond
ĠH ai
ĠH ald
ĠH uff
ĠH ung
ĠH AL
ĠH TS
Ġnot ch
Ġnot ions
Ġnot ably
Ġag rees
Ġwh olly
if er
ra un
ra ise
ra vel
ra ffic
ra ught
ra gs
Ġst ain
Ġst ag
Ġst iff
Ġst ars
no i
no ld
no dak
Ġhe ctares
ci ation
Ġne aring
Ġcan al
el es
el lo
el ity
el ink
el come
el let
el ibrary
th in
th ree
th inking
ant echnica
em i
em ade
em issions
em itting
Ġsh am
Ġsh un
Ġsh ining
Ġsh ipped
Ġsh allow
Ġfrom http
ĠC es
ĠC over
ĠC ater
ĠC oth
ĠC herno
ĠC atal
ĠC hest
ĠC osm
ĠC itations
ĠC lub
ĠC oughlin
ĠC engage
ĠC ognitive
ap ing
ap ted
ap olic
Ġex its
iv able
am ous
am oto
ort ion
are lli
us u
us hen
us hi
us cin
un ds
ĠIn cent
ĠIn ev
ĠIn quiry
ĠIn equality
ĠIn escapable
ĠIn vasion
ge ons
ge ek
ĠM ess
ĠM alth
ĠM ember
ĠM ood
ĠM CA
ĠM ont
ĠM Wh
ĠM inst
ĠM iy
ĠM SN
ĠM Hz
ĠM ICE
ĠM elbourne
ĠM ouawad
ĠM ETRO
ĠM iami
ĠF ear
ĠF usion
ĠF ound
ĠF reed
ĠF eas
ĠF RO
ĠF CC
ĠF arb
ĠF ox
ĠF utt
ĠF ifth
ĠF amilial
ĠF raun
est on
est ly
est ruct
est abl
est hes
est ock
est opics
um ph
um ns
um my
um uranium
ad ru
ad irect
ad vice
ad ha
ther m
Ġim me
Ġso vere
Ġgen oty
lop ment
Ġ1 200
Ġ1 11
cess ity
Ġimp ing
Ġimp edi
Ġimp erme
Ġor b
Ġor al
Ġor ph
ĠN D
ĠN g
ĠN ad
ĠN uff
ĠN PP
ĠN anobots
ĠN azi
Ġdevelop er
ĠTh ous
ĠTh orn
ĠTh anga
ĠTh irum
du b
ĠP E
ĠP ill
ĠP ra
ĠP and
ĠP ace
ĠP WR
ĠP ub
ĠP iet
ĠP BM
ĠP ilot
ĠP URE
ĠP ICA
ĠP ovol
ĠP lym
ĠP utting
ĠP ediatric
ĠP OPULATION
ĠP KU
ĠP onom
ĠP itts
ĠP ellet
ac le
ac her
Ġres iding
ast ro
Ġdis h
Ġdis pro
Ġdis pos
Ġdis pers
Ġdis posing
Ġdis respect
ĠW o
ĠW u
ĠW en
ĠW ent
ĠW ast
ĠW ach
ĠW ord
ĠW els
ĠW illing
ĠW rink
ĠW RL
ĠW ILE
ĠW ickens
ĠW rite
Ġelder lies
Ġr im
Ġr ings
Ġr fid
ĠB J
ĠB Y
ĠB ru
ĠB ob
ĠB ron
ĠB road
ĠB uses
ĠB reed
ĠB illions
ĠB ott
ĠB ache
ĠB aker
ĠB ifoc
ĠB ARRI
ĠB etween
so f
so on
so ldiers
os c
os ynthesis
Ġch arts
Ġch ronically
qu arters
bl en
bl ack
ĠO ri
ĠO xide
ĠO SS
ry onics
ĠE E
ĠE M
ĠE state
Ġcount ers
Ġcount ering
ĠG O
ĠG h
ĠG w
ĠG an
ĠG ot
ĠG ap
ĠG ough
ĠG af
ĠG ST
ĠG aps
ĠG rey
ĠG reens
ĠG eller
ĠG unkel
ĠG umballs
ĠG SM
and in
and security
and Environment
and orexact
Ġdes p
Ġdes irability
con duct
con ference
ult z
Ġpl ain
ue k
Ġsa ilors
Ġad m
Ġad mission
ber ta
gh op
Ġwe ld
od s
od ds
Ġcomp liance
Ġcomp artments
ĠD ri
ĠD ep
ĠD uff
ĠD angers
ĠD HS
ĠD atabase
ĠD under
ĠD rell
ĠD odds
Ġint act
Ġint ra
Ġint ric
Ġint ellect
Ġlo gin
Ġlo ading
art ner
Ġthere after
ous se
Ġse ating
Ġse asons
Ġse wage
Ġse greg
Ġun ity
Ġun for
Ġun ite
Ġun friendly
Ġun rest
Ġun developed
Ġun not
Ġun bel
Ġun due
Ġun economical
Ġun ravel
Ġab ound
Ġab dom
ew lett
vent or
for responsible
Ġv gn
Ġv itro
Ġv oters
Ġma ids
Ġma gnet
Ġcont emplate
ern on
com s
com as
Ġhelp ers
ĠV on
ĠV ers
ĠV ac
ĠV ital
ĠV ideos
ĠV ienna
ĠV ilim
ĠV ernon
duct ed
Ġpublic ly
ĠL O
ĠL es
ĠL as
ĠL ich
ĠL ives
ĠL ove
ĠL ang
ĠL ake
ĠL CD
ĠL osing
ĠL ux
ĠL ung
ĠL inc
ĠL ask
ĠL ithium
ĠL ensa
ĠL utz
ĠL ecture
der g
der ailment
Ġdo orbell
Ġpower ing
ss rn
ater than
ds p
au x
au kler
fore lderly
Ġacc used
Ġsol u
Ġsol vers
Ġk araoke
Ġk anal
ud io
Ġwas h
Ġfin es
Ġfin ed
Ġfin ite
ĠU V
ĠU ses
ĠU CS
ĠU TF
Ġind estruct
ven ue
ven port
ven dish
Ġconc erted
Ġem p
reat ment
ust er
ust ing
ab cnews
ab olism
ĠSe ats
ĠSe attle
ĠSe oul
Ġtest imony
Ġup ward
Ġup hill
Ġup loading
Ġrel ent
ĠAs ha
ary qa
ter ian
ag c
ag re
ag ar
Ġsur ging
Ġper ish
ace y
ĠJ O
ĠJ u
ĠJ ord
ĠJ oy
ĠJ ournals
Ġout line
Ġout ward
ple x
Ġtra des
Ġtra ders
Ġreactors fast
Ġme agre
ĠVH RT
Ġall ied
Ġlif ting
Ġcare free
now public
ard in
Ġ19 10
Ġ19 16
Ġ19 66
Ġ19 43
Ġ19 68
ID ENT
ip ov
Ġsocial ize
ER P
ER NO
IN T
Ġexam ining
Ġinnov at
Ġinnov ational
Ġour s
Ġindividual ity
low U
ie lyan
olo y
Ġover th
Ġover view
Ġover spending
Ġover taking
Ġworld ly
Ġj ew
Ġj umps
Ġed itors
Ġdisc rep
Ġapp arat
ens on
ens ure
Ġdec or
row ski
Ġlong est
Ġbu bbles
sy n
ĠAl ice
ĠAl ford
ĠAl lowing
ĠAl bert
Ġeduc ators
ĠRe productive
ĠRe lev
ĠRe quirements
Ġhuman oid
ĠCh i
ĠCh adha
pl ified
pl sc
pl utonium
Ġlife boats
end ra
ploy ers
ruct ing
Ġinst inct
ob ase
ob ridge
Ġ3 50
Ġ3 60
Ġ3 47
Ġ3 69
Ġ3 32
ree ment
ep s
ep noi
200 10
200 50
ĠAn on
ĠAn im
go lden
gra ded
Ġtr ucks
ĠEn abled
ĠEn cyclop
Ġro te
Ġro unds
Ġeven ing
Ġmedical ly
Ġcr us
Ġcr ashes
che e
care giver
Ġ4 50
Ġ4 37
ck i
Ġeffic acious
erm ediate
ove ment
Ġfe at
Ġser ial
ĠK C
ĠK on
ĠK allen
ĠK Wh
ĠK erz
ĠK ashi
ĠK aspersky
ĠK atrina
ĠK uwait
ph or
ph ins
Ġaff air
Ġaff airs
ves dropping
Ġph ilos
ame info
Ġunder water
Ġqu adru
Ġsp ied
Ġsp oke
Ġsp ells
ade i
ĠSt ore
ĠSt ory
ĠSt orm
ĠSt ony
ĠSt ructural
ĠSt aphylococcus
ĠSt roke
ĠSt offel
ĠSt uart
ĠSt orage
ĠSt acey
ise um
ise ases
Ġconcl usive
sel l
sel ling
ach ing
Ġless ens
ass oni
ĠUn pre
ĠUn safe
ĠUn veils
oc al
oc rats
ons et
Ġ6 73
Ġ6 295
cent re
cent ric
cent ered
Ġ5 9
Ġ5 09
Ġ5 70
Ġ5 77
Ġ5 52
Ġrad icals
ten ding
pdf Files
ak ed
Ġtake off
ject s
gov monitor
Ġsub urb
li pped
Ġinf inite
Ġdef er
err ill
err ors
ex pect
ex change
ex perts
ract ed
Ġfact ored
pro duction
by l
by terian
vel u
Ġconst rict
Ġhand bars
Ġdem ography
Ġdem oral
Ġcarri ages
arm y
arm echan
though ts
elf arism
Ġmaterial istic
Ġ& &
ĠInt ermediate
Ġgrowth s
ĠY E
ĠY ing
ĠY og
ĠY ouse
ĠY ahoo
Ġsim ulations
Ġenc ased
ention ally
Ġcl in
Ġcl ashes
Ġcl adding
Ġtrans ient
Ġtrans uranics
int ran
int ellectual
Ġob esity
Ġide ally
FR EE
Ġbas k
Ġbas ing
ĠCom care
ĠCom ponents
ĠCom Care
Ġco at
Ġco ast
Ġco ach
Ġco herent
ĠSo ftware
Ġins ists
Ġright ly
ĠWe alth
ĠWe iss
ĠWe bc
ĠWe instein
de cl
de mentia
Ġhy draulic
Ġsm uggling
Ġpot ent
ĠHe e
ĠHe inrich
dro p
ish ment
ish ak
day rally
Ġcertain ty
Ġcap ping
og ue
Ġref using
Ġref uelling
Ġstr ay
Ġstr uck
Ġstr anded
Ġ10 7
news r
news cient
ĠDe aling
Ġmon et
Ġmon oton
Ġrem ed
Ġrem ov
Ġfunding s
Ġmod es
Ġrun ner
Ġlevel led
ĠRes idents
ĠRes piratory
ĠRes urgence
Ġdepend ants
res her
res ource
res num
av ia
av ish
ĠWh ilst
10 2
10 3
10 33
10 39
10 438
Ġdiver ts
Ġglobal isation
Ġ8 65
Ġ8 51
ĠSome one
the fre
Ġpur ify
Ġpur ifying
Ġrec irculation
Ġprotect ions
Ġgroup ed
Ġident ical
Ġident ifier
ty pes
Ġte a
Ġte ens
Ġform at
Ġform ally
nuclear plant
Ġresponsi bly
Ġ7 34
Ġsuccess or
000 4
2009 10
50 9
50 16
50 204
Ġdefin itions
Ġstand still
ĠMan aging
ĠMan kind
Ġent ice
Ġent ails
Ġbo ards
Ġcent ered
Ġincl ine
Ġincl usive
Ġbudget ing
Ġminim ises
Ġsubsid izes
Ġsubsid iary
Ġsubsid iaries
ier rez
ĠBy rav
Ġinter ception
ick er
ĠAd op
ĠAd min
ĠAd dressing
ĠAd apted
itt e
Ġcompet iveness
Ġcompet encies
ling ton
Ġheat s
ug itives
its u
29 96
ĠCon version
ĠCon vergence
ĠCon tainment
Ġimm obility
Ġback bone
Ġback fires
br ant
Ġconf erence
Ġeffort less
Ġexplo des
Ġur ging
Ġprogram ming
ian j
ian y
Ġpr inted
Ġpr inting
ext ra
ext oid
ext ension
ub ble
40 2
40 55
Ġev ade
Ġev oke
Ġconsequ ent
Ġdirect ors
Ġsustain ably
view article
Ġpract ised
Ġair lines
Ġadd icted
30 8
Ġpoint ers
Ġview ers
line plus
ne ed
ne eds
old age
Ġfl ame
Ġfl ights
Ġsc ra
Ġsc rap
Ġsc ram
Ġsc ulpt
ang Dong
Ġrest rain
cle antechnica
Ġfeature d
Ġargu able
Ġmy opia
Ġmy ths
Ġhuge ly
Ġcondition er
Ġcondition ers
of uscin
11 21
11 73
itor ial
Ġpric ed
Ġhome bound
hi h
hi ro
Ġ12 1
Ġ12 3
Ġ12 8
Ġlight ening
Ġlab ors
Ġlab eled
ĠHigh lights
ĠAt l
requ ired
ĠAll ies
ĠAll chin
loc ity
Ġharm ed
ec itizen
ec next
place able
ĠPet ersen
Ġaccount ability
Ġ13 2
Ġ13 88
Ġ13 325
Ġ11 37
ĠSur iah
ĠSur geons
Ġcomput ational
Ġdist illation
Ġdist raught
ĠPower ing
sp read
Ġradi ated
Ġprogress ively
07 07
07 12
Ġnon disclosure
Ġclean ly
Ġpromot ions
hand icap
unk works
Ġcancer ous
Ġemer ges
Ġbirth rates
ĠFin ucane
uk i
uk necht
Ġel astic
ĠSh ap
ĠSh un
ĠSh aker
book pro
Ġprob ation
lif est
Ġ50 6
Ġ17 59
ah ara
Ġ25 00
ĠEx am
ĠEx pert
ĠEx erc
ĠEx cellence
ĠEx ecutive
Ġ14 94512
12 3
12 13
12 14
Ġcy l
Ġhum ming
Ġshe er
Ġshe et
ser ies
Ġheart be
Ġpar cel
ĠSu z
app s
app ers
Ġ18 00
Ġ18 76
ets cap
Ġdetect ors
19 6
19 8
sc andal
Ġagree ments
Ġ30 8
ĠAge ism
cont ents
Ġattract ion
Ġattract iveness
ĠNews papers
ĠNews hub
Ġfil es
Ġfil ms
Ġfil ament
gin ia
Ġspec ulate
Ġutil ises
Ġutil isation
Ġcomb ines
Ġfollow ers
orn ell
13 16
13 48
Ġcell phone
Ġland f
ĠId ano
works hop
Ġmis cell
Ġmis fortune
ĠEduc ated
Ġmult itude
Ġmult ifactorial
ĠComp ulsory
Ġconver tion
Ġstrate gically
xim ately
ĠPl astic
Ġfall acy
14 8
ĠFund ament
ca uses
Ġwar rants
Ġblo gs
employ ee
ĠBo iling
70 8
Ġ29 6
ĠAr gent
ĠAr mst
Ġfree ze
work er
work ers
work force
Ġopt ics
Ġtre as
Ġcapital ism
Ġemphas ised
Ġpop n
25 5
Ġtar n
Ġste ering
Ġste ep
15 2
15 3
15 27
TA CEN
Ġhouse keeping
Ġpurpose ly
Ġdangerous ly
17 2
17 5
17 65
med scape
med lineplus
ĠCommun icating
Ġant id
Ġant ioxidants
Ġant itrypsin
ĠPress ure
do or
St age
St orr
St epnoi
Ġcontain ers
Ġbal lo
Ġbal ances
Ġfinding Dulcinea
23 1
23 10
65 3
65 6
ym akers
ĠNo ah
Ġtravel led
Ġtravel lers
Ġtele phones
Ġtele communications
ĠAv itz
Ġmet abolism
Ġdest ined
Ġdest inations
Ġaver ted
ins ki
Ġmot ors
Ġcommercial izing
high lights
Ġid le
Ġunt rue
Ġunt hink
ĠOr der
27 2
27 519
ns ic
08 0
08 04
ma x
Ġboost ers
Ġann ou
ands en
Ġcompar ably
Ġcou marin
Ġconnect s
18 0
18 1
18 87
79 629
Ġden ote
Ġoutweigh ing
ret ire
ret ail
Ġchem ist
Ġ26 77756
wise geek
Ġindustrial isation
par alys
28 1
28 3
28 8
16 09
ĠApp earance
ĠPolic ymakers
Ġleg itimate
26 9
ĠOver pressure
sh oy
ĠSim ply
aff ordable
log ging
Ġstat utory
Ġcirc les
Ġign ited
ĠPriv acilla
ĠIm portance
ush ara
49 4
Ġ40 507
Ġsimpl ifies
Ġlaun ches
ĠCons ent
ĠCons ider
ĠTw in
Ġdiagno ses
Ġeng lish
ĠEm ot
ĠEm ission
ĠEm bra
genetic health
Ġresol ves
ĠLabor atories
ĠDo orbell
Ġindic ating
Ġelectr ically
Ġretri eving
Ġflo oded
Ġstor m
ology today
Ġcheck points
rop ic
ĠFr anc
Ġappear ing
car bons
ĠPr imer
ĠReport linker
Ġpurch asers
Ġsens itivity
Ġwa ist
Ġmar itime
Ġsubject Param
39 08
ffect ing
Ġabs ent
ĠBu ild
ĠLo ok
Ġ24 8
Ġ24 27519
Ġcorrect ions
Ġrep airs
Ġrev ive
Ġrev ived
Ġdev ising
ĠCar re
38 3
38 5
Ġade pt
Ġcour ts
ĠInc idents
ĠStra it
ĠStra uss
AN CE
24 3
ĠZ am
ĠZ heng
ĠZ eebrugge
ĠZ imbabwe
Ġbi otechnology
ĠTra cy
ĠTra vis
Ġpredic aments
ĠIdent ifying
generation nuclearplant
55 4
Ġfig ured
ĠSk ype
Re illy
Re alities
ĠX L
Ġsus pend
Ġir res
Ġ45 7
Ġoptim istically
Ġcivil isation
Ġdivert or
05 2
Ġfav ors
Ġtruth s
Ġdepress urization
ĠAccident al
04 14
ĠBi otech
ĠOrgan izations
Ġtraffic king
48 82
sur veys
Ġsw imming
Ġver tically
ĠWork er
Ġz ones
Ġz oom
Ġey el
ĠTrans parency
Ġunnecess arily
67 4
ĠCont act
ĠCont ext
Ġcounter fe
Ġunp ractical
ĠLead er
ĠState University
Ġmechan ically
Ġdistrib uting
ale k
play ground
US A
Ġnut ri
rad ini
ĠGe othermal
sk aya
sk unkworks
empt ive
ĠBBC News
75 7
75 29
Ġincur s
Ġpain ters
Ġpain staking
Ġline age
ĠSp y
ĠSp read
Ġdeterior ated
gent esting
ĠEd dy
ĠEd gar
Ġunc alled
Ġflu x
Ġflu ids
34 6
ĠTan zi
Ġfeed water
fe el
ĠMc Connell
66 9
66 07
mo otee
Ġfight ers
ĠUr ban
89 400
ea vesdropping
Ġexpos ures
rict ions
In f
In vest
In heritance
respon dent
fi u
Ġhire s
ĠSpe aking
ĠCouncil s
ĠDa venport
Ġincorpor ation
Ġassess ing
Ġmeaning less
technology review
ĠPost ure
ĠPost note
Ġillust rations
off ers
off ice
Ġdoctor al
ĠIT S
ĠSm art
ĠCol iseum
ĠDem ocrats
ĠTe am
ĠTe enagers
ĠSouth worth
ĠRobot ics
Ġattempt ing
Ġattempt ed
pass es
stat utes
ĠLe vel
47 1
47 47
87 8
87 00
Ġsun ny
Ġpage id
Ġpage Id
Ġdefic its
Ġbar codes
Ġintr ins
Ġintr usive
Ġjud ged
Res ale
35 20
green chame
km ichael
ĠEng adget
69 59
global security
ĠSch olars
ĠSch ierme
ĠSch uknecht
Ġapproxim ated
Ġhot spot
ĠRet raining
Ġexpress ion
64 4
Ġpack ed
Ġpack et
ĠAf onso
ĠJoh ann
ĠJoh ns
ĠPres byterian
ĠConsum ption
hy d
hy draulic
Ġexch anges
aut y
erv ation
Ġge ological
ĠDef inition
ĠCommission ed
100 000
pop ageing
ĠMon op
ĠMon ograph
ĠReg ulations
Ġpath ogenic
Ġmicro scopic
ĠLimit ation
ĠBar ack
ĠBar naby
Ġroot ed
Ġexc luding
Ġexc uses
ĠAir bus
ĠAir craft
Ġreform ed
pendit ures
ĠOff er
Ġce ases
Ġalert ness
Pro v
Ġing rained
ĠCost ly
Ġsuscept ibilities
lv rj
Ġbul b
Ġbul let
ĠOut law
Ġinfect ious
ĠSupp lements
Ġkidn appers
IT LGA
pat hetic
Ġgl uc
Ġgl aci
Ġoverse a
home office
Ġtri pled
Ġtri umph
ĠInter face
ĠInter governmental
Article View
ĠMo lecular
ĠSc itable
ĠSc andal
ĠSc andin
ĠRel iable
ĠGu id
ĠGu ild
ĠDav is
Ġrestrict ive
Ġdomin ated
59 0
Int eractive
na ht
leg acy
Ġupd ating
Ġgrand parent
ED UCATION
plant ation
Page Mem
fo ot
Ġadvoc ating
Ġtransl ator
Ch pt
Ch allen
FA Qs
Ġwire s
Ġ35 3
ĠYear book
Ġpollut ant
199 0
199 1
199 7
Ġcur bs
ĠIN C
ĠIN CO
Ġassure s
Ġassum ing
ĠGeorg ina
Ġsl ammed
Ġproceed ings
ĠRus sell
ĠCO DE
ĠPo or
Ġcontent ment
Ġvalid ity
0000 5
ĠAg reement
Ġcontract ed
Dis aster
ĠAuth or
ĠAuth orities
Ġincom parable
Ġincom prehen
ĠMark kula
ĠEr rors
ĠEr tas
ĠQu ite
ĠQu arterly
Ġinstru mentation
Ġdemonst ration
Ġvibr ating
Ġvibr ator
Ġvibr ancy
Ġdescrib es
Ġfarm land
Ġbra celets
Ġtext book
Ġcra m
Ġcra cked
Ġcra cks
ouch able
Ġground breaking
ĠCorpor ations
ĠBas is
Ġattain ing
Ġattain ment
ĠMedi Fund
Ġrepresent ations
bro it
bro uck
under ground
Ġweather s
Ġpie ces
Ġrein state
Cont ents
EE CH
Ġfo oting
ĠMor se
ĠMor ris
ĠProtect or
Ġmoder ately
ĠNe o
ĠNe ighb
yn Cod
reg arding
Ġhandic aps
STI MEDIA
sol ving
Ġvers atility
Ġcurb ed
ĠSing les
ĠSing Stats
Ġalt ering
Ġalt itude
Ġintention ed
Ġsucceed s
Ġrecomm ends
Ġabsorb ing
CH AIR
auth or
national dayrally
with in
inst ruct
Ġord ered
Ġhydro carbons
Ġentreprene ur
Ġorigin ating
nc pa
pay Barrier
ĠRich ards
ĠRich ford
ĠDec isions
ĠControl ler
ĠSwed ish
AL DF
Ġri ots
Ġgam bling
Ġcand y
ĠInvest ors
Ġliter ate
Ġliter ature
Ġilleg itimate
CO OLED
Ġbrief ly
Ġmal aria
Ġdict ate
Ġhol low
Ġhol istically
Ġlux uries
ĠCa vendish
Ġexcl ude
Ġfertil izer
ĠAngel a
week ly
86 21
AT ER
Com put
Com mon
Com mun
bin ism
danger ous
ĠRen aissance
aren vissues
ĠBro ok
ĠBro okings
Ġ37 4
Ġdetermin ant
Ġdisturb ances
Ġphotos ynthesis
Ġoverwhelming ly
Ġdocument ed
Ġdocument ary
sl ate
sm j
sm u
ĠPri or
ĠUN SCE
Ġbox es
Ġshel ved
LO Y
Ġwat ts
Ġfract ure
Ġhomel and
ĠEl Bar
ĠUlt ra
Ġoverhe ated
Ġjeopard ized
Ġjeopard izing
Ġmeaningful ly
col umns
ĠIM F
ĠInf obase
ĠComput ers
Ġinconven iences
future gov
safety andsecurity
uan et
ĠDen ying
olog ically
Ġrout ines
Ġpharm ac
Ġauthor itative
ĠFrank ly
ĠFrank lin
Ġswe at
ĠOper ations
ĠOper ational
ĠOper ators
Ġtherm ally
supp ly
ĠTele phone
ĠTele medicine
enz ie
ĠRem ain
Ġchrom ium
ENT IAL
Ġtroubles ho
About Breast
Ġimag ined
Ġskept icism
eschede c
Ġfi ance
Ġmer it
ĠSy ndromes
ĠSy dney
ĠNum bers
Ġapparent ly
Ġcultiv ates
Sh ushen
cr mbuy
Ġvent ric
Ġvent ures
Ġrepro ducing
ĠMem bers
coal tion
aceutical s
85 99
bur den
special metals
ĠPe el
ĠPe ak
Ġrecre ation
ĠArt icles
Ġcasual ty
Ġsight ed
ĠDet erm
ĠDet ermined
Ġrecu per
Ġimmense ly
View Page
text base
ĠSM RA
Ġdecommission ed
ĠMW th
ĠLow ry
ĠLeg is
Ġelectro surgical
ĠPros pects
ĠIntro ducing
3010 426
Ġultra vio
Ġgross ly
ĠMas sey
Ġinterf ered
ga ard
erpr ises
orig inal
Ġmould ing
ĠClo se
ĠClo sed
Ġdischar ging
ĠEnt erprises
forum s
protect ion
Ġconstit uencies
Ġcomplain ing
eas ible
ino is
ĠMA Y
bled ay
abil istic
Ġinstruct ed
sub sidies
Ġple asurable
Ġbott lene
Ġaggra vation
ĠCore y
Ġimplic it
GenIV reactors
Ġaccompan ying
Ġirrespon sibility
Ġembra cing
Ġdimin ishing
ĠSoci o
Ġforecast ed
Ġprud ently
ĠSuper market
Ġerad icating
ĠEverything AboutBreast
Ġfortun ately
LA B
LA Y
media forums
Ġrecon sid
Ġthick er
ĠRob in
ĠCH ERNO
Ġrational e
ĠEffect iveness
Ġvap our
Ġvap orized
Ġimprov ising
Ġimprov isation
Ġ52 2015
prof itable
Energy andEnvironment
Ġtomato es
Ġnarrow ing
ĠProm ising
ĠPred iction
ĠPolit ics
Ġintent ional
Ġrod enticide
ĠPolytechn ics
Ġfabric ated
Al tern
MW th
Ġtherap ies
Ġbrow sers
ett lement
ĠHold ren
Ġdisapp ointed
ĠGet ting
ĠDou bleday
Ġintense ly
ĠLa Mon
Ġcommand ed
Ġ69 89
show article
disc over
erg ie
ĠHig hest
ĠCap tain
ĠPerson nel
ĠEmer ging
ĠRespon sible
Ġfram ewor
Ġreinforce ment
ĠFourth ly
700 7
Cent ral
DT L
auc oma
sustain able
Ġdi plo
ĠAp ollo
ĠFu j
ĠPric ing
Ġvill age
Ġinduc es
gene T
ĠHejz ar
Ġconfig ured
Ġevacu ate
ĠPrevent ing
consum er
Ġvolunteer ism
cript s
ĠMegaw att
AE PC
II I
Ġcomplement ary
Ġtraum atic
ĠMotor ola
De cember
ICA L
pric ed
Ġwarm th
Ġgun s
idUS N
Ġubiqu ity
Ġsusp icion
ĠCou pling
ĠMat law
ĠMun ro
ĠMun ipov
ĠNur se
ĠPos sible
Ġinculc ate
ĠVel loor
ĠUAV s
ĠReal ities
ĠReal izing
Ġexpert ises
Ġmemor ization
200909 17
serv let
Ġmole cules
ĠImprove ments
Ġaccomplish ment
scientific blogging
physics world
Ġheads et
Ġuncon ditional
Ġuncon sci
Ġuncon ventional
ĠInterest ingly
Ġspeak s
Ġhabit ats
Ġpenet rating
Ġfoot age
Ġliber al
Ġliber ties
mach ines
tw o
Ġaud ience
Ġpit falls
ĠSO S
Ġdepos it
Ġdepos ited
Ġconvers ations
ĠCy cles
ĠPers pective
ĠEqu ipping
Ġunint entionally
Ġcontamin ating
Ġampl ified
ĠKn icks
Ġ57 42
Ġmini atur
ĠMedic aid
Ġcontroll able
ĠAdvoc ate
ĠAdvoc ators
ĠCanad ians
Ġbottom less
vol ume
rians ky
ĠRest rictions
ĠPract ically
Ġamelior ation
Ġrefrigeration s
ĠBeh ind
ĠInfrast ructures
Ġdysf unctional
Act ivities
Educ ational
So ftware
bar code
bst artinventors
dh ushara
fu ji
mount ed
uis hes
ref riger
Ġoxy carbide
Ġfix tures
Ġbow l
Ġbow el
ĠSign aler
Ġencompass ed
ĠMary land
ĠBlog ging
Ġpreced ence
Ġ1940 6
ĠChair man
20070 819
Ġpractition er
Ġrecommend ations
ĠDirector ate
Ġimperfect ion
mas low
oor thy
Ġstereoty pe
ĠBr idge
ĠBan king
Ġlever age
Ġsymptom atic
Ind ia
Ind ex
cin ating
pie ces
Ġthri ve
ĠIll inois
Ġconve ying
ĠHam blen
ĠHouse hold
ĠHomel ess
ĠCre ate
ĠCre dit
ĠNish iw
ĠThink quest
ĠBal aji
ĠBurn ing
ĠOcc as
ĠOffic er
ĠExt raction
ĠDrug s
Ġemail s
Ġrot ation
Ġrot ate
ĠKenn eth
Ġsett ling
Ġcelebr ated
Ġrepeated ly
ĠStephen s
ĠBlo od
Ġvit amins
Ġinexper ience
Ġexclusive ly
ĠMulti ple
449 200
449 608
449 852
Down load
IQ ynCod
Polic y
TE CH
council forresponsible
Ġtheat res
aty cki
Ġpa ved
Ġglo ves
ĠTs vet
ĠTem ple
ĠSay ano
ĠIde a
ĠCop yright
ĠCult ure
ĠCOM P
ĠMag net
ĠMag gie
Ġdisting uishes
ĠOak land
ĠGar gano
ĠGree k
conf erencing
ĠVis ual
ĠVis iting
ĠLess ons
ĠAnaly zing
ĠEnh ancement
Ġrocket ed
200907 20
Ġvolat ility
Ġswift ly
Intern et
coll apse
Ġmile age
Ġspo iling
Ġscr atch
tele graph
tele phone
Ġabsor bers
Ġunsatisf ied
Coll apse
Flat CPF
IG H
SC WR
bod ied
caring forelderly
ju uA
nav igation
sim ply
Ġbol ts
Ġbol shoy
Ġmur der
Ġdupl ication
activ ated
Ġhem orr
Ġdisinteg rated
ĠWay ne
soc dev
ĠOtt o
ĠOtt awa
ĠOlym pics
ĠGather ing
condition ing
Ġven ue
ĠLy on
ĠLy man
ĠRein venting
Ġrealloc ating
Ġcyc lic
Ġcolon ies
Ġsurviv or
Ġsurviv ors
Ġexplicit ly
breaking news
ĠBarb ara
Ġglass es
Ġundet ected
Ġfaith fully
Ġoxid ation
Ġoxid ative
Ġcry st
Ġwond ers
Ġreck on
ĠFe ature
Ġimpul sive
ĠConsult ant
414 3
Acc ident
Bi ometrics
Book lets
IP EC
Is land
Le vel
Me eting
aer onautics
bio fuel
cam paign
mac bookpro
tim estopics
vag en
Ġap ron
indust ry
initi ated
Ġfrust rated
Ġfrust rating
Ġbatt ling
lef lex
sty led
Ġprolif erated
Ġprocre ation
00000 8700
ĠSir tuins
ĠAC L
Ġstir red
Ġstret ches
ĠCounsel ing
ĠNic ole
Ġdiss atisf
ĠWall ace
ĠBI WK
ĠObs erver
ĠGut ierrez
Ġunatt ractive
comb ustible
ĠCho ice
grap her
grap hers
ĠKoh l
ĠStreng th
Ġergon omical
ĠLeon ard
ĠSchu iz
Ġincompet ent
Ġincompet ence
ĠRecogn ising
ĠRecogn izing
Ġreconst ruction
Ġdivor ce
Ġdivor ced
Ġenthusi asts
Ġrecharge able
ĠREACTOR S
Ġlecture rs
whe els
Ġpub med
Ġpuzz le
Ġfool proof
Ġtoler ated
Ġresid ue
Ġresid ual
Ġperpet ual
Ġinspir ited
ĠImplant able
ĠHydro electric
ĠHydro electricity
430 2
DING S
fold ers
gre aterthan
hh m
hh s
pract ices
rus sia
rus sian
you ll
Ġtick et
Ġtick ets
Ġsn apped
Ġpal m
Ġfet ch
Ġborrow ing
Ġepid emics
Ġgard ens
Ġgroom ing
Ġprosp ers
Ġprosp ered
verichip corp
ĠSqu are
ĠSqu assoni
Ġdevi ate
Ġenvis aged
Ġalum inium
Ġalum inum
ĠHip Saver
ĠHend erson
ĠHend ricks
emphas ized
ĠCas ci
ĠCrimin al
ĠCrimin als
ĠCross ings
ĠMY CS
ĠFew er
Ġresent ment
Ġdishon est
Ġdishon esty
ĠBow den
ĠBull s
ĠEss entially
Ġwebc am
Ġunif orm
Ġunif orms
compar ison
compar isons
ĠLam b
ĠLam be
Ġaccent uated
Ġkno ck
Ġrecru ited
Ġrecru iting
ĠManufact ure
ĠManufact uring
0908 17
253 6607
medic inenet
ĠPrinci ples
ĠMcL aughlin
Ġcalam ities
Inc oloy
ĠCollect ion
685 25
Ġplagiar ize
ĠPrototy ping
ĠNichol son
Ġoverest imate
Ġoverest imated
Ġdefibrill ator
Em ployers
Ġaug ust
ĠTechn ically
ĠHard y
Ġamb ition
Ġattent ive
ĠShar pe
Ġportray ed
165 4
311 184
518 6
715 19
Econom ics
ON G
Sen iors
Trans cripts
Ur ban
eur onuclear
fc w
fz adeh
hf es
nap c
nds u
rat ical
templ ating
yc ott
Ġaust enitic
Ġscept ical
Ġfas cinating
Ġbiod iesel
Ġbored om
allo y
Ġmetic ulously
Ġanno ying
Ġhung ry
Ġgig aw
Ġgall on
store y
chron icle
Ġlur ch
Ġliv estock
ĠSG D
ĠSS TAR
ĠAGE ING
Ġcondem ned
ĠRail way
Ġalien ation
ĠHit ler
ĠME TACEN
ĠMit enkov
ĠMach ines
ĠMethod s
ĠBrow ser
ĠBatter y
ĠBomb ard
ĠOR NL
ĠGir ardin
conv icts
Ġcompass ion
ĠDob riansky
ĠUpd ated
Ġindiff erent
Ġcaret aker
inde pendence
Ġserv icing
Ġhyper opia
ĠConcl usion
ĠInstru mentation
200808 07
parliament aryqa
ĠPhilipp e
359 429
ĠSchne ier
Channel ID
Ġpragmat ics
ĠGradu ate
finding dulcinea
Ġaerody namically
Ġpsycho social
Ġsandw iched
Ġsemin ars
Ġreservo ir
ĠHirsch ler
ĠGP E
Ġarter y
ĠStrate gic
Ġcohe sion
840 501
AG juuA
Effect s
Sol utions
bil ty
brain yquote
hide project
jou les
npp df
tire sias
tinton ghop
Ġsar comas
Ġfost ering
Ġinau gur
Ġmerc ury
Ġdos age
Ġho ax
Ġhob bies
Ġbeac ons
Ġgarn ered
ĠTE CH
ĠTrev or
stri ps
ĠSat ell
ĠSent osa
Ġaspir ations
ĠAx cess
Ġcondom inium
Ġalight ing
ĠHA ZOP
ĠHCF O
ĠCat ast
ĠInv oke
ĠMans illa
ĠMits ubishi
ĠFi brosis
ĠFif ty
Ġresh aped
Ġdisheart ened
ĠWass erman
ĠWAS HING
ĠOs man
ĠEC CS
ĠEer kens
convers ions
ĠDab rowski
Ġunsec ured
ĠVo ice
ĠVir ginia
ĠVeg a
ĠUpr ate
Ġoutsh ines
Ġbutter fly
Ġju ven
Ġjur is
ĠKil roy
Ġwastel and
ocle antech
Ġexpend able
Ġhandrail s
thought pieces
Ġskim med
Ġrefres hing
Ġremun eration
Ġpresum ed
Ġprescrib ed
ĠConfuc ian
Ġforefather s
network world
spirit us
ĠMeasure ments
ĠPhil ip
searchStr Id
Ġextraord inary
ĠGeography IQ
hydro electric
popul armechan
buds man
Ġrupt ure
0000200909 11
ĠREP ORT
ĠCharacter istics
Ġfingerpr ints
Ġmetallur gy
Ġdigit ized
Ġdecentral ization
ĠNicol as
ĠDocument ation
Ġathlet es
Ġscrub bers
ĠSubstant ial
Ġcountermeas ures
Ġelectrocardio gram
Ġbot tle
Ġcoven ant
Ġcraf ting
443 20
906 7
App lied
Ca uses
Den ise
Dep th
EER ING
GIN EERING
GLO BAL
Garn ier
Mus cular
Pet erson
Pri ority
Pvd HC
Sche me
Sec rets
Walk way
arounds ingapore
barrier free
fand d
fah csia
fcp il
gj O
goli ath
hof er
kiro tv
karh oe
mcl aughlin
nrd c
nucle arenvissues
occ ur
xoo ob
xinh uanet
Ġtant amount
atro pin
Ġcig are
Ġpil low
analys is
Ġfid elity
Ġfooth old
lemoh ammad
robo auto
rogers rep
Ġmosh chno
[...]
