#version: 0.2 - Trained by `huggingface/tokenizers`
Ġ t
h e
Ġ a
i n
Ġt he
r e
o n
e n
e r
Ġ s
Ġ o
Ġ c
Ġ p
Ġ ,
a t
e s
Ġ w
Ġ .
in g
o r
i s
i t
Ġ b
Ġt o
e d
a n
Ġ f
Ġ in
Ġo f
Ġ m
Ġa n
a l
l e
Ġ d
i c
o u
en t
i on
Ġan d
r o
a r
Ġ e
Ġ h
v e
Ġ n
Ġ re
a s
l y
Ġt h
c t
Ġb e
i l
l o
Ġ is
l d
Ġ g
u s
o m
at ion
c h
Ġp ro
v er
m ent
Ġ T
c e
Ġ l
Ġ on
e t
Ġth at
i m
s t
i d
o re
o t
u r
Ġf or
i g
i r
il l
Ġa re
u t
Ġa s
Ġd e
Ġc on
Ġ it
o w
s e
Ġ I
b le
he r
o p
Ġ en
u l
n t
Ġh a
Ġw h
a y
es s
Ġs u
Ġa l
Ġa g
ou ld
o l
ĠT he
it h
i es
Ġn ot
u c
Ġ S
Ġs t
a ct
Ġ he
u n
i f
Ġ A
Ġn e
i v
Ġc an
Ġw ith
Ġw ill
c i
er s
Ġha ve
g y
Ġthe ir
r a
u re
Ġs h
e l
n o
Ġe x
t h
an t
Ġ (
Ġ )
a re
or t
it y
en d
Ġc om
e ct
Ġs o
Ġ us
i ve
a m
o ver
0 0
ld er
Ġ '
ou nt
t her
Ġt e
Ġ 2
Ġw or
Ġ im
Ġm ore
lo p
a p
ve lop
Ġb y
a d
e op
Ġo r
k e
Ġ H
ic h
g e
Ġde velop
eop le
ĠI n
es t
p p
at e
le ar
ig h
Ġwh ich
Ġim p
Ġg en
Ġe lder
Ġp eople
o st
f f
Ġthe y
Ġs p
u m
c ess
t er
Ġh as
Ġd is
Ġelder ly
Ġre s
uc lear
Ġw e
Ġ r
ic al
act or
ro m
Ġ2 00
over n
Ġ F
overn ment
ch no
chno lo
Ġin c
Ġ C
Ġsh ould
a in
Ġc h
Ġc ount
om e
ig n
a c
ĠT h
an ce
s o
Ġn uclear
Ġcount r
d u
Ġte chnolo
Ġf rom
Ġg overnment
r i
e m
Ġ M
ci al
o s
q u
Ġth is
b l
as e
in e
as t
ul t
p er
ble m
Ġpro blem
Ġal so
Ġo ther
an d
g h
Ġs e
Ġa t
Ġa d
u e
Ġw he
Ġsu ch
on e
Ġp l
c c
ou gh
Ġne ed
Ġd es
Ġwor k
Ġs a
c on
Ġ y
Ġcom p
et y
Ġ lo
a ble
a us
Ġdevelop ment
Ġ W
is t
ou s
Ġthe re
un d
o d
u bl
er gy
Ġp re
Ġthe m
Ġa b
ubl ic
Ġre actor
Ġpro cess
Ġsp end
at ed
al th
u al
Ġm a
Ġm an
id e
Ġtechnolo gy
e ver
Ġhe l
Ġag ed
Ġdes ign
on g
Ġm ay
Ġ "
Ġ B
Ġen ergy
ul ation
ou t
Ġp ublic
Ġ v
i z
Ġcon t
Ġp op
Ġin d
Ġhel p
i re
id ent
v ent
Ġ R
Ġbe c
i al
ow ever
Ġcountr y
Ġd o
us t
Ġin t
Ġhe alth
du ct
Ġpop ulation
f or
Ġinc re
se ar
Ġw ould
il d
Ġe ff
Ġon e
ĠS ing
Ġre sear
igh t
ap ore
Ġag ing
Ġ le
con om
ĠSing apore
ĠTh is
Ġspend ing
Ġc ost
ou n
el l
g ine
ou r
ĠH owever
ion s
Ġ 1
u p
Ġres ult
Ġt a
Ġe conom
Ġgen er
e ar
aus e
et ic
Ġ G
ar d
en ce
Ġ P
Ġ N
Ġa cc
f ore
u d
ar t
ver y
Ġf in
i ly
Ġex p
Ġs ol
Ġwh o
Ġ k
re n
Ġsa f
re at
Ġw as
Ġen gine
a ge
Ġp ol
i e
an s
Ġresear ch
Ġ O
ow er
Ġgen etic
en s
c es
Ġbe en
Ġpro duct
v en
Ġ up
Ġ E
Ġman y
ation s
Ġcon c
y st
Ġm ed
ĠThe re
for m
Ġon ly
yst em
i ent
Ġs ome
Ġa r
Ġthe se
Ġe m
Ġne w
re nt
Ġre l
im e
it ion
Ġb ut
Ġsu pp
a b
Ġp ower
s s
le ct
Ġit s
Ġh igh
s i
Ġc ar
Ġs ystem
at er
Ġus e
Ġl if
Ġf am
il ity
Ġm e
k ing
al l
Ġt est
i ke
v ing
Ġo ut
Ġ un
Ġab out
Ġag e
Ġbe t
Ġwhe n
Ġso ci
Ġproblem s
iv es
Ġpro v
Ġp er
Ġcon s
r ic
p le
Ġso cial
a ce
Ġy ear
Ġ if
im it
Ġc are
Ġpol ic
or d
Ġal l
Ġ V
Ġ ra
c y
Ġl imit
ĠI t
Ġt ra
p t
Ġbec ause
Ġth an
r u
ar y
Ġt ime
Ġsoci ety
d uc
er ing
a g
n ow
Ġ D
ĠF or
Ġl ike
iv id
Ġf e
one y
Ġ L
i le
e f
Ġc ould
Ġsupp ort
re d
Ġm oney
Ġh um
ivid ual
Ġs ur
ay s
Ġm ost
Ġimp ort
Ġ U
ĠA s
u ch
it ies
Ġind ividual
if f
Ġex am
Ġa m
Ġde c
er n
Ġr is
Ġt r
Ġo ur
Ġpl ant
Ġreactor s
Ġw ell
Ġk now
Ġp os
Ġdis c
Ġ j
Ġd iff
Ġacc ident
Ġch ild
al ly
lo w
Ġf und
Ġimp ro
Ġ ed
Ġint o
oun d
Ġl ong
r ough
Ġdis e
Ġin v
o se
Ġo ver
Ġsaf ety
Ġincre as
Ġus ed
d ition
no v
Ġb en
Ġfam ily
i p
Ġlif e
Ġben ef
Ġb u
Ġis s
Ġed uc
Ġcountr ies
Ġa pp
or s
ac k
Ġad v
i ous
Ġa ble
Ġwor ld
Ġin nov
at ure
e p
ĠThere fore
t ain
ir st
Ġg o
Ġp r
Ġbet ter
Ġcom m
Ġo ld
Ġa ct
ro w
Ġst ill
Ġhum an
i a
Ġbe ing
Ġma ke
in d
Ġeconom ic
Ġyear s
Ġin st
Ġf ut
ru ct
T R
ĠV H
g er
Ġfut ure
ĠVH TR
Ġin form
ĠA l
Ġexam ple
ĠO n
Ġe lect
Ġm uch
ment s
du ce
Ġwe re
Ġn o
Ġbenef it
Ġimport ant
v ed
Ġd ue
ur ther
Ġ very
at ive
Ġh is
u el
o b
en cy
ers on
ir on
Ġ1 9
Ġeff ect
Ġchild ren
Ġeduc ation
Ġp art
v iron
Ġmed ical
it e
Ġf uel
lo y
Ġs er
Ġe ven
if ic
in ce
Ġen viron
p e
ch o
ur rent
Ġengine ering
Ġare as
Ġm ain
Ġ200 9
p loy
Ġincre ase
Ġ und
Ġgener ation
Ġfin an
Ġt er
Ġg row
Ġp h
Ġtechnolo g
Ġenviron ment
f ul
r y
Ġlo w
Ġneed s
re e
ĠW ith
Ġpolic ies
Ġre t
ut ion
as es
at ing
Ġc o
Ġfinan cial
Ġan y
Ġo per
ri b
Ġc r
Ġat t
v es
c are
p ort
at es
Ġa ff
Ġre qu
Ġpre vent
Ġl ess
ur ing
s y
re ss
f ter
Ġinform ation
c he
Ġf actor
Ġ qu
g et
ad e
Ġl ar
are nt
am e
Ġc urrent
Ġf ac
Ġris k
Ġp erson
Ġund er
ual ly
Ġeff ic
our ces
Ġelect ric
t ing
Ġm ight
d er
Ġta ke
Ġconc l
iv ing
v ic
Ġdiff e
ĠC h
Ġtest ing
t ed
Ġp at
Ġth rough
i o
Ġ ro
ow n
Ġ ;
g ra
se l
Ġconc ern
Ġam ount
p ect
Ġch an
a ch
Ġbu ild
Ġse c
Ġhealth care
us ion
c ed
Ġg reat
a il
Ġle ad
b er
o ve
cho lo
Ġe very
sy cholo
Ġengine ers
Ġcomp an
Ġ %
u es
are d
Ġt w
Ġin f
Ġa c
is e
c ent
Ġrequ ire
Ġy oun
Ġimpro ve
id es
arent s
I D
Ġdise ase
ĠA n
Ġem ploy
F ID
ĠR FID
Ġresult s
Ġw ast
p l
at ives
Ġinv est
Ġg et
Ġwork ing
Ġad dition
Ġpos si
ar k
it al
i um
ot her
ent s
ce pt
Ġha d
Ġwhe re
Ġcont rib
s ure
per ature
ent ial
Ġp sycholo
ve l
Ġn ow
Ġde p
ation al
duc ed
Ġeconom y
Ġlimit ed
j ect
Ġw ay
ĠTh us
Ġconcl usion
th ough
Ġe as
Ġb ur
Ġin vent
ĠH ence
c k
Ġth ose
ot h
Ġsu b
Ġ J
r ing
Ġar g
Ġd i
on s
Ġp arents
t s
Ġc aus
le ment
Ġret ire
ĠG en
Ġm ade
Ġsur ve
Ġpat ient
Ġtw o
Ġth us
m s
Ġc it
Ġlar ge
as s
Ġal low
Ġor der
Ġde f
Ġh and
ag es
Ġex t
Ġs ince
o k
Ġra d
n ess
Ġincreas ing
ill ance
Ġde m
Ġdevelop ed
Ġrel atives
Ġprov ide
Ġplant s
a k
Ġg r
t en
Ġp o
Ġc re
Ġa fter
Ġdiffe rent
Ġiss ue
Ġf act
Ġcon st
ri end
er tain
Ġ :
Ġe ar
ent ion
ure s
Ġd et
Ġf o
ord ing
Ġre as
Ġdo es
Ġte m
iz e
Ġimp lement
Ġproduct s
w n
ist s
Ġcar ri
er ation
Ġcontrib ut
Ġs it
Ġn um
Ġen c
Ġ200 8
Ġpr iv
Ġst ud
ur ity
Ġre duce
Ġl iving
n ing
Ġf irst
Ġsurve illance
p h
Ġh ig
el f
Ġtechnolog ies
Ġwast e
Ġen sure
Ġus ing
Ġres ources
Ġtr ans
Ġd uring
Ġe ase
Ġfactor s
Ġ es
Ġ 3
in k
Ġb oth
Ġ ke
Ġm em
ou ra
d en
ĠCh in
y s
Ġinnov ation
p on
Ġcomm un
ĠI V
Ġaff ect
w e
con d
Ġsec urity
ĠI f
ĠU n
ĠT o
Ġbenefit s
Ġs ign
ĠM ore
ical ly
Ġsp e
s ion
Ġcit iz
Ġs ci
Ġw ater
ter n
Ġr ight
Ġbec ome
iv en
cial ly
ab ility
Ġtem perature
Ġa v
Ġha pp
Ġgrow th
Ġre g
im in
b ility
Ġj ust
b ers
Ġm ark
Ġh ow
Ġs im
or y
Ġdem and
os p
ĠAl though
Ġcons id
ac y
Ġfund s
Ġ 6
i ed
Ġo pp
Ġage ing
m e
Ġo wn
Ġex per
Ġo b
vic es
Ġhig her
ic s
Ġdep end
Ġof f
Ġretire ment
b y
m ore
Ġgo od
Ġc ause
Ġs k
Ġprov id
ĠF irst
il ities
Ġiss ues
Ġs ame
ar m
l ed
Ġ ide
ĠS e
Ġo lder
g ing
pe cially
c o
e ad
Ġfin d
Ġwith out
Ġ K
Ġb as
Ġf urther
Ġin s
our ce
r ast
Ġwhe ther
Ġm ater
Ġcomp ared
Ġmark et
ff ic
ĠF urther
ion al
Ġha ving
Ġes pecially
Ġst r
Ġpolic y
Ġbuild ing
Ġc l
Ġc ertain
Ġse e
Ġenc oura
i ency
sel ves
Ġle vel
Ġmater ial
ĠB ut
ruct ure
Ġ2 0
l ess
Ġwh at
Ġcont in
ard s
ve al
Ġaccident s
ur n
ĠA cc
Ġbur den
ĠFurther more
Ġind ust
Ġpossi ble
Ġcitiz ens
ĠThe y
ĠOn e
a v
ĠR e
Ġs m
ic e
Ġwh ile
ut ions
Ġwork ers
Ġcom e
Ġlo t
Ġj ob
Ġre veal
Ġbe fore
Ġsh ow
Ġp ot
Ġb ring
Ġre al
Ġpro t
ĠS t
Ġdevelop ing
Ġthem selves
ĠMore over
l es
Ġres pon
Ġelectric ity
Ġinc l
Ġsol ution
Ġnum ber
Ġ her
Ġg as
lo b
Ġm in
Ġcost s
g es
Ġas s
Ġne g
Ġmem bers
Ġpot ential
Ġc ap
ĠThe se
Ġc ase
Ġag ain
Ġp ay
et h
Ġl ives
Ġpriv acy
Ġsign ific
iv ity
osp ital
Ġsh ort
Ġcont ro
Ġeffic iency
ill ion
ul ar
ie ld
Ġsol ve
Ġcompan ies
F R
x t
Ġexper i
Ġf riend
iz ed
he n
Ġpl an
Ġr un
Ġ200 7
Ġm od
i er
Ġre f
Ġincl ud
Ġf ace
Ġm ust
c us
Ġdise ases
Ġ 5
es ides
Ġre m
Ġfe w
ĠChin a
Ġe qu
Ġta k
i or
Ġm on
Ġdi ver
g en
j or
Ġimp act
Ġr ate
Ġsaf e
Ġeffect ive
Ġrad io
Ġme ans
Ġindividual s
Ġthe n
Ġo cc
Ġne cess
Ġsignific ant
Ġs ect
Ġsit u
ĠS ome
Ġexp ens
se qu
Ġv ar
Ġhapp en
ou p
Ġme et
a w
c cess
Ġma jor
ie ve
d ay
at her
ud get
r or
Ġt reat
re ad
Ġl ack
Ġg lob
e w
in t
Ġd own
Ġpatient s
Ġapp ro
Ġs et
Ġh y
Ġp ut
Ġbe l
ire ct
Ġar ound
Ġcons um
Ġdisc over
Ġpsycholo gy
Ġcarri er
Ġc he
Ġth ink
Ġd one
Ġ 4
Ġas pect
Ġadv ant
Ġyoun g
it ed
Ġ ve
Ġs che
it ive
Ġth ough
Ġfund ing
Ġarg ue
Ġgr oup
l ic
Ġb udget
ĠAcc ording
we en
ill s
Ġsol utions
Ġbet ween
Ġper form
Ġlong er
Ġh ospital
ĠP ro
Ġinst ance
Ġfo cus
Ġa w
Ġto o
Ġsu ccess
Ġ200 5
Ġmed ia
Ġst and
ĠB esides
h ic
Ġf ast
Ġgovernment s
Ġcaus ed
Ġ ent
Ġch o
for ce
Ġve hic
Ġpro duce
Ġper cent
Ġs en
Ġpro m
Ġen ough
Ġ19 9
Ġpre ss
Ġexp ect
Ġsm all
ol ed
Ġab ove
t e
g ical
s id
d ro
Ġc reat
is ion
Ġdis ord
ffic ient
Ġprot ect
Ġrespon si
ĠE n
Ġsa ving
Ġf ul
Ġint ro
ie w
Ġser ious
Ġ ident
elf are
ĠSe cond
y ing
Ġ ill
at ter
Ġin ter
ou se
Ġ200 4
Ġs ay
Ġp ur
Ġknow n
Ġincreas ed
Ġinf rast
Ġconst ruct
a ir
Ġp ast
ate ly
Ġke ep
Ġf ail
ĠC P
it ical
en ces
er t
Ġglob al
w ays
ing s
her no
Ġfe el
by l
Ġvar ious
Ġph ys
ur al
ĠC herno
Ġeffic ient
Ġdef in
Ġinst ead
Ġw elfare
ĠS o
os s
Ġconsid er
ĠCP F
Ġg iven
im es
act ive
ĠCherno byl
Ġ ess
Ġh ard
il it
ra in
iz ation
Ġyoun ger
Ġsitu ation
Ġpro ject
Ġreas on
Ġocc ur
Ġto day
g ed
Ġtra in
Ġt urn
Ġdet er
dro gen
Ġfor m
ĠN uclear
Ġinv ol
Ġs c
an ced
Ġl ive
Ġcon cept
oss il
Ġan other
ic ult
Ġdiff icult
a ve
Ġc ent
Ġpre s
Ġsub sid
Ġother s
Ġnecess ary
W R
g an
k s
w or
Ġ er
Ġst ep
Ġprocess es
Ġsci ent
Ġs ource
ver s
is h
Ġf ossil
d e
Ġexp end
Ġim m
ĠW e
l u
Ġcontro l
i ble
Ġt ell
ol l
Ġhelp s
Ġam ong
ĠGen eration
ĠFirst ly
Ġtak en
Ġpro f
Ġ ?
Ġal ways
Ġtra ck
re en
Ġst art
Ġlow er
Ġo bl
Ġw ant
Ġtrans port
led ge
Ġe ach
Ġneed ed
ren d
Ġagain st
ap an
Ġk ind
ĠJ apan
Ġexpend it
Ġinnov ations
is m
om m
all en
Ġobl ig
Ġpro gra
ĠSecond ly
Ġa ch
is ing
Ġter ror
Ġa ut
Ġp ass
Ġwork force
Ġcar s
an y
om es
Ġinc ome
al ity
duc ing
eth od
t y
Ġexp lo
Ġsystem s
e red
Ġe vent
Ġare a
Ġma k
Ġhy drogen
Ġlo ok
Ġeff ort
is ed
Ġm ethod
Ġcompan y
is sion
Ġpro per
ad ays
Ġmaterial s
ĠS C
Ġcomp et
Ġv iew
Ġknow ledge
Ġco ol
Ġfac ilities
ĠW h
Ġint e
Ġac cess
st and
Ġsp ent
Ġta king
Ġtechnolog ical
Ġinfrast ructure
Ġme as
Ġb est
Ġex ist
ap t
Ġcommun ic
p os
r imin
il ar
m al
Ġb ack
Ġfam il
p ro
Ġc or
Ġsol ar
ĠSC WR
Ġf ound
Ġy ou
Ġma king
Ġadv ance
Ġter ms
Ġstr ong
Ġ $
Ġt y
Ġch allen
Ġproduct ion
Ġa id
ic k
ort un
Ġre cent
Ġwho le
o id
Ġser vices
Ġmin im
Ġs al
ir d
Ġcon sequ
ĠH e
Ġimplement ed
Ġdisord er
Ġb o
Ġcre ate
in ess
Ġm ention
Ġpl ace
Ġn ation
r on
Ġal tern
Ġprovid ing
p ite
it able
il t
Ġhelp ed
ĠAn other
a bl
Ġb us
Ġv al
l er
Ġsu ff
d ing
Ġb ig
Ġf ield
ous ing
Ġf ore
Ġre ce
ĠS ince
Ġst ate
un ct
ĠW hen
Ġeffect s
Ġthere fore
at ors
Ġd id
Ġcon f
Ġpl ay
Ġatt ention
Ġav ail
Ġo p
Ġh u
Ġg ive
ĠT e
Ġsa ve
Ġfin al
Ġd irect
ic t
Ġre c
Ġre port
Ġpress ure
Ġd a
Ġcomm on
ĠI nt
ab ly
Ġph one
Ġc lo
ent ly
Ġ ]
re st
Ġd an
Ġ200 6
ĠM ed
Ġpo int
i b
Ġ [
Ġon es
Ġe v
Ġter m
r act
Ġcon vent
ĠRe actor
l ing
l and
Ġlo c
ust ain
Ġradio active
v ant
Ġw ays
Ġcon dition
i x
an ces
Ġen h
od y
Ġfuel s
Ġro le
Ġ est
Ġbu ilt
ĠUn ited
re s
Ġta x
Ġtreat ment
Ġact ually
Ġpr act
vic e
Ġarg u
Ġmention ed
al s
Ġfamil ies
Ġreas ons
Ġexpendit ure
ĠB y
ob ile
Ġhu ge
Ġhe at
ative ly
Ġill ness
f t
ĠW or
Ġdec re
Ġindust ry
Ġst age
Ġstud ents
n ed
n ce
Ġto w
ĠA m
Ġdisc rimin
Ġavail able
Ġs ustain
Ġg ra
Ġad d
Ġsk ills
Ġperform ance
t he
v ious
Ġl ab
Ġor gan
Ġr ather
ri or
Ġaspect s
Ġhe nce
Ġmain tain
at h
Ġse ver
Ġact iv
read y
ur ance
ĠG overnment
ch n
Ġwith in
Ġadvant ages
h o
Ġan al
Ġconcern s
at or
Ġf l
Ġal ready
Ġfe ature
ilit ary
Ġacc ount
g est
ar ing
Ġpre p
Ġ19 8
Ġsect or
apt op
Ġof ten
Ġaff ord
Ġext ent
Ġh ome
it ions
Ġo il
Ġp rior
Ġre st
Ġse em
Ġcre ated
Ġa ir
on es
Ġpro duced
ĠU S
Ġav oid
Ġconstruct ion
Ġm ind
Ġm illion
Ġm ilitary
Ġre duced
ĠR es
Ġqu ality
u nt
Ġto t
Ġperson al
Ġchan ge
Ġeas ily
Ġsim ilar
Ġsever al
ant s
Ġdiver ted
Ġsche me
Ġb an
Ġl aptop
ut e
Ġda ily
Ġm y
Ġdis t
Ġgener ated
Ġadv anced
Ġcontin ue
g n
Ġ Y
Ġgener ate
Ġpart ic
Ġoper ation
w w
on ents
Ġp ric
Ġcontribut e
he d
Ġde al
Ġwh y
Ġequ ip
Ġdiscover y
S R
Ġ ur
Ġt al
ĠM in
Ġab ility
Ġencoura ge
rend ip
Ġl ast
Ġmak es
Ġactiv ities
e e
g r
Ġcomp le
Ġpos itive
co oled
Ġins urance
Ġf ol
lo c
Ġg reen
Ġme an
Ġc am
ar s
c er
n er
Ġcon ven
duc es
Ġreg ard
Ġtow ards
g o
m es
Ġ &
Ġ 7
Ġsh are
ĠIn d
ĠM SR
Ġmed ic
Ġide a
Ġs ources
at ural
is es
Ġne xt
Ġus ually
Ġris ing
a im
ĠD e
Ġexpens es
Ġdeter m
ir th
Ġst ress
Ġident if
Ġne ar
Ġcommun ity
i ation
Ġh ousing
Ġre act
00 0
Ġhealth y
Ġide as
er g
Ġwhe el
Ġass ist
Ġscient ists
Ġdan ger
Ġg u
ĠBut ler
h ip
Ġt end
in es
Ġs low
Ġen d
Ġco al
Ġjob s
Ġresponsi bility
her s
ĠA fter
Ġus age
ri ed
Ġse rendip
Ġcl aim
l i
Ġh arm
Ġte chn
Ġwe ap
ĠM any
Ġgener ations
Ġf unct
Ġth reat
Ġde vices
Ġch ance
Ġget ting
m ost
Ġn or
ide red
Ġrel i
Ġenvironment al
Ġess ential
Ġh im
om p
Ġus ers
ĠL ast
sel f
Ġc all
Ġb irth
Ġsu fficient
Ġimport ance
Ġbas ed
Ġmeas ures
Ġ 8
Ġcons idered
Ġphys ical
c ome
Ġl aw
Ġimpro ved
Ġfriend s
he re
rough t
Ġintro duced
r al
r ig
it s
Ġre le
op e
Ġ200 3
ĠB e
Ġ1 0
c king
Ġpsycholo gical
Ġneg ative
j o
Ġn atural
Ġgrow ing
pl ace
Ġear ly
ĠTe chnolo
r ies
Ġb rought
ap er
ĠD es
Ġrequire d
s ed
it or
Ġpol l
Ġrel ated
Ġinte rest
t le
Ġs he
Ġcomp ut
Ġacc ording
ud e
pt ion
Ġre ally
Ġen jo
Ġsu m
ad es
ĠSingapore ans
ĠN ow
g ress
it ous
Ġn et
Ġcon d
Ġdesign ing
Ġallow s
Ġprovid ed
arm ing
Ġfriend ly
Ġproduct ivity
Ġup gra
Ġbel ieve
p r
Ġd ou
as ter
ĠAl l
Ġac cept
Ġinvent ion
Ġstand ard
p or
Ġd ay
Ġn ational
Ġsaf er
Ġgreat er
Ġbas ic
Ġvehic les
Ġsaving s
as ed
ld ers
ĠS FR
Ġfeature s
Ġpro b
Ġse en
Ġdevelopment s
Ġdesign ed
ĠWor ld
s ing
Ġin e
Ġse cond
Ġexpens ive
Ġaw are
Ġdefin ite
Ġad ult
Ġin it
ĠC ent
c le
p id
Ġb re
Ġf ar
so ci
Ġlike ly
ep end
Ġunder stand
Ġl ight
Ġsuccess ful
Ġaltern ative
Ġcon duct
Ġal loc
Ġoper ating
Ġrequire s
n el
Ġw ide
Ġm ove
Ġn on
Ġmod ern
Ġsen ior
Ġprom ot
Ġcond itions
g ers
t t
Ġc ut
Ġc ases
Ġra pid
Ġdec ision
Ġapp lic
pl es
Ġcaus es
Ġsci ence
c ing
Ġp ens
l ine
Ġrel atively
Ġinf lu
t ic
Ġst at
Ġresear c
ĠN ew
si a
ĠAn d
Ġinvent ions
Ġbus iness
Ġconvent ional
Ġsh own
Ġle ast
Ġtr ue
Ġdisc lo
Ġhigh ly
Ġfol low
b on
Ġ ut
es e
Ġon ce
ĠE ven
Ġsupp ly
Ġact ive
Ġfore ign
Ġs elf
Ġc le
Ġth ree
Ġach ieve
Ġconsequ ences
Ġdefinite ly
i an
Ġm obile
Ġdo ing
Ġcr it
Ġgreat ly
Ġshow s
Ġhospital s
Ġpres ent
ĠInt ern
in king
Ġs ix
ĠA ct
Ġsh ap
ĠF rom
is f
Ġm ent
ific ation
Ġfac ing
Ġer r
b ot
r it
velop ment
Ġopp ortun
Ġneg lect
Ġserendip itous
c om
Ġcan cer
ĠP eople
ĠSt ates
Ġc ore
Ġf re
Ġtransport ation
i qu
en se
Ġd r
Ġe l
Ġbe h
ĠA t
ten ance
Ġcool ant
Ġadvance ment
5 0
Ġp ort
Ġw arming
ed i
ic ial
Ġde ath
Ġta g
Ġprogra m
Ġaut om
Ġ /
Ġpro gress
Ġimp l
Ġpl ac
Ġdiffe ren
Ġexperi ence
Ġrem ain
Ġs om
Ġh owever
Ġsu per
Ġresult ed
Ġopp os
Ġref rig
at isf
Ġad op
Ġprov ides
Ġfac ed
Ġfo od
Ġsignificant ly
Ġerr ors
p ut
u f
Ġc lear
Ġb ar
Ġb illion
Ġinc ident
ĠN ational
Ġhum ans
Ġdec ades
Ġincreas es
Ġemploy ment
Ġvehic le
Ġb ody
Ġto p
Ġl it
Ġdesign s
Ġcar ry
Ġimpro ving
Ġinvest ment
Ġdet ect
Ġcommunic ation
Ġpric e
Ġcam er
Ġenjo y
Ġf il
Ġre ach
Ġchan ges
Ġpartic ular
i vers
ĠIn st
Ġdemand s
ie ved
Ġqu ite
Ġconcern ed
Ġright s
Ġ6 5
f riend
i od
in ation
Ġhe art
ad vant
Ġdisc us
Ġsubsid ies
Ġdiscrimin ation
Ġresearc hers
an ium
Ġf ear
Ġha m
Ġuse ful
Ġevent ually
Ġexist ing
b o
Ġg ases
Ġag ree
Ġhe av
ĠF und
Ġtra cking
Ġmain ly
che s
Ġrad iation
Ġmon itor
Ġty p
ĠRes ear
Ġ/ /
Ġin tern
Ġl ater
un k
Ġne ver
Ġman age
Ġ lear
an ge
Ġdis advant
Ġsect ors
friend ly
f ort
in ed
Ġl and
cho ol
Ġro bot
tt p
e es
an cy
Ġcom b
get her
Ġcho ice
Ġcle an
Ġrefrig er
uf act
p art
Ġe th
Ġe lders
Ġh ttp
Ġth ings
Ġma ch
Ġcar bon
Ġatt ack
Ġst op
ist ic
Ġemploy ers
er ic
Ġre ducing
Ġfor ce
ĠI s
Ġst ay
Ġus es
est y
Ġwork s
ist ics
ĠAl so
' t
Ġb atter
Ġsu g
Ġlo ss
Ġind epend
Ġper iod
Ġsub st
Ġcontin u
Ġt re
Ġc ell
ĠA d
Ġwor ry
Ġaffect ed
Ġspe c
Ġhappen ed
Ġcent ur
ron ic
Ġal most
Ġman ufact
Ġris e
Ġspe cial
ĠAm eric
s et
Ġt imes
Ġf ree
id ence
if ied
Ġch ar
Ġdepend ency
ĠEn gine
Ġfail ure
Ġchallen ges
Ġrece ive
ĠNow adays
d s
i bility
Ġm or
ĠC on
em perature
ph as
Ġreveal ing
the less
Ġtot al
Ġpre d
Ġlif esty
Ġgo ing
Ġpossi bility
ĠHe alth
l l
n e
o ld
Ġst ructure
ĠGen etic
Ġshort age
Ġinclud ing
Ġop in
d own
t ion
he s
Ġs atisf
Ġh ouse
Ġre ad
Ġte le
Ġte am
Ġsur ger
Ġimprove ment
Ġexpect ed
ĠTechnolo gy
h ouse
Ġt ar
Ġa im
Ġs chool
Ġb ab
iv ed
ĠC omm
ist ry
Ġstr ate
ĠWh ile
Ġprior ity
Ġnet wor
b e
Ġre cy
Ġcom fort
ĠR o
Ġcr uc
Ġcontribut ed
Ġsche mes
f er
o king
Ġthe r
ĠDe velopment
Ġsug gest
Ġevery one
Ġsit es
Ġadvant age
Ġenh ance
ĠDes pite
Ġ 9
is c
ist ory
Ġapp ly
Ġemploy ees
Ġinvol ved
Ġimm edi
Ġsuff er
Ġweap ons
ĠResear ch
e ed
ĠTh ree
Ġsa id
Ġqu est
Ġcruc ial
h ib
ĠC omp
Ġconst ant
Ġinclud e
Ġdou b
i k
Ġc y
ut h
Ġgen es
Ġres ource
Ġadd ress
Ġf all
Ġres pect
Ġun able
Ġnow adays
Ġinvent ed
Ġdecre ase
i ence
Ġc at
is on
pp ed
Ġr ates
Ġem erg
Ġlar ger
Ġ5 0
Ġconcept s
Ġillness es
Ġequip ment
Ġsurger y
n ew
Ġ -
Ġe t
Ġre place
Ġal though
Ġem phas
Ġtra vel
Ġunder go
co gn
Ġmethod s
I N
is s
ĠS u
Ġinnov ative
2 00
p ose
ri al
ĠN ever
Ġem ot
Ġlimit ing
Ġstud y
Ġaw ay
ĠMin istry
ĠIs land
l ied
Ġm ult
Ġth ird
Ġke y
Ġseem s
ĠNever theless
t o
it her
Ġeas ier
Ġproject s
Ġtar get
x im
Ġb ad
Ġre ly
Ġut il
Ġlit tle
d ium
g in
is is
Ġh istory
as ing
Ġcom es
Ġso dium
Ġ200 1
Ġbec omes
ĠPro v
Ġpoll ution
c r
er y
Ġto gether
Ġre cogn
Ġpro s
Ġgen e
Ġpop ular
Ġtr y
Ġimpact s
ĠEn ergy
Ġban ned
Ġf ert
Ġd ays
Ġwill ing
Ġcr isis
Ġob ject
a ke
p ri
Ġa ver
Ġdo ct
ĠP ublic
Ġdec ide
Ġinst all
Ġfinancial ly
Ġprogra ms
Ġfil ial
. .
Ġo pt
Ġw ar
Ġin her
Ġde vice
Ġspe ed
Ġs ing
at a
Ġm atter
om ing
Ġcap ital
Ġclo se
Ġmedic ine
ĠLast ly
Ġcomput er
ĠCent ral
i ety
s er
Ġc over
ol ine
end ing
ĠM ile
duct ion
Ġprevent ed
Ġeffective ly
Ġprof ess
Ġgreen house
x ide
on d
Ġsu re
Ġst e
el t
Ġsp ace
Ġinc ent
Ġem ission
ove red
Ġmon th
Ġappro ach
Ġtechn ical
Ġpens ion
Ġlifesty le
E R
l ier
or n
om en
ol ten
Ġeas ing
Ġimplement ation
ĠChin ese
bo ok
Ġ200 2
Ġresear ches
Ġatt ract
Ġpo or
Ġeffort s
Ġur anium
Ġnor mal
Ġdisadvant ages
w ard
at ory
Ġd am
ig r
Ġcon ver
Ġwe ak
at s
Ġw r
Ġde b
Ġsu itable
ĠS uch
Ġdes pite
Ġproduct ive
Ġcurrent ly
n ect
ow ered
Ġ19 7
Ġsk unk
Ġgas oline
Ġham per
Ġemerg ency
Ġ unt
is hed
Ġm ass
Ġconsum ption
Ġexpect ancy
Ġanal y
ĠIntern ational
m an
ĠH igh
Ġpre vious
p ing
Ġl ed
Ġgroup s
Ġ198 6
Ġbatter y
Ġther mal
3 0
Ġc ope
ve re
Ġn ur
em ploy
Ġcont act
Ġdisc overed
Ġconsid eration
Ġdifficult ies
Ġoblig ation
Ġwide ly
Ġopin ion
Ġaver age
e xt
Ġc oll
ro ss
Ġre pro
Ġpro l
Ġit self
Ġbeing s
Ġbring s
Ġmajor ity
a f
en ced
Ġc ou
is ions
Ġd ra
Ġd oll
ic es
Ġre duces
us e
Ġcon nect
end ed
ter m
Ġpre c
Ġpol itical
Ġtra dition
Ġche aper
Ġoblig ated
Ġty pe
Ġidentif y
Ġcentur y
cr itical
T A
Ġc ol
Ġp ar
Ġto ol
ill ed
ĠTh ird
Ġoper ate
Ġopp onents
Ġindust rial
Ġsen se
Ġful f
re me
Ġc ir
Ġb lo
Ġm is
Ġd est
Ġpro ced
Ġas soci
ĠA ging
Ġus er
Ġ200 0
ĠL FR
we igh
Ġcho ose
Ġful ly
Ġopportun ities
Ġmult i
h and
u ro
an k
Ġm o
Ġhelp ing
our s
ĠO ther
Ġapp lied
Ġsec ure
Ġaddition al
Ġext reme
Ġpur pose
p ly
Ġf ive
ĠM e
Ġcare ful
ĠD ue
Ġmain tenance
iven ess
Ġprob ably
Ġrecy c
ore d
ur b
Ġy et
io xide
Ġpriv ate
Ġplan ning
Ġlab or
Ġdanger ous
Ġimpl ant
Ġe ither
Ġoper ators
Ġro ad
ph one
Ġeth ical
Ġmor al
a ving
l ike
et s
Ġeconom ical
Ġcomm er
Ġear lier
sequ ently
Ġkind s
ĠProv ident
Ġsing le
a king
re ct
Ġb al
Ġg ain
Ġpro port
qu ate
Ġse vere
Ġhel ium
Ġv i
Ġv ir
Ġbenef icial
Ġful l
Ġtrain ing
Ġmanage ment
Ġc ame
Ġal one
Ġsp read
ĠM ost
Ġle ft
Ġgener al
Ġun f
Ġover come
Ġlead s
Ġaffect s
Ġgener ating
Ġar tic
Ġrel ations
Ġpos ition
Ġharm ful
Ġine v
Ġinit ial
Ġdoub t
Ġincent ives
L IN
P ER
Y PER
Ġs ize
Ġp ers
Ġm ist
Ġd ioxide
et ro
Ġwor th
ĠH YPER
Ġdis aster
ĠB o
Ġnew s
Ġtest s
Ġout weigh
ĠV ery
ag no
che d
Ġpract ical
Ġcall ed
LIN K
ĠHYPER LINK
Ġc ater
is ave
Ġb r
Ġexp os
Ġra ised
ĠWh at
Ġfield s
Ġanal ys
Ġtradition al
u gh
er al
Ġm ot
Ġre new
ver se
Ġappro pri
Ġstart ed
Ġterror ists
Ġcompet itive
Ġsal t
Ġbo ost
Ġgra du
Ġment al
Ġtyp es
Ġ {
it ing
Ġde ple
Ġlo st
iz ing
Ġlimit ation
Ġdi agno
Ġlevel s
Ġpercent age
Ġexplo sion
Ġdirect ly
Ġbre ak
Ġbab y
Ġfert ility
D P
Ġm et
Ġh omes
Ġbe gin
Ġse lect
Ġpl ays
ag ing
Ġimprove ments
Ġhappen ing
Ġargu ed
ww w
Ġconven ience
Ġ }
Ġm ar
Ġh ind
Ġwor ds
Ġwe alth
Ġv ia
Ġbec oming
Ġexam ples
Ġrisk s
Ġob tain
Ġfew er
Ġprep are
Ġregard ing
Ġrefriger ator
Ġcommer cial
d ed
w ise
Ġinc ur
ĠM al
ous ly
Ġle t
ru g
Ġcarri ed
Ġsee k
Ġresponsi ble
Ġinter act
Ġadult s
Ġel imin
p ed
in ing
Ġp e
Ġw ind
an i
Ġan t
as h
Ġpro ducing
Ġpro pos
est ing
Ġind eed
ident ial
Ġconsum ers
Ġcreat ing
Ġop en
Ġcomple te
ivers ity
Ġindepend ent
Ġproport ion
it ute
Ġf lo
Ġst able
Ġst ages
ĠG DP
ens ive
ĠE uro
Ġfe as
Ġsur v
Ġqu ick
Ġterror ist
Ġconven ient
Ġapplic ation
Ġbar ri
g ies
m at
Ġp ost
Ġp etro
Ġm ic
ch air
Ġl a
Ġsol ving
Ġsupport ing
Ġcontrib ution
Ġ6 0
Ġprotect ion
Ġess ay
Ġupgra ding
Ġrapid ly
Ġcir c
o gra
Ġc ult
Ġb ro
Ġan n
Ġd en
Ġde g
Ġimp os
ĠF in
ĠL ee
Ġchan ging
ĠEuro pe
re l
en ic
Ġc ure
Ġb l
Ġst ated
Ġy our
Ġcont r
ire d
Ġph ones
Ġencoura ging
Ġcamer a
Ġdoll ars
t on
u fficient
Ġt ack
or m
al e
Ġd ata
ĠT os
Ġcomp ar
Ġcont ain
ĠP et
Ġcr imin
Ġquest ion
at t
Ġr ange
Ġtest ed
Ġcomm it
Ġless er
Ġstep s
Ġbeh av
Ġanaly z
Ġrelations hip
y m
an g
Ġre v
ut on
ous and
ĠWith out
Ġcaus ing
Ġsim ply
Ġprof it
hib a
Ġconstant ly
Ġunt il
ĠTos hiba
r ound
Ġch ip
Ġlo oking
Ġdec isions
Ġwast es
Ġstud ies
Ġcreat ivity
Ġloc al
Ġest im
Ġrest ric
Ġshap ed
Ġnetwor k
ĠRo gers
Ġemot ional
Ġartic le
l ight
w ay
Ġn ations
Ġst or
Ġst ates
ie f
Ġser vice
Ġear th
Ġ20 30
eth ing
Ġtak es
Ġaut h
ĠMed isave
Ġafford able
Ġspec ific
Ġet c
Ġrenew able
ion ally
Ġpro ven
ul ner
th ing
Ġelect r
Ġmod el
Ġport ion
Ġcy cle
ĠMal ay
enic ill
al f
Ġh old
Ġth ousand
em ber
si ble
Ġsupport ed
Ġover all
Ġchan nel
Ġinvest ing
Ġeas y
Ġorgan iz
Ġreact ion
Ġsom ething
hand ani
uton ium
Ġauth or
m a
v i
Ġg iving
Ġg ather
Ġal ong
if y
Ġv ulner
Ġfin ally
Ġlif ts
Ġeduc ated
Ġskunk wor
b s
c l
f ace
re t
is ter
Ġm elt
ro p
if t
Ġwor se
Ġfind ing
ĠK handani
Ġindust ries
Ġinte gr
Ġwheel chair
Ġprofess ional
ogra ph
Ġb ills
Ġm ut
om ers
Ġha z
ĠTh ough
ulation s
ĠN ot
Ġsol ved
Ġpo in
Ġ3 0
Ġreal ize
Ġdiscover ies
Ġassist ance
Ġconduct ed
T I
p ower
Ġin j
Ġg ives
Ġso on
Ġdepend ent
Ġcap able
Ġheav y
Ġappropri ate
Ġpro duces
Ġex er
Ġlo se
Ġcost ly
Ġdec id
Ġenvironment ally
Ġ199 9
Ġest abl
Ġfre qu
ĠInst ead
enicill in
c ies
e x
o f
ĠTh rough
Ġpl utonium
Ġle ak
Ġencoura ged
Ġinclud es
Ġche m
Ġcommunic ate
Ġminim ize
Ġfunct ion
Ġreli able
Ġassoci ated
C R
W CR
c ause
r ance
Ġt as
Ġw ise
Ġm olten
Ġas ide
Ġag o
ĠS WCR
ĠC I
ĠC urrent
Ġv is
Ġv ital
Ġind irect
ĠE x
form ation
Ġpart s
Ġins ufficient
Ġrepro cess
ĠThird ly
ar ant
im ate
Ġres ol
Ġres ist
Ġneed y
Ġv ol
Ġind ic
Ġengine er
ĠE duc
Ġlead ing
Ġident ification
Ġimm igr
Ġchallen ge
Ġwr ong
Ġmulti ple
Ġextreme ly
I F
Ġ \
Ġ ign
ar ch
Ġre p
ot y
Ġen able
ĠS ur
ĠP r
Ġphys ically
Ġvulner able
O N
p ar
it ude
Ġth ing
ul ate
Ġpart ies
Ġear n
Ġcreat ive
Ġyou th
Ġreport ed
Ġprep ared
gr ound
ĠBe cause
D B
a ff
in al
Ġs ens
Ġf ig
le x
act er
ure d
und red
Ġab s
Ġ1 00
Ġresult ing
art ment
Ġout put
Ġra ise
Ġob ser
Ġent ire
Ġoccur red
ho od
Ġdifferen ce
Ġdifferen ces
Ġc ust
ou th
Ġen g
Ġen abl
Ġcom ing
od e
Ġbec ame
ag ed
Ġsub ject
Ġche ck
Ġach ieved
Ġval ue
Ġunderstand ing
Ġpromot e
Ġfulf ill
ĠPet erson
Ġelectr ical
TI ON
w here
Ġs w
Ġp ace
Ġcont rast
Ġsoci et
Ġapp ear
Ġeconomic s
Ġconcl ude
Ġimplement ing
Ġsim pl
Ġsuff ering
Ġaware ness
Ġtre m
Ġanalys is
Ġfeas ible
h ing
i pped
r ate
r up
at ch
it ect
ch itect
Ġfe es
Ġcr ime
Ġpsycholo g
ak es
Ġthough t
Ġsmall er
Ġterror ism
Ġlab our
Ġmind set
Ġdeterm ine
Ġfunct ions
Ġsubst ant
Ġcomfort able
ĠBo ard
Ġf our
Ġh undred
et imes
Ġle g
ĠE lder
Ġlimit ations
Ġrobot ic
rel ated
Ġtrem end
k ind
p owered
Ġw a
Ġe ver
Ġdis ast
Ġma xim
ĠG FR
ren ce
Ġun s
Ġun employ
Ġprevent ing
Ġob vious
iqu e
Ġcoll ap
TA TION
Ġmelt down
ĠCI TATION
ĠEduc ation
o oled
Ġt rend
in s
in ent
Ġto ur
Ġre ven
Ġth inking
il es
Ġon line
Ġst ren
ĠH DB
ac c
ĠW ar
pect ive
Ġinvest ig
Ġpossi b
Ġcarri ers
Ġtemperature s
Ġshow ed
Ġdiver t
Ġinter p
Ġscient ific
Ġval u
ĠInd ones
Ġpred ic
Ġexer c
Ġindirect ly
Ġ ult
Ġs us
ment al
Ġex ce
ĠE very
Ġsome one
Ġtr uth
Ġph ase
Ġinvest ed
Ġcor rect
Ġneglect ed
Ġlear n
ĠAmeric a
Ġla un
Ġorganiz ations
3 3
o c
ut ed
if eration
Ġdis pos
Ġab and
ĠO pp
Ġdec l
Ġchan ces
Ġwhere by
Ġbur ning
Ġallow ing
Ġoff er
Ġ20 50
Ġtreat ments
Ġent er
Ġrecent ly
Ġrec ord
Ġsustain able
Ġcomple x
Ġdiscus s
Ġproced ures
v al
ĠS che
Ġst ability
ĠTh at
Ġman kind
Ġk id
Ġtr ying
Ġinit i
Ġdisclo se
Ġtag s
Ġplac es
Ġmonitor ing
Ġcell s
Ġbal ance
Ġestim ated
k now
Ġs ound
Ġn ature
ĠT w
ĠIn formation
ĠF ace
Ġad e
Ġv ide
ĠE ar
ĠD uring
Ġcr itical
Ġob st
Ġbuilding s
Ġcontro vers
Ġsuccessful ly
Ġinflu ence
Ġdoct ors
Ġflo or
f ect
w h
ab ilities
ruct ures
ress ion
Ġallow ed
Ġdisord ers
Ġinvol ves
Ġstrong ly
Ġargu ment
Ġtot ally
Ġgu arant
Ġstat istics
Ġapply ing
Ġimmedi ate
Ġsubstant ial
Ġstren g
Ġaband on
s p
iv il
Ġpre fer
Ġcont ext
Ġup on
Ġret urn
Ġpur ch
Ġsc ale
Ġplac ed
Ġclear ly
Ġmach ine
ĠEngine ers
Ġopt im
Ġrecyc ling
p s
or ies
op h
ĠS ci
iv al
Ġsa ved
ĠN o
ĠN or
Ġacc um
ab or
Ġincreasing ly
Ġrun ning
Ġstand ards
Ġprom ising
Ġinvol ve
Ġaid s
Ġfollow ing
Ġcol lect
Ġtack le
Ġskunkwor ks
m er
o lo
Ġb on
ed om
ĠT emperature
ĠThe n
over ty
Ġor ig
ĠF ast
Ġcount er
Ġle ave
Ġsocial ly
ĠK ore
Ġprot oty
Ġsitu ations
Ġconsequ ence
Ġlaw s
Ġrele vant
Ġfre edom
Ġdeath s
Ġintern et
Ġprol iferation
Ġcareful ly
Ġinev itable
Ġstor age
t ies
u g
w are
Ġa part
er ous
Ġp overty
Ġf ission
Ġd om
Ġl ink
ot e
ir able
Ġinc or
Ġdec line
Ġact ion
Ġelect ronic
Ġreg ulations
Ġcl ass
Ġcontr ary
Ġc op
Ġw al
Ġb rain
Ġto ok
ĠS p
Ġcomp lic
ĠG IF
Ġun like
Ġgo es
Ġcontribut ions
ĠUn iversity
Ġbel ieved
Ġpur pos
Ġmeas ure
Ġtax es
ĠAm ong
ĠMin ister
Ġstat us
Ġmanufact ure
Ġdam age
ĠMalay sia
Ġchem ical
ĠSche me
ĠFace book
h t
i ors
s is
Ġp hen
an e
ar ily
Ġde li
ĠS im
Ġst ore
if e
ĠA g
Ġ2 1
ĠH um
Ġra ising
Ġtra ffic
Ġknow ing
Ġser ve
Ġfac ilit
Ġefficient ly
Ġaccess ible
ĠInd ia
isc al
iss ions
Ġquick ly
Ġcrimin als
Ġreprocess ing
Ġreven ue
Ġpurpos es
C ooled
r ation
s ess
Ġf a
Ġbe ar
ch an
ill ions
Ġse par
Ġeconom ically
ĠG er
Ġar chitect
Ġem b
ob ility
Ġcitiz en
Ġreason able
Ġconf idential
Ġpract ice
Ġalloc ated
ĠEngine ering
Ġstrate gies
Ġgradu ally
Ġpropos ed
Ġphen omen
2 0
f ree
l ain
ĠI I
Ġsu n
Ġal le
ive ly
Ġv acc
Ġsur round
Ġinvest ments
Ġdef ense
Ġenc ount
Ġes c
ortun ately
Ġfl ats
Ġmanufact uring
ĠSur ve
m in
w ide
Ġ ir
en n
Ġp us
Ġb orn
Ġn ut
om s
Ġsh r
Ġres ident
per t
Ġpl ans
ĠR ob
Ġhealth ier
Ġar r
ĠFor um
Ġpart y
pect ed
Ġlead ers
Ġrequire ments
Ġexper ts
Ġer ror
Ġgra ph
Ġavoid ed
Ġmach ines
Ġinher ited
ĠEar th
m it
en ed
Ġs ide
Ġf ight
Ġe co
Ġh alf
Ġn ame
ir ing
Ġr at
ĠC rit
Ġad verse
Ġ1 1
ĠG P
Ġacc ur
ĠD ep
Ġpos sess
Ġcit ed
Ġset ting
Ġfail ed
abl ed
Ġorgan ization
Ġimmedi ately
ĠSu per
Ġpers pective
Ġcompar ison
ĠIndones ia
y e
er ve
at ic
Ġb om
ed ia
an cing
ar ies
ĠS h
Ġhe aring
th rough
ac hes
ĠO ver
ĠE m
Ġem issions
ĠL o
Ġsurve y
Ġsim ple
ĠSo cial
Ġval ues
Ġcrit ics
Ġsom etimes
Ġcamer as
Ġtele phone
ĠOpp onents
ĠCrit ics
m osp
y ond
Ġs ick
Ġc ard
Ġf air
Ġf iscal
om ic
Ġl at
Ġfor ms
Ġde v
Ġne igh
Ġch ronic
Ġat mosp
Ġun ne
ĠAs soci
erson al
Ġperson s
Ġtrans fer
Ġ20 1
Ġocc up
Ġconsum er
Ġdeter ior
Ġmak ers
Ġrec over
Ġcommon ly
Ġblo od
Ġmist akes
Ġant i
ĠCurrent ly
Ġneigh b
Ġunne cess
Ġc ivil
Ġp iety
at al
Ġw on
et he
ir m
un e
ĠA sia
Ġdesign ers
Ġ1 8
ĠN on
Ġacc omm
Ġfac es
Ġlarge ly
Ġreveal ed
Ġrem o
Ġ4 0
ĠInst itute
be ing
Ġobst ac
ĠGP S
Ġaccomm od
b ody
l ies
en ing
ĠS ystem
Ġst rain
ĠA ge
ĠM an
ĠM ain
ell ed
Ġpr im
Ġbas is
Ġrespon se
Ġequ ipped
Ġdefin ed
Ġcompet ition
Ġmaintain ing
Ġclaim ed
Ġsatisf y
Ġvir t
Ġdeg ree
Ġhaz ard
Ġvalu able
ĠDep artment
Ġunnecess ary
Ġf it
Ġf av
us ed
im er
ol ic
Ġsh ut
ac ity
si an
Ġper fect
Ġsur ge
Ġact ions
Ġretire d
Ġfocus ing
te e
Ġenh anced
Ġweap on
Ġcut ting
Ġcrit er
Ġdetect ion
Ġlear ning
Ġemphas is
Ġbarri er
Ġimpos sible
Ġade quate
Ġgraph ite
m ak
v ision
re am
Ġc our
Ġf aster
Ġin ade
le ments
ent ed
Ġre duction
Ġbe yond
Ġfor ward
ĠA part
ĠC ons
Ġcomp are
Ġcomp rom
ĠP arents
Ġar ise
Ġem er
Ġun ex
Ġimportant ly
Ġprevent ion
Ġdef ect
Ġcontribut ing
Ġnum bers
Ġnum erous
Ġche ap
Ġsal ary
Ġev ident
Ġequip ments
Ġtal k
Ġtal ents
Ġattack s
Ġbegin ning
Ġthousand s
Ġphenomen on
Ġvacc ine
ethe less
b ack
g ard
o g
s es
Ġ 0
he imer
Ġb ound
Ġm obility
le um
ĠS um
Ġst aff
Ġhe re
Ġ1 5
ĠO r
Ġeas ed
ĠSe pt
Ġdiver ting
Ġcor por
Ġparticular ly
Ġstrate gy
Ġmonth ly
Ġtool s
Ġpetro leum
ograph ic
Ġinterp ersonal
c u
Ġp enicillin
Ġre tain
Ġpro ve
im ately
ul ated
el ess
Ġun c
Ġatt itude
gra m
Ġext ra
Ġdepend s
Ġexperi enced
Ġev idence
Ġprogram mes
Ġtre ated
Ġimmigr ants
ĠElder ly
Ġcollap se
Ġunex pected
R T
z heimer
Ġd ile
ic i
om et
ĠF ried
Ġexp and
ĠAl zheimer
Ġexperi ment
Ġpur s
Ġconvent ionally
ho ld
Ġfl aw
Ġdist rib
Ġ10 33
Ġpred ict
Ġcomplete ly
Ġdispos al
Ġs ym
Ġg am
ĠT r
Ġl atter
el s
ac hed
und ant
Ġrel ative
Ġprov ed
Ġinst it
cept ion
Ġreg ular
Ġexpendit ures
Ġrece ived
ĠGovernment s
Ġur g
Ġmean ing
Ġprob ability
Ġoppos ition
Ġinstall ed
Ġdile m
t ime
Ġc ash
Ġc ode
Ġd rug
ĠA pp
Ġimp lic
Ġdis abled
Ġother wise
iz es
ild ren
Ġ1 000
Ġj ud
Ġthrough out
Ġencoura ges
Ġproper ly
Ġcool ing
Ġloc ation
Ġbeh ind
ĠCon sequently
Ġ197 9
Ġprec a
Ġvi ol
ĠHum an
Ġlat est
ĠNon etheless
d es
u b
er ves
it tee
et ary
ci ous
ĠF rance
Ġch at
ĠG r
Ġeffect iveness
Ġwhere as
Ġcap acity
Ġintro duction
Ġsubsid y
Ġdecre asing
Ġrobot s
ĠComm ittee
Ġnur sing
Ġbro ad
ĠFin ally
Ġfig ure
Ġpredic ted
Ġalle vi
ĠAssoci ation
r id
t emperature
en cies
Ġw omen
Ġag es
Ġex cess
ĠH ospital
ĠW ater
ĠP sycholo
Ġem it
Ġun p
ip edia
Ġensure s
Ġhapp ens
Ġref lect
ĠPro gram
Ġconf idence
Ġopportun ity
Ġautom obile
ik ipedia
Ġenter pr
know n
Ġvide o
Ġorig inal
Ġincor por
ĠSim ilar
Ġresident s
ĠSuper critical
ĠMain tenance
ĠSept ember
f ra
p o
r s
s ive
Ġt en
Ġp um
Ġf lu
Ġf lex
Ġin ert
Ġm us
Ġg ot
Ġfor get
Ġde l
Ġit em
Ġnot hing
ĠH ousing
Ġse arch
Ġwork er
Ġlo ved
ĠW il
Ġadv ances
Ġworld wide
Ġpart ial
Ġco oled
ĠCh an
Ġsec ret
ĠGen eral
Ġke pt
ĠUn der
Ġmin or
Ġass um
Ġexperi ences
Ġargu ments
Ġaccount s
Ġadop ted
Ġdoct or
Ġdecid ed
wh ile
ĠSum mer
C T
m ing
o od
p a
s ide
y n
Ġp ict
ce ed
ut es
uc k
ĠS k
ĠA r
Ġsh aring
em ic
Ġ1 7
Ġgener ally
Ġcar ing
Ġtr ou
ĠSt at
Ġaltern atives
Ġdeal ing
Ġhim self
Ġapplic ations
Ġchar acter
Ġpros per
Ġmot iv
Ġbreak through
Ġchip s
Ġcontrovers ial
Ġstreng th
s he
v is
Ġs oph
or g
Ġm ess
Ġg e
Ġl ay
Ġl ine
ort s
Ġso le
est ic
ens ion
Ġfe ed
Ġemploy er
Ġconst rain
Ġcl imate
Ġcap ability
Ġ199 8
Ġsc reen
Ġaccess ibility
Ġplay ed
Ġ8 0
Ġdisclo sure
Ġheav ily
Ġcontinu ous
ĠComm un
ĠComp ared
Ġimplant ed
Ġpoin ts
Ġfacilit ate
Ġatmosp here
Ġobstac les
c ar
he st
Ġc ate
Ġb io
ĠI d
ĠA sian
Ġsh ift
ap s
ĠIn de
Ġv ast
Ġout come
Ġany one
Ġro ot
Ġsk illed
Ġserious ly
Ġconsider ations
Ġpres ence
ish ing
Ġpass ed
Ġpass ive
Ġevent s
Ġback ground
Ġsal es
Ġsustain ability
Ġpens ions
ĠIntern et
Ġroad s
Ġunemploy ment
ht m
Ġrat io
Ġprim ary
Ġcour se
Ġdilem ma
m any
s ory
Ġ ver
Ġb ase
Ġre ject
ul sory
Ġst im
em pt
ĠB u
Ġint r
Ġpopulation s
Ġac ross
Ġide al
Ġexperi ments
Ġdifficult y
Ġdeterm ined
Ġinterest s
Ġaccept ed
Ġinflu enced
ĠAct ually
ĠAmeric an
Ġinteract ion
Ġcust omers
Ġdisast ers
ĠFried land
i able
Ġ !
Ġ Ã
Ġh ours
lo ad
ill ing
Ġen s
ĠThe ir
Ġhe ad
Ġwith stand
Ġlo ts
vent ion
Ġresearch ing
Ġser ies
Ġrequ esting
Ġamount s
Ġac qu
Ġhig hest
Ġconsid ering
Ġreal ity
Ġgu id
Ġrele ase
Ġincident s
Ġdiscus sed
Ġste am
Ġcou ples
Ġdest ruct
Ġmic row
Ġgather ing
Ġenabl es
Ġtour ism
ĠKore a
ĠGer many
min ist
N A
a ur
j ust
Ġ i
Ġa fra
Ġre pl
Ġcomp ulsory
Ġsupport s
red it
Ġchan ged
Ġpay ing
Ġrem ind
Ġoccur ring
Ġsc ar
Ġbig ger
Ġadop t
Ġprofessional s
Ġtas k
ĠSurve illance
Ġshr inking
ĠRob ert
Ġbom b
ĠEm ploy
ĠSimilar ly
Ġsoph istic
Ġafra id
c ra
h ield
Ġs end
at form
Ġb esides
al u
ent y
op ulation
ay ing
ĠA ust
ra ine
ĠH y
ff ect
ĠC an
Ġpl atform
od ay
ĠSingapore an
ric t
ĠU k
ĠOn ce
Ġemploy ee
Ġhand le
Ġoff icial
Ġcertain ly
Ġcho ices
Ġ199 0
Ġsimilar ities
Ġcomput ers
Ġaim s
Ġcat ast
Ġweak ness
Ġexpos ed
Ġmic ro
Ġestabl ished
Ġvol unt
ĠPr ime
ĠAg ency
Ġinade quate
Ġmicrow ave
Ġsophistic ated
a id
re li
Ġd ut
Ġh ot
Ġh ope
act ivity
Ġsh op
Ġwor s
ĠG M
ĠP ower
Ġexp ress
ĠE conom
Ġpr one
Ġeducation al
Ġless en
Ġperson nel
Ġrequire ment
Ġext end
Ġtem por
Ġcontin ues
Ġput ting
Ġent ertain
Ġ199 6
Ġminim al
Ġdist ance
Ġidentif ied
Ġcarry ing
Ġintern ational
Ġobject ive
Ġdeb ate
Ġdra w
ugh t
Ġincur red
Ġbehav ior
Ġcriter ia
u x
y es
Ġt urb
Ġd ict
ĠT oday
Ġas k
ĠH aving
ĠG as
Ġconc ent
Ġlif t
ag n
Ġoper ates
Ġdep ression
Ġdef ence
Ġgr ound
Ġequ ally
Ġintro duce
pro duct
Ġclo sed
Ġadd ed
Ġair cra
ĠY et
Ġcam pa
ĠBe ing
ĠDes ign
Ġpromot ing
Ġcover age
Ġmonth s
Ġblo ck
Ġcommercial ization
Ġden y
Ġinj ur
Ġtremend ous
sp ring
Ġcomplic ated
Ġimplic ations
ĠUk raine
Ġcampa ign
c re
g u
h one
m ission
t inent
Ġs ell
Ġc oun
Ġp ain
Ġw rit
Ġm other
Ġre d
lo ok
Ġl ist
ol ution
ĠS outh
Ġwor ried
Ġr ul
ĠP l
Ġpower ful
Ġpr in
Ġact ual
Ġatt empt
Ġext ensive
Ġmem ber
Ġinfrast ructures
Ġkeep ing
Ġhard ly
Ġsc en
Ġminim um
Ġpartic ip
Ġpric es
Ġwheel s
Ġrele ased
Ġupgra de
Ġschool s
Ġmo ving
ĠEurope an
Ġfa ult
Ġname ly
Ġwon der
Ġurg ent
e c
Ġp an
at he
Ġb ed
Ġd rain
Ġd rop
Ġg re
Ġde em
Ġen erg
um st
ĠM O
Ġma gn
Ġman power
ĠE lect
Ġcons ent
Ġj o
Ġph ot
Ġcr imes
Ġdet ail
Ġbel ong
Ġcontrol led
Ġview s
Ġbus es
ix ed
ĠUS A
Ġmedic ation
Ġreact ions
Ġdou ble
Ġment ally
Ġconver t
af ety
Ġpe ace
Ġcirc umst
Ġanalyz ing
Ġrep res
ĠAge ing
ĠInde ed
1 0
a h
c omm
n ap
er ate
ĠT an
Ġl ate
ĠS pe
ĠA pr
ac ed
ĠM C
Ġcomp r
ĠB oth
ĠB rit
Ġfin ance
Ġexp ense
Ġhigh light
Ġme ant
Ġper tinent
Ġbur n
Ġcre ation
Ġ6 2
Ġoff spring
ĠAcc ident
Ġmon etary
Ġradio activity
Ġdeterm in
Ġreli ance
Ġsuper critical
Ġoppos ing
Ġhouse hold
Ġdra mat
Ġvi able
Ġhind er
Ġult imately
Ġpurch ase
Ġunc ertain
Ġenterpr ises
ĠWil pert
Ġsole ly
Ġens uring
Ġentertain ment
T he
a x
i ar
Ġ X
Ġ Z
Ġb i
Ġm illions
Ġd rast
ro y
Ġh op
ver t
ac r
Ġpre m
Ġ1 6
ĠP ost
Ġexp lain
ie ving
Ġfam ous
Ġme chan
Ġra w
Ġmost ly
ĠU p
Ġgo al
ĠRe cent
Ġass ess
Ġappro xim
Ġappro aches
ĠSo ci
ĠJapan ese
Ġstrong er
Ġstate ment
Ġdiscrimin ated
Ġregard less
Ġnear ly
Ġalloc ate
Ġmove ment
Ġmove ments
iqu es
uth or
Ġprec ise
Ġexpos ure
Ġsurv ive
Ġcult ure
Ġexce ll
Ġguarant ee
Ġaccum ulate
Ġvirt ual
ĠAust ral
f e
h igh
o oth
Ġ =
Ġo ption
Ġp ose
Ġp owered
Ġm id
Ġh ar
Ġl on
Ġst ations
Ġne ut
Ġso ft
Ġim age
igh ter
Ġad just
Ġle aving
Ġcons ult
Ġra il
ĠIt s
Ġsur pr
Ġqu al
Ġcontribut es
Ġdepend ing
Ġgood s
Ġmarket ing
lob al
Ġfocus ed
Ġsen iors
Ġconsider able
Ġhard er
Ġoccur s
Ġproper ty
isc rimin
Ġprol ong
Ġobtain ed
Ġkid nap
Ġesc ap
Ġaccommod ate
ĠTr ans
ĠStat istics
ĠApr il
l ation
u ct
w ater
re es
er o
Ġs i
Ġc al
Ġc ities
Ġf low
al t
Ġd ed
Ġe yes
Ġfor ces
Ġcon v
ĠS afety
if ically
Ġch ain
Ġad apt
Ġint ended
Ġ1 4
ĠP olic
Ġlif es
Ġdisc oura
port s
Ġfactor ies
Ġac ad
Ġinvest ors
Ġdef ic
Ġext ended
Ġins ide
Ġref ers
Ġ5 5
Ġcreat es
Ġfeel ing
stand ing
Ġev alu
Ġtechn iques
Ġreli ability
ĠNew s
Ġremain s
Ġden ied
Ġrelationship s
Ġsociet ies
s h
Ġ z
he ad
en g
Ġs acr
Ġp aper
Ġf atal
Ġd ow
ly ing
Ġg l
Ġde ad
ĠI m
nt urn
Ġwor ries
ĠH aw
bl es
Ġwork ed
ĠB ased
ight s
ĠN ext
Ġar ising
Ġover se
Ġbu y
Ġapp re
gra ding
Ġdem ographic
Ġgr ant
Ġinter vention
air s
Ġwant s
Ġminim ized
Ġdan gers
Ġrecogn ized
Ġconnect ed
Ġvir us
Ġsurv ival
Ġresist ant
Ġsym pt
Ġdut y
Ġsoft ware
Ġsacr ific
Ġdow nturn
ĠHaw k
b ased
x ic
Ġt ap
Ġt ri
Ġt ried
Ġc a
at ically
it ably
Ġf if
Ġf ra
Ġin put
Ġm om
Ġh ire
Ġis ol
Ġwh om
ĠS er
ĠA f
el si
Ġex ec
Ġ2 5
Ġr ich
ĠC elsi
ac es
Ġdes ire
Ġab undant
ĠG lobal
ĠP opulation
Ġk il
ĠO b
Ġmed ian
Ġun ique
Ġsur face
Ġtr ust
Ġimpro ves
Ġgo ld
Ġact ivity
Ġinform ed
Ġund es
Ġpat h
Ġemploy ed
Ġ3 3
Ġreg ards
Ġoff ered
ĠReactor s
Ġthreat s
Ġtop ic
Ġrefriger ators
200 9
Ġ197 0
Ġdeple ting
Ġdiagno sed
Ġmar ried
Ġelimin ate
Ġpace mak
Ġprototy pe
Ġwal k
ĠCommun ity
Ġcoun sel
ĠCelsi us
d om
e ch
h aus
n ers
o ff
p ers
s c
Ġt ill
re qu
Ġs ent
Ġp arent
Ġp ark
Ġw ish
Ġan tic
ĠT imes
ĠT ake
Ġfor ced
Ġwor d
ĠH el
ĠIn nov
Ġdes irable
Ġwork place
Ġab use
Ġprocess ing
Ġwho se
ĠE s
Ġtra de
ag ers
Ġsur gical
Ġfund a
Ġfund ed
Ġover look
Ġ19 6
Ġenviron ments
Ġdi ed
Ġensure d
Ġopp ose
Ġsafe ly
Ġbel ief
Ġident ity
Ġturn ed
Ġform er
res pon
Ġ7 0
Ġimpl ies
Ġutil ize
Ġutil ized
Ġbarri ers
Ġbl ind
Ġsw it
Ġsociet al
Ġpossib ly
Ġlaun ch
Ġacad emic
e ye
is ation
Ġto uch
ed eral
Ġd ig
il ing
ment ia
ig ence
Ġde ep
Ġag ent
ol ute
Ġte ach
Ġres erves
Ġr an
ĠTh ose
ĠM olten
Ġad vert
Ġcons ist
Ġcons ists
ĠD NA
ĠL abor
Ġ19 4
Ġ19 5
Ġoper ated
Ġatt rib
Ġdi ab
Ġhand ic
Ġequ al
Ġ199 7
Ġpress ing
Ġill ust
Ġcent res
ish ield
Ġexist ence
ib r
Ġtal ent
ĠMSR s
Ġtyp ical
Ġcomb ust
Ġtele vision
Ġfall ing
af e
Ġdest roy
Ġproced ure
Ġunf air
Ġleak age
Ġpossib ilities
Ġdecl ining
ĠTw o
Ġabandon ed
ĠÃ Ĥ
iscrimin ation
Ġmom ent
ĠAf ric
U S
b ilities
c les
Ġc ity
or b
Ġto ugh
Ġm and
Ġm ature
Ġan x
al y
Ġe lements
Ġth or
Ġg one
Ġl ies
ur ning
Ġex haus
ad get
Ġr out
Ġcomp onents
od ies
Ġ1 2
ĠP er
Ġexp ans
ĠD r
Ġund en
ber g
tern al
Ġbring ing
Ġbudget s
Ġtell ing
Ġprof its
Ġfl at
Ġlaptop s
Ġidentif ying
Ġinterest ed
Ġsum m
ĠNew ater
Ġport able
Ġautom atically
Ġadop tion
Ġconver sion
Ġcou ple
Ġann ual
Ġanalyz e
Ġrestric ted
Ġtas ks
Ġresol ve
Ġappear ance
Ġsus cept
Ġconfidential ity
Ġdrug s
ffect ive
Ġapproxim ately
Ġantic ip
d o
r is
Ġa head
Ġthe ory
Ġd ream
ar in
Ġnot e
Ġst rict
ra d
actor s
ĠM ay
ĠM ac
ĠM RT
Ġlo ad
Ġdo cu
ient s
Ġar t
Ġun w
Ġper ce
ĠU r
Ġpos es
dition ally
Ġapp e
ĠOn ly
Ġoper ations
ĠCh ildren
Ġinvent ing
Ġhand s
Ġpo ol
ĠUn like
Ġcl in
Ġglob ally
Ġsay ing
Ġconstruct ing
Ġcor rup
Ġdist urb
Ġsuper ior
Ġbab ies
Ġquest ions
Ġcat ch
Ġinev itably
Ġpetro l
Ġdeg rees
Ġauthor ities
Ġintegr ated
Ġabs olute
Ġexerc ise
Ġlaun ched
ĠNor th
Ġsurround ing
Ġnut she
Ġcate g
Ġrul es
Ġcircumst ances
Ġexcell ent
Ġnutshe ll
Y S
d den
Ġs qu
Ġw is
Ġw id
an while
lo gical
Ġg adget
Ġsu dden
ĠS en
Ġ2 4
Ġy ield
Ġcont ract
ĠP h
ud es
ud ed
ĠO ur
ĠD o
Ġqu ant
Ġevery thing
Ġtrans l
Ġshow ing
Ġass ets
rain ing
Ġcompet e
unct ion
Ġest ates
Ġprior ities
Ġnor m
Ġactive ly
Ġshap ing
Ġel se
Ġoppos ite
Ġsuggest s
Ġrespect ively
ĠMe anwhile
Ġinitial ly
Ġmist ake
Ġdiagno sis
Ġselect ing
Ġann oun
Ġpsycholog ists
Ġleg al
ici ans
Ġallevi ate
Ġenerg ies
ĠMC YS
Ġlifes p
Ġdiab et
Ġexpans ion
a z
c ast
o h
r ated
Ġt ank
in ary
Ġp ubl
it an
it ter
Ġre cess
Ġbe low
ĠI T
ĠS od
el lect
Ġte ac
Ġwe bs
Ġr ig
ĠM iz
ast ic
Ġat omic
ĠP enn
Ġpol it
Ġup d
Ġar ises
Ġra m
Ġra ises
Ġadv ice
ĠGen er
Ġgr aying
Ġcre w
Ġsm art
ĠSt ud
Ġass et
Ġ4 5
Ġprotect ed
Ġresponsi bilities
Ġexplo re
Ġproper ties
Ġcompet it
Ġadvance ments
Ġreport s
unt ing
Ġaccept able
Ġalloc ation
Ġbusiness es
Ġdr iven
Ġsatisf ied
ĠSu b
.. .
Ġopt ions
Ġmet al
Ġrestric t
Ġmodel s
Ġpsycholog ist
Ġbon us
Ġencount er
Ġ201 2
ĠOr gan
Ġexcess ive
ĠPsycholo gy
Ġitem s
htm l
Ġshop ping
Ġdeem ed
Ġoverse as
Ġappre ci
Ġfif ty
Ġpacemak er
Ġhandic ap
Ġcombust ion
Ġlifesp an
ĠSod ium
a i
d le
g ment
v an
Ġo ven
Ġp ie
or ing
Ġb odies
ic ation
Ġn ight
Ġre in
ver sy
ĠT itan
Ġl uck
im b
Ġst re
Ġst rug
Ġex ternal
am ily
Ġor d
ĠH ow
Ġthere by
Ġeconom ies
ĠN US
Ġout side
Ġlimit s
ivid ed
Ġeduc ate
Ġaff lu
Ġrequ est
Ġevery day
Ġinf ring
Ġget s
Ġsub sequently
Ġreal ized
Ġcontro versy
Ġent it
Ġtrain ed
Ġrece iving
Ġconf irm
ĠMed ishield
go ing
ĠBe fore
Ġcentur ies
Ġsuggest ed
Ġpopular ity
Ġclose ly
Ġpar a
Ġmut ation
Ġpoin ted
Ġdecid ing
ug ust
Ġpreca utions
minist ration
Ġtempor ary
Ġrepres ent
ĠUp grading
ĠSoci ety
Ġdiabet es
ĠMiz og
Ġstrug g
C E
g ic
l van
Ġ ing
re p
Ġb ul
an ks
Ġf ixed
Ġre ached
st ers
ot ic
Ġen orm
Ġal ert
ĠS M
Ġst ation
Ġsh ared
Ġex ists
est ern
Ġwe e
Ġwe ight
ĠC ar
Ġcomp aring
ĠW i
all s
Ġun av
ru ly
uch i
Ġknow s
Ġadv oc
Ġany thing
Ġoper ational
sy lvan
Ġgr ants
Ġoff ers
Ġsee king
Ġcap abilities
Ġshort er
Ġinclud ed
Ġnecess arily
Ġvar iety
ĠPro duct
Ġdefin ing
Ġform ed
Ġer a
Ġtrack ed
Ġcor ro
ĠWor k
Ġserendip ity
Ġcrit ic
Ġdr ive
Ġreplace ment
Ġbehav i
Ġwise ly
Ġresist ance
Ġfour th
Ġtremend ously
ĠSci ent
ĠSci ence
ĠNor r
Ġhazard ous
Ġfav or
Ġpict ures
Ġbreakthrough s
requ ency
ĠUr anium
ellect ual
ĠPenn sylvan
ĠPennsylvan ia
0 9
1 1
A R
b rid
i et
m ed
u it
re hen
Ġs il
Ġw atch
Ġto ile
Ġl i
Ġl ie
Ġas sure
Ġde mentia
Ġsu it
Ġst ored
ĠA ugust
Ġex act
Ġus eless
Ġdis ag
ĠC ount
os en
os ition
out s
Ġv ision
Ġv ict
ĠR ad
ĠE d
Ġany where
Ġconcern ing
ĠJ une
Ġmem ory
Ġpotential ly
Ġrem ote
Ġdefin ition
Ġwant ed
Ġbig gest
Ġprep ar
ĠY outh
Ġfunct ional
Ġdr inking
Ġcomb ination
Ġcontinu ed
Ġfree ly
Ġrecogn ition
Ġmass ive
Ġnur ses
Ġvis it
Ġign ored
Ġobser ved
Ġwa iting
Ġmaxim ize
Ġdeli very
Ġsurge ons
Ġpurs ue
Ġaircra ft
Ġinjur ies
ĠRecent ly
Ġescap e
Ġfunda mental
Ġmand atory
ĠTitan ic
ĠMizog uchi
Ġenorm ous
Ġvict im
B M
I V
a u
a ho
y ear
Ġt iss
le g
Ġd ur
Ġd ie
Ġl ens
id eop
id ences
if ying
ĠA ccess
Ġ2 8
ap pro
Ġr u
ĠC o
ac king
ĠM oney
Ġdes c
ĠR ep
Ġgener ators
ĠO f
Ġbut ton
Ġwhen ever
Ġprov ision
Ġper ception
ric ult
Ġra ce
ru it
Ġinv as
Ġact s
Ġinst ant
Ġevery where
Ġinf ect
ĠJ an
ĠJ ust
Ġcit ation
Ġext ract
Ġplan ned
Ġprotect ing
Ġintro ducing
Ġpass en
Ġdirect ion
Ġev ol
Ġenh ancing
Ġslow er
Ġfollow ed
Ġclean er
ĠAd ditionally
Ġspec ifically
Ġchar ge
Ġdoub ts
Ġfrequ ency
olo gy
Ġmanufacture rs
Ġneighb our
ĠMan power
Ġdistrib ution
ĠSk unk
Ġconstrain ts
reli ance
Ġgold en
Ġundes irable
ĠAfric a
Ġnorm ally
ĠNorr gard
Ġdisag ree
W ater
h aps
u ly
he l
he rent
Ġs ays
Ġs ite
Ġp aid
Ġin ject
al d
ro l
Ġre b
Ġre form
ch ar
ĠA b
Ġsp l
ĠC l
ĠC or
Ġcomp rehen
ous es
ĠP ark
Ġsol id
Ġun iversity
Ġtra ged
ĠL imit
ĠL ead
Ġtr ig
Ġfinan ces
Ġco op
Ġprevent ive
Ġro les
Ġac ute
Ġemploy ability
ĠJ uly
Ġdem on
pon ents
Ġcommun ities
Ġmon it
Ġconsum ing
Ġcho os
Ġoccur rence
Ġinvol ving
Ġach ieving
Ġview ed
ron t
ĠMed i
Ġtend ency
Ġshe l
Ġaccept ance
Ġlight en
Ġshap e
Ġcomb ined
Ġbatter ies
Ġrecy cle
Ġtarget s
Ġfrequ ently
Ġinvestig ation
Ġapart ments
Ġaccur ate
Ġrecover y
Ġdefect s
Ġflaw s
Ġmotiv ation
Ġdestruct ion
ux ur
Ġprin ci
ĠElect ric
Ġdramat ically
ĠAustral ia
0 8
7 0
N G
k en
r ous
Ġt ruly
re te
Ġs l
Ġc e
ing ly
ing dom
Ġb ra
Ġd ate
ce ler
Ġl iqu
ĠI ss
Ġsu c
ĠS m
ĠS w
Ġst ri
Ġhe ar
if und
Ġ2 6
ĠH unting
Ġdevelop s
Ġsp ouse
Ġwe b
ĠC CT
ĠC NG
ri ef
Ġse a
ĠP at
ĠN ic
Ġconc rete
ĠL e
ef ul
Ġsur f
Ġed ge
Ġser ves
Ġgrow n
Ġprevent s
Ġ3 1
Ġ3 5
Ġdepend ence
ĠRe g
Ġsafe gu
Ġmeet ing
Ġ4 00
Ġproject ed
Ġpass ing
Ġexplo it
Ġexplo ded
Ġgu ide
hip s
Ġpoll ut
Ġupgra ded
Ġalloc ating
Ġdisadvant age
ĠSu pp
Ġwilling ness
Ġmis use
Ġnews p
Ġelimin ated
att ers
Ġinj ured
ĠTw itter
Ġdom in
Ġarchitect ure
Ġcorpor ations
Ġchat ting
Ġflex ible
ĠChan nel
Ġcharacter istics
ĠId aho
Ġpark s
ĠLabor atory
Ġunav oid
Ġliqu id
ĠCCT V
T h
c il
d ra
r active
t hen
in ct
er ved
Ġc redit
Ġw ent
Ġd ivided
Ġl uxur
st orm
ĠS ports
un g
Ġwor st
ĠM ot
ĠM ich
and s
Ġat tain
ough t
ĠW ell
Ġhelp ful
Ġint ention
for ced
Ġfam ine
Ġper mission
ĠL aur
Ġdec ade
Ġdiff er
Ġgrow s
Ġear ned
ĠUn ion
ĠK ingdom
ĠAcc ount
ĠSt ra
Ġnecess ity
Ġstart s
Ġoblig ed
Ġlook ed
ict ion
vious ly
Ġban k
Ġcall s
Ġread ily
Ġaddress ed
Ġdeb ates
Ġrecyc led
Ġleg is
Ġprefer red
Ġgam es
Ġturb ine
Ġsell ing
Ġprem ium
Ġconv in
Ġrecess ion
ĠLaur a
C A
C D
a el
f ortunately
h ow
i ver
p es
s ions
v ation
Ġthe ories
en cing
Ġc as
Ġp ip
Ġp ack
Ġw om
Ġto ld
Ġf elt
Ġre pe
ĠT ra
Ġal arm
Ġag encies
Ġag ricult
Ġst ick
ra ph
Ġsh ar
Ġsh all
Ġex cl
Ġso ld
Ġres idential
ĠC al
ac ing
ri e
Ġman ner
Ġcont ent
Ġint ellectual
ĠP enicillin
ĠN ations
ie ves
ĠE lders
Ġun known
Ġeduc ating
Ġgo als
Ġro om
Ġinvent ors
Ġhand ling
Ġgr and
Ġear ning
ĠUn fortunately
Ġhapp y
Ġ20 20
Ġmin ing
Ġmon op
Ġsubsid ized
Ġbo ok
Ġsimilar ity
Ġfol ks
Ġ7 5
Ġinterest ing
ĠCent re
ĠAt omic
Ġcontinu ously
Ġworry ing
ne y
Ġopin ions
Ġutil ization
Ġdeple tion
Ġcrimin al
Ġcommit ted
Ġindic ates
ĠPr iv
Ġcust om
Ġhundred s
Ġdisast rous
Ġuns afe
ĠApp le
ĠProgram me
Ġdel ay
Ġlay er
ĠBu ild
Ġcatast rop
Ġphot os
Ġsympt oms
Ġanx iety
ĠSen ior
Ġram ps
ĠRad io
ideop hone
Ġspl it
Ġdemon st
Ġsuc ceed
ĠHunting ton
Ġunavoid able
A S
d rom
r ons
w ikipedia
Ġt able
re w
Ġc ur
Ġc ra
Ġc urb
Ġw it
ed uc
Ġm igr
le y
ic ed
Ġbe gan
et ically
ĠI phone
Ġnot ice
Ġsh o
Ġsh if
ĠIn cre
lear ly
Ġinc on
Ġinc ap
ĠC learly
con t
Ġlo sing
ĠG iven
Ġrel uct
Ġun st
Ġra in
ag er
Ġexam ination
Ġapp li
Ġinform ing
Ġfinan cing
Ġatt end
Ġlar gest
pl ed
Ġstud ent
Ġown ers
ĠSt ate
Ġrun s
Ġref use
Ġappro ved
Ġthough ts
Ġstand s
Ġstart ing
Ġfore most
Ġloc ate
Ġpract ices
Ġstress ful
ĠTechnolo gies
com ing
ĠHealth care
Ġread y
ĠComp any
Ġfall s
Ġemphas ize
Ġpros pect
Ġspread ing
Ġrev iew
Ġchannel ed
Ġmaxim um
Ġunemploy ed
Ġbon ding
ĠSp ending
Ġarchitect ural
ĠCons id
ĠHy drogen
Ġscen ar
Ġz ero
Ġannoun ced
Ġpubl ished
ĠCount ries
- -
a uthor
e b
e gr
i ant
i ary
o ly
p read
r ition
u ary
w ik
Ġ vers
Ġt urning
on ent
Ġp en
Ġp ure
Ġp ad
Ġp ick
Ġw ides
Ġf ire
Ġf arm
Ġf irm
Ġm al
Ġm atters
Ġre pos
Ġre ward
ch ip
Ġon to
Ġfor t
Ġde ploy
Ġcon ce
Ġst ro
Ġst em
Ġex c
Ġ2 3
ĠIn v
Ġdis abilities
Ġch osen
ĠM ass
Ġman aged
Ġmay be
our n
Ġ1 3
ĠE V
Ġper man
ĠD a
ĠD om
ĠD ay
ĠL et
ĠL TA
ĠU sing
ob iles
ific ial
ific ations
che de
Ġdi et
Ġpo ly
Ġsk in
Ġface book
Ġfocus es
Ġfast est
Ġcent re
Ġscient ist
Ġplay ing
ĠMed ical
Ġ198 0
go v
Ġenjo ying
Ġdr iving
Ġnetwor ks
Ġrecogn ize
Ġprevious ly
Ġauthor ity
vi et
Ġwheelchair s
Ġign ore
Ġeng age
Ġguarant eed
Ġcop y
ĠII I
Ġsurround ings
Ġpus h
ĠLo ong
Ġdev ast
Ġinstit utions
Ġmess age
Ġwors en
Ġcampaign s
Ġhighlight ed
Ġdrast ically
ĠEs chede
Ġswit ch
Ġdig ital
Ġquant ity
Ġinvas ion
ĠNic oll
Ġwit ness
wik i
Ġwides pread
5 2
A E
A N
a gine
d ens
e fficient
n am
w ing
Ġ il
on om
er ated
Ġs light
Ġp le
Ġp ul
Ġw estern
Ġf ederal
Ġin herent
Ġd ire
Ġh our
Ġn av
ch ange
ĠT aking
Ġl ik
Ġl eng
Ġha b
Ġhe ld
Ġwith dra
am ed
Ġte xt
Ġ2 2
Ġim aging
Ġim agine
pp ing
Ġsp ot
ĠC reat
os ed
Ġcomp elled
Ġpre cious
ĠB ar
Ġv o
Ġk ill
ren ew
ĠO ffic
Ġar ms
Ġun ivers
Ġcare er
ĠU s
Ġlow ering
Ġpat tern
Ġro ds
ĠAn g
Ġbur dens
ck ed
Ġdet ri
Ġsign s
Ġcl imb
Ġneg l
Ġrem ember
Ġappro val
Ġkeep s
Ġtrain s
wor k
Ġamong st
Ġbo omers
ĠMed ifund
res h
Ġtal king
Ġslow ing
Ġinflu ences
Ġreach ing
Ġintern al
Ġindepend ently
ĠCon t
Ġtravel ling
200 7
Ġrely ing
Ġhamper ing
ĠHigh way
Ġgain ed
Ġhaz ards
Ġresol ved
Ġvol um
Ġentire ly
Ġwa ves
Ġexerc ises
yn drom
Ġvolunt ary
agn etic
Ġmid dle
Ġneut rons
Ġunden iable
Ġsuscept ible
Ġord inary
ĠScient ists
Ġincon ven
Ġunst able
C FR
S hield
a ut
g one
h ard
n y
p ass
r un
r ich
r um
w hel
Ġ Q
in ate
re ly
er v
er ted
Ġs lop
Ġc ross
es sel
Ġw at
it ro
Ġb acter
Ġm en
le t
Ġd ign
ic ian
ro ph
Ġe lement
Ġh om
il ed
Ġg ave
Ġpro ceed
id ing
ot t
ĠS alt
Ġst ructures
if ies
el ong
Ġex cept
ĠH si
Ġsp orts
um b
Ġdis pl
Ġres ort
ĠF ortunately
ĠC ol
ĠC oun
ĠM r
ĠM arch
Ġsa ke
ĠW ikipedia
Ġab ilities
ire less
ĠR us
Ġint ell
Ġresear ched
Ġun less
Ġun author
ĠL WR
Ġsupport ers
Ġover he
Ġpr ison
Ġinst ru
Ġtechnolog ically
Ġevery body
Ġtw enty
Ġac celer
Ġdep r
Ġdep ress
ck et
Ġdef ine
Ġstud ying
Ġspe cially
Ġcap t
Ġ5 00
Ġconstruct ed
ĠSo viet
Ġcent er
de velopment
Ġprof itable
Ġconsequ ently
Ġconf lic
ator ies
Ġcomple ted
Ġtend s
Ġtechn ique
Ġreli ant
Ġbre ast
Ġdisclo sed
Ġprogram me
Ġremain ing
ĠFund s
Ġundergo ing
Ġinher it
Ġconnect ion
ĠMe h
Ġsevere ly
Ġdeple ted
Ġimpos ed
Ġsimpl ified
Ġobvious ly
ins on
Ġdom estic
Ġwal king
Ġesc al
mit ted
Ġmeaning ful
po x
Ġtrou ble
ĠCan ad
Ġparticip ate
ĠBrit ain
Ġsi xt
Ġded ic
Ġgadget s
Ġteac hers
ĠGener ally
Ġhandicap ped
ĠJan uary
ĠPark inson
eful ly
Ġdign ity
ĠHsi en
E CD
c ity
e ur
f ts
h ab
l ife
re ed
er ative
Ġo x
Ġc ours
Ġto xic
le ming
ic y
Ġh ur
ve red
ĠT V
ul ating
Ġnot es
Ġnot ed
Ġst ead
el i
el iness
am es
Ġim ag
ĠF leming
chnolo gy
Ġinc omes
Ġch air
Ġsa ves
Ġint ensive
ĠG ross
ĠO ECD
Ġrel ief
Ġam en
Ġdec ay
Ġpos ed
Ġbu ff
Ġinnov ators
Ġno body
Ġunder t
Ġpat ents
Ġreg ion
Ġreg ions
Ġfind s
ffic iency
Ġsm ooth
Ġref er
Ġrem ove
Ġconsum ed
ĠPro ject
Ġ199 4
Ġcor respon
Ġclo ser
Ġdecre ases
Ġorgan is
Ġair port
Ġregard ed
Ġstress es
Ġdr ink
Ġlit er
ĠAd vis
Ġther m
Ġwar ning
Ġinher iting
employ ment
Ġrev olution
Ġfrequ ent
Ġindic ated
Ġabs orb
Ġiniti atives
Ġbrain storm
ĠCons um
omet ric
Ġguid el
Ġweakness es
Ġconcent rate
Ġart ificial
Ġstre ets
Ġentit led
Ġmonit ored
ĠMich ael
ĠPriv acy
Ġappli ances
ĠConsid ering
renew able
Ġcours es
ĠAdvis ory
1 9
b and
c omes
i os
m or
p ic
r an
w ards
Â °
er ce
Ġw ars
Ġw ireless
it es
an o
Ġan im
Ġe ight
Ġh it
Ġpro hib
Ġl acking
ĠI BM
op ia
Ġen force
Ġst y
Ġst ra
if orn
Ġcan d
Ġsh ip
Ġte en
velop ed
eop ard
ĠIn f
Ġimp art
Ġsp ect
um p
Ġdis char
ĠF amily
per cus
ough ly
Ġdes al
Ġcomp lain
Ġlo op
ĠB ern
Ġv essel
Ġgener ates
ĠG IN
ĠG CFR
ĠP ress
ens us
Ġnew ly
Ġrel ieve
ab y
ag raph
ĠL ike
ĠU K
iff e
Ġj eopard
ound s
Ġover whel
ia one
Ġpart ly
Ġco gn
Ġco vered
Ġatt ractive
che m
Ġunder ground
Ġunder gone
ĠAn y
Ġspe aking
Ġprovid ers
Ġrespon d
Ġhy dro
Ġhy brid
Ġhospital ization
Ġinter fe
Ġsc an
Ġoblig ations
Ġbo om
Ġval id
Ġloc ated
Ġslow ly
Ġautom obiles
Ġdetect ed
Ġcomb at
Ġindepend ence
Ġnetwor king
Ġemot ionally
Ġpar ad
Ġlabor atories
Ġselect ed
Ġmar gin
Ġant ib
Ġcult iv
Ġbro ken
Ġfig ures
Ġiniti ated
Ġprototy pes
Ġlink ed
Ġunlike ly
Ġnut rition
Ġaccur acy
Ġtransfer red
Ġremo ved
Ġcomprom ise
Ġcomprom ised
Ġcorpor ate
Ġjud ge
Ġviol ation
des ign
Ġassum e
Ġtrou bles
Ġfeed back
Ġmicro chip
Ġpan els
Ġlon eliness
Ġattrib uted
Ġafflu ent
Ġcomprehen sive
Ġwom an
Ġpad s
Ġdetri mental
yndrom e
ĠCoun cil
ĠRus sia
Ġsixt y
iforn ia
ĠGIN A
a ment
a ves
i ably
n et
p ay
u per
he alth
in c
Ġthe ft
Ġc ards
Ġp ill
Ġp ra
Ġb icy
Ġf at
Ġin sure
Ġm atch
Ġe ye
Ġh iring
Ġre percus
Ġl one
Ġon going
ig ation
Ġcon ve
ul a
Ġst airs
act ion
ra int
Ġex chan
Ġex change
Ġimp ose
Ġgen etically
ri age
Ġad ding
ĠW here
Ġv ideophone
Ġta ught
ĠG reen
ĠP re
Ġk illed
ĠE vent
Ġnew er
Ġsupp osed
ab il
Ġun b
Ġper haps
Ġpolic e
ĠD ef
ruct ural
pe red
Ġconcl uded
Ġgreat est
Ġsk ill
Ġins ist
less ness
Ġpay out
Ġplan es
Ġmeet s
Ġ199 5
te red
ortun ate
Ġsal ts
ron ary
Ġplay er
Ġest ate
Ġmind s
Ġclaim s
Ġsecond s
Ġfear s
ĠAd v
ĠComm ission
Ġwar f
Ġcou pled
Ġpar agraph
Ġunf ortunate
Ġcult ural
ane ously
Ġemb ed
Ġshut down
Ġregular ly
Ġincorpor ated
Ġscar city
Ġdict ronary
Ġcal c
ĠPolic ies
Ġsacrific e
Ġteach ing
Ġwid er
Ġcompetit iveness
ĠOrgan ization
Ġpie ce
Ġtoile ts
Ġdesc rib
ĠStra its
Ġincap able
Ġil leg
Ġlik eli
Ġvolum e
Ġamen ities
Ġlikeli hood
F A
L C
T here
T emperature
e in
m y
v ity
Ġt um
Ġa st
Ġthe ore
on y
on ym
Ġs ides
Ġc ents
at tle
Ġw in
it iz
Ġb rief
Ġf al
Ġm it
Ġd ry
Ġre ct
Ġre put
il s
us ing
ig ent
Ġcon gest
ĠI CE
Ġag gress
ra p
ge vity
Ġsp ite
Ġwe igh
ĠF eb
ĠC A
Ġgovernment al
ĠM W
Ġpl ag
Ġcomp ens
Ġdesign er
ĠB ell
Ġv ary
Ġgener ator
ĠN et
ĠN ond
Ġk illing
Ġrel ating
Ġout standing
Ġout comes
Ġun l
Ġun re
Ġfe e
ĠL ong
Ġapp arent
Ġinnov ate
Ġelect rom
Ġbenefit ed
Ġ19 50
Ġoper ator
Ġtw ice
Ġwhere ab
Ġav iation
Ġprom inent
Ġcontrol ling
Ġlook s
ĠHe re
Ġsuff ered
Ġavail ability
Ġdirect ed
ĠInt er
Ġdecre ased
Ġtal ented
Ġ7 00
ĠInd ust
Ġstress ed
Ġthreat ening
ĠTechnolo gical
Ġine x
Ġine ffective
Ġsecond ary
Ġconduct or
Ġautom atic
Ġdiscus sion
ĠAmeric ans
Ġlifesty les
Ġteam s
Ġtarget ed
Ġobject s
Ġinstall ing
Ġcoll abor
Ġcol le
Ġlabor atory
Ġbal anced
ĠFin ance
Ġcontain ed
Ġhold s
Ġhold ing
ĠEx p
Ġobser ve
Ġfulfill ing
Ġcontrovers ies
Ġinvolve ment
Ġcop ing
Ġir re
Ġremo val
lies t
Ġpreca ution
Ġunp re
Ġpum ped
Ġminor ity
ĠId ent
Ġacqu ire
Ġofficial s
Ġvolunt e
ĠEconom ic
Ġgre ying
Ġcompr ises
ĠX iaone
Ġsurpr ising
Ġkidnap ping
ĠTrans port
ĠOb viously
Ġadvert ise
Ġdocu ment
Ġperce ived
Ġclin ical
Ġcorrup tion
Ġwebs ite
Ġassure d
ĠAccess ibility
Ġextract ed
Ġnewsp aper
Ġcas ual
ĠCal ifornia
ĠElders hield
Ġdevast ating
roph ic
Ġguidel ines
Ġdesal ination
Ġlone ly
Ġfal se
ĠNond iscrimination
ĠXiaone i
2 5
8 4
b an
i ro
m en
m edi
r ay
t op
Ġ ice
Ġt ons
Ġa il
Ġs ight
Ġw ave
Ġb ill
Ġf un
Ġf ell
Ġf usion
Ġm alf
Ġre n
Ġg athe
Ġpro ponents
Ġl ighter
st ruct
se e
Ġus ual
est ed
Ġsp aces
ĠC ertain
ri ble
ĠM od
qu ately
Ġse gment
Ġpl enty
Ġdes k
Ġdes erve
con s
Ġcomp onent
Ġlo ve
ĠB udget
ĠR ather
ard ed
ĠP res
ĠN e
Ġexp l
ren eur
ĠO ld
ient ed
Ġcar ries
ĠD O
Ġaccident ally
Ġinv ad
Ġret raining
Ġinf lation
Ġsign als
Ġoff ice
ĠK e
Ġ20 52
Ġneg atively
Ġpay ment
Ġconsum e
Ġdiscover ing
Ġpress ures
te ch
Ġfail s
Ġcent ers
Ġpres ident
Ġcool ants
Ġchallen ging
Ġaltern ate
ĠMed ic
Ġtow ard
Ġforeign ers
Ġachieve ments
Ġoppos ed
Ġsubst ances
ĠComp aring
Ġrespect ive
Ġoutweigh s
Ġyouth s
Ġeng ines
Ġexce ed
ĠEvery one
Ġrecord ed
Ġcollect ed
Ġpus hed
ĠLo oking
Ġsurge on
mak ers
Ġmess ages
comm un
ĠSer vice
Ġ196 0
rep reneur
Ġvictim s
Ġneighbour hood
Ġtraged y
Ġcoop eration
ĠIss ues
Ġlegis lation
educ ated
ĠDom estic
Ġwitness ed
Ġnegl igence
Ġdedic ated
Ġimag ination
Ġcorrespon ding
ĠEvent ually
Ġwhereab outs
medi ate
Ġail ments
Ġgathe red
S D
g ans
g mat
i at
l man
p olic
s berg
t ect
t iary
v as
Ġt ight
re ak
Ġb attle
Ġd er
Ġd ri
Ġd yn
Ġre ap
il ight
Ġpro p
ot o
ot s
ur ong
ut ers
Ġde af
Ġag reed
ol en
Ġst olen
Ġhe redit
am m
am ic
Ġor gans
ĠH ar
Ġimp air
Ġwe ather
Ġr ic
Ġr ank
ĠM on
ĠM ic
and er
Ġad ap
Ġdes ired
Ġspend s
ĠB aby
Ġcont am
ĠR et
ĠG e
Ġacc omp
Ġsome how
Ġcons cious
Ġcons erv
Ġcare g
Ġcare lessness
ĠV iet
ru ary
ĠFor sberg
ĠL i
ĠL aw
ĠL SD
Ġbu ying
ep ing
Ġact in
ĠAl an
Ġter tiary
Ġlow est
Ġco ld
Ġany time
Ġcr ash
ĠCh ang
Ġpat ent
ced ented
Ġtw ilight
ĠAn onym
ĠJ urong
Ġarg ues
Ġdifferent ly
Ġconst raint
Ġstud io
Ġtrans form
Ġ3 6
Ġsci ences
ĠK W
Ġins p
Ġreal ise
Ġsignific ance
Ġnecess ities
Ġperform ed
Ġent repreneur
Ġpress ur
Ġsmall pox
Ġimm une
Ġback up
Ġrec re
ĠInd ividual
Ġmedic ines
Ġine fficient
Ġadop ting
Ġland s
Ġsatisf ying
Ġfert il
Ġsure ly
Ġste el
Ġdam aged
ĠOther wise
Ġsecure d
Ġbr id
Ġbr ight
Ġpropos al
Ġestabl ishing
Ġvis ual
Ġvide os
Ġfight ing
Ġdefect ive
Ġpartial ly
Ġpict ure
Ġbio logical
ĠEmploy ers
Ġcatast rophic
Ġwrit ten
ĠMO M
comm erce
Ġuncertain ty
Ġassess ment
Ġhar v
Ġevalu ate
Ġoverlook ed
Ġrout ine
ĠStud ies
ĠSub sequently
Ġing red
Ġbul k
Ġwee k
Ġru le
ĠLimit ing
Ġprinci ple
ĠBuild ing
Ġreluct ant
Ġfarm ers
ourn al
Ġwithdra w
Ġbacter ia
Ġhom eless
Ġunauthor ized
Ġspect rum
Ġparad ig
Ġantib i
Ġpra gmat
Ġembed ded
ĠFeb ruary
Ġelectrom agnetic
ĠIdent ification
ĠDO E
Ġheredit ary
B C
D A
H igh
g l
h op
l iness
m ade
m ark
n ity
n elled
o ke
p d
Ġt u
in y
Ġs le
Ġs ch
Ġs ending
Ġw all
Ġb illions
Ġf ill
Ġd ying
ar ter
Ġn amed
Ġre hab
Ġbe g
Ġis land
us h
ch ildren
Ġpro of
Ġl ang
id den
ot ed
ow ers
Ġsu ic
Ġnot iced
ĠA ss
ant ed
ap p
ĠH ome
Ġimp ression
ost er
Ġsp ark
ĠF our
ain s
ult aneously
Ġind is
up s
Ġsaf est
ĠE ast
Ġme rely
imit ed
Ġexam ine
Ġour selves
Ġret ail
Ġqu arter
Ġchan nelled
Ġext ending
Ġrad i
Ġspe ech
Ġexperi encing
Ġplan et
Ġrem ark
Ġglob e
Ġhy pert
te chn
ĠEn viron
rain ed
Ġlive li
Ġbus y
Ġconf ident
Ġplay ers
Ġrec omm
Ġthreat ens
Ġbre ach
Ġpromot ed
Ġachieve ment
Ġneglect ing
Ġcontinu ing
Ġread ing
Ġcomfort ably
Ġemphas ized
Ġinstall ation
Ġlet ting
Ġfeas ibility
Ġcontain s
Ġskunkwor k
Ġsens or
Ġsubject s
Ġemit ted
Ġguid ance
Ġdestruct ive
Ġrepl aced
Ġlon gevity
Ġqual ified
Ġgrant ed
Ġcateg ories
Ġrestrict ions
appro pri
Ġchoos ing
Ġshel ter
Ġcatastrop he
Ġstro ke
Ġunivers ities
Ġslop es
ĠConsum er
iffe rent
Ġparadig m
Ġrehab ilit
Ġliveli hood
0 7
8 0
F P
H R
b ul
d epend
e per
f ive
g ists
i ate
i ans
k m
n a
r ative
s ight
u ous
y a
Ġt anks
in ics
in come
on us
Ġs at
Ġw ages
Ġw ife
or k
or iented
it ory
it utes
Ġf resh
Ġm er
Ġm el
al ing
al ed
ic ations
Ġh or
Ġh ol
Ġh ouses
Ġn in
us iness
et ooth
im a
ir ty
ut ing
ut ical
ul atory
Ġwh ate
ay a
Ġst ating
Ġst ructural
if ul
am s
ap ers
ke pt
Ġsp an
Ġdis ability
Ġres p
ĠF requency
ĠC ity
ĠC itiz
ri z
ĠM or
und er
od ed
ĠB lu
ĠR P
ĠR ally
for d
Ġle aves
Ġsupp lies
Ġlif elong
Ġout er
ĠIt aly
pt ed
ĠL in
Ġsur pl
Ġdec ides
tain ing
Ġph arm
Ġco ord
Ġunder lying
Ġdep art
Ġpo ison
Ġfirst ly
Ġaffect ing
Ġ6 7
Ġoff set
Ġmarket ed
Ġ5 50
Ġ4 4
Ġprom ises
Ġinter mediate
Ġfail ing
Ġconsider ably
Ġturn s
Ġsc ope
de veloped
Ġcontrol s
Ġpass port
Ġfamil iar
ĠInt egr
Ġev idences
Ġsustain ing
Ġavoid ing
Ġdist inct
ĠY ork
Ġur ban
ars h
Ġdeterm ining
Ġreact ivity
Ġpromot es
Ġapplic able
Ġserendipitous ly
Ġtag ged
Ġham pers
Ġstop ped
Ġstay ing
Ġsubst itute
ĠAd ministration
Ġchar ging
Ġmor ally
Ġtele commun
ĠRo ger
Ġattract ed
Ġwr ite
Ġdoll ar
Ġindustrial ization
Ġworth y
Ġmot or
Ġhind ers
Ġcontain ment
Ġearth qu
cl inics
Ġmut ated
Ġmut ual
ĠEx am
Ġrep air
Ġobser vation
Ġsimpl er
Ġrecord s
Ġkid s
Ġiniti ative
Ġchemical s
Ġsick ness
Ġemer ged
Ġexpand ing
Ġunp red
Ġmus ic
Ġprosper ity
Ġstim ulate
athe mat
Ġdetail s
ĠSpe ech
Ġbi ometric
Ġwalk way
Ġcounsel ing
ĠHel ium
Ġanticip ated
Ġappe ared
Ġcontract ing
Ġli ability
Ġexact ly
ĠEd ison
Ġprepar ation
Ġpassen gers
ĠSupp ort
ĠMot ors
Ġrepos itory
ĠUs ually
Ġwat ched
Ġdispl ay
ĠMeh lman
ĠCanad a
Ġdrink able
ĠBern hard
ĠWhere as
Ġmit ig
Ġcongest ion
Ġunpre cedented
Ġmalf unction
Ġric her
ĠAnonym ous
Ġentrepreneur s
Ġlang u
Ġwhate ver
ĠBlu etooth
Ġsurpl us
B S
C C
I n
R I
e rest
i as
l t
t ical
v y
in a
in ations
on ald
Ġs we
it udes
Ġin ability
Ġan g
al k
le ts
ou b
ar ge
Ġre vel
Ġbe aut
Ġg overn
ot ing
Ġfor th
Ġen em
Ġen forced
Ġha ck
Ġal arming
Ġhe ated
ci ent
Ġus ages
ĠH ear
Ġsp ons
Ġdis rup
Ġch ose
ĠM I
ĠM a
Ġse qu
ĠB FA
ĠB BC
Ġint ens
Ġincre ment
ĠN E
ĠN ob
Ġmed ium
all ed
Ġun it
Ġun health
Ġprov es
ace utical
Ġra re
Ġthan ks
Ġdiff usion
Ġadv ancing
Ġpr ud
Ġser ving
Ġret ren
Ġany more
Ġdep artment
Ġfact s
Ġpriv ile
Ġreg ulation
Ġoff ic
Ġoff ering
Ġbas ically
Ġcontin ual
ĠRe gard
Ġref e
Ġtreat ing
Ġput s
ĠPro f
Ġent ering
Ġexplo sive
Ġexist ed
Ġcommunic ating
Ġfamil ial
Ġsal aries
Ġdist ress
Ġencourage ment
Ġmedic ations
Ġlight s
Ġresearc her
Ġdisclo sing
Ġplac ing
Ġham pered
Ġaim ed
Ġaddress ing
200 3
Ġbad ly
Ġobject ives
Ġanaly se
Ġselect ion
Ġcirc uit
Ġtack ling
Ġcommit ment
Ġestabl ish
Ġign or
Ġeng aging
Ġwa it
Ġinvestig ations
Ġdeli ver
Ġencount ered
Ġoccup ational
Ġdeterior ating
Ġflaw ed
Ġdistrib uted
ĠGr oup
Ġflu or
Ġflex ibility
Ġscreen ing
Ġrepl acing
ĠCan cer
Ġturb ines
ĠBrit ish
Ġdetermin ism
Ġmechan ical
Ġkil omet
Ġthor ium
Ġsumm ary
Ġunw illing
Ġrein force
Ġstrugg ling
Ġcorro sion
Ġfunctional ity
Ġtiss ue
ĠSw ed
Ġstri ke
Ġshar p
rie ved
Ġnav igation
ĠOffic e
Ġcapt ure
Ġteen agers
Ġreput ation
Ġunl imited
Ġdesk top
Ġrank ed
pd f
Ġsch ol
Ġrevel ation
S t
a uc
c urity
c ular
e em
f low
j aya
m ber
m aking
r ist
r ank
s k
t esting
u ing
u an
v able
y ed
Ġt ension
in ated
er ts
Ġs kept
Ġw el
Ġto mor
Ġf ruit
Ġf ront
Ġm iles
Ġd iv
ar act
Ġh ide
Ġh idden
Ġn uc
Ġre ci
Ġg er
et us
et ime
st ate
ore r
se en
ol s
ĠS om
Ġhe ating
ĠA ir
ĠA ut
ĠA uthor
el and
no cent
Ġus able
ĠH iro
ĠC O
ac u
so ft
Ġse ven
Ġpl astic
Ġsa w
ist ance
ĠB er
ĠB CA
Ġv ending
our ney
ĠP u
ĠP an
ĠP osition
ĠN LC
ud ing
Ġup load
Ġout do
ĠD ise
ĠL ater
ĠL ife
Ġj ourney
Ġaccident al
Ġold sters
row n
ful ly
Ġlow ered
ted ly
Ġac id
pl ant
Ġpo orer
Ġtrans mit
Ġ3 00
Ġfurther more
Ġmarket s
ĠRe uters
Ġ4 3
ĠPro cess
Ġent h
Ġprom ise
Ġfail ures
Ġphys ician
Ġhard ware
Ġpass es
Ġexplo de
Ġbo iling
Ġda wn
Ġpract ic
Ġdiscrimin ate
ĠY ear
Ġthreat en
Ġthreat ened
ĠCent er
Ġstat istic
ĠAnd rew
Ġagree ment
Ġheav ier
Ġchar ged
hes is
Ġenhance ment
.. ..
Ġincent ive
Ġmot ion
Ġelimin ating
Ġpe b
round ed
ograph ical
ĠThrough out
Ġindic ate
Ġimmigr ation
Ġsepar ate
Ġemb ra
ĠSurve y
Ġarr ange
ĠOver all
Ġdeterior ation
Ġretain ing
Ġpum p
Ġprosper ous
Ġplatform s
Ġblock s
Ġfault s
ĠMO H
iar ism
Ġdrast ic
Ġsi bl
Ġdefic it
sh ima
Ġgl ue
ĠIm pro
Ġbelief s
Ġ195 5
Ġillust rate
ĠPer cy
Ġsumm ar
Ġrig or
Ġinfring e
ĠWi jaya
Ġbehavi our
Ġbehavi ours
AR S
Ġevol ved
Ġsafegu ard
Ġconvin ced
Ġgrand children
Ġscenar io
Ġperman ent
Ġpoly clinics
AE A
Ġvo ice
ĠAng el
Ġoverhe ating
Ġconflic ts
Ġbuff er
Ġoverwhel ming
Ġdescrib ed
Ġcasual ties
ĠMic ro
Ġactin ides
Ġingred ient
Ġpragmat ic
Ġsat ell
Ġmitig ate
oub tedly
Ġunhealth y
Ġschol ars
Ġtomor row
ĠHiro shima
0 4
A sia
b ike
e conom
f ty
i xt
n uclear
s g
t ons
u a
z y
in o
Ġc ures
Ġw o
it ate
Ġb le
Ġb ike
Ġto ll
ed e
ed s
an cies
Ġf ir
Ġin appropri
al ty
le te
ou ch
ar ious
Ġre verse
lo gy
us ive
ĠT our
Ġl ines
ot el
Ġsu ms
Ġal ter
Ġal loy
ol es
Ġnot ion
ĠS ol
Ġst agn
Ġst abil
Ġhe fty
ĠA nt
end a
Ġcom ment
Ġr oughly
Ġch ief
ri er
Ġad minist
Ġad ministration
ĠW he
ous ed
Ġab n
Ġman aging
ĠB as
Ġv oid
ell ing
ĠP ol
Ġk new
ĠE ver
Ġsupp lement
Ġsupp lements
si le
Ġper taining
ric k
ord er
ĠU N
Ġtr ies
Ġpos itions
ĠCh allen
Ġwast age
Ġinvent or
ĠJ ames
oura ble
Ġsim ultaneously
Ġins ur
Ġher self
Ġmod ified
Ġmod ifications
aw ay
Ġent rance
Ġglobal ization
Ġfeel ings
wor king
Ġimm ense
Ġcor ner
Ġminim izing
ĠTe le
Ġrec uper
Ġtax pay
Ġsustain ed
Ġorgan ized
Ġmaintain ed
Ġrele asing
Ġbre ed
Ġfollow s
Ġut most
Ġtag ging
Ġclean ing
Ġstop s
Ġloss es
ĠRo ad
Ġsuggest ion
Ġ- -
200 6
Ġcover s
Ġdeb ated
ĠOther s
Ġgradu ate
Ġmar riage
Ġinteract ions
Ġbehav iors
Ġintegr ate
Ġleak s
Ġsens itive
Ġenabl ing
Ġsubject ed
Ġreturn s
Ġincor rect
Ġsepar ated
Ġadverse ly
Ġaccommod ation
back s
Ġinstit utes
Ġintr usion
Ġscar ce
Ġscen e
Ġcompr ise
ĠPolic y
Ġfra me
Ġexhaus ted
Ġanticip ate
Ġsqu are
Ġwis er
ĠPh ys
Ġrig id
ĠAb out
ĠMedi Shield
Ġexploit ation
Ġdomin ant
Th is
Ġcustom er
ĠIncre asing
Ġfort un
ĠCreat ive
Ġorganis ations
Ġliter acy
Ġbrainstorm ing
Ġanim als
chem ical
polic ies
Ġrehabilit ation
ĠCitiz ens
Ġpharm aceutical
Ġdepart ments
Ġnuc le
2 9
F ree
L M
O S
P A
U R
W O
b r
b al
l in
l ip
m ap
p ens
p ress
p ensive
s w
s on
w ell
Ġt iny
Ġs ess
Ġc red
Ġc row
at ient
or mal
or hood
Ġb or
Ġb ond
Ġb ott
Ġto wn
Ġf ract
Ġin nocent
Ġm il
Ġm iss
Ġm athemat
ar a
Ġn one
as ia
Ġg ap
ĠT er
Ġl ig
et ter
ore s
ĠI ra
ĠI ran
ĠI AEA
op efully
ĠS P
ĠS ch
Ġst ory
Ġhe ights
Ġso aring
Ġ2 7
Ġ2 9
ĠH opefully
Ġwe ar
actor y
Ġinc omp
ĠC ode
ĠM ar
qu ipped
blem s
Ġse x
Ġman ip
ĠB onus
Ġv ibr
ĠR em
ĠR ef
Ġdo ors
ren ces
Ġconc urrent
Ġrel ation
Ġun its
Ġage ism
Ġsoci o
Ġper cept
ĠV WO
ĠD is
ĠL ight
ĠL iving
ĠL ift
ĠU lt
Ġam b
Ġdec ent
Ġno ise
Ġpart ners
Ġco efficient
Ġatt itudes
Ġro of
own ed
Ġwast ed
ck s
ĠJ ac
ĠJ oh
ĠJ ournal
Ġallow ance
Ġhand led
Ġexper t
Ġfind ings
ĠK ho
ĠK LM
Ġmod e
Ġ5 6
Ġbel ieves
Ġthink s
Ġess ence
Ġpres erve
Ġsubsid izing
wor ld
Ġaid ing
ĠTe ck
Ġones elf
ract ical
Ġloc ations
Ġloc als
Ġ198 4
Ġ198 5
Ġ198 7
Ġrest aur
ĠY ap
Ġdeal t
Ġlast ly
Ġstress ing
Ġend less
Ġpoll uted
Ġaccording ly
Ġsubst it
Ġread er
Ġcy ber
Ġcat aract
Ġste pped
Ġdra wn
Ġfulf il
Ġcir cle
Ġdest ination
Ġmo on
ĠMe ht
Ġimplant ing
Ġbr and
Ġappropri ately
Ġincur able
Ġlet ter
Ġconvenient ly
Ġbl ue
Ġcontr actors
Ġenabl ed
Ġult ra
Ġult imate
Ġsus pect
Ġsus pic
Ġstreng then
Ġdeli ber
Ġneighb orhood
Ġemer ge
Ġbroad cast
Ġpain ful
Ġwrit ing
Ġred undant
Ġbelong ing
Ġhop ing
ĠTrans it
Ġdiscoura ge
Ġdiscoura ged
Ġdefic iency
Ġisol ation
Ġexec ut
sc ale
ĠInnov ation
ibr ary
Ġdestroy ed
Ġdocu ments
Ġtransl ate
Ġconfirm ed
ĠRep ort
Ġpollut ants
iction ary
Ġpremium s
Ġshif ted
ĠLWR s
Ġdepress ed
Ġhur t
Ġstead y
Ġundert ake
Ġsty le
Ġstra ight
Ġcand id
ĠLike wise
Ġdyn amic
Ġaccomp an
Ġconserv ative
Ġrecre ational
Ġantibi otic
Ġsuic ide
Ġindis pens
Ġremark able
bul b
Ġresp ons
ĠSom etimes
ĠAuthor ity
ĠPu at
Ġenth us
ĠMicro soft
ĠIra q
ĠUlt imately
ĠKho o
ĠMeht a
2 8
E N
M I
W I
c ol
e en
e ffective
f ield
h um
i encies
l ong
l aw
o or
p ol
r ating
t ically
u k
u ff
Ġ iron
Ġt ens
is ms
it erate
Ġb ars
ed y
Ġm at
Ġm alls
Ġd ens
Ġd imin
Ġh o
Ġre con
Ġg ross
om ple
om pl
ur se
Ġfor ty
nt il
Ġag enda
ĠA lex
Ġex cus
ive red
Ġby product
ĠH is
ĠH otel
Ġimp ly
Ġdis s
ĠF ound
ĠC he
ĠM ark
Ġcomp at
Ġcomp act
Ġlo g
ist ant
Ġman agers
ĠB ur
Ġv ic
Ġacc ompl
Ġsol ves
Ġgenetic s
Ġup set
ĠE ach
Ġrel ax
Ġbut tons
Ġlif etime
Ġpolic es
ru its
ĠD ifferent
ĠU ntil
Ġexam inations
Ġj et
Ġapp lies
Ġadv ised
Ġpr ime
Ġinst ruct
Ġretire es
ĠTo gether
Ġfriend liness
Ġmod ification
Ġmod ify
Ġdiver s
Ġdiver se
Ġperform ing
Ġprom ised
wor ks
ict able
Ġrec ruit
Ġfl ight
Ġfl our
Ġprior it
Ġdist ances
ĠDe velop
Ġupgra des
Ġlight bulb
Ġconduct ing
Ġdr ives
Ġautom ation
Ġprogress ing
Ġcomb ine
Ġmach in
Ġdam ages
Ġnur t
Ġunf ortunately
Ġpers ist
Ġcompar able
Ġstor ies
Ġchannel s
Ġorganiz ational
Ġintegr ity
Ġsens es
Ġeng aged
Ġtour ists
Ġvalu ed
Ġpurch asing
Ġaccum ulated
Ġcounter part
Ġclass ified
Ġcomplic ations
Ġstore s
Ġstore y
Ġshr ink
Ġbom bs
Ġ201 0
Ġoccup ied
Ġdeterior ate
Ġcivil ian
Ġinstit ution
Ġreflect s
po int
Ġmus cle
Ġdel ivered
Ġstim ul
Ġask ed
Ġaircra fts
Ġinjur y
Ġburn s
ĠNews Asia
ĠSer vices
Ġdeep ly
Ġran ging
Ġrout e
Ġstrugg le
Ġadvoc ates
Ġsil ver
Ġtiss ues
Ġreb ates
ĠSm ith
ĠReg ency
Ġagricult ure
ĠBar rier
Ġinconven ience
Ġdepr ived
Ġrepercus sions
Ġinex pensive
Ġtight ly
ĠIndividual s
Ġbeg un
Ġhypert ension
ĠExam ples
Ġunpred ictable
Ġfluor ide
Ġsibl ings
ĠBas ically
ĠChallen ger
Ġrecuper ate
ĠFound ation
1 7
2 3
E s
H O
c ur
c ern
e z
f it
f requency
g onom
j ud
m is
m ar
n ight
o v
p ace
s pe
s lip
v iew
Ġt ed
Ġt ies
in ite
Ġthe rap
en z
er pr
Ġs li
Ġc ast
Ġc ru
Ġp and
Ġp ays
Ġp owers
at ur
it a
Ġb ird
Ġto ug
Ġf ing
Ġf oster
Ġm ort
Ġm ish
Ġan sw
le vel
Ġh arsh
as on
Ġbe at
il ial
Ġg un
om y
ĠT esting
Ġl ic
Ġl ived
ill iant
Ġde eper
ow att
ĠI ma
ĠI CT
Ġen rich
Ġal tered
Ġag gra
ĠS ARS
Ġst ig
Ġst ream
ĠA c
Ġne ither
ra cy
ĠH er
Ġdevelop ers
est he
Ġgen ome
Ġsp ir
um s
ĠF rank
ĠC are
ĠC ensus
ign ific
ĠM id
Ġse ats
Ġat om
Ġad vent
Ġpl ural
Ġdes erves
Ġlo gical
ĠW elfare
ĠW FP
ĠW HO
ist ical
Ġpre jud
Ġman ual
Ġman ager
ĠB ank
Ġcont em
ĠR ose
ĠP a
ĠP art
ĠP oly
Ġfin ish
ven e
ĠE l
Ġar oused
Ġsupp lied
Ġout let
ĠD av
ĠD ata
ĠFor rest
ĠL ew
ĠU pon
Ġris es
Ġimpro v
Ġinv ades
Ġbenef ici
pe ace
Ġco inc
Ġcr ude
Ġatt ached
Ġrequ iring
Ġfactor y
Ġperson ally
Ġunder m
Ġeffic iencies
Ġemploy ing
other mal
Ġsub sequ
ak i
Ġear liest
Ġenc ry
Ġmem ories
Ġsign al
Ġhapp iness
Ġ6 3
Ġ6 4
Ġ6 00
by opia
Ġsk y
ĠSe curity
ĠK h
ĠK now
Ġplan e
Ġequ ival
ior no
Ġvar ies
Ġ4 1
te xt
Ġprotect s
ĠEn gl
Ġcent ral
Ġpres byopia
Ġexplo sions
pro of
Ġfound ation
Ġminim ise
ĠHe ath
abl es
Ġsuff ers
Ġev acu
the ning
Ġ198 3
Ġrest ructure
Ġair pl
Ġban ning
Ġlast ing
Ġnear by
Ġaccept ing
Ġfood s
Ġtop ics
Ġenjoy able
Ġnever theless
Ġsubst ance
hes ive
Ġstrate gic
Ġadvantage ous
Ġ9 0
Ġ9 9
Ġemerg ence
new s
Ġobject ed
Ġattract ions
Ġconver ting
Ġconver ted
Ġnur se
Ġmis under
Ġunf av
Ġartic les
Ġbr illiant
Ġanalys ing
Ġhind ered
Ġopen ed
Ġmindset s
Ġinvestig ate
Ġinterp ret
Ġexerc ising
Ġexce l
Ġsubstantial ly
olo gical
Ġir rig
Ġir respon
Ġpus hing
Ġtalk ed
Ġjud gment
Ġpum ps
Ġge ographical
Ġcate red
Ġreject ion
Ġintr udes
ĠHy att
Ġmother s
Ġmagn etic
Ġdetail ed
Ġdetermin ist
Ġdramat ic
Ġsurpr ise
Ġtri als
Ġisol ated
ĠInnov ations
Ġperce ive
Ġcorrup t
Ġabsolute ly
Ġsudden ly
Ġpolit ics
Ġupd ate
Ġappreci ation
Ġappreci ate
Ġdur ation
Ġpassen ger
rol led
Ġtrig ger
Ġluxur ious
Ġrepe at
Ġagricult ural
Ġmigr ation
ĠInv esting
Ġple as
Ġcross ing
Ġinstru ments
Ġcomplain ts
Ġcogn itive
Ġinterfe re
Ġpill ars
Ġbicy cles
ĠGreen peace
Ġwarf arin
Ġparagraph s
ĠCA I
ĠBell is
Ġvary ing
Ġcolle ag
Ġvolunte ers
Ġadvertise ments
Ġimpair ment
Ġcontam ination
ĠViet nam
Ġbrid ge
ĠIntegr ated
ĠProf ess
ĠPosition ing
Ġsummar ize
Ġfir ms
ĠRoad map
ĠSP UR
Ġpercept ions
ĠJoh n
Ġsuspic ious
Ġindispens able
Ġrespons es
Ġted ious
atur ally
Ġtoug her
ĠIma gine
ignific ant
Ġsubsequ ent
ĠEngl ish
R es
T HR
a ired
b ly
b reak
c ers
c hers
e lect
f ired
g ments
i ers
k es
r ase
s ystem
s ite
u ed
er b
er ving
Ġp age
es ide
Ġb one
Ġb ought
ed u
Ġf ruits
Ġin hib
Ġm aster
Ġd ro
ent ions
ro ad
ar row
Ġn arrow
Ġre nt
ct ob
lo s
ld ly
om ed
ch ing
ver sible
Ġon set
Ġcon duc
ĠI D
ĠI M
Ġen act
uc cess
ĠS il
Ġst ar
Ġhe ater
Ġex ac
are s
am il
ad ic
Ġimp er
Ġimp aired
Ġres erve
ĠF ederal
Ġinc omple
ĠC ost
ĠTh anks
ĠM N
ĠM o
qu ality
Ġcomp lement
ĠW WI
Ġpre gn
Ġpre val
Ġab used
Ġv ent
iz ers
Ġdo or
Ġle aking
ĠG old
ĠN atural
ĠO per
ĠO ctob
Ġmed isave
Ġem its
si ans
Ġsystem atic
ĠV THR
Ġtra pped
ĠD ig
ĠL ine
ĠL arge
Ġsur pass
Ġris en
Ġwell ness
Ġimpro per
Ġbu g
Ġinnov ating
care d
Ġless ons
Ġro d
Ġac know
Ġbur nt
ass es
Ġhand y
ĠSe rendip
Ġincl ined
Ġshort ages
Ġmod ifying
Ġsect ion
Ġlack s
Ġill iterate
Ġphys ics
Ġsubsid ize
Ġchallen ger
Ġbo ard
ĠInt ell
Ġev olution
Ġterm ed
Ġgra de
Ġban ks
ĠY ou
Ġenvironmental ists
ĠAll en
Ġpresent ed
Ġdetect ing
bo ard
Ġstructure d
ĠProv iding
Ġpros pective
Ġinher itable
Ġste al
Ġapproach ing
Ġattract ing
Ġfulf illed
Ġpers u
Ġbr ighter
verse ly
Ġpe ak
Ġanalyz ed
Ġrev ised
Ġrestric tion
Ġcheck s
rup t
Ġcollap sed
Ġtrend s
ĠEvery thing
Ġoptim al
Ġoptim ize
Ġdom ains
Ġarr ay
Ġarr ived
mit ting
Ġremo ving
Ġemer ging
Ġstaff s
ĠAr chitect
Ġreject ed
Ġstim ulated
ĠEmploy ment
Ġhot els
Ġtempor arily
Ġded uct
Ġfatal ities
Ġsympt om
ris k
rad iation
Ġunw anted
Ġcompetit ors
Ġcritic ism
ĠCor por
Ġluxur y
Ġprospect s
Ġvers us
Ġpen et
Ġinsure rs
There fore
Ġirre versible
ĠMedic ine
Ġtransform ed
Ġfertil ization
Ġharv est
Ġretail ers
Ġtelecommun ication
Ġearthqu akes
ĠMa jor
ĠRegard ing
ĠSwed en
Ġrigor ous
econom ic
ĠTour ism
ĠWhe ther
Ġabn ormal
ĠAlex ander
ĠDav id
ĠKh al
Ġconduc ive
uccess ful
Ġexac erb
ĠOctob er
1 5
2 6
2 7
3 9
4 0
A C
C S
G E
O M
U P
b ide
c in
c est
c ri
d ated
f are
f uel
g on
g as
h am
i h
i j
i ences
m illion
n es
r ight
u be
y l
y nt
Ġ ub
Ġt on
Ġt im
Ġt ub
he art
Ġa ven
on a
on ing
en ry
en cer
Ġs ul
Ġo st
Ġc uring
Ġp ion
Ġp il
Ġw age
is ure
is sile
Ġb ow
Ġb row
Ġf ly
Ġf ate
Ġf ish
Ġan cient
le ge
Ġd ial
ic ted
ou d
Ġe at
Ġe le
Ġh ards
Ġh alt
Ġre used
as aki
Ġth ick
Ġth irty
il ty
ation ally
Ġpro active
ĠT ata
ce l
ig uous
Ġas king
Ġcon vers
ow der
her ic
op ic
Ġen ding
ul l
ies t
ĠS c
ĠS yndrome
Ġst one
Ġhe s
un al
ĠA riz
Ġwith hold
ure au
Ġsh ot
are n
end s
Ġim ages
ap id
ĠH ong
ĠH enry
ich ip
ĠIn c
ĠIn come
est eem
Ġimp ending
Ġelder care
Ġsp ort
Ġr ated
Ġr ational
ĠF ord
ĠF ood
ac cess
ĠM c
ĠM ent
qu es
Ġse vent
Ġat oms
Ġdes per
Ġwork load
con ception
Ġcomp osition
Ġlo cked
ist ically
und ance
od es
Ġpre t
Ġab undance
Ġprocess ed
Ġman ually
ong iorno
ĠB ack
ĠB ureau
Ġv ill
Ġcont rad
Ġind uc
ire s
vent ional
ĠR el
ĠR apid
Ġint ense
for ces
Ġle isure
gine ering
ĠG ra
ĠN ag
Ġk in
ie vable
ĠO S
ĠO ut
ĠO lder
ĠE nt
Ġar my
ab in
Ġun h
Ġun cont
ric ular
ĠV ol
ĠV el
Ġtra ce
ĠL a
ĠL ow
Ġimport ed
Ġam pl
Ġhuman ity
Ġmake up
Ġinst ill
Ġelect ro
Ġbenefit ted
uel ing
Ġpart ner
Ġret ro
Ġret rieved
Ġco ated
Ġco ok
rib unal
io vas
pect ion
Ġinf lex
ĠGen ome
Ġcontribut ors
Ġsit ting
Ġtrans p
Ġtrans plant
Ġspe ak
Ġdemand ed
ĠK ong
ĠK uan
Ġsee ing
Ġ20 25
Ġsm oking
Ġmin utes
Ġshort com
Ġmod er
Ġref used
Ġref ueling
Ġ5 3
Ġ5 4
gen cies
Ġocc as
aw are
Ġconsum es
Ġ4 7
Ġyoung sters
ĠPro tect
ĠPro blems
Ġsen ile
Ġ199 3
Ġexpect ancies
Ġinter vene
Ġphys icians
Ġhard working
Ġer gonom
Ġimm un
Ġcontrol l
Ġtell s
Ġtransport ed
Ġexplo red
Ġcompet ent
Ġmeas ured
Ġcor ners
Ġaid ed
Ġsal e
ron ted
Ġfore see
Ġconf ronted
Ġhu b
Ġclo thing
Ġterm inal
Ġenh ances
ĠWor king
Ġban king
ĠY ew
loc ated
Ġ7 4
Ġ7 8
Ġgu ilty
Ġend ed
Ġnor ms
Ġ8 5
Ġ8 8
Ġrele ases
Ġ10 1
Ġcrit ically
Ġment ality
iqu itous
Ġautom ated
Ġdiscus sing
Ġuseful ness
Ġlear nt
Ġrespect ed
Ġrecogn izing
Ġprofess ion
Ġweak er
Ġdeb ris
Ġmis conception
Ġassoci ate
Ġmo v
ĠMe xic
Ġimplant ation
Ġimplant able
Ġgain s
Ġexpos ing
Ġdiagno se
Ġhind rance
Ġflo od
Ġcirc ulation
ĠMalay sians
Ġvis ually
Ġsens ors
Ġsw ord
Ġappear s
Ġdiscuss ions
Ġobst ruct
Ġoptim ized
Ġoptim istic
ĠKore an
Ġapart ment
ĠSp encer
ĠGer st
Ġsun light
Ġarr ive
Ġaccur ately
Ġfair ly
Ġneighb oring
ĠSystem s
Ġcriter ion
Ġemer gencies
Ġviol ates
Ġassum ed
Ġmotiv ated
Ġstrength s
Ġver sion
ĠBu ongiorno
ĠÃ ĥ
Ġi P
ĠPl ant
Ġprin ter
Ġattempt s
Ġextensive ly
Ġfault y
Ġwonder ful
Ġjo ining
Ġhousehold s
ĠAustral ian
Ġadjust ments
Ġconsult ation
Ġrail ings
Ġrail way
Ġconv ince
Ġdead ly
Ġinput s
Ġkil owatt
Ġcounsel ling
Ġpolit icians
Ġupd ated
ĠSM RT
Ġwee ks
Ġinfect ions
Ġchoos es
Ġbra ke
ĠPat ients
ĠWell ness
Ġpip es
Ġpip ing
Ġmonop oly
Ġbook s
Ġdelay ed
Ġmal ign
Ġpul l
Ġhab its
ĠCol lege
Ġintell igence
ĠAny way
Ġexchan ger
Ġcalc ulations
Ġtum ors
Ġrect ify
Ġcompens ate
ĠMod el
ĠPres ident
ĠNe il
Ġinvad ed
iat ric
Ġdri vers
Ġadap ted
Ġcareg ivers
Ġspark ed
ĠEnviron ment
Ġmel ting
ĠLin ux
ĠSupport ers
Ġenem y
Ġprud ent
Ġignor ant
ĠAut om
ĠDise ase
Ġfortun ate
press ure
Ġexpert ise
Ġdens ity
Ġaggra v
ĠPa ul
ĠLew an
Ġequival ent
ĠHeath field
Ġcolleag ues
ĠProfess or
Ġincomple te
Ġpreval ent
ynt hesis
Ġub iquitous
Ġpion e
ĠAriz ona
ĠNag asaki
iovas cular
Ġshortcom ings
C P
C s
T S
b orn
c alled
d r
f amily
g ot
g ile
n d
n atal
o e
o cr
s ur
s ufficient
t ers
u pp
w ord
Ġt rial
Ġt iles
Ġs on
Ġs am
Ġs izes
it ation
an ger
Ġm ixt
al es
Ġd on
Ġd im
Ġd os
ar ian
Ġe commerce
Ġe ldly
Ġre active
Ġbe aring
Ġg ro
ĠT ill
ce ll
Ġl im
st ood
Ġfor cing
Ġfor got
Ġcon j
Ġsu ited
ĠS un
ĠA ward
Ġcan cers
Ġus ability
am in
lder ly
ap se
Ġimp etus
Ġimp ede
Ġres id
ĠC r
ĠC ap
Ġshould er
Ġcount y
Ġcount less
em an
ĠM er
ĠM as
ĠM em
ĠM ult
ĠM uch
Ġlo ans
Ġpre de
ĠB usiness
Ġv it
Ġv ice
ĠN R
ĠN ature
ĠN ove
ĠE r
ĠE v
Ġrel ies
ab ric
Ġout break
Ġun con
Ġun fore
Ġun related
Ġyear ly
Ġadv ices
Ġinnov ated
ĠAl tern
Ġph rase
ress ing
ach s
Ġsec re
Ġinf er
Ġemploy able
ĠJ e
ak en
Ġconst itutes
Ġstud ied
imin ary
Ġown er
Ġoff ices
co aled
ĠK el
Ġins ert
Ġmater nity
Ġcl ients
less ly
Ġreal istic
Ġass ign
Ġass ert
Ġpay ers
Ġrem edy
gen etic
Ġinter face
Ġform ation
Ġform ula
Ġsubsid ise
Ġer adic
Ġaut o
Ġexplo ited
Ġmethod ology
Ġcompet ing
ĠWh y
Ġbo oming
Ġfore cast
the s
Ġseem ed
Ġseem ingly
ĠDe cl
Ġgu ard
Ġgu ards
Ġend s
por ary
Ġpromot ion
Ġinflu x
Ġshap es
Ġel abor
Ġimpl ants
Ġremain ed
ĠResear chers
Ġeth ically
Ġspecial ized
ĠCon cern
Ġsuggest ions
Ġ9 6
Ġcy cles
Ġaddress es
Ġ- --
Ġundergo es
200 8
Ġrecogn ised
Ġconnect ing
Ġmis sing
ĠLFR s
Ġgain ing
Ġfull est
Ġbegin s
Ġelimin ates
Ġpe ers
Ġopen ing
ĠPet er
Ġquestion able
Ġcommit ting
Ġchannel ing
Ġfunction ing
ĠEx per
Ġsimpl ify
Ġuns atisf
ĠIndones ian
Ġdecl ined
Ġsound s
Ġade quately
Ġlink s
Ġcop ying
Ġemb ar
Ġsun sh
Ġpossess es
Ġsetting s
ĠSh an
ĠSh ould
Ġobstac le
Ġvirt ually
Ġperfect ly
Ġpurs uing
Ġallevi ating
Ġreflect ed
Ġincorpor ating
Ġmus cles
Ġbackground s
Ġver ify
Ġacqu ired
Ġremind s
Ġremind er
reli ant
Ġground s
Ġbed s
Ġbelong s
ĠSpe cial
Ġuncertain ties
Ġhop es
Ġmechan ism
Ġprecise ly
Ġneut ron
Ġprolong ed
Ġkidnap ped
Ġvirus es
Ġfra gile
Ġisol ate
ĠEs pecially
Ġadvert ising
Ġthor ough
Ġdisturb ance
Ġrequest ed
Ġli ber
Ġprepar ations
Ġneighbour ing
ĠSm all
ĠReg ulatory
Ġsafegu ards
ĠMot or
Ġshar ply
Ġearning s
Ġdemonst rate
Ġscenar ios
Ġslight ly
Ġleng then
Ġclimb ing
ĠInf rast
Ġimpart ing
Ġrespond ents
Ġmargin al
design ed
Ġplag iarism
Ġren der
struct ion
ĠChang i
Ġrecomm ended
Ġhor rible
Ġcoord ination
Ġlangu age
Ġang le
Ġbeaut iful
Ġhack ers
ĠHear t
Ġoffic ers
Ġreci p
Ġoutdo or
Ġinfringe ment
Ġinappropri ate
Ġcomment ed
Ġfract ion
Ġexcus e
Ġcompat ible
Ġpand emic
Ġcontem porary
ĠPoly techn
Ġmisunder standing
ĠMN Cs
Ġacknow ledge
ĠKhal ik
Ġlim bs
Ġprede cess
3 1
6 6
9 4
A V
A l
F i
I t
N P
T e
b ur
d iscrimination
e ing
e fficiency
e quipped
e lderly
f all
g a
h our
m od
m ia
o x
o int
p oll
p owder
r ates
v itro
w in
w ent
w ind
y car
Ġ *
Ġ 000
Ġt all
in st
re g
re oty
er ies
Ġs an
Ġs em
Ġs ought
Ġs yndrome
Ġs cared
Ġo xide
Ġo ught
Ġp it
Ġp ed
Ġp ou
Ġp el
Ġ. ..
or ized
Ġb ure
Ġb ath
Ġto mat
an ol
an ies
an cial
an asia
Ġf an
Ġf end
Ġf em
Ġf issile
Ġin duce
Ġm ixed
al yst
al ys
Ġd wind
ic on
ic ity
ion ed
ro sis
Ġh us
Ġh ost
Ġh osp
Ġn an
Ġn itro
ct u
il i
Ġis ot
Ġg ym
Ġg au
us et
om al
om as
ment ation
ĠT ai
ĠT MI
ur able
ir t
Ġde gra
Ġde gen
Ġcon du
ul c
Ġal ign
ol t
ol ved
ith ium
ĠS ever
ĠS cho
ĠS ony
ĠS BS
Ġst o
Ġst ays
Ġst air
Ġhe ard
ĠA re
ra pped
Ġsh y
Ġsh ield
el low
am a
Ġte ch
ap y
ĠH istory
ge oning
est er
est ri
pp le
Ġimp erative
Ġimp ractical
Ġsp o
um at
um erous
Ġhas s
Ġdis ap
Ġr ound
Ġinc idence
Ġinc idences
ĠC E
ĠC am
ĠC ong
ĠC ooled
ĠC ivil
Ġch a
ac he
ĠTh ail
ĠTh omas
ĠM P
ĠM ys
ĠM iles
os h
os is
ast e
Ġad mitted
Ġad hesive
Ġcomp os
Ġpre ced
Ġma il
ĠB l
ĠB all
ĠB aid
ĠB etter
out ube
Ġcont ag
ire ment
ial ly
ĠG u
ĠP ast
ĠN ation
ĠN umerous
Ġk ills
Ġwas hing
yst ic
Ġem pt
Ġun int
Ġun aware
Ġprov ince
ĠV I
Ġtra its
ĠD C
ĠD en
ĠL if
ĠL ond
ĠL IF
ĠL oc
ef ined
Ġam az
Ġdec omm
Ġdiff ers
Ġover night
dition al
Ġcomm and
row ing
ruct uring
Ġinform al
Ġser ved
Ġund oubtedly
Ġter rible
ĠWith in
Ġret iring
Ġatt ach
Ġqu e
Ġfac ility
Ġrisk y
Ġunder went
ĠCh air
Ġro oms
ach uset
Ġinf ra
Ġinf lic
Ġwhere ver
ential ly
Ġdep os
Ġbur geoning
ck ets
ĠJ en
ĠJ ack
Ġdef end
Ġext ension
ph ur
ph ones
Ġ3 4
Ġmem or
Ġsign ed
Ġreg ional
Ġmark s
Ġdemand ing
Ġ6 6
Ġide ology
ĠK y
Ġins ignificant
Ġins pection
Ġpolicy makers
Ġsm oke
Ġreal ization
Ġreal ised
Ġprot oc
ĠSt e
ĠSt an
Ġcap tain
Ġ5 000
int ensive
Ġ4 6
Ġ4 8
ĠPro to
ĠPro ponents
Ġprom pted
Ġ199 2
Ġexpect ing
Ġexpect ation
Ġpur ification
Ġglobal ised
Ġsubsid ised
de red
Ġimm ature
Ġaut onom
Ġpass ively
Ġcommunic ations
ron ics
Ġval ve
Ġrec all
ib rosis
Ġconvent ion
ody nam
res istant
Ġtax ing
Ġtax ation
Ġorgan ize
Ġ198 1
Ġair b
Ġ7 1
Ġ7 3
Ġbirth rate
Ġ8 50
ĠAnd re
Ġut ility
Ġut ilities
Ġsupply ing
ĠAct ive
Ġel ig
Ġprogress ion
Ġsuper vis
Ġmanage able
Ġeth ic
Ġcontinu ity
ĠAd ding
Ġspec ies
Ġmanufact ured
Ġchar ity
ĠCon versely
Ġsatisf ies
Ġ9 00
ĠComp anies
uth anasia
Ġcat tle
Ġcat alyst
Ġemot ions
to gether
Ġpopular ization
Ġobject ion
Ġwar n
Ġcover ing
Ġprofess or
Ġwr ist
employ ed
Ġcoll ision
Ġpar am
Ġmo le
Ġmoral e
Ġsize able
Ġboost s
Ġgradu ates
Ġdiagno st
Ġobtain ing
Ġproportion ately
Ġpost s
Ġcult ures
Ġbro ther
ĠFin ancial
Ġbl ame
Ġcontr actor
Ġrev ol
ĠMalay sian
Ġintegr al
Ġintegr ation
Ġreprocess ed
Ġresol ution
Ġvol at
Ġpsycholog ically
Ġtour ist
Ġcorrect ive
Ġdispos ed
Ġdecl ared
Ġaccum ulating
Ġcollect ing
ĠKore ans
Ġbrain s
Ġfacilit ates
Ġfa cial
Ġsun set
Ġencount ering
enn is
Ġleaders hip
Ġcard iovascular
Ġatmosp heric
Ġdeterior ates
Ġstrain ed
Ġfav our
Ġcomprom ising
Ġexpand ed
Ġgam ing
Ġurg ently
Ġincorpor ate
Ġflu ctu
Ġforget ting
Ġsearch ing
Ġge ographic
Ġge othermal
Ġhead ing
Ġacqu iring
ĠEconom ist
Ġdict ion
Ġconcent ration
ĠPl an
Ġpan el
Ġjo y
Ġphot o
Ġpeace ful
Ġhop efully
Ġhar ness
Ġeyes ight
Ġsacrific ed
Ġtri ple
Ġdesire s
Ġconsist ent
Ġillust rated
Ġunden iably
ĠMay be
Ġappe al
Ġtransl ates
Ġteac her
Ġwebs ites
Ġstre et
Ġrepresent ing
ĠSM Es
ĠCar bon
Ġtoile t
Ġvisit ors
Ġlens es
Ġinfect ed
Ġinfect ion
Ġinject ed
Ġtraged ies
Ġpollut ing
Ġrepe ated
ĠTra cking
Ġmonop ol
Ġowners hip
Ġreward ing
Ġdeploy ment
ĠMass achuset
Ġperman ently
ĠDa wn
Ġpattern s
Ġintell igent
Ġprison ers
Ġtherm o
Ġeight y
Ġinterfe rence
Ġmicrochip s
ĠDef ense
Ġilleg al
ĠIndust ry
Ġfun ny
Ġinsp ired
Ġbulk y
depend ency
Ġnin et
Ġspons ors
Ġsequ ence
Ġrefe rence
Ġkilomet ers
Ġdiv or
Ġpractic ing
ĠImpro ve
Ġscholars hips
Ġstabil ize
ĠPol itical
Ġinsur ances
PA CT
ĠTer ror
Ġexecut ives
Ġcandid ate
Ġenthus i
cur ricular
spe ed
enz a
Ġbird s
Ġmort ality
Ġmish ap
Ġansw er
Ġstig ma
Ġspir it
Ġcoinc idence
ĠKnow ing
Ġirrig ation
Ġirrespon sible
system s
Ġdro pped
ĠIM PACT
cri ption
Ġsul phur
Ġele v
ĠMent or
Ġunh app
Ġergonom ics
Ġimmun ity
ĠMexic o
ĠGerst ner
Ġmalign ant
Ġforgot ten
Ġrecip ients
mod erated
Ġped estri
Ġpel lets
Ġbure auc
Ġtomat o
Ġdwind ling
Ġhus band
Ġnitro gen
ĠSever al
ĠScho en
Ġstair c
ĠThail and
ĠMys pace
ĠBaid u
Ġcontag ious
Ġempt y
ĠLond on
ĠLIF E
Ġdecomm ission
ĠProto col
Ġsupervis ors
ĠMassachuset ts
I A
R e
T U
a ult
b ol
b ound
c n
c ut
c ue
d ep
e as
h ones
i pping
l iminary
m on
m as
p ir
r d
r ust
s m
s aving
u w
v in
Ġa er
Ġa esthe
re y
re gard
en er
Ġo ce
Ġp ic
Ġp ess
it ure
an gers
Ġf abric
Ġm ir
Ġd ual
ro ll
Ġe ases
Ġn aturally
Ġre wards
as tern
ct ors
Ġg ate
Ġg od
us es
Ġpro ving
Ġl uc
et ing
im istic
st op
st ream
id st
ot ion
ut ious
Ġen l
ul g
ol id
Ġst uff
ĠA ged
ĠA AR
el ior
Ġcom ments
am ous
Ġwor n
est s
Ġimp ress
Ġdis int
Ġdis pose
Ġdis appro
Ġwe aring
Ġr ays
Ġr ub
ĠF ore
ĠF ac
Ġch ores
em b
ĠM art
bl ing
ast ers
Ġlo y
ĠW atch
ist or
Ġpre liminary
Ġab road
Ġman if
Ġv ac
Ġcont ing
Ġint ends
Ġle tt
Ġeconom ists
ĠP erson
ĠP arent
ĠP ract
ĠN TU
Ġacc ord
Ġexp on
Ġup coming
ĠE astern
Ġsome body
Ġar rest
ĠV al
Ġtra d
Ġtra ced
Ġtra gic
ĠD et
ĠFor m
ĠL and
Ġam elior
Ġdisc arded
Ġchild less
Ġdise ased
Ġinst ability
ĠVHTR s
Ġno vel
Ġco in
Ġco ating
Ġatt ending
Ġatt ended
Ġless ened
Ġsec uring
Ġinf l
Ġdep th
ĠJ ones
Ġallow ances
Ġcre ations
Ġconst itute
Ġtrans it
Ġtrans ition
Ġ3 2
ĠUn it
ĠUn den
ĠRe le
ĠSt ill
Ġass urance
Ġset s
Ġstand ing
Ġfeel s
Ġtrain ings
Ġdeter rence
Ġform ing
Ġsc r
ĠWe e
oll ar
oll apse
Ġmak er
ĠWh o
Ġbo x
Ġop ens
Ġda ugh
Ġterm inate
Ġadd s
Ġsever ity
Ġaccount ed
Ġafford ability
ĠRes ource
Ġpartic les
ĠDe c
Ġclaim ing
Ġessential ly
Ġ8 1
pr int
Ġbre aking
Ġunderstand able
Ġstat istical
com ed
Ġport ions
Ġprogress es
Ġsuper v
Ġrefrig eration
Ġland ing
Ġworks hop
Ġperiod s
ĠGenetic s
Ġsatisf actory
Ġemphas izes
Ġutil izes
ond ering
Ġste reoty
Ġweak ened
Ġrepro duce
Ġmis used
Ġmo od
Ġmo ved
Ġvi ability
Ġworth while
Ġdeple te
Ġbreak s
Ġhind ering
Ġinteract ing
Ġpost ure
Ġleak ed
Ġvis ible
Ġabs or
Ġcheck ups
ĠElder Shield
Ġreven ues
Ġbon ds
Ġorig in
ĠSp ain
ĠHum ans
Ġsepar ately
Ġcivil ians
Ġprim arily
Ġinade quately
Ġbound ed
Ġpurs uit
Ġinert ia
Ġcharacter istic
Ġconstrain ed
Ġdraw backs
ĠDesign ing
Ġred irect
Ġgre w
Ġenerg etic
Ġconvert ers
Ġexplain s
Ġqual ities
Ġprolong ing
Ġran king
Ġanx ious
Ġexhaus t
Ġafflu ence
rep ared
Ġadvoc ate
Ġfavor able
Ġwatch ing
year s
Ġprinci ples
ĠIss ue
Ġbank rupt
Ġconvin cing
Ġsold iers
Ġcatastrop hes
Ġdemonst rated
Ġcur ren
Ġsho cking
Ġpick ed
Ġexc ite
Ġpul led
Ġburdens ome
ĠCont rol
ĠQ u
Ġescal ate
Ġprohib ited
Ġdischar ged
Ġcultiv ating
Ġbicy cle
Ġfat ality
Ġwarf are
Ġtheore tical
Ġprop el
ĠNob el
Ġprivile ge
Ġembra ce
Ġsatell ites
Ġalloy s
Ġstagn ation
Ġadminist rative
Ġtaxpay ers
Ġframe work
Ġlig ament
Ġsuspect s
Ġaccompan ied
Ġpriorit ized
Ġcounterpart s
Ġairpl ane
elect ric
ĠSil ver
ĠSerendip ity
ĠCorpor ation
ĠVol unt
dr iven
Ġconj unction
ĠNR C
ĠNove mber
ĠAltern atively
Ġeradic ate
Te chnology
Ġcompos ite
Ġdiagnost ic
Ġpedestri ans
Ġpess imistic
Ġluc rative
ĠAAR P
ĠMart in
Ġlett ers
Ġdaugh ter
0 5
0 6
2 4
3 5
5 00
9 6
9 00
B T
E n
G S
G NP
H owever
L E
M E
M W
M s
S ave
S AE
V iew
a j
e v
e re
f o
f ig
f und
f unct
f arin
g g
g ering
g ically
g aw
h y
i ative
k g
l or
n est
o C
p opulation
p atient
r actors
s un
s est
s urance
t rained
u ine
u ya
v ob
v ail
v iation
y si
y gen
y yed
z e
z one
Ġt ennis
Ġt sun
he ed
he umat
Ġa ro
Ġa ud
in ational
Ġthe fts
re sid
on est
en e
er ry
Ġs ank
Ġo wing
Ġo zone
Ġc ul
Ġc oura
Ġc rop
Ġc odes
Ġp our
Ġp all
Ġp ages
Ġp ounds
at itude
Ġw ww
or ious
or osis
Ġb order
an ch
an ging
an ny
Ġf i
Ġf ine
Ġf ather
Ġf illed
Ġf ash
Ġf ellow
Ġf ibrosis
Ġm ould
Ġm ac
Ġm ix
Ġm isc
Ġan cest
Ġd in
Ġd at
Ġd il
Ġd ark
ic he
ic ient
Ġe ating
Ġe rect
Ġh ired
Ġh orm
Ġre cept
Ġre design
as qu
Ġth r
il st
il ience
lo ck
lo sis
Ġg ent
Ġg ard
Ġg ame
Ġpro pose
ĠT am
ĠT ri
ĠT ets
ĠT ribunal
Ġl ag
Ġl iable
et itive
st at
st ract
id one
Ġare na
Ġas c
her land
op es
Ġen vis
Ġwh ilst
Ġsu e
Ġal erted
Ġal together
Ġag ile
ol ing
ol ester
ies el
ĠS ource
ĠS aving
ĠS vob
Ġst ric
Ġst ove
Ġst ring
Ġst ret
Ġst ood
Ġhe ight
un ch
if lu
ĠA T
iv ision
ci pl
Ġsh ad
ant on
ant ly
are r
ort ion
ort ium
end ers
ect ed
am b
am i
ad d
eop orosis
ke ep
ĠH u
ĠH om
ĠH apt
ĠH IV
ĠIn surance
ate ful
Ġgen uine
Ġsp are
um ing
Ġdis h
Ġdis p
Ġdis put
Ġdis par
Ġdis app
Ġdis mis
Ġdis regard
Ġdis cipl
Ġr ip
Ġr ural
Ġr ats
Ġr heumat
ĠF ar
ĠF ree
ĠF SAE
Ġinc ulc
ĠC i
ĠC old
ĠC orm
Ġcount ies
so lete
em ia
em phas
ĠM obile
ĠM ax
ast s
per idone
and em
Ġse at
Ġse eds
one ous
Ġsa v
Ġsa bot
Ġcomp li
Ġcomp ounds
ĠW NA
od a
ĠB a
ĠB io
ĠB hop
Ġv ap
Ġv ib
ĠR M
Ġcost ing
our ne
ear ance
ĠP M
ĠP ension
ĠN eed
ĠN GNP
Ġk m
ren cing
ĠE co
Ġrel ig
Ġrel ied
Ġrel ieved
Ġsupp ose
ab ase
Ġcar bide
Ġout dated
Ġun ion
Ġun im
Ġun att
Ġprov isions
Ġcons ensus
Ġcons ortium
Ġcare s
ĠV arious
ag ger
ĠD u
ĠD em
ĠD epend
ĠD ivision
ĠL im
Ġsupport ive
Ġimport ing
ĠU AV
Ġam idst
ound ed
Ġinv ade
Ġover flow
Ġadv ise
Ġbetter ment
Ġcomm ence
Ġelect ronics
ob s
Ġ19 00
Ġ19 30
Ġph ysi
Ġret ard
Ġret rain
Ġco als
Ġqu ote
Ġqu oted
Ġunder stood
ĠCh ap
ĠCh rist
Ġro t
ber cu
Ġtw ent
Ġwast ing
pl an
Ġinvest s
ium s
other apy
Ġnow here
ĠGen IV
Ġgr atitude
Ġfo g
Ġtrans mission
Ġhapp ier
Ġsim ulation
Ġ6 8
Ġob solete
Ġsk im
ĠSe yyed
Ġins ights
Ġstr ive
Ġcl ick
Ġsee ks
Ġreal loc
ĠSt aff
Ġneg ot
Ġcap s
Ġshort ened
Ġ5 8
gen ic
ew s
Ġhy per
irect ly
Ġ4 000
Ġperform ances
ĠPro per
Ġaw ard
Ġaw arded
Ġpercent s
Ġexpect ations
te es
Ġconstruct ive
rain s
Ġform al
Ġpres cription
ish un
Ġexpend ed
Ġimm inent
ĠWe b
Ġprof icient
Ġtransport ations
omm un
Ġpass ports
pro tect
Ġcor rid
ĠSCWR s
Ġchallen ged
ortun e
ĠHe j
ron ically
Ġfore seen
Ġstate ments
Ġconf ig
Ġdirect or
ict ory
Ġrec ru
Ġclo thes
Ġclo sest
ĠMed ia
ib ly
Ġpract ition
Ġargu ing
Ġgra b
Ġgra des
ath a
ho le
Ġfl ip
Ġprep aring
Ġrest ructuring
ĠRes ort
ĠRes ilience
ĠY outube
ĠY ishun
Ġfol k
Ġmean while
Ġshare s
ĠInd irectly
Ġdeterm ines
Ġassist ing
Ġend anger
Ġsufficient ly
ĠBe ij
itor ies
Ġpoll ute
Ġcomput ing
Ġsum mer
Ġlight ing
Ġinflu enza
Ġprogress ed
Ġsuper vision
Ġeth anol
Ġtre as
Ġcell ular
ĠAd vant
Ġspec ified
Ġspecial ists
Ġread ers
be in
Ġcomfort s
Ġ9 7
Ġcy c
Ġcy cl
Ġcat aly
Ġemphas izing
Ġtravel ers
Ġspeed ing
Ġwr ink
Ġmass es
Ġconnect ions
Ġprec ision
Ġpar king
ank ind
ĠMe gaw
Ġposition ing
ĠBo eing
Ġcater ing
Ġbr ands
Ġbreak down
Ġmar vel
Ġwealth y
Ġprepare s
Ġbro ke
Ġden ying
Ġbl ack
Ġcommit tees
ang a
Ġrev ise
Ġestim ation
Ġstor ing
ograph y
Ġinj uring
Ġresol ving
Ġimmigr ant
Ġabs ence
Ġsw ift
Ġsimpl ification
Ġsimpl icity
rup tion
ĠWar farin
Ġinvestig ated
Ġkid ney
Ġiniti ate
Ġabandon ing
Ġoptim ally
Ġprototy ping
Ġmeasure ments
Ġstatus es
ĠAg atha
Ġir radiation
Ġsick le
Ġfair ness
Ġdev ised
Ġoccup y
Ġcivil ization
Ġ18 7
Ġfit ness
Ġbound aries
Ġunexpected ly
Ġdistrib ute
Ġpredict ive
Ġviol ated
ĠGr ant
Ġbroad band
ĠPsycholo gists
Ġincorpor ates
Ġflu id
Ġassum ption
ĠSk ills
Ġlay ers
ĠBu y
ĠRobert i
Ġwors ened
Ġexpress ed
product s
ĠElect ronic
Ġjo in
Ġcircumst ance
Ġevalu ation
Ġtap ping
Ġca ught
Ġca utious
Ġexec ution
Ġpath s
Ġwalk ways
ĠInnov ative
Ġblind ly
Ġblind ness
Ġ194 5
ĠPer haps
Ġsuscept ibility
Ġdream s
Ġstrict ly
Ġdisturb ing
Ġcatch ment
Ġcateg ory
Ġcateg orized
Ġwis hes
Ġ24 00
Ġyield s
Ġsmart phones
ĠStud ents
ĠSub sid
Ġappreci ated
Ġrein forced
Ġinfring es
Ġentit lement
Ġcorro sive
Ġdur able
Ġdur ability
Ġinject ion
ĠMedi Save
Ġce le
Ġstri king
ĠLe ase
Ġsurf aced
Ġnewsp apers
Ġlegis l
AS A
Ġnotice able
Ġreview ing
Ġdeploy ed
ĠInv est
ĠDa ily
Ġkill er
ĠCont r
Ġacceler ated
Ġox ygen
Ġprohib it
Ġenforce ment
Ġdischar ge
Ġjeopard ize
Ġcogn ition
Ġscan ner
Ġpill ar
Ġrepercus sion
Ġdry ers
Ġaggress ively
ĠNet herland
ĠIndust rial
Ġcollabor ation
Ġprecaution ary
ĠCertain ly
ĠPres ently
Ġdri ver
Ġcareg iver
ĠAss istance
Ġrecomm end
Ġentrepreneurs hip
Ġsurplus es
ĠNob ody
Ġretren ch
Ġskept ics
Ġger iatric
ĠYear s
ĠAndrew s
Ġpeb ble
Ġpeb bles
Ġarrange ments
Ġbreed er
Ġsess ions
Ġcrow ded
Ġbor ne
Ġbott om
Ġmil k
Ġmathemat ics
Ġincomp et
Ġmanip ulate
Ġamb iguous
ĠJac ques
Ġrestaur ants
Ġmat urity
Ġaccompl ish
Ġflour ish
Ġmachin ery
Ġstimul ates
Ġtherap y
erpr ise
Ġcru el
ĠMid dle
Ġrestructure d
Ġunfav ourable
Ġrent al
Ġstar ving
Ġimper fect
ĠIntell igent
Ġpersu ade
ĠArchitect ure
Ġdeduct ed
Ġexacerb ate
Ġton nes
Ġaven ues
Ġost eoporosis
Ġdesper ate
Ġpret ty
Ġvill ages
ĠVel asqu
Ġtransplant ation
ĠProtect ion
Ġ74 7
Ġmixt ure
ĠDecl an
Ġembar r
Ġpredecess ors
Ġisot opes
ĠCong ress
Ġinfra red
ĠJen ner
ĠKy oto
Ġprotoc ols
Ġautonom y
Ġairb ag
ĠSchoen bein
Ġdecommission ing
Ġdisint egr
Ġloy alty
ĠForm ula
ĠRele ase
Ġaro se
Ġcoura ge
Ġpall iative
ĠTam iflu
ĠTets uya
olester ol
ĠSvob oda
Ġstring ent
ĠHapt ic
Ġdismis sed
ĠBhop al
ĠNGNP s
agger ated
bercu losis
protect ed
ĠBeij ing
Ġcataly tic
ĠVelasqu ez
9 5
I S
a ments
a verse
b ring
c a
c ult
c oura
c ifically
d is
d ering
d irect
d ible
d og
e ffect
f icial
i en
i ment
p ot
r ances
u ity
w est
x ford
Â ¶
Ġ id
he nt
he res
in cre
on ance
Ġc ow
Ġp ir
es c
is en
is ive
Ġb other
Ġb oring
ed ged
Ġf ur
Ġf ever
Ġf ake
Ġin ner
Ġm ission
Ġd um
Ġd ys
ion ic
ion ate
ro cess
ro oms
Ġre aches
as ons
lo oking
Ġg rie
Ġg iant
om in
ment ioned
ĠT om
ĠT ax
ce mber
id er
Ġfor k
ig her
ut er
Ġde lic
Ġde als
Ġde lete
Ġcon vic
se min
Ġen de
Ġal erts
ĠS D
ĠS chool
ĠA ff
ra m
th y
end iture
Ġim bal
ĠH igher
ĠIn it
est ival
Ġdis semin
Ġres orts
Ġres erved
Ġres cue
Ġr ide
ĠF act
ĠF uel
ĠF actors
ĠF amil
ĠC ow
ĠC ust
ĠC ollapse
Ġshould ers
Ġch ina
and ering
Ġpl ates
Ġdes ert
Ġwork pl
ĠW ood
ĠW estern
Ġab ol
Ġab using
ĠB eside
ĠB ionic
Ġpublic ity
Ġhelp less
Ġhealth ily
Ġincre dible
Ġle ver
oun g
ear ing
ĠN O
ĠN orm
Ġexp ort
Ġexp ose
ĠO xford
Ġproduct ions
Ġup bring
ĠE ither
ient ated
Ġsome where
Ġar isen
Ġun know
Ġun educated
Ġun mar
Ġcare d
Ġcare ers
cy cle
Ġthan k
ĠD i
ĠD ictionary
ĠL ear
Ġindividual ly
Ġam ple
ip s
Ġadv is
Ġinst ances
Ġinst illed
ĠAl most
ĠOn line
Ġbenefit ing
Ġbenefit ting
Ġlow ers
ress ed
Ġqu iet
Ġperson ality
ĠCh ar
Ġro b
pect ives
Ġsurve ys
ass ed
Ġrad ar
Ġrad ical
Ġpo cket
Ġconst it
Ġdet ractors
Ġfo ot
Ġimplement ations
Ġcontribut or
Ġliving s
Ġtrans mitted
ĠUn ivers
Ġjust ification
Ġjust ify
ĠSe lect
Ġcontin ually
veal ing
Ġburden ed
ĠRe ason
ĠRe vealing
Ġpot able
Ġreal izing
Ġmin es
eth ics
Ġshort en
Ġrem emb
Ġmeet ings
Ġdown s
Ġperform s
Ġhospital isation
Ġsuccess es
Ġent ered
Ġprom pt
Ġintro duces
Ġconstruct s
Ġconsider ate
Ġdeter ring
vers ed
Ġcontrol ler
Ġtransport s
Ġexplo iting
Ġaccess ed
Ġminim ization
Ġbo il
Ġrec overed
Ġclo ver
Ġloc ally
Ġlab ours
ĠRes ident
ĠY es
Ġtal ks
ĠDe cember
Ġdeterm ination
Ġgu ilt
Ġslow s
Ġslow ed
Ġcall ing
Ġ8 00
Ġfriends hip
ĠCent res
Ġbusiness men
Ġcle ared
Ġsuper ficial
Ġoppos itions
Ġenjoy ed
Ġtyp ing
Ġcomb ining
Ġeth n
Ġcontinu ation
Ġsatisf action
Ġsurger ies
ĠComp uter
Ġcat ers
Ġreplace ments
Ġtravel ing
200 4
Ġspeed s
Ġprofess ors
Ġbal ancing
Ġboost ing
Ġmet ers
Ġflo ors
Ġpost ed
Ġann ually
Ġcompar atively
Ġcontain er
Ġestim ate
Ġpredic ting
Ġdecl are
ĠSp ace
ĠAg ain
Ġsepar ation
Ġsepar ates
Ġarchitect ures
oms day
Ġlat ent
Ġtransfer ring
Ġfav ourable
Ġcour t
ĠCons ult
Ġpredict ion
Ġsym p
Ġsym bol
Ġimplic ation
Ġjud ging
ĠGr aying
Ġbroad er
ĠPsycholo gical
Ġenterpr ise
Ġgot ten
Ġroot s
Ġintr uding
Ġhead set
Ġhot el
Ġwors ens
ĠEconom ics
Ġdraw ing
Ġlist ed
Ġdrain ing
ĠSpe cifically
Ġhighlight s
ĠAccident s
Ġbi as
fe rence
Ġhar ms
Ġsurpr ised
Ġflow s
Ġevalu ating
Ġca ution
Ġexec ute
Ġexec uted
Ġswit ched
Ġthor oughly
Ġexhaus ting
Ġwis dom
Ġquant ities
Ġelse where
Ġpolit ic
Ġbonus es
ĠOrgan isation
ĠWork ers
ĠWork force
Ġcritic ize
ĠOf ten
ĠAb ove
ĠCl in
Th us
Ġattain ed
Ġexcl usive
Ġsho ck
Ġreluct ance
Ġvers a
Ġpure ly
Ġleng th
Ġleng thening
Ġhab it
Ġconflic t
Ġsmooth ly
Ġorganis ms
19 9
Ġanim al
Ġjeopard y
Ġscan ning
Ġunb orn
ĠAdv anced
Ġilleg ally
Ġtheore tically
Ġcompens ated
ĠExp enditure
Ġren dering
Ġexpl oring
Ġinvad ing
amm able
Ġsle eping
ĠFour th
ĠEnviron mental
Ġlangu ages
Ġswe et
Ġgovern ing
ĠMI T
Ġretren ched
Ġdeliver ing
Ġsatell ite
ĠAnt i
ĠPhys ical
Ġnucle us
Ġdeliber ate
Ġdeliber ately
hum an
Ġho lder
Ġinstruct ions
ĠDevelop ments
Ġnurt uring
Ġsli pping
Ġprejud ice
Res erved
Ġinhib it
Ġpregn ancy
ĠDig ital
ĠMajor ity
Ġhes itate
Ġinduc ed
Ġmoder ator
Ġcontroll ers
Ġmov ie
Ġdos es
Ġsecre ts
Ġinfer ior
ĠExper ts
ĠInfrast ructure
ĠPolytechn ic
Ġpou red
Ġfem ales
Ġhass le
Ġunint ention
Ġamaz ing
Ġque ues
Ġninet een
Re actor
dep th
ĠFore ign
ĠWatch dog
istor ical
ĠNTU C
Ġaccord ance
Ġexpon entially
Ġsuperv ise
Ġworkshop s
Ġcurren cy
Ġexcite ment
ĠVolunt ary
resid ence
Ġfash ion
Ġgent le
Ġdiscipl ine
Ġvib ration
Ġende av
ĠFamil ies
Ġworkpl aces
ĠNorm ally
Ġunknow ingly
Ġunmar ried
. ,
2 1
3 6
4 4
5 5
7 5
7 00
9 0
9 8
A L
A r
B ar
D V
D onald
E S
E TR
H M
N ews
O C
S o
S ho
S uper
S achs
W h
a o
b u
b in
b it
b id
b rug
b ourne
c or
c ul
c ure
c ke
c ost
c ulation
d ef
d isc
d oubtedly
e u
e uthanasia
f ted
f alls
g reen
h att
i eth
i ots
i ya
m ount
m ath
m arin
n an
o cket
p ric
r ong
r ison
s ustain
s aries
s afe
t raining
u is
u elled
u fficiency
w an
w age
y o
Ġ +
Ġ @
Ġ ip
Ġ lying
Ġ umb
Ġt it
Ġt id
Ġt un
Ġt ire
Ġt andem
Ġa p
in ci
in ter
in ts
re ens
re ll
on ed
on ic
on to
en ergy
en ious
en erate
en gineering
er ichip
Ġs lo
Ġo ve
Ġc er
Ġc ri
Ġc ush
Ġc abin
Ġc ystic
Ġp a
Ġp in
Ġp ater
Ġp sy
Ġp unct
at able
Ġw ro
or al
or gan
is k
it ivity
it tle
it imate
Ġb id
Ġb ord
Ġb ind
Ġb ones
Ġb ored
ed ing
ed ge
an ation
Ġf ans
Ġf ile
Ġf ired
Ġf ought
Ġin ad
Ġm ill
Ġm ount
Ġm etic
Ġm ice
Ġm ism
Ġm isf
Ġan ten
Ġd rough
Ġd ump
ic ine
ou is
ro om
ro ft
Ġh ob
Ġh ung
Ġh anging
Ġn est
Ġn ine
Ġn ick
Ġn iche
Ġre imb
as er
as ive
ly m
ly sis
Ġth in
ct ure
Ġbe lo
il ia
ld om
Ġg ar
Ġg lo
Ġg ase
Ġg ift
Ġg rief
us er
us able
om b
Ġpro xim
ĠT et
ĠT ay
ĠT ime
ĠT elf
ĠT ener
Ġl ibr
Ġl ung
Ġl ump
Ġl ibrary
Ġl ithium
Ġon site
et t
im ated
im atic
st rom
st ud
id ed
id ay
ore n
ot ive
ot ics
ot ton
ur ized
Ġfor um
Ġfor bid
ig ra
ig ue
ill a
Ġde leg
se in
ĠI R
op eration
Ġen vision
ul ous
Ġha y
ay ak
Ġsu its
Ġal ike
Ġnot able
Ġnot ified
Ġnot ify
Ġnot orious
uc ca
ĠS A
ĠS ri
act ers
un it
ĠA C
ĠA DV
Ġne uro
iv ile
Ġcan cel
ra ils
el bourne
Ġex ception
are st
Ġso ar
Ġso il
am p
Ġ' '
ount ain
Ġte ar
ad ing
ad do
ĠH ave
ĠH omes
ge red
Ġimp over
Ġimp atient
ost on
Ġsp ans
Ġdis si
Ġdis pro
Ġr ing
Ġr id
Ġr ating
Ġr ice
Ġr iding
ĠF ed
ĠF ro
ĠF ol
ĠF acing
ĠC W
ĠC ore
ĠC ould
ĠC ard
Ġch olesterol
ĠTh or
ĠTh ane
ance ment
du ke
ĠM Y
ĠM un
ĠM ary
ĠM ilitary
ĠM oh
ĠM ountain
ast ics
per form
and ing
Ġse aw
Ġse ldom
Ġad here
Ġad mit
ue k
Ġcomp l
Ġcomp elling
Ġlo an
ĠW ill
ĠW est
ĠW ald
ĠW aste
Ġpre natal
Ġpre vail
ĠB re
ĠB ed
ĠB al
ĠB ill
ĠB ry
ĠB ray
ĠB oto
ĠB ouch
ĠB oston
Ġpublic ize
Ġv en
Ġv ote
iz ations
iz ab
ident ly
ĠR en
ĠR ights
ĠR onald
Ġdo z
Ġint entions
duct ions
for cing
sear ch
Ġle aps
Ġle cture
Ġ1 20
Ġgener ous
ĠG S
ĠG ree
ĠG ates
ĠP E
ĠP op
ĠP ort
ĠP rior
ĠP ocket
ĠP addo
ĠN an
ĠN am
ĠN ish
ĠN ER
ĠN atal
ĠN ano
ĠN ASA
art ic
art ers
Ġpol ar
ĠO cc
ĠO lym
ens ed
ens ional
ĠE th
ĠE RI
Ġar ouse
Ġem p
Ġem ail
Ġem ph
Ġrel ate
Ġrel ieving
Ġhigh ways
Ġhigh way
si x
ater ial
Ġout flow
Ġun ve
Ġun com
Ġun aff
Ġun just
Ġsoci olo
Ġcons erve
Ġcons olid
ric hed
ĠV is
ĠV irt
ĠV erichip
pt ions
ĠD own
ĠD irect
ĠD ub
ĠD iver
Ġlike wise
ĠL aptop
ĠL ank
ĠL ibrary
ĠL UP
ĠL LE
ĠL ouis
Ġimport s
ĠAs h
ĠAs her
Ġindividual ism
Ġris peridone
Ġtr illion
Ġj ourn
Ġed ges
Ġinv alu
Ġover sp
Ġover load
Ġinnov atively
Ġpr ide
ger y
Ġno ble
ob ots
Ġfuel ed
Ġmain stream
Ġco lo
Ġcr ises
Ġqu arant
ade h
arent ly
ĠCh ua
gra du
ail ure
Ġinf ant
Ġinf ert
Ġeas iest
Ġbur saries
ck er
ck heed
oth ing
Ġdi ets
ass en
Ġext inct
Ġdem ocr
ak er
ak ers
Ġgr ateful
Ġpo ckets
Ġenc omp
ph p
ph ony
Ġ3 7
Ġ3 000
Ġke ys
ĠUn doubtedly
Ġsign ifies
Ġreg ulated
Ġreg enerate
Ġ6 1
Ġ6 9
Ġ6 70
Ġdepend ed
Ġdepend ents
Ġins erted
Ġstr angers
Ġcl ient
Ġcl oned
Ġcl imatic
av ation
ĠRe al
Ġreal ities
ĠSt ar
ĠSt art
Ġmin ist
Ġmin ute
Ġcap ita
Ġrun away
Ġmod ular
Ġmod erate
Ġmod erated
ier ce
Ġref ined
Ġref resh
Ġ5 2
Ġ5 10
Ġequ ation
gen eration
Ġvar iable
Ġtreat able
int end
Ġdown load
Ġset t
Ġset back
Ġset backs
Ġ4 2
Ġbudget ary
Ġ199 1
te chnology
sid er
ĠEn h
ĠEn coura
Ġserious ness
Ġdefin es
Ġess ays
Ġdeter red
Ġsc reens
Ġconcept ual
Ġcent igra
Ġwant ing
Ġtransport ing
Ġcompet itor
Ġview ing
pro f
pro fit
Ġfound ations
Ġbo ld
abl ing
Ġfore ver
Ġfore sight
Ġrece ives
Ġrece iver
Ġconf ined
ib ilities
Ġloc ating
ix el
Ġdiscrimin ating
Ġgra ce
the re
ath y
Ġactiv ate
Ġ198 8
ĠRes ources
Ġdist ant
Ġdist ract
ĠY ucca
Ġur ge
ee brug
Ġgreen er
Ġconven iences
Ġ7 6
Ġ7 7
Ġ7 50
ĠInd ian
Ġslow down
omp ose
Ġfriends hips
pr ivile
Ġlight ly
Ġnon renewable
Ġsenior ity
Ġcle arer
Ġpresent ing
Ġerr oneous
Ġcore s
Ġport ability
Ġsuper iors
Ġclear ance
Ġbar rel
Ġdetect or
Ġfil m
Ġfil ed
Ġfear ing
Ġfear ful
ĠFund ing
Ġintern ationally
fort able
part ite
Ġattack ed
Ġsug ar
Ġchar ges
Ġchar acters
ĠEngine er
Ġmor ning
Ġpred is
Ġschool ing
Ġkey board
Ġtarget ing
Ġutil ised
Ġwilling ly
Ġopt ional
Ġwar ned
elt down
book s
Ġpoor ly
igr ation
Ġconver ter
Ġdeb atable
Ġ197 8
Ġunt ested
Ġanaly tical
Ġcontact s
TA GE
Ġcol on
Ġcol or
Ġcol our
Ġassoci ation
ĠMe eting
rect al
Ġspread s
Ġleft over
Ġunf ilial
Ġunf ounded
etro it
Ġworth less
Ġbr anch
eral d
Ġmot ive
Ġmot orb
Ġcommercial ize
Ġcommercial ized
Ġincur ring
Ġpe el
Ġopen er
Ġsurv iving
Ġla zy
Ġcirc ulated
Ġimpos ing
Ġcure d
Ġyour self
Ġtack led
Ġcontain ing
ang ible
Ġrestric ts
Ġmut ations
Ġchem ically
ĠCI A
Ġindic ation
Ġrep etitive
Ġsens ory
Ġ100 00
Ġsuffering s
Ġleg ally
Ġuns uccessful
Ġuns olved
Ġpredic ts
Ġpredic ament
Ġsus pected
oc racy
Ġcomplex ity
wh at
oph oles
oph ilia
Ġfission able
ote chnology
Ġclass es
Ġmeasure ment
Ġsepar ators
Ġemb ry
ĠRob otic
Ġarr ival
Ġ11 4
ĠLo ckheed
Ġfair s
Ġ201 5
Ġoccup ies
ĠMan hatt
Ġfit ted
Ġweapon ry
Ġ15 00
Ġcorpor ation
omet ry
Ġexperiment ed
Ġpredict ions
Ġgam ers
ĠApp arently
ĠGr ay
ĠGr anny
Ġbroad ly
Ġallevi ated
Ġdel ays
ĠSk ycar
ĠAr my
ĠCommun ication
Ġver ification
Ġver bal
Ġintr ude
Ġi Sho
Ġbomb ing
ĠEmploy ability
Ġmicro sc
Ġdut ies
product ive
Ġred efined
Ġlist ening
Ġparticip ation
Ġpan ic
Ġdrop s
Ġmagn itude
Ġjo int
Ġbi omed
Ġprem ature
Ġexcell ence
Ġadjust ment
Ġconsult ing
Ġconsult ancy
Ġqual ification
Ġcal or
Ġdiscoura ges
Ġdefic ient
Ġz one
Ġdead liest
ĠIm m
Ġundes ired
Ġsent ence
Ġfunda ment
Ġ196 4
Ġconsist ently
Ġ194 7
Ġ194 9
Ġ195 4
ĠAfric an
arin a
ĠMac book
ĠMac Donald
Ġclin ic
Ġclin ics
Ġdisturb ed
Ġsuperior ity
Ġsqu ee
Ġtransl ated
Ġcrew s
Ġing enious
ĠWork fare
Ġcritic ized
ĠScient ific
med icine
Ġsil ence
Ġsil icon
Ġevol ving
ĠSkunk works
Ġinject ions
Ġreform ing
ĠCor p
Ġtrig gered
Ġmonit ors
Ġce ased
Ġbra ve
Ġsurf ing
Ġsurf aces
ĠAccount ability
ĠTra de
Ġcra ck
Ġmigr ating
Ġshif ting
Ġreview ed
Ġpen al
Ġfirm ly
Ġmal es
Ġrepos itories
Ġconce ived
Ġexc iting
Ġexc avation
AN TAGE
Ġhab itable
Ġunivers al
Ġinconven ient
umb ia
ĠCol umbia
Ġdepr iving
Ġescal ating
Ġox id
Ġox ides
Ġstead ily
Ġrelief s
Ġundert aken
Ġrefer red
Ġtherm odynam
Ġrevolution ary
Ġsty les
Ġboom er
Ġnutrition al
Ġfat igue
Ġinsist ed
Ġtum or
Ġast on
Ġast ron
Ġrect ified
Ġaggress ive
Ġaggress ors
cons uming
Ġexpl or
Ġexpl anation
ĠMedic are
vas ive
Ġder ail
Ġder ived
Ġpressur ized
Ġwithdraw al
Ġtu ition
Ġtu berculosis
Ġsle ep
sight ed
Ġmer ch
Ġmel ted
Ġhol iday
Ġnin ety
Ġcoord inate
Ġpoison ing
Ġpoison ous
Ġang les
ĠHear ing
Ġdisrup ted
Ġdisrup tion
ĠNE Water
Ġprivile ges
Ġoffic er
St ory
sk i
sk illed
Ġfruit ful
Ġupload ed
Ġ43 6
Ġarrange ment
Ġble ak
Ġble eding
ĠSol utions
Ġstagn ant
Ġtaxpay er
Ġsess ion
Ġcrow d
Ġmil est
ĠSch u
ĠRem ember
Ġrestaur ant
Ġiron ic
ĠHis ense
Ġdiss atisf
ĠBur ton
Ġvic ious
ĠDevelop ing
inite ly
Ġgun powder
Ġlic ense
ĠEl izab
Ġbenefici ary
Ġbenefici aries
Ġunderm ining
Ġpleas ant
Ġtub es
Ġbrow ser
Ġhards hip
Ġconvers ation
aren cy
Ġsevent y
Ġkin etic
ĠEnt erprise
Ġuncont roll
Ġretro fit
Ġinflex ible
Ġtransp arent
Ġsam ple
ĠEv idently
Ġunfore seen
ĠJe ff
Ġelabor ated
bur gh
poll uting
Ġsan itation
Ġhosp ice
Ġgym n
Ġgau ge
ĠTai wan
Ġdegra de
Ġcondu it
olt z
Ġshield ing
ĠCE O
ĠLif elong
Ġparam ount
Ġvolat ile
Ġdiction ary
Ġenthusi astic
Ġelev ators
Ġunhapp iness
Ġbureauc racy
Ġstairc ase
uw en
Ġconting ency
ĠUnden iably
View er
fund ed
funct ional
Ġtsun ami
Ġcul pr
Ġmac ro
Ġmisc ommun
Ġancest ors
Ġdat abase
Ġrecept ive
Ġshad ow
ĠHom eland
Ġgenuine ly
Ġdispar ity
Ġrheumat ism
ĠCorm ode
ĠMax well
Ġsav vy
Ġsabot age
Ġvap or
ĠDepend ing
Ġcommence ment
Ġphysi ological
ĠChap in
Ġtwent ieth
ĠProper ty
Ġcorrid ors
ĠHej z
Ġcycl ists
Ġwrink les
incre asing
rocess ing
ĠInit ially
Ġupbring ing
ETR Y
Super critical
mount able
sustain ed
Ġtid al
Ġtun nel
Ġcri pple
Ġwro te
Ġbord ers
Ġmill enn
Ġmism atch
Ġanten na
Ġdrough ts
Ġbelo ved
Ġgase ous
ĠTelf on
ĠTener ife
Ġlibr aries
stud ents
ĠADV ANTAGE
Ġdissi p
Ġseaw ater
ĠBray ton
ĠBoto x
ĠBouch ard
ĠPocket Viewer
ĠPaddo ck
ĠNER AC
ĠERI S
Ġuncom fortable
ĠVirt ual
ĠDub ai
Ġjourn als
Ġinvalu able
ĠEncoura ging
Ġcentigra de
eebrug ge
privile ged
Ġbarrel s
ĠManhatt an
ĠiSho e
Ġbiomed ical
ĠElizab eth
Ġuncontroll able
1 2
1 6
8 3
K IA
R P
a ily
b ars
b usiness
d ate
d ictionary
d ollar
e k
f id
f ers
f inal
f unction
f amous
g ist
g ged
k ward
l s
n ot
p aced
p repared
u itable
u its
v ard
Ġ x
Ġt ort
Ġt ong
in ity
in ition
re et
re tion
en ess
Ġs ou
Ġs ad
Ġs ister
Ġo v
Ġp on
Ġp apers
Ġw ins
Ġw andering
or ial
is er
ed es
ed ay
an es
an el
Ġf ed
Ġf ade
Ġf allen
Ġm ine
Ġm ile
Ġd are
Ġd ressing
ic ing
Ġe ager
Ġh ous
Ġh all
Ġh ier
Ġn ice
Ġn erve
Ġre ck
Ġre char
as ks
Ġth read
Ġth rown
lo t
us al
us ions
Ġpro duc
ĠT u
ĠT op
ĠT reat
st ep
ot al
Ġfor ge
ig or
ir s
ir cle
ir cu
Ġde eds
ow s
se m
ĠI N
ĠS he
ĠS el
ĠS elf
Ġst ic
Ġhe al
ĠA A
am at
am ps
Ġ2 50
ap e
Ġby pass
Ġor ientated
Ġimp ul
Ġimp lements
um a
ter ror
rom otion
ĠF ossil
ĠC ircle
ain d
Ġch airs
ign ation
ac cept
du le
em ics
ĠM other
ĠM asters
qu al
bl ed
ult s
Ġproblem atic
Ġdes erved
Ġdes erving
Ġwork able
Ġwork forces
Ġcomp ound
Ġlo opholes
ĠW DA
Ġma id
ĠB el
ĠB irth
Ġv ot
Ġcont ented
Ġind oor
Ġind ignation
ĠR a
Ġint ent
ĠG o
ĠP red
ĠP romotion
Ġfin ished
ren ch
age ing
ans as
ĠO rig
Ġup keep
Ġnew born
Ġsupp lier
Ġun accept
ĠV ideophone
Ġtra uma
Ġtime ly
ag iarism
ĠFor ce
Ġexam ined
Ġdec isive
Ġwell being
Ġpos ing
Ġdisc retion
Ġj um
Ġaccident ly
Ġover ly
Ġover weigh
Ġold s
Ġinst il
Ġund erest
port ant
io x
Ġro l
Ġro se
gra ph
Ġamount ing
Ġbuild s
Ġinf ancy
cent s
ĠJ ul
ĠGen e
Ġdef e
Ġdef ici
Ġafter math
Ġfo ld
Ġtrans formation
Ġspe wing
Ġreg ist
Ġreg ime
Ġconsid ers
Ġprovid er
Ġstr ange
Ġreveal s
ĠSt rate
ĠSt ein
Ġmin istry
Ġdiver sion
Ġset tle
Ġhy pot
Ġche cking
Ġve get
Ġaw kward
Ġent ities
Ġill um
Ġinter f
Ġpres ents
Ġpres ently
ĠWe i
Ġaut hent
Ġpass age
Ġcompet itions
Ġknowledge able
Ġback ed
Ġminim ised
Ġminim izes
Ġaltern atively
Ġconf used
ĠTe chn
Ġdirect ions
Ġreport ing
ĠInt erest
Ġheat h
Ġdiscrimin ations
Ġgra ve
Ġorgan isation
Ġpric ing
Ġequip s
Ġcomple tion
ĠDe mentia
erg ency
Ġassist ive
Ġassist ances
Ġnon polluting
Ġapplic ants
Ġinflu encing
Ġdisclo ses
Ġment ions
Ġbeh ave
Ġbeh alf
Ġport ray
Ġsom eday
Ġheart s
ĠResear ches
Ġlear ned
Ġeth ics
ĠAd mitted
Ġspecial ist
Ġmor als
ĠCon f
ĠComp are
ik es
Ġrespect s
Ġutil ise
Ġsing ular
Ġdam aging
Ġweak en
Ġdra fted
Ġrecyc les
Ġproport ional
Ġvir al
Ġunf it
Ġpers ists
Ġpers pectives
Ġpractical ity
Ġanalys es
Ġanalys ed
Ġmet als
ash ing
Ġsurv ived
Ġpost al
Ġla id
Ġann um
Ġcommit ments
Ġcommit tee
Ġprofit ability
Ġalong side
cl ass
cl uding
Ġsoon er
Ġexer ted
Ġvis iting
ĠEx aggerated
arch y
Ġuns uitable
Ġcorrect ed
Ġcorrect ly
Ġstreng thening
Ġoptim um
ĠSci ences
Ġcollect ion
Ġcollect ive
ĠGer man
Ġemb ark
Ġphenomen a
Ġalle viation
Ġpus hes
Ġpossess ed
ĠEm ergency
Ġdev ote
Ġdev oted
Ġoccup ations
Ġneighb ors
Ġstrain s
Ġvirt ues
Ġfit ting
Ġcheap ly
omet er
ĠFried los
Ġexperiment ation
Ġdilem mas
Ġjud gments
ub ic
ĠUnder standing
ĠStat istic
estic ides
ĠCommun ications
car bon
Ġver ified
Ġconcent rating
Ġcoun cil
Ġrul ing
ĠPl agiarism
Ġparticip ating
Ġrepres ented
Ġmeant ime
The y
ĠZ EN
Ġbi ased
Ġexplain ed
Ġmechan isms
Ġadjust ed
Ġrail s
Ġqual ifications
Ġescap ing
ĠIm ple
Ġappre hen
Ġsacrific es
Ġtri p
Ġfra il
Ġtrust ed
Ġcounsel ors
Ġsent iment
ĠHel p
Ġlaunch ing
Ġconsist ing
ĠDo ctors
ĠDo omsday
Ġrequest s
Ġconfirm ation
Ġrepresent atives
Ġdesc end
ĠRep rocessing
Ġinstant ly
Ġevol ve
Ġtrig gers
Ġcoop erate
Ġshel ters
ĠSw RI
Ġpack age
Ġpack ages
Ġexcl uded
Ġsucceed ed
Ġmigr ate
Ġshif ts
ĠIncre ase
ĠIncre ased
cont ent
Ġrain y
Ġattend ants
Ġpen alty
Ġconce iving
Ġple ase
ĠAng st
Ġslop e
Ġmen ial
Ġacceler ating
Ġacceler ators
Ġrefer ring
Ġrevolution ize
Ġhydro electric
Ġcultiv ate
Ġfeedback s
Ġmatch ing
Ġconve y
Ġexchan gers
ĠPre viously
Ġsupposed ly
ĠDef ence
ĠKe eping
Ġreap ed
ĠHar vard
Ġadap ting
ĠRet rieved
Ġradi ations
Ġearthqu ake
Ġenem ies
Ġignor ance
Ġkilomet res
Ġwel come
Ġwel comed
Ġpractic able
Ġinsur mountable
Ġlig aments
Ġvibr ations
Ġconcurrent ly
Ġbroadcast ing
Ġvic inity
Ġupset ting
Ġdivers ify
Ġmachin eries
Ġenrich ing
Ġenrich ment
Ġimprov ised
Ġexcel s
ĠMo ving
ĠWWI I
Ġvent ure
ĠOper ating
Ġpenet rate
Ġwithhold ing
access ible
Ġobstruct ion
ĠiP hone
Ġaggrav ate
Ġpione er
ĠCr itical
Ġassign ed
Ġsunsh ades
Al though
Ġinflic ted
ĠImprove ment
Ġoce an
Ġimpress ive
Ġrub ber
ĠFac ilities
ĠPerson ally
Ġdin ner
Ġlag ging
ĠHu ge
Ġdisp ute
Ġdisput es
Ġdisregard ed
Ġrealloc ate
ĠContr ary
Ġdys function
Ġgrie ving
Ġdelic ate
ĠAff airs
ĠCow an
ĠNO KIA
ĠLear ning
ĠClin ical
Ġcush ion
Ġreimb urse
ĠThor ium
ĠStart ing
Ġexplor ation
anel los
Ġhous ings
Ġhier archy
ircu it
ĠSel amat
Ġdefici encies
ĠAdmitted ly
1 8
1 000
4 00
5 1
5 8
6 8
7 1
8 1
8 7
8 00
B WR
C O
D ong
E ast
H S
H z
H ua
I I
I M
L um
L oren
R CA
S A
W e
Z eebrugge
a q
a cious
b i
b en
b ent
b ut
b ies
b one
b ons
b illion
c her
c ars
c roft
c otton
d y
d iz
d ivided
e rence
e val
e veloped
f ol
f actor
f irst
f ather
f lu
f ront
f uelled
g i
g s
g az
h ill
h ol
h res
i pp
i ants
i ams
j ian
k i
k ed
k ol
k ara
l al
l able
l ives
l iferation
m ate
m ach
m ills
m its
n ature
o o
o on
p in
p ret
r ue
r ite
r ish
s pect
s av
s upp
t ra
t est
t ested
u h
u o
u ke
u ven
u itous
v ag
v io
v isions
v olution
w att
y pe
y ph
z o
Ġ ion
Ġ upp
Ġt ie
Ġt ree
Ġt une
Ġt ips
in ating
in ently
in rich
in vasive
re le
re actor
re tt
re ano
en agers
er cial
er ting
Ġs ink
Ġs orts
Ġc iv
Ġc um
Ġc os
Ġc ous
Ġp et
Ġp ig
Ġp un
Ġp eop
Ġp ave
Ġp aced
Ġp iling
at i
at rick
at illa
at lal
Ġw et
Ġw ild
Ġw ip
Ġw arm
Ġw ards
Ġw ake
Ġw ished
Ġw ood
Ġw rap
or able
is her
it z
it is
it ant
it age
it ime
Ġb ag
Ġb iod
Ġb ands
Ġb eside
Ġto iled
Ġf on
Ġf as
Ġf ant
Ġf ost
Ġf um
Ġf urn
Ġf ix
Ġf arming
Ġf ighter
Ġf ixt
Ġf ierce
Ġin se
Ġin acc
Ġm p
Ġm yst
Ġan ger
al king
al low
al ph
al istic
al located
Ġd iesel
ic a
ic ip
ent iful
ro id
ro bot
ar ms
ar ga
Ġe uro
Ġe gg
Ġn om
Ġre th
Ġre che
Ġre ass
Ġre ply
Ġre using
Ġre versed
Ġre usable
Ġre ductions
as k
as p
Ġth ief
Ġth ieves
ct er
il ient
Ġg ir
Ġg iants
us s
us ers
om fort
ch t
ch ild
ch ard
ĠT or
ĠT im
ĠT est
ĠT ok
ĠT ak
ĠT FR
ĠT rend
Ġl id
Ġl ur
Ġl iv
Ġl ad
Ġl ately
Ġl oud
et al
et ting
im ats
im pa
st he
st it
st ation
st ein
st rapped
st iya
id a
id ity
id eman
ot or
ur sing
Ġfor go
Ġfor ums
Ġfor gery
ig an
ig hed
ir te
ir culation
ut her
ut ting
Ġde ce
Ġde fore
Ġde grading
se y
ĠI ll
ĠI ronically
op tion
Ġen zy
Ġen rolled
Ġen riched
ul ed
ul ter
ul ously
Ġsu pers
Ġal co
Ġal ien
Ġag ility
Ġag ency
Ġag ents
Ġag rees
ol f
Ġnot ably
ĠS al
ĠS ter
ĠS ign
ĠS ade
ĠS eng
ĠS yed
ĠS OS
Ġst ir
Ġst ance
Ġst uck
Ġhe m
un ger
un ning
if ier
ĠA h
ĠA ch
iv ated
iv ial
Ġcan s
Ġcan al
Ġtheir s
ra b
ra vel
el ievable
Ġex hib
th reat
th rit
ort on
am ber
am ics
00 00
Ġte a
Ġ2 30
Ġim itate
Ġmore over
ap on
ap ping
Ġby stand
Ġor ph
ĠH C
ĠH I
ĠH T
ĠH a
ĠH it
ĠH ill
ĠH ag
ĠH ouse
ĠH ug
ĠH oltz
ĠIn vent
est ruct
est abl
lear ning
Ġelder lies
Ġsp in
Ġsp ike
Ġsp ared
Ġsp ied
Ġsp ying
Ġdis b
Ġdis ting
Ġdis hes
Ġdis heart
Ġdis fig
Ġres onance
Ġres ilient
Ġr and
Ġr ivers
Ġr ounds
Ġr ationally
Ġr iots
ĠF Y
ĠF ern
ĠF ilial
ĠF ortune
ĠF ailure
ĠC S
ĠC y
ĠC ou
ĠC as
ĠC lo
ĠC ell
ĠC DA
ĠC abin
Ġch rom
ac ific
ac les
ĠTh ink
ri an
ri ages
ĠM y
ĠM ur
ĠM and
ĠM ink
ĠM arsh
ĠM RI
ĠM ankind
ĠM aterial
ĠM arina
ĠM Hz
os ynthesis
os omal
qu arters
bl ess
and ez
Ġse al
Ġse am
Ġse ating
Ġpl entiful
Ġneed less
Ġwork fare
con nect
con fe
Ġlo ses
ĠW al
ĠW esting
ĠW ang
ĠW AN
ĠW rite
ist an
ist ive
Ġab stract
Ġma gaz
Ġman ages
ĠB C
ĠB I
ĠB i
ĠB ro
ĠB rain
ĠB ush
ĠB rown
ĠB order
ĠB RCA
Ġpublic ation
Ġv an
Ġv igor
Ġcont est
Ġcont ents
Ġind ef
Ġind ex
Ġind ifferent
Ġind estruct
ire r
vent ions
ĠR ight
ĠR ail
ĠR ead
ĠR BM
ĠR educ
ĠR OM
ĠR alph
Ġint ake
duct ive
ĠSing St
ĠSing stat
ight ers
Ġspending s
ions hip
Ġ1 50
up ational
Ġresult ant
ĠG H
ĠG ar
ĠG ir
ĠG ill
ĠG reat
ĠG ord
ĠG ood
ĠG oh
ĠG raph
ĠP A
ĠP os
ĠP ack
ĠP aper
ĠN any
ĠN urse
ĠN othing
ĠN intend
art s
Ġexp lic
Ġexp ression
Ġk n
Ġk ins
Ġk wh
Ġwas h
Ġengine ered
ie ce
ĠO ak
ĠO strom
ens es
ens ing
ens ions
ven ient
ĠE qu
ĠE asing
ĠE CC
ĠE quipped
ĠE cker
ĠE hres
Ġsome what
Ġar bit
Ġar thrit
Ġem powered
Ġsupp ress
Ġme re
Ġme al
Ġme als
Ġout patient
Ġout perform
Ġun if
Ġun du
Ġun rest
Ġun reli
Ġun eas
Ġun ravel
Ġprov ident
ric e
ric ted
ord inary
ĠV e
ĠV i
ĠV inci
ĠV arga
Ġra cing
cy c
Ġlimit less
Ġtra it
Ġtra cing
duc ible
ĠD ioxide
ĠD etroit
Ġfe at
Ġfe ared
ĠL ip
ĠL ink
Ġhum idity
ĠU D
ĠU V
ĠU se
Ġindividual istic
Ġdec k
Ġdec ompose
Ġris king
Ġtr ivial
Ġdisc ard
Ġdisc omfort
Ġdiff cult
low ing
Ġinv ited
Ġover c
Ġover th
Ġover coming
Ġover population
Ġapp oint
ia h
Ġfut ile
Ġfuture s
Ġinform s
ĠAl ong
Ġelect ions
Ġ19 10
Ġmedical ly
Ġund eveloped
Ġph ases
Ġret urning
Ġco ast
Ġco oking
Ġcr ust
Ġless ens
Ġunder gradu
Ġunder privileged
ĠCh ild
ĠCh ris
Ġpat ho
io kol
Ġro ck
Ġro cket
Ġlead er
Ġcompan ionship
Ġinf low
Ġinf inite
ĠAn alys
ĠRFID s
Ġwast eland
pl ay
Ġbur ned
Ġinvent ory
ĠJ a
ĠJ oint
ring s
Ġdi etary
ms r
Ġhand ful
Ġhand rails
Ġhand bars
Ġdem ocracy
Ġgr id
Ġgr ay
Ġpo ets
Ġdifferent iate
Ġfo etus
Ġtrans m
Ġ3 9
Ġ3 70
Ġke en
Ġmem br
ĠUn ique
ĠTo ck
Ġgrowth s
Ġreg ulatory
Ġjust ified
Ġmark ed
Ġsim ulating
Ġ6 10
me as
Ġdepend able
Ġoff enders
ĠSe at
ĠSe vere
ĠSe ah
ĠSe ideman
co oling
ĠK ah
ĠK aly
ĠK az
ĠK ansas
Ġins ists
Ġins ufficiency
Ġmarket place
Ġcl ar
ĠRe cogn
ĠRe view
ĠRe volution
Ġsm ell
Ġreal m
ĠSt op
ĠSt anton
Ġmin i
Ġmin ers
Ġmin ors
Ġmin ister
Ġass ists
Ġass erted
Ġcap ac
Ġcap ped
Ġpay off
eth ical
Ġshort est
Ġshort coming
Ġexperi mental
Ġref ine
Ġref ining
Ġref uses
Ġmon o
Ġmon et
Ġdiver ts
Ġimpact ful
ĠSome one
Ġhappen ings
oup s
aw i
Ġlack ed
int osh
Ġappro ve
Ġ4 9
Ġfunding s
Ġgroup ed
ĠPro cter
Ġaw ards
Ġstand point
Ġent ry
Ġprom ulg
Ġcreat ures
Ġcreat iveness
Ġinter ior
Ġinter view
Ġinter ventions
ert il
Ġsc ore
Ġsc ra
Ġconcept ion
Ġcent ered
Ġpres erved
Ġsubsid izes
Ġsubsid iary
Ġer oded
ish ness
Ġimm obility
ĠWe il
Ġprof ile
Ġprof ound
ism ic
omm on
Ġaut osomal
Ġpass word
Ġexplo des
Ġlook out
Ġcompet iveness
Ġback bone
pro liferation
Ġcor rel
Ġfound er
Ġfound ed
ĠHe inrich
Ġmention ing
Ġval ves
Ġsuff ere
Ġrece ivers
Ġconf ront
ĠTe ch
ĠTe enagers
Ġrec ording
Ġrec irculation
ĠInt ellectual
Ġclo th
Ġclo ck
Ġdan cing
Ġev il
ustain able
Ġest eem
res ources
Ġlab s
Ġmaintain s
Ġfl ammable
Ġaccount able
Ġ198 9
Ġhome bound
Ġoil s
ĠUS D
Ġavoid ance
ĠRes pir
Ġmy self
Ġmy opia
ĠY ang
ĠY oung
Ġur ged
gr oups
Ġpositive ly
loc ity
ĠInd epend
ĠDe atrick
Ġreact ing
erg ie
Ġassist ed
Ġgu ides
Ġharm ed
Ġtechn ically
Ġbirth day
Ġ8 70
ral ization
ĠBe reano
itor ing
Ġpoll utions
Ġshe er
Ġshe ll
Ġcomput ational
Ġine quality
Ġfar away
Ġlight ens
tic le
Ġsix th
ĠAct ivity
Ġprogress ive
Ġsuper mark
Ġlit erate
Ġfil ter
Ġfil ms
Ġfil ament
bo omers
Ġland f
Ġcomb ating
Ġrefriger ant
Ġrefriger ations
Ġstop ping
Ġperiod ically
ĠAd ams
ĠAd ditional
ĠCon ventional
ĠCon struction
Ġtele phony
Ġtar n
ĠComm ercial
ĠRo ck
Ġenhance ments
Ġ9 2
Ġ9 5
isc oll
ĠComp ar
ĠComp aq
ik olo
Ġemphas ise
Ġtravel s
Ġemot ion
ĠProv idence
Ġpros pers
Ġpros pered
Ġfert ile
Ġobject ions
Ġopt ical
Ġwar r
Ġsing les
Ġcapital ism
Ġste aling
Ġattract s
Ġdam s
Ġdam ping
Ġ197 3
Ġ197 7
Ġrepro ducing
Ġrepro duction
Ġrepro ductive
Ġrepro ducible
Ġcou marin
Ġtradition ally
Ġindustrial ized
Ġmis gu
Ġdest ro
Ġassoci ations
Ġmo ves
Ġrecyc lable
Ġcommer cially
Ġdoubt ful
ĠBo gon
Ġboost ed
Ġdiagno ses
Ġmar itime
Ġincur s
Ġelimin ation
Ġwind mills
Ġant iox
Ġpropos es
Ġpropos ing
Ġflo oded
Ġquick er
Ġcirc les
ogra m
Ġann ou
Ġann uity
ĠFin land
ĠFin ancing
Ġquestion ed
ang Dong
Ġelectr ically
enicill ium
ret irement
ex am
Ġindic ator
Ġrep ay
ĠSur anga
par alys
Ġcreative ly
Ġprepared ness
Ġoutput s
Ġobser ving
Ġsubject ive
Ġcheck ed
Ġsw ine
Ġsubstant iate
Ġmaxim ise
Ġmaxim ized
Ġuns ound
Ġcollap sing
Ġinvestig ating
Ġinterp re
ĠEvery day
Ġdispos able
Ġdecl ines
ĠEar ly
Ġfloor ing
sp ace
Ġreturn ed
Ġpurch ases
Ġpurch ased
ĠNo yes
Ġaccum ulation
Ġclass ify
Ġcop ied
ĠMinister ial
Ġmanufacture r
Ġfacilit ating
20 50
Ġvacc ines
Ġencount ers
enn a
Ġfight ers
Ġ11 0
ĠSh ar
ĠSh ut
ĠAssoci ate
Ġ201 1
Ġdeterior ated
Ġ18 00
ĠMan ufact
Ġshut tle
Ġcheap est
Ġ0 9
cu le
Ġretain ed
Ġextra ordinary
Ġpurs ued
Ġpredict able
Ġgam ma
ĠTr uth
ĠApp ro
ĠApp lied
ĠApp lying
ĠApp earance
Ġviol ence
rid den
Ġunp ractical
ĠWil cke
Ġminor ities
Ġassum ing
ĠAr gu
ĠAr med
Ġ17 2
Ġtrou bling
Ġmotiv ates
Ġge ometry
Ġlay out
car bons
ĠInde x
Ġroot ed
Ġi i
Ġrepl en
Ġremind ed
ĠAust rian
ĠHy brid
Ġofficial ly
Ġshop s
ĠEconom ically
Ġdict ate
Ġconcent rated
Ġwrit er
Ġlist en
ĠPl us
ĠPl utonium
Ġattempt ed
Ġdrain s
Ġdrain age
ĠMO E
Ġmagn et
Ġmagn ify
Ġjo bless
Ġrepres ents
ĠMC A
ĠX in
Ġ16 0
Ġ16 00
Ġassess ed
Ġmid st
Ġadjust ing
Ġconsult ant
Ġkidnap pers
Ġcal am
Ġ14 00
Ġdiscoura ging
Ġgl asses
Ġfif th
Ġkil o
Ġkil ogram
ĠOb ama
Ġpath way
Ġpacemak ers
Ġ196 6
Ġ196 8
Ġswit ches
Ġran ges
Ġadvert ised
Ġ194 0
Ġ194 6
Ġattrib ute
Ġattrib utes
Ġillust ration
Ġillust rates
orb ell
Ġmature d
ĠMac intosh
Ġload ing
Ġunw el
Ġappe aling
Ġdisturb ances
Ġcatch ing
Ġwid ening
Ġ24 0
ĠPh il
Ġannoun ce
Ġupd ating
Ġupd ates
Ġram p
ĠGener ating
ĠSub st
ĠOrgan izations
Ġpie ces
Ġinfring ed
Ġbul b
ĠSM S
ĠCar l
Ġadvoc ating
09 1
Ġlie u
ĠCount ry
ĠEd wards
Ġremote ly
Ġru ined
ĠRep ublic
Ġinvas ive
Ġdisagree ment
ĠCl a
ĠCl ar
ĠCor ruption
ĠLead ers
Ġtrig gering
Ġce iling
ĠPat ent
ĠLe on
Ġpollut ant
ĠMich igan
ĠStra ugh
Ġpack ets
Ġcontent ment
Ġcustom ized
ĠBuild ings
Ġphotos ynthesis
ĠRadio active
Ġcra m
Ġcra cking
Ġcurb ed
Ġreward ed
Ġfort uitous
Ġconce al
Ġconce ive
Ġstem s
Ġ23 5
Ġple asing
Ġinherent ly
Ġnav ig
Ġwithdra wn
Ġtext books
ĠCreat ing
ĠCreat ivity
Ġvo ices
ĠOffic er
Ġinconven iences
ĠQ uek
Ġhom eland
Ġdispl ays
Ġunauthor ised
Ġoverhe ated
Ġinstru mentation
Ġacceler ate
Ġdepress ing
Ġinherit ance
ĠMeh diz
Ġtoxic ity
Ġhur d
Ġabsorb ed
ĠConsum ers
ran z
Ġhit ting
Ġcand y
ĠInf o
Ġdischar ging
Ġcomplain ing
ĠPress urized
Ġhydro carbons
Ġinsure d
Ġconve ys
Ġconve ying
ĠPre vention
Ġunb al
Ġunb elievable
ĠAdv ances
Ġilleg itimate
Ġwin ning
ĠMW e
ĠMW h
Ġplag iar
ĠNet t
ĠNet work
Ġunre active
Ġunre mitting
Ġunre alistic
ĠLong er
Ġcollabor ated
Ġcolle ge
Ġvolunte er
Ġsurprising ly
ĠTransport ation
Ġdocument ation
Ġprop ag
amm ad
Ġimpair ments
ĠMon itoring
ĠGe or
Ġfertil izers
Ġbrid ges
Ġantibi otics
Ġtu be
ĠEast on
Ġradi us
techn ical
Ġbreach ing
depend ent
Ġhol low
riz e
ĠMor atilla
ĠLin ares
ĠIntegr ity
Ġdistinct ive
Ġtelecommun ications
Ġmalfunction ing
ias m
Ġhack er
Ġintens ity
Ġintens ified
Ġreinforce ment
Ġskept ical
ĠBer lin
ĠDise ases
.... ....
ĠAngel ique
Ġinappropri ately
ouch able
ĠSol ar
ĠTele vision
ĠTele medicine
Ġbreed ing
Ġnucle i
Ġcred ibility
Ġmathemat ical
ara oke
ĠMar riage
Ġsex ual
ĠRef rig
Ġdecent ralization
ĠJac obs
Ġsubstit ution
Ġsubstit uted
Ġcataract s
Ġblue print
Ġultra vio
Ġcandid ates
Ġenthus iasm
Ġdimin ish
Ġdimin ished
Ġrecon struction
Ġrecon sider
Ġbyproduct s
Ġflour ishing
Ġinstitution al
Ġfing erpr
ĠAc ute
ĠHer ranz
ĠFrank ly
ĠPart ner
Ġencry pted
Ġevacu ation
Ġevacu ated
Ġunfav orable
Ġpregn ant
Ġrod ents
fuel s
Ġtim ing
Ġhards hips
ĠSc ott
ĠRel ief
ĠGra ce
ĠGra ham
Ġuncont rolled
Ġampl ified
Ġelectro lysis
Ġinflex ibility
Ġtransp arency
Ġoccas ions
Ġoccas ional
ĠAutom otive
ĠPaul in
sur gical
Ġresid ue
Ġresid ual
ĠMer cer
ĠMem ory
ĠMult inational
Ġvit amin
Ġuncon ventional
ĠKel vin
ĠConcern s
Ġunsatisf ying
Ġsunsh ine
Ġliber al
Ġlengthen ed
inst ein
Ġsem in
Ġnan obots
Ġdegen erative
Ġdisap point
ĠCam er
Ġcha os
Ġcha otic
ĠDen mark
ĠLoc al
Ġdepos ited
ĠStan ley
ĠStan ford
Ġelig ible
Ġelig ibility
Ġwrist band
Ġmole cul
Ġrevol ving
Ġrepeated ly
Ġmonopol ies
Ġthermo chemical
Ġsponsors hip
Ġdivor ced
ĠTerror ism
Ġspirit ual
cut s
Ġenl arge
ĠParent hood
ĠVal ley
Ġtrad ers
En gineering
Ġgard ens
Ġstric ken
ĠAT C
Ġrip e
ĠFar ley
ĠBa ard
ĠRM B
Ġunatt ractive
Ġretard ation
ĠChrist ian
plan ned
Ġhyper opia
Ġconfig ur
Ġrecru ited
Ġpractition er
ĠAdvant age
Ġcyc ling
ĠMegaw att
Ġmarvel ous
Ġcele br
ĠInvest ment
ĠNetherland s
Ġincompet ence
Ġdisintegr ation
Ġdum ping
Ġdissemin ate
ĠCust omers
ĠDi Loren
Ġadvis able
ĠSelect ion
Ġethn ic
Ġsymp athy
Ġunintention ally
bin ism
def inition
pric ed
Ġip hone
Ġumb rell
Ġove rest
Ġcer amic
Ġpater nity
Ġpsy ch
Ġmount ing
Ġmetic ulously
Ġhob bies
Ġproxim ity
ĠTet stiya
Ġenvision ed
ayak kara
ĠAC L
Ġimpover ish
Ġdispro port
ĠFro t
ĠMY CS
ĠMoh ammad
Ġcompl ac
ĠWill iams
ĠBry n
ĠGS M
ĠPop atlal
ĠPort ability
ĠNan ayakkara
ĠNish imats
ĠOcc upational
ĠOlym pic
ĠDiver ting
ĠLank a
ĠAsh croft
Ġoversp ending
Ġcolo rectal
Ġextinct ion
Ġdemocr atic
Ġsett led
Ġpredis pos
Ġmicrosc opic
Ġcalor ie
Ġsquee ze
Ġaston ishing
Ġretrofit ting
Ġmiscommun ication
business dictionary
Ġov arian
Ġstic ks
ĠRa ven
Ġinterf ered
ĠTechn ical
ĠInterest ingly
ĠConf uc
Ġfitting s
Ġdescend ants
bent z
eval u
sav vy
Ġupp er
Ġfant astic
Ġfum es
Ġfixt ures
Ġinacc ur
impa ired
irte en
Ġdefore station
Ġalco hol
ĠSter bentz
threat ening
Ġbystand ers
Ġorph ans
ĠHoltz man
establ ished
Ġdisfig ured
Ġrand om
ĠFern andez
ĠCabin et
ĠMink off
ĠMarsh all
confe rencing
ĠWesting house
ĠWAN O
Ġindef initely
Ġindestruct ible
ĠRBM K
ĠROM AN
ĠGord on
ĠPack age
ĠNany ang
Ġexplic it
Ġkins hip
ĠECC S
ĠEhres man
Ġarthrit is
Ġunreli able
Ġuneas y
Ġappoint ments
ĠAnalys is
Ġmembr ane
ĠUnique ly
ĠKaly ani
ĠRespir atory
ikolo s
ĠBogon ikolos
Ġantiox id
paralys ed
ĠMehdiz adeh
Ġultravio let
Ġmolecul es
ĠDiLoren zo
Ġumbrell a
ĠNishimats u
4 6
6 7
A d
D D
F or
F ried
M S
O ne
T o
b ed
b bles
b urning
c ircuit
d inary
e y
e ath
e ins
e rences
g ree
h s
h ou
h ouses
i ations
k illed
l on
l ar
l ink
l ift
l ane
m are
m ates
m ail
m iss
m ug
m eltdown
n g
o le
o ors
p he
p apers
r ising
s ides
t d
t imes
u i
u bs
w as
w ho
x as
z z
z ed
z hou
Ġ ~
Ġ ly
Ġt ain
Ġt ighter
he at
he ld
Ġa ug
Ġa ero
in ally
re search
en et
en abled
er able
er ating
Ġs ne
Ġo d
Ġo we
Ġc ry
Ġc ert
Ġc ave
Ġc ubic
Ġp y
Ġp iv
Ġp esticides
Ġw are
Ġw alls
Ġw ander
Ġw ondering
is y
is ition
is hes
is iveness
it er
it ated
it erated
Ġb in
Ġb it
Ġb ot
Ġb low
Ġb rib
Ġb atch
Ġf le
Ġf its
Ġf ares
Ġin hum
Ġm ap
le vant
Ġd read
ic ists
ou ri
ar at
ar iably
Ġh iding
Ġh istorical
Ġn a
Ġn ames
Ġth row
Ġbe ating
lo or
lo sion
Ġg ear
Ġg aps
om ical
Ġl end
et er
im p
im ming
st reet
ur ies
ig ible
ir ation
ut ure
Ġas p
Ġas sem
se x
ĠI P
ĠI l
Ġen forces
Ġen forcing
Ġha cked
ol a
Ġnot icing
ĠS ad
ĠS uccessful
Ġst om
Ġhe red
if ts
ĠA I
ĠA round
Ġne phe
ci ously
Ġex it
th at
Ġso ot
Ġso ars
ther n
Ġte aches
ad rid
ĠH on
Ġsp ur
Ġsp ill
Ġsp ear
Ġsp heres
um n
Ġdis miss
ĠF all
ĠF estival
Ġinc ons
ĠC ase
ĠC oming
ĠC AS
Ġch urn
du ous
ĠM A
ĠM R
ĠM iss
ĠM illions
ĠM adrid
qu est
qu acy
per ience
Ġse es
Ġse gments
Ġad vers
Ġpl ate
Ġcomp ly
ĠW ide
ĠW alk
ist ing
ist ent
Ġpre ference
Ġma gical
Ġma gic
Ġman ned
Ġman uf
Ġdesign ated
ĠB an
ĠB lo
ĠB reak
Ġpublic s
Ġcont end
Ġcont ex
Ġind ul
Ġind oors
ĠR ich
ĠR est
Ġdo se
for th
for ward
Ġle ap
up t
Ġgener ic
ĠG un
ĠG od
ĠG EN
ĠN B
ĠN aturally
ud ging
Ġk ick
Ġup s
ĠE U
ĠE xt
Ġconc ise
Ġmed ishield
ĠThere by
form ance
Ġar ts
Ġar duous
Ġem power
Ġnew est
all ing
Ġout cast
Ġun in
Ġun us
Ġsoci a
Ġpolic eman
ĠV acc
Ġra rely
Ġtra ding
Ġtra ps
ag o
ag an
ĠD iscrimination
ĠL ing
ĠU C
ĠAs ide
Ġdiff ering
Ġchild care
ound ing
Ġinv ite
Ġinv ariably
Ġover r
Ġover s
Ġover looking
Ġben eath
Ġworld s
Ġpr on
Ġpr int
Ġcomm od
Ġact ing
Ġinst itute
Ġno isy
Ġeven ly
ific ate
urrent ly
Ġlow ly
Ġco ff
Ġatt entions
Ġqu ot
Ġperson als
Ġpat ented
Ġro ll
Ġlead ed
Ġinf ers
Ġbur ying
Ġsub mar
Ġsub sides
ĠJ udging
ms u
Ġhand outs
ok ia
Ġdem ograph
Ġfo ol
Ġtrans fers
ĠTo y
Ġhapp ily
Ġreg ister
arm an
ĠK anellos
Ġmarket ers
Ġcl ubs
Ġcontin ent
Ġburden ing
ĠRe asons
ĠRe agan
Ġbefore hand
Ġreal ising
Ġprot ein
Ġprot eins
ĠSt ep
Ġincl usion
Ġher itable
Ġass ault
Ġpotential s
Ġpay er
Ġfriend lier
Ġref usal
Ġequ ity
Ġequ ipping
int erest
Ġappro ached
Ġbel ive
Ġdiscover s
Ġche er
Ġche ated
Ġve locity
Ġsche dule
Ġbudget ed
Ġent rances
Ġcreat or
Ġcreat ors
Ġinter rup
Ġinfrast ructural
Ġconstruct ions
Ġdefin itive
Ġreason ing
Ġoccur rences
Ġdeter rent
Ġsubsid ising
wor thy
de velop
Ġoblig e
Ġach ieves
Ġach ievable
Ġexplo s
Ġexplo ding
Ġaccess ory
Ġaccess ories
pro c
ĠHe a
Ġconf using
ĠTe xas
Ġfinal ized
Ġconvent ions
res istance
Ġpract ise
Ġheat ers
ĠWor se
Ġgra d
Ġactiv ist
Ġfl ash
Ġrest ing
Ġrest ore
Ġavoid able
ĠRes pon
Ġsimilar ly
Ġdist rict
ĠDe b
Ġreact s
Ġassist ant
Ġtend ed
ines e
Ġtechn icians
Ġbirth s
ĠBe h
Ġine fficiency
Ġfar ther
Ġalloc ates
Ġnon etheless
Ġcut s
Ġstat istically
Ġimpl ied
Ġadop ts
Ġtop s
Ġtyp ically
Ġclean ers
Ġchar itable
Ġmor ality
Ġpred omin
ĠHealth y
Ġtele visions
ĠComm on
Ġ9 11
ĠResearch ing
200 5
to o
Ġutil izing
Ġrecogn izes
Ġinstall ment
Ġsing apore
Ġprofess ions
Ġdeb t
Ġdeb ating
Ġfulf ills
Ġmis sile
Ġinitial ized
Ġrenew al
Ġboost er
Ġgradu ated
Ġant iqu
Ġcompar ative
Ġauthor ized
Ġauthor ization
ĠEx cess
ĠSur gical
Ġsens ible
Ġuns killed
Ġmeltdown s
Ġstren uous
ĠOpp osition
wh ich
ĠNo v
Ġorig inate
Ġlaws uit
Ġlaws uits
Ġwal ks
Ġcomplic ation
Ġdeli vers
Ġalle ged
ĠSh aring
Ġoccup ants
Ġwon dered
Ġremo ves
Ġshut s
Ġcomprom ises
Ġevident ly
Ġbound s
ĠOr chard
ĠOr dinary
Ġunc lear
ĠTr ue
Ġviol ate
Ġviol ating
Ġbroad en
Ġexcess ively
Ġemit ting
Ġreflect ion
Ġreflect ive
Ġforget ful
Ġsecret ary
Ġfeed ing
Ġconstrain s
Ġstim ulation
Ġintr uded
Ġens ue
Ġacqu isition
Ġguid ed
Ġi in
Ġadopt ions
Ġsend s
Ġwors ening
Ġexpress ing
cre ate
Ġpain s
Ġparticip ated
Ġparticip ants
Ġgre y
Ġcompr ising
Ġoffspring s
Ġdetermin ants
Ġneut ral
Ġflow ed
Ġded ication
Ġadapt ation
Ġ14 4
Ġevalu ated
Ġgrant ing
ĠHel ping
ĠHel ps
Ġran ks
ĠPer formance
Ġwis est
ĠDo es
Ġnight mare
Ġord ers
Ġinfring ing
ĠProduct s
Ġcritic isms
ĠCo al
ĠRep orts
Ġinject ing
Ġreb ut
Ġreb ate
Ġreform s
Ġsl ip
Ġstri kes
ĠPat rick
Ġdomin ate
Ġdomin ance
Ġcas ino
Ġrepe ating
Ġsold ier
Ġcontent ious
Ġmonop ole
ĠPriv ate
Ġcur ios
Ġincap ability
Ġvers ions
Ġfort une
Ġengage ment
Ġcopy right
AN E
Ġspot ting
hard t
Ġescal ator
Ġteen ager
Ġoverwhel med
pay ers
Ġinsure r
ĠPre vious
Ġskill ful
Ġcalc ulate
ĠCA D
Ġcollabor ate
ĠExp losion
Ġirre levant
see able
Ġexceed ed
Ġder ives
Ġaccomp any
Ġinsp iration
Ġpressur izers
Ġharv ested
Ġsuic ides
Ġspark s
Ġindis put
Ġhor ror
Ġunpred icted
ĠSupport ing
Ġspons or
ĠRegard less
Ġwel coming
Ġreci proc
Ġoutdo ors
ĠImpro ving
Ġrigor ously
Ġpharmaceutical s
Ġmiss iles
Ġmanip ulation
Ġstrengthen s
Ġexecut ive
Ġdiss ol
Ġlog istic
Ġlog istics
Ġaccompl ished
Ġrecruit ment
Ġpriorit ize
Ġnurt ure
Ġpersist ent
Ġstimul us
Ġfing ers
Ġgun cotton
Ġmanager ial
Ġimprov ise
Ġunderm ine
Ġairpl anes
Ġinterpret ation
Ġenact ed
ĠIntell igence
ĠArchitect ural
access ibility
Ġcontrad iction
Ġmov ies
ĠiP hones
Ġpione ers
natal ist
sur ve
cell ence
ĠMult i
ĠEv idence
Ġoutbreak s
Ġunfore seeable
ĠJe an
ĠConcern ing
ĠShan mug
Ġliber ty
ĠSmall er
Ġattach ing
Ġmemor ize
Ġmemor izing
Ġrevol ve
Ġfluctu ate
ĠTerror ists
Ġfabric ate
Ġmir ror
Ġdisappro val
Ġvac ancies
ĠPract ice
Ġamelior ating
Ġabsor bs
Ġredesign ing
Ġthr iving
Ġasc ertain
Ġenvis age
Ġdisapp earing
ĠBio ethics
Ġrelig ion
ĠDem ographic
Ġlegisl ated
Ġembarr assed
Ġpir ated
Ġimbal ance
Ġabol ished
Ġfoot print
ĠUnivers al
Ġrememb ering
199 9
Ġpunct ured
organ ized
Ġprevail ing
Ġsociolo gists
Ġquarant ined
Ġmotorb ikes
Ġpeel ed
Ġastron omical
Ġmerch and
Ġmilest one
Ġtong ue
Ġsou thern
terror ism
ĠPred ications
Ġunaccept able
ĠStein hardt
supp ort
Ġreche cked
Ġoutperform s
Ġdiscard ing
Ġundergradu ates
Ġsuffere r
ĠIndepend ent
Ġlandf ill
ĠShar p
ĠArgu ments
Ġcelebr ity
Fried land
Ġaug ment
Ġsne ak
Ġcert ificate
Ġinhum ane
Ġhered ity
Ġnephe w
ĠMiss ouri
Ġcontex ts
Ġsubmar ine
Ġdemograph ics
Ġinterrup ted
Ġcurios ity
' '
0 1
0 3
2 21
3 4
3 7
3 8
3 80
4 5
4 31
5 3
6 0
6 3
6 00
7 6
7 8
9 7
9 08
A T
A Z
A s
A ging
B o
B ay
B RT
B aby
B onus
B erry
C h
C r
C are
C ity
C urrently
D T
D is
D GE
E lder
E DP
F C
F und
G B
G R
G en
H r
H erald
I Q
I AN
K m
L V
L ab
L ink
M A
M in
M on
M ed
M ax
N et
O P
O b
P E
P ublic
P age
P rior
P IAN
Q s
R A
R F
R U
R W
R ETRY
S P
S e
T ier
U p
V D
V ER
W P
a ic
a ci
a ud
a very
a fter
a ugh
a emia
b b
b re
b od
b ust
b age
b row
b bers
b bs
b ands
b lock
c al
c op
c os
c ence
c ord
c rib
c ision
c ollar
d ation
d ig
d itions
d istant
e al
e ment
e ight
e ace
e ger
e oh
e Mon
f i
f r
f an
f ly
f if
f ast
f our
f red
f ind
f ting
f old
f iles
f ighters
g ap
g ence
g age
g ie
h is
h ot
h osp
h ours
h iring
h istorical
i w
i y
i per
i enced
j ournal
j uven
k W
k o
k y
k in
k as
l m
l us
l ers
l ive
l ap
l ide
l ind
l li
l ived
l ene
m o
m ic
m st
m ers
m ire
m obile
m edia
m elbourne
m otor
n al
n ia
n ational
n atural
n ins
n km
n ih
n lm
o y
o om
o ir
o cc
o ck
p m
p op
p able
p age
p aper
p ersonal
p iece
r h
r ar
r as
r il
r out
r ations
r ational
r ator
r ange
r man
s ol
s ers
s end
s ign
s ize
s li
s afety
t w
t al
t id
t reat
t ances
t roy
t akers
t otal
u j
u ild
u itive
u ilar
u elling
v a
v itz
w ed
w ill
w ith
w ich
w all
w ile
w ave
w ang
w ald
x cess
y on
y al
y le
y ou
y age
y roid
z i
z il
Â £
Ġ ic
Ġ ills
Ġt ut
Ġt ide
Ġt ied
Ġt res
Ġt ones
Ġt ribunal
Ġt angible
Ġa ure
Ġa th
in f
in ad
in able
in ted
in av
in fo
Ġthe at
Ġthe Supercritical
re r
re ci
re ach
re asons
on i
on duct
on ary
on ia
on io
on esty
on ye
on ology
on itis
en viron
en af
en ma
en ergie
er z
er ious
er man
er vation
Ġs n
Ġs ort
Ġs and
Ġs now
Ġs cept
Ġs emic
Ġs ands
Ġs yph
Ġo un
Ġc el
Ġc able
Ġc ens
Ġc ord
Ġc rick
Ġc abling
Ġp p
Ġp al
Ġp ity
Ġp ound
Ġp ne
Ġp ets
Ġp ondering
Ġp enicillium
at ts
at ivity
at tered
es ion
es ity
es ome
es see
Ġw ine
Ġw ishing
Ġw rapped
Ġ. .
ing le
or a
or o
or ad
or ms
is ers
it ious
it ative
it ized
Ġb ent
Ġb are
Ġb all
Ġb ip
Ġb less
Ġb read
Ġb att
ed ly
an a
an ing
an um
an ged
Ġf ift
Ġf illing
Ġf rust
Ġf erry
Ġf estival
Ġf ading
Ġin qu
Ġin active
Ġin land
Ġin activity
Ġin accessibility
Ġin hosp
Ġm c
Ġm ur
Ġm am
Ġm ilit
Ġm ath
Ġm old
Ġm ale
Ġm ingle
Ġan ch
Ġan no
Ġan th
Ġan omal
Ġan emia
al a
al i
al er
al as
le es
le an
le po
Ġd ance
Ġd ated
Ġd ip
Ġd ried
Ġd rought
Ġd ub
Ġd rew
Ġd irty
ic king
ic ious
ic ular
ic ism
ou pe
ou der
ou ched
ou kas
ent on
ro sion
ro lees
ar i
ar an
ar ation
ar king
ar iat
Ġe pid
Ġe Bay
Ġe cos
Ġh i
Ġh on
Ġh al
Ġh onest
Ġh unger
ve ils
Ġn ano
Ġn uis
Ġre ag
Ġre now
Ġre nov
Ġre employment
Ġre located
Ġre juven
as ers
as ant
Ġth ro
Ġth irst
Ġth rowing
Ġth irteen
Ġth yroid
Ġth alas
ct ion
Ġbe ans
il is
il im
il du
il ized
lo sure
lo co
lo mat
Ġg id
Ġg ig
Ġg um
Ġg ri
Ġg ifts
us an
us cin
us sein
om a
om ous
om Care
om nia
ch inese
ch inad
Ġpro ver
Ġpro cure
Ġpro dig
ver at
ment ing
ment ary
ĠT re
ĠT ow
ĠT her
ĠT able
ĠT ef
ĠT own
ĠT uf
ĠT enn
ĠT raining
ĠT ruly
ĠT ests
ĠT asks
ĠT alking
ĠT RU
ce e
ce iver
ce lets
Ġl inking
Ġl unch
Ġl aser
Ġl ouder
et ers
et ric
et te
im um
im pl
im ensional
st ore
st ress
st ructure
st ats
id imensional
ot a
ot le
ur d
ur ability
ur istic
ig e
ir k
ir y
ir us
ir um
ir atory
ut ic
ut ive
ut able
ut ory
ut ron
ut rition
Ġas yl
Ġde le
Ġde vi
Ġcon qu
Ġit erative
ow ed
ow ment
se c
se ver
se mia
ĠI E
ĠI r
ĠI ce
ĠI ES
her able
ul f
ul ic
ul um
ul ace
ul ator
Ġha v
Ġha ir
Ġha ven
Ġha unt
ay den
Ġsu cc
Ġsu fficiency
Ġal ive
Ġal um
Ġal chem
Ġal lot
Ġal erting
Ġal arms
Ġal binism
ol n
ol as
ol ith
ol ff
ol ie
ol ism
Ġnot ing
Ġnot ifying
Ġnot anum
uc ose
ĠS T
ĠS ir
ĠS qu
ĠS ild
ĠS ie
ĠS ark
ĠS tern
ĠS chn
ĠS ho
ĠS car
ĠS ands
ĠS BRT
ĠS LV
Ġst if
Ġst ain
Ġst ag
Ġst ark
Ġst ake
Ġst ains
Ġst alk
act ions
act ivated
Ġhe mor
un ior
un ned
un ho
if ter
if iable
ĠA P
ĠA a
ĠA im
ĠA id
ĠA ID
ĠA uton
ĠA RT
ĠA LC
ĠA pol
ĠA BWR
ĠA vitz
ĠA xcess
Ġne arest
iv als
gy pt
ra it
ra ge
ra cking
ra ham
ra unho
Ġsh ab
el a
el ve
el ine
el chair
no byl
no sis
Ġex od
Ġex its
th a
th al
th ree
th ird
ant ic
ant ial
are v
ort ed
ort ex
end ra
end able
end ices
ect ion
ect omy
Ġso ckets
am ation
am ins
am med
am inated
over y
ther mia
Ġte x
Ġ2 20
Ġim meas
lop edia
ap hy
ad em
ad ding
ad option
ad herable
ke eping
ĠH as
ĠH end
ĠH em
ĠH all
ĠH ope
ĠH ond
ĠH undred
ĠH az
ĠH ai
ĠH ung
ĠH ua
ĠH sein
ĠH ipp
ĠH AZ
ĠH ussein
ich ang
ge min
ĠIn con
ĠIn land
ĠIn ev
ĠIn cluding
pp ling
Ġimp rison
Ġimp edes
Ġsp ok
Ġsp ik
Ġsp arking
um ed
um ar
um ption
um onia
ter ior
Ġdis ables
Ġdis abling
Ġdis connect
Ġres idence
Ġres erv
Ġr im
Ġr um
Ġr ival
Ġr ivals
rom ising
ĠF ig
ĠF ew
ĠF ah
ĠF aced
ĠF requ
ĠF alls
ĠF ront
ĠF DA
ĠF oster
ĠF CC
ĠF isher
ĠF raunho
overnment al
ĠC our
ĠC yst
ĠC ater
ĠC ru
ĠC FP
ĠC rown
ĠC HM
ĠC omb
ĠC FC
ĠC RETRY
ĠC lean
ĠC omCare
Ġch alk
Ġch lor
Ġch ronically
Ġcount ed
Ġcount ered
ac ies
ac che
ac celer
ĠTh omp
ĠTh ousand
ĠTh anga
ĠTh iokol
ĠTh irum
so cial
ri ad
ri vers
em en
em anding
ĠM is
ĠM it
ĠM ag
ĠM ail
ĠM ethod
ĠM ath
ĠM its
ĠM aking
ĠM obility
ĠM agn
ĠM AS
ĠM agnetic
ĠM UP
ĠM elbourne
ĠM orton
qu e
bl ity
bl ast
bl ind
bl ame
and inav
gh r
gh ai
Ġse ed
Ġse ize
Ġad mission
Ġpl us
Ġpl ain
Ġpl aus
Ġpl astics
cc us
Ġneed ing
Ġdes p
Ġdes erted
con duct
con dition
Ġcomp el
Ġcomp ass
Ġcomp artment
Ġcomp els
Ġcomp iled
Ġcomp ressed
Ġlo ose
Ġdevelopment al
ĠW ast
ĠW ong
ĠW ind
ĠW ass
ĠW ert
ĠW ah
ĠW IS
ĠW olff
ist rib
ist otle
od ans
Ġab ate
Ġab ide
Ġab rupt
Ġab ortion
Ġman eu
ĠB en
ĠB us
ĠB ig
ĠB ad
ĠB est
ĠB ef
ĠB row
ĠB urn
ĠB erg
ĠB enn
ĠB rad
ĠB ull
ĠB omb
ĠB aind
ĠB ulter
ĠB acche
ĠB odans
Ġpublic ations
Ġpublic ise
Ġv end
Ġv ag
Ġv isions
Ġv ideop
Ġv oting
Ġpop ulace
Ġind ent
Ġind iscrimin
vent able
ĠR E
ĠR ing
ĠR ed
ĠR as
ĠR IM
ĠR uther
ĠR iper
Ġcountry men
Ġdo ers
Ġint rig
Ġint angible
Ġle ase
Ġle thal
oun ced
ell er
ell ar
Ġta il
ear ch
ĠG E
ĠG h
ĠG ot
ĠG ig
ĠG um
ĠG ru
ĠG iving
ĠG av
ĠG ather
ĠG ib
ĠG af
ĠG az
ĠG ames
ĠG reg
ĠG erald
ĠG onye
ĠG ulf
ard in
ĠP R
ĠP U
ĠP ar
ĠP ors
ĠP ach
ĠP ak
ĠP oll
ĠP rest
ĠP ope
ĠP hone
ĠP assen
ĠP utting
ĠP acific
ĠP rice
ĠP eace
ĠN uc
ĠN ame
ĠN els
ĠN az
ĠN CE
ĠN CP
ĠN ursing
ĠN okia
Ġacc used
art lepo
Ġfin ed
Ġfin ite
Ġsol u
Ġsol ver
Ġsol vers
Ġk no
Ġk Wh
ren g
ren der
reat able
Ġwas ter
Ġpol es
ĠO s
ĠO re
ĠO il
ĠO ff
ĠO ri
ĠO AS
ĠO wing
ĠO pin
ower ing
ens on
ven port
ven ience
Ġup ward
ĠE M
ĠE S
ĠE ss
ĠE ag
ĠE ll
ĠE state
ĠE instein
ĠE gypt
Ġmed ics
Ġmed ias
Ġar m
Ġem igration
Ġrel ent
Ġbut ter
ab row
ab stract
ab olism
Ġpower less
ss ed
lect ing
si bility
Ġuse able
Ġlif to
Ġme ag
Ġme gap
Ġout ward
Ġout look
Ġout law
Ġout reach
Ġun ity
Ġun ple
Ġun man
Ġun wise
Ġun cons
Ġun amb
Ġun protected
Ġun productive
Ġun ethical
Ġun planned
Ġsoci ological
Ġper ish
Ġcons erving
ric ulum
Ġsocial ize
Ġsocial ising
Ġcare takers
Ġpolic emen
ord able
Ġall erg
ĠV as
ĠV ers
ĠV iew
ĠV ictory
Ġra ins
Ġtra des
ru bbers
ag ra
ag uilar
ag inable
ĠD el
ĠD isc
ĠD rug
ĠD irty
ĠD onald
ĠD BT
ĠD IS
ĠD HS
ĠD VD
ĠD oukas
ĠD enton
ĠD rivers
ĠD abrow
Ġfe et
ĠL at
ĠL os
ĠL ack
ĠL ind
ĠL oss
ĠL ane
ĠL yn
ĠL inc
ĠL ARS
ĠL ithium
ĠL ittle
ĠL td
ĠL yon
red irect
Ġsur ging
Ġsur render
ĠU pr
ĠU BS
iff usion
Ġexam s
Ġam end
Ġam mon
Ġdec ks
Ġdec oded
Ġtr action
Ġplant ing
Ġdisc rep
Ġj ump
Ġj ams
Ġj unior
Ġdiff used
Ġimpro vis
Ġed ition
Ġover use
Ġover time
Ġover lap
Ġlife bo
Ġbu ys
Ġbu bbles
Ġbu ildu
Ġeduc ators
Ġapp les
ack Berry
Ġinnov ational
Ġinnov ator
tain ment
Ġpr ism
Ġpr oud
Ġcomm ands
Ġcomm uters
Ġcomm endable
Ġold est
Ġhuman ities
Ġhuman kind
ia an
Ġinst abilities
Ġinst illing
ĠVH R
ĠAl arm
ĠAl li
Ġelect ion
Ġ19 20
Ġ19 36
Ġser ver
Ġser vic
ific ent
pe ared
Ġter r
Ġter rain
Ġter rit
Ġret rie
Ġco at
Ġco herent
Ġco hesive
Ġcr us
Ġatt acking
care s
Ġaff airs
Ġaff ili
Ġprevent ative
Ġless on
che n
che cks
Ġqu o
Ġqu oting
get own
ade i
Ġrisk ed
Ġunder hand
Ġeffic acy
ĠCh ange
ĠCh ief
ĠCh amber
Ġpat ellar
Ġro cks
Ġsec ures
ail ability
ber t
ber ry
ove ment
sycholo gy
Ġtw itter
Ġtw elve
Ġinf ants
Ġinf amous
ĠAn I
ĠAn n
ĠAn aly
cept ed
sure d
vel u
Ġdep reci
ject ion
Ġbur ied
ĠHence forth
oth s
oth old
Ġsub side
ĠJ on
ĠJ un
ĠJ obs
ĠJ olie
Ġretire ments
ĠGen etically
ass oni
Ġdef er
Ġdef ault
ak rish
Ġgr asp
Ġconst rict
Ġdet ached
Ġfo iled
Ġfo oting
Ġfo othold
Ġtem pted
Ġcarri age
Ġenc lo
Ġenc umb
Ġtrans ient
Ġtrans pon
Ġtrans national
Ġtrans ceiver
Ġtrans actions
Ġ3 8
ys is
Ġcommun al
ĠIV F
we ight
ĠUn less
ĠUn veils
ĠTo o
tern ally
Ġright ful
Ġhapp iest
Ġreg ret
Ġjust ice
Ġ6 000
Ġopp onent
Ġown ing
Ġown ed
ics ave
Ġoff site
Ġsk ip
led ging
ĠSe ating
ĠSe ismic
co ol
ĠK g
ĠK im
ĠK ias
ĠK aren
ĠK araoke
Ġbas ing
Ġins ens
Ġins omnia
Ġmarket able
Ġmarket ability
Ġstr uck
Ġcl oud
Ġlevel led
Ġmaterial ization
Ġmaterial istic
Ġ20 40
Ġ20 55
Ġcontin ents
ĠAcc omp
Ġcitizens hip
av i
ĠRe in
Ġsm o
Ġsm og
Ġshow c
Ġreal time
Ġprot ests
ĠSt ump
ĠSt rong
ĠSt reng
Ġrespon ded
Ġincl ine
Ġincl usive
Ġher itage
Ġmin eral
Ġmin iat
Ġass uring
Ġcap ping
Ġpay back
Ġpay outs
eth ane
Ġshort ening
Ġplan ed
Ġrun way
Ġmod es
Ġmod eration
Ġref res
Ġref uelling
Ġface ts
Ġ5 1
Ġrem un
Ġequ ate
Ġvar ied
Ġvar iation
aw a
Ġtreat y
read er
int an
int ess
Ġdown fall
Ġset up
Ġhy dra
Ġhy gi
Ġbel ieving
Ġche ss
Ġche wing
lic k
lic ensed
ĠAccording ly
ĠPro of
Ġaw esome
Ġsuccess or
Ġent ity
Ġent ice
Ġcho col
Ġsmall est
sid ed
Ġprotect ions
ĠEn g
Ġinter active
Ġinter related
Ġinter cepted
Ġpur ified
ĠCP P
Ġglobal ized
ĠCherno bly
Ġreason ably
Ġform ulated
Ġsc ores
Ġsc rubbers
Ġpres idential
Ġpres crib
Ġpres umed
Ġsubsid ization
gan o
wor th
Ġer os
ish i
ish ment
de vices
de ath
de cision
Ġimm oral
ĠWe bs
ĠWe apon
ĠWe ichang
Ġprof iling
Ġtrack s
ising ly
Ġpass ionate
ty pe
Ġcompet ency
Ġcompet encies
ĠWh it
ĠWh ich
pro v
pro blems
Ġcor onary
Ġstrong est
ortun es
ortun ities
Ġbo ys
Ġbo ards
Ġbo asts
Ġfore st
Ġfore front
unct ions
ĠWhen ever
Ġconf usion
ĠTe k
ĠTe o
Ġdirect ing
ict ure
ict ions
Ġrec urrent
Ġpressure d
Ġda unting
ĠInt ro
Ġclo sing
ĠMed icsave
Ġcondition ed
ix ir
Ġpract ically
Ġpract iced
Ġhuge ly
Ġdiscrimin atively
Ġgra ms
Ġgra cious
Ġgra pple
Ġgra ppling
Ġadd icted
the gov
Ġlab el
Ġlab elled
Ġfl ights
Ġfeature d
Ġaccount ability
Ġhome care
Ġrest rain
Ġrest rains
Ġair line
Ġair lin
ĠRes orts
ĠRes ults
Ġmy riad
Ġdist ortion
ĠY og
ĠY eoh
Ġdeal ers
SR ETRY
Ġur ging
ĠMin imum
Ġcomple ting
cer y
Ġ7 96
Ġ7 98
Ġshare ho
aim ed
ĠDe gree
Ġidentif ier
Ġreact ant
Ġreact ants
Ġassist ants
Ġgu y
Ġtend er
Ġend uring
Ġend ange
Ġharm less
Ġharm ony
Ġbirth rates
Ġ8 2
Ġ8 3
Ġ8 84
its u
ĠBe yond
place able
ĠDes ert
Ġcond omin
Ġcond ensed
pr isingly
Ġstandard ised
Ġday light
Ġprob ation
Ġprob able
Ġprob abil
ĠWorld wide
sing stat
Ġine ffect
cle an
Ġbre aches
Ġbre ached
Ġfar ms
Ġconduct ors
Ġconduct ivity
Ġmodern ized
Ġmodern ization
Ġpromot ions
tt a
tic les
ĠNew sp
Ġfollow ers
Ġself ish
ian ism
Ġpresent ation
ĠAct ion
Ġneglect s
com bust
Ġcancer ous
Ġfre ight
Ġel ixir
Ġport al
Ġprogram mers
Ġclear ing
Ġfil tered
Ġparticular s
ĠInst itutes
iod ine
Ġheart be
advant ages
Ġland sc
Ġrobot ics
Ġclean ly
Ġclean liness
Ġworks pace
Ġperiod ic
Ġsubst itutes
ĠAd am
Ġspecial ization
ĠCon stit
ĠCon tainment
ne cht
old s
Ġtele graph
Ġtele conferencing
Ġteam work
Ġtar iff
ĠComm iss
Ġstrate gically
Ġcruc iate
Ġ9 3
Ġ9 50
Ġemphas ised
Ġtravel led
Ġtravel lers
IN G
Ġmult ip
Ġmult itude
Ġmult inational
Ġmult idimensional
Ġkey hole
xim ately
Ġaver t
Ġaver ted
Ġinstall ations
.. ...
Ġopt ics
Ġste ep
Ġste els
Ġtechnical ities
orn s
Ġattract iveness
igr ants
Ġconver ts
Ġdeb ts
Ġproductive ly
Ġ197 5
Ġunt rue
Ġunt ouchable
Ġunt ouched
Ġunt reatable
man n
man ent
Ġcontact less
ext ra
Ġprol if
Ġconnect s
Ġpar cel
Ġindustrial isation
Ġmis ident
Ġmis ery
Ġmis inter
Ġmis erable
hand book
Ġmo ist
ĠMe as
Ġimplant ations
Ġbal ances
Ġposition ed
Ġpers pic
ĠBo ok
ĠBo omers
Ġbr isk
Ġrenew ed
Ġgradu al
Ġgradu ation
Ġmet abolism
Ġmar riages
Ġhind rances
Ġobtain s
ĠMal awi
Ġopen ings
Ġproportion ally
Ġsurv iv
Ġpost ing
Ġpetro chemical
Ġcirc ulating
ogra p
ĠLee uwen
rel atives
Ġbl at
Ġbl ades
Ġbl amed
orm ality
Ġcompar ably
ym akers
Ġrev ising
Ġreaction aries
Ġauthor itative
Ġvulner ability
Ġvulner abilities
ister ial
rop sh
Ġintegr ating
Ġmut ate
Ġmut ates
Ġexer ts
of uscin
Ġchem ist
Ġchem otherapy
Ġfunction ed
Ġvis its
Ġvital ity
ĠEx cept
ĠEx change
ĠEx isting
ĠEx cellence
Ġresol ves
Ġindic ators
ĠEduc ating
Ġign ition
Ġign oring
Ġrep ublic
ĠSur prisingly
ĠPr im
Ġyouth ful
Ġreported ly
Ġsens ing
Ġsens itivity
Ġfig ured
Ġabs ent
Ġcust ody
Ġcheck po
Ġsw amps
Ġsw imming
Ġsw ifter
Ġappear ances
Ġsimpl est
Ġsimpl istic
Ġsimpl ifies
Ġleg s
Ġwa ist
Ġmaxim izes
Ġuns ustainable
Ġsus p
ĠEvery body
Ġcorrect ions
33 3
33 76
ĠOpp ortunities
Ġrecord er
ĠTw in
Ġguarant ees
Ġpurch asers
Ġoptim isation
Ġoptim istically
Ġcollect or
olo gies
olo gic
Ġorig inated
Ġcounter fe
Ġclass ic
Ġclass rooms
Ġclass mates
ĠSp ir
ĠSp ouses
ĠSim ultaneously
ĠAg i
Ġ21 3
Ġ21 7
ĠHum ankind
Ġfa ith
Ġfa irer
Ġsepar ating
Ġarchitect s
20 11
Ġsun ny
Ġir rational
Ġnut ri
ĠRob erts
Ġarr anged
Ġpossess ing
ĠSh op
ĠSh ort
ĠSh ih
ĠSh aker
ĠSh ropsh
ĠOver pressure
ĠEm ily
ĠEm phas
Ġcard i
Ġdev otion
ĠAssoci ated
Ġoccup ying
Ġrecover ing
Ġrecover able
Ġ18 80
Ġaccommod ating
Ġstrain ing
ĠMan uel
ĠMan ali
Ġfav ored
Ġshut ting
back ed
Ġ0 8
Ġbound ary
ĠOr well
Ġunc ommon
Ġextra vag
Ġgam bling
Ġjud ged
ub ishi
ĠHospital s
Ġunp repared
Ġunp romising
Ġenterpr isers
Ġincorpor ation
fra me
Ġflex ibly
Ġmus h
Ġmus icians
Ġforget s
Ġdel aying
Ġassum ptions
ĠSk ype
ĠAr t
ĠAr gon
ĠAr mst
ĠAr istotle
Ġ17 6
Ġmotiv ate
org ia
Ġge o
Ġge ological
Ġscreen ed
Ġscreen ings
Ġ80 2
Ġbio logy
Ġbio chemical
Ġbio ethics
Ġvast ly
Ġbase ments
Ġreject ing
empt ive
Ġhead quarters
Ġscar ring
Ġbomb ings
ĠEmploy er
ĠEmploy ee
ĠEmploy ees
Ġexpress ions
Ġbehavior al
Ġground less
Ġpain ted
Ġpain ters
Ġwrit ers
Ġred ef
Ġrul ed
ĠPl ants
athe tic
Ġbed ridden
Ġdrain ed
Ġgre edy
ĠMO X
Ġmagn ates
Ġmagn ificent
ĠElect ro
Ġbelong ings
10 4
ah an
ah ara
ĠTan zi
ĠSpe aking
ĠX ero
ĠZ orn
ĠZ amb
ĠZ eal
vert ently
Ġprem ises
ĠPost ure
Ġassess ments
Ġapproxim ated
ĠSoci olo
Ġmid night
Ġconsult ants
Ġrail ing
Ġrail road
Ġcal ories
ĠPolic ymakers
Ġdefic its
Ġz oom
Ġgl are
Ġgl auc
Ġgl ucose
Ġdead line
Ġoverse a
Ġbuy ers
Ġtri partite
Ġfra ud
ĠOb ser
ĠOb nins
Ġtrust worthy
Ġ33 6
Ġparent age
ĠHel en
Ġdig itized
Ġ194 3
Ġ195 1
Ġ195 3
Ġ195 7
Ġ195 8
Ġattrib uting
Ġcombust ing
Ġmoment um
Ġexhaus tion
Ġ12 2
ĠDr iscoll
Ġsuscept ibilities
Ġanticip ation
do ing
Ġload s
Ġhands ome
ĠNorth west
Ġsqu at
ĠSen iors
Ġcontract ed
ĠPh D
ĠPh ili
ĠDo orbell
Ġannoun ces
Ġpubl ish
Ġrecess ive
ĠIT S
ĠIT Es
ĠStud y
ĠStud io
Ġ45 7
Ġrein state
ĠHow ard
Ġrepresent ations
Ġrepresent ative
Ġing rained
Ġbul let
ĠCar re
ĠWi i
Ġunav ailability
ĠWork place
11 6
11 26
brid ge
Ġsil ent
Ġassure s
ĠRad ical
Ġprepar atory
Ġfunctional ities
Ġru in
Ġru ins
ĠCo ach
ĠCo oling
ĠCo operation
Ġinstant aneously
ĠJust ice
rol ling
Ġreb orn
Ġreb uild
ĠAb raham
ĠCl imate
ĠCor win
Ġcomprehen sion
ĠLimit ation
ĠLimit ations
ĠMedi Fund
Ġshel f
70 3
Ġsl im
Ġsl ums
Ġsl avery
Ġsl ammed
Ġbra kes
Ġbra celets
ĠSw iss
Ġweb c
ĠNic olas
ĠLe Bar
Ġ400 00
ĠSupp lement
Ġliquid s
Ġluxur ies
Ġattain ing
ĠWell s
Ġpip e
Ġpack aging
Ġwom b
ĠTra vis
Ġexcl usion
Ġexcl ude
Ġexcl udes
Ġexcl aimed
Ġgrand p
Ġgrand father
Ġdemonst ration
Ġcur ve
Ġcur riculum
Ġcra fting
Ġcurb s
Ġsho ot
cont rolled
Ġrain storm
Ġrain fall
Ġappli ance
ĠConsid er
Ġpick up
Ġfire fighters
Ġfarm land
Ġstro be
Ġ23 9
Ġ23 00
Ġ13 00
ĠDa venport
ĠDom ino
Ġpoly genetic
Ġignore s
Ġwitness ing
Ġil logical
Ġpul ling
Ġnav y
Ġspot ted
ĠBar ry
ĠBar net
Ġvo yage
ĠUs enet
Ġnegl igible
Ġvolum es
ĠQ ian
Ġwat ers
Ġwat ts
Ġbacter ium
Ġexcept ions
Ġexcept ional
Ġexcept ionally
ĠCol orad
Ġintell ig
Ġinstru ment
Ġinstru mental
Ġdepr ive
Ġmeaningful ly
ĠCanad ian
ĠCanad ians
Ġimag ined
Ġchair man
Ġcorrespon d
Ġliter ally
Ġliter ature
Ġtherm ometer
Ġabsorb ing
19 84
ios k
Ġwireless ly
Ġeight een
Ġprohib its
Ġstra w
Ġstra pped
Ġimpart ed
ĠBern ard
Ġvessel s
chem ically
Ġvalid ity
Ġvalid ated
Ġcultiv ation
Ġcultiv ates
Ġjudge ment
Ġconve x
Ġexchan ges
ĠDef ining
ĠAdv ance
ĠAdv oc
ĠAdv ancement
Ġcalc ulated
Ġdescrib es
Ġtum our
Ġast ounding
itiz en
Ġbrief ly
Ġmit igation
Ġweigh ing
ĠNet works
Ġunre ason
Ġfee ble
Ġapparent ly
ĠIndust ries
Ġinex perience
Ġcolle ges
ĠExp ress
ĠExp anding
Ġirre placeable
Ġunpre ventable
Ġvolunte ering
Ġadvertise ment
Ġdocument ed
Ġdocument ary
Ġcasual ty
84 94
Ġice berg
struct ing
ĠMod ified
Ġneighbourhood s
Ġdyn amics
amm ation
ĠHar ris
ĠHar rison
ĠMon etary
ĠMon olith
ĠMon ahan
Ġcontam inate
Ġcontam inated
ĠRet ire
ĠRet raining
ĠRet irement
ĠGe ographic
ĠGe othermal
Ġconscious ness
ĠLi ber
ĠLaw s
Ġactin ide
Ġcrash ing
ĠKW h
Ġpressur ize
Ġpressur izes
Ġrecre ation
Ġharv esting
Ġingred ients
Ġpragmat ism
Ġbeg ging
ĠAss istive
Ġradi otherapy
Ġconfident ly
appropri ate
Ġmer it
Ġhol istic
Ġresp iratory
ĠMor rist
Ġ44 0
Ġ44 2
Ġmotor cars
athemat ics
Ġdisplay ed
ĠMehlman m
Ġswe at
alk ie
Ġgovern ance
Ġdisrup t
ĠMI C
ĠMI CE
Ġsequ encing
Ġintens ifying
ĠNE I
ĠNE S
Ġprud ential
Ġrefe rences
Ġrefe rencing
Ġestablish ment
ĠGroup s
ĠSwed berg
Ġskept icism
Ġdiv ide
Ġger onto
ĠAir port
ĠAut o
ĠBer man
ĠPan el
Ġupload ing
Ġacid ic
Ġ300 00
Ġembra cing
Ġsummar ized
Ġbehaviour al
Ġsafeguard ing
Ġalter ation
Ġalter ations
oles cence
ĠAnt ichip
ĠAnt onio
Ġadminist ered
ĠWhe elchair
Ġabn ormality
Ġframe works
ĠPhys ics
ĠPhys icians
Ġfortun ately
Ġnucle osynthesis
PA A
Ġcred ited
Ġbor rowing
Ġbott lene
Ġmiss es
ĠTer i
ĠSch uk
Ġ29 0
ĠMar ried
ĠMar fan
Ġvibr ant
ĠRem ote
ĠRef erence
ĠVWO s
ĠDis abilities
ĠDis advantages
Ġamb itious
Ġendless ly
Ġaccompan ying
oor thy
pol itical
pol ices
Ġdimin ishing
Ġho lders
Ġho ax
Ġexcus es
Ġdiss olved
ĠChe nobyl
Ġcompat ibility
Ġrelax ing
Ġinstruct s
Ġdivers ity
Ġdivers ified
Ġpersist ed
Ġshrink age
17 36
mis sible
Ġtherap ies
Ġsli ver
Ġcru ising
Ġmish aps
Ġlic ensing
Ġstig mat
ĠAc id
ĠAc adem
ĠHer ring
esthe sia
Ġatom ique
Ġprejud iced
ĠPart icular
ĠEl Bar
Ġimprov ising
Ġencry pt
Ġencry ption
Ġ64 00
ĠKnow ledge
Ġcentral ized
Ġevacu ate
Ġirrig ate
Ġcorrupt ions
Ġpleas urable
ĠVietnam ese
Res earch
elect ronic
Ġenact ment
ĠMo on
ĠGold sm
ĠDig est
ĠLine berry
Ġsurpass es
ĠSerendip itous
Ġboard ing
Ġpenet rated
Ġpenet rating
ĠMedicine Net
Ġabnormal ities
39 10
cin ating
gas oline
Ġaven ue
Ġpil ot
Ġpil low
Ġpil ots
Ġbow l
Ġbrow sers
Ġdial ect
Ġdial ysis
Ġproactive ly
Ġconvers ations
ĠSc andinav
Ġrational e
ĠMc K
ĠMc L
Ġsevent h
Ġdesper ately
Ġinduc es
ĠVel loor
ĠLa ure
ĠLow ry
Ġampl ifier
Ġelectro surgical
Ġretro spect
Ġforesee ing
Ġflood s
Ġflood ing
ĠNeil mark
CP F
Ġdon ations
Ġdim ensional
Ġdim ensions
Ġgro om
Ġgro oming
Ġgro cery
ĠCap tain
ĠCap gemin
ĠMem orial
Ġvit amins
ĠEr nest
Ġphrase ology
Ġsecre cy
Ġassign ments
genetic testing
Ġelabor ate
Ġ96 0
Ġunsatisf ied
ĠShan ghai
ĠMotor ola
ĠInfrast ructures
Ġmarginal ized
ĠHeart mate
ĠPolytechn ics
Al so
ox en
poll ution
ycar bide
Ġtall er
inst itute
Ġsem i
Ġpit falls
Ġhosp ices
Ġnan otechnology
Ġdegra dation
Ġdegen eration
Ġcondu its
Ġsto le
Ġsto cks
Ġtech onology
Ġspo iling
Ġdisap peared
ĠCam bridge
Ġpreced ing
Ġpreced ed
ĠBl ackBerry
ĠGu angDong
ĠPast eur
Ġunaware ness
ĠDen ise
ĠLoc ating
Ġdepos it
ĠSte ven
Ġcaptain s
odynam ically
Ġwrist bands
Ġparam eters
Ġmole cule
Ġvolat ility
Ġdiction aries
Ġthermo chemically
Ġdivor ce
Ġenthusi asts
Ġstairc ases
mon itor
sm art
Ġaer odynamically
Ġaesthe tic
Ġoce ans
Ġpic king
Ġmir acles
Ġenl ar
Ġstuff s
ĠFac ility
ĠPerson nel
ĠPract ically
Ġarrest ed
ĠVal ue
ĠDet ection
Ġamelior ation
Ġcoating s
Ġscr atch
Ġstereoty pe
Ġabsor bers
Ġorigin ally
aj i
fig ures
hy th
kg HM
Ġcrop s
Ġpour ing
Ġfi ance
Ġfi ber
Ġdil enma
Ġerect ing
Ġhorm one
Ġhorm ones
Ġgard ening
ĠTri ple
ĠTri partite
Ġenvis aged
Ġstric ter
Ġstret ch
Ġstret ches
ĠAT M
anton io
Ġdish onesty
Ġdisapp earance
Ġrip en
Ġinculc ate
emphas ized
Ġcompli ance
ĠPM O
ĠNeed y
ĠNeed less
ĠEco logy
Ġunion ized
Ġunim portant
Ġunim aginable
Ġunatt ended
ĠDu ong
ĠChrist iaan
Ġskim ming
Ġskim med
Ġnegot iate
Ġ58 116
Ġhyper thermia
Ġrecru iting
Ġpractition ers
Ġtreas ure
Ġtreas ured
ĠAdvant ages
Ġcyc lic
Ġswift ly
Ġ187 6
Ġ187 9
ĠBuy back
ĠSubsid y
ĠSubsid ies
Ġcele b
ĠInvest ments
Ġretrench ment
Ġembarr ass
Ġairbag s
Ġdisintegr ated
dis abled
Ġid le
Ġcow pox
Ġfur ious
Ġconvic tion
ram id
ĠFact s
Ġlever age
Ġquiet er
Ġradical s
Ġconstit ution
ĠUnivers ities
ĠReason able
Ġrememb ered
Ġboil ers
ĠResident s
ĠConsult ation
Ġendeav or
Ar ticle
bu ilt
disc losure
Ġap ron
Ġpa ved
Ġpa rolees
Ġbored om
Ġinad vertently
Ġmisf ortune
Ġmisf ortunes
Ġhung ry
Ġnick le
Ġnick el
Ġgar bage
ĠTay lor
ĠIR AS
ĠSA F
ĠFol ks
ĠFol lowing
ĠCard iosk
ĠBre cher
ĠBal aji
Ġven ue
Ġven ues
Ġdoz en
Ġdoz ens
ĠGree k
ĠGree ly
artic le
ĠEth ics
Ġemp owers
Ġemph atic
Ġunve il
Ġunve iled
Ġunaff ected
Ġunaff ordable
Ġconsolid ating
ĠVis iting
ĠDirect or
Ġinfert ility
Ġinfert ile
Ġencomp asses
ĠReal izing
Ġminist ers
Ġminist ries
ĠEnh ancement
prof itable
Ġdistract ed
Ġdistract ions
Ġcolor ful
Ġcolour ful
Ġembry os
Ġembry onic
ĠImm igration
Ġfundament ally
Ġfundament als
Ġbrave ly
Ġpenal ties
Ġoxid ation
Ġoxid ative
Ġthermodynam ic
Ġthermodynam ically
Ġderail ment
ĠSchu iz
Ġdissatisf action
ĠJeff rey
Ġgymn astics
Ġculpr it
Ġculpr its
ĠHejz ar
ĠHejz lar
Ġmillenn ium
Ġdissip ated
Ġtort ured
Ġpon der
Ġmile age
Ġreck on
Ġrechar ge
Ġproduc ers
ĠSelf ishness
qual ified
Ġmaid s
Ġvot ers
Ġjum ps
Ġrol led
ĠJul ie
Ġfold ing
Ġregist ered
ĠStrate gy
Ġhypot hesis
Ġportray ed
Ġembark ed
ĠImple mentation
Ġreimburse ment
CO VER
bi otic
ben ef
factor ial
jian g
mach ine
pret ation
rele ases
Ġciv ics
Ġpeop les
Ġpave ments
Ġwild life
Ġbiod iesel
Ġfas cinating
Ġfost ering
Ġfurn ished
Ġmyst erious
Ġeuro s
Ġreth ink
Ġreass ess
Ġgir ls
ĠTor onto
ĠTok yo
Ġlur ch
Ġliv able
Ġsupers ede
Ġalien ation
ĠSign aler
Ġhem ophilia
Ġexhib it
ĠHC I
ĠHI PAA
ĠHit ler
ĠHug hes
Ġdisb urse
Ġdisting u
Ġdisheart ened
ĠCS OC
ĠCou pled
Ġchrom ium
ĠMur ray
Ġseam lessly
Ġmagaz ines
ĠBC G
ĠBI OS
ĠBro ache
ĠRead er
ĠReduc ing
ĠSingSt ats
ĠGir ardin
ĠGill um
ĠGraph ite
ĠPos sible
ĠNintend o
Ġkn ife
Ġunif orms
Ġundu e
ĠVi agra
cyc lopedia
ĠLip oxen
Ġdiffcult y
Ġcoast al
Ġpatho genic
ĠJa eger
ĠKah n
ĠKaz uo
Ġclar ified
Ġmini ature
Ġcapac ities
Ġmono xide
Ġmonet ize
ertil izers
Ġscra pers
Ġcorrel ation
Ġsupermark ets
Ġtarn ish
ĠRock well
Ġwarr ant
Ġdestro ying
Ġannou ance
Ġrepay ment
ĠShut tle
ĠManufact uring
Ġcalam ities
Ġunwel comed
ĠPhil ip
ĠSubst antial
ĠClar ke
ĠLeon id
ĠStraugh an
Ġhurd les
Ġunbal anced
Ġplagiar ize
ĠRefrig er
ĠKelvin ator
Ġsemin ar
ĠCamer a
Ġoverest imate
Ġcomplac ent
ĠConfuc ianism
Ġinaccur ate
Ġantioxid ants
Ad ditionally
Ġpy ramid
Ġbot tle
Ġsoot he
ĠCAS PIAN
ĠMR R
ĠWalk er
ĠGun powder
ĠToy ota
Ġexplos ives
Ġgrad ient
Ġpredomin ant
Cr itical
Dis play
EDP S
Min isterial
Prior ity
augh lin
bod ied
eMon itor
fif th
four th
his i
melbourne institute
occ ur
ril ov
sli pped
tw o
treat ment
wile y
Ġic ons
Ġtut ors
Ġtres pass
enaf il
Ġsand wich
Ġscept ical
Ġsemic onduct
Ġsyph ilis
Ġoun ce
Ġcens ored
Ġcrick et
Ġpal m
Ġpne umonia
Ġfift ies
Ġfrust rated
Ġinqu iry
Ġinhosp itable
Ġmam mal
Ġanch or
Ġanth rop
Ġdip lomat
Ġdub ious
Ġepid emics
Ġecos ystem
Ġnuis ance
Ġrenow ned
Ġrejuven ate
Ġthalas semia
loco ccus
chinad aily
Ġprover b
ĠTef lon
ĠTuf ts
ĠTenn essee
store y
stress ful
Ġdevi ate
Ġsucc umb
Ġalum in
Ġalchem ist
ĠSqu assoni
ĠSild enafil
ĠSie berg
ĠSchn e
Ġstag gering
Ġstalk ers
Ġhemor rh
ĠAID S
ĠAuton omous
ĠALC OM
ĠApol lo
ĠAvitz ur
Ġshab by
Ġexod us
Ġimmeas urable
aphy lococcus
ĠHond a
ĠHundred s
ĠHaz ard
ĠHai Hua
ĠHAZ OP
ĠIncon venient
ĠInev itably
Ġspok en
Ġspik ed
ĠFrequ ently
ĠFront ier
ĠFraunho fer
ĠCyst ectomy
ĠCater ing
ĠThomp son
ĠThanga velu
ĠThirum oorthy
ĠMethod s
ĠMagn et
Ġplaus ible
condition ing
ĠWass erman
ĠWert z
ĠWah rman
Ġmaneu ver
ĠBef riend
ĠBrow ser
ĠBenn ett
ĠBaind ur
ĠBacche tta
ĠBodans ky
Ġvideop hones
Ġindiscrimin ately
ĠRuther ford
ĠGru ber
ĠGav rilov
ĠGaf oor
ĠGonye au
ĠPors che
ĠPak istan
ĠPrest ige
ĠPassen gers
ĠNels on
ĠNCE E
artlepo ol
ĠEag le
Ġlifto ff
Ġmeag re
Ġmegap ixel
Ġunple asant
Ġunman ned
Ġuncons ciously
Ġunamb iguous
ĠDIS COVER
ĠDabrow ski
ĠLinc oln
ĠUpr ate
Ġammon ia
Ġdiscrep ancy
Ġimprovis ation
Ġlifebo ats
Ġbuildu p
Ġprism atic
ĠAlli ance
Ġservic ing
Ġterrit ory
Ġaffili ated
Ġdepreci ation
akrish nan
Ġtranspon der
Ġrefres hing
Ġhydra ulic
Ġhygi enic
death s
ĠWebs ite
thegov monitor
Ġairlin er
Ġendange red
Ġcondomin iums
Ġprobabil istic
Ġineffect iveness
ĠNewsp aper
combust ible
ĠCommiss ariat
Ġmisinter pretation
Ġperspic acity
ĠLeeuwen burgh
Ġcheckpo ints
ĠShropsh ire
Ġextravag ant
ĠArgon ne
ĠArmst rong
ĠXero x
ĠZamb ia
ĠZeal and
Ġglauc oma
ĠObnins k
ĠPhili pp
1126 8494
ĠLeBar on
ĠBarnet t
ĠColorad o
Ġunreason able
ĠMonolith ic
ĠMorrist own
Ġgeronto logical
ĠSchuk necht
ĠParticular ly
ĠElBar adei
ĠGoldsm ith
ĠScandinav ian
ĠCapgemin i
Ġdiplomat ic
11268494 5
' s
, ...
1 44
8 70
9 3
A n
B ut
C omp
D F
D o
E m
E DD
F riend
G as
G ive
G overnment
H e
H y
H ence
L ANE
M P
N ot
S S
Z A
a it
a ved
a iser
b lo
b ase
b ug
c an
c ore
c ount
c lear
c ase
c ise
c oll
c bs
c ulated
d on
d ays
d ict
d istance
f et
f eed
g iving
g ging
g rowing
h ad
h ospital
k il
k et
l a
l ors
l ines
m ary
m ind
m ake
n s
n ote
n ormal
o ving
o cus
p re
p at
p et
p eople
p sy
r iv
r ays
r fid
s ens
s ized
s ave
s html
t es
t ting
v ad
w art
w atch
x ins
Â ł
Ġt one
Ġt ired
Ġt iring
he red
he rence
Ġa ide
in ic
in ot
in os
re port
re ying
on ur
on gevity
en ned
en core
er m
er ational
Ġs ist
Ġs ack
Ġs ons
Ġs outh
Ġs ights
Ġs yndrom
Ġc ite
Ġp air
Ġp ond
Ġp unch
Ġp rize
at ical
at io
at the
Ġw ary
Ġw rest
Ġw ikipedia
Ġw news
or us
or por
or cbs
is al
is ons
it ic
Ġb loc
Ġto uc
Ġto ler
Ġto pping
an ied
Ġf ric
Ġf lying
Ġf ias
Ġf right
Ġin hab
Ġm ild
Ġm all
al ike
Ġd ies
Ġd ust
Ġd ared
ic it
ic ago
ent al
ent atively
ion ately
ion ably
ro cket
Ġh ang
Ġh alls
Ġre aps
Ġre look
Ġre cons
Ġre iterated
as soci
as hes
ct or
ct ic
Ġbe ats
il os
ld on
Ġg asses
us ter
om er
Ġpro pri
ce an
Ġl akes
et ies
et ite
st er
st etric
id ase
ore rs
ore tically
ur y
ur ities
ur den
ur amin
Ġfor ging
ig er
ig ated
ir ms
ill es
ill ity
ill ances
Ġde form
Ġde human
Ġcon se
ĠI on
her self
op ing
op lane
Ġen light
Ġen roll
ul as
Ġwh ite
ĠThe oretically
ĠS ect
ĠS ates
ĠS ame
ĠS ize
ĠS afe
ĠS etting
Ġst um
Ġst orm
Ġst alling
un ed
ĠA ck
ĠA viation
Ġne uramin
ci us
ci ence
Ġex ert
Ġex aggerated
th is
ort ality
am ping
ap ed
Ġor iented
ke y
ke ley
ĠH ad
ĠH ard
ĠH TR
ĠH ub
ĠH oe
Ġdevelop e
Ġimp lying
ff orts
Ġsp ills
Ġsp ouses
um e
Ġhas ten
Ġdis like
Ġres erving
Ġwe ird
Ġwe ighed
actor ies
ĠF A
ĠF R
ĠF l
ĠF er
ĠF uture
ĠF ocus
Ġinc oming
ĠC ra
ĠC WR
ĠC NA
Ġcount ires
ac are
ĠTh ings
ĠTh arman
ri ers
ĠM umb
ĠM eltdown
ult y
per ception
Ġse ason
Ġad min
Ġad mitting
Ġy uan
Ġcomp osed
Ġlo os
Ġlo osen
ĠW ashing
Ġpre y
Ġpre requ
Ġab uses
ated content
Ġman ners
ĠB r
ĠB ay
ĠB anks
Ġv ivid
iz er
Ġind iv
Ġind ec
ident ified
ĠR A
ĠR ach
ĠSing le
ight ing
Ġle vy
ell ation
ĠG ould
ĠG ive
ĠG aut
ĠP rize
ĠN P
ĠN ie
ĠN uff
Ġacc ust
Ġsaf eness
age ment
ĠO cean
Ġup wards
Ġup rising
Ġup held
ĠE fforts
Ġconc ur
Ġmed ifund
form ing
Ġar med
Ġrel ieves
Ġpower houses
si bilities
Ġout we
Ġun e
Ġun quest
Ġun identified
Ġper m
Ġper ple
Ġper mit
Ġper mits
Ġper pet
Ġcons erved
Ġcons cient
ric s
ple ment
Ġyear n
Ġtra p
Ġtra pping
now ledging
ĠD ra
ĠD ist
ĠD iffe
ĠD BS
ĠL ib
ĠL ui
ĠL ongevity
Ġsur ges
Ġam ended
ern er
Ġtr uck
Ġj unction
low ed
Ġinv iting
Ġover t
ip ment
Ġbenef actors
Ġiss uing
Ġapp etite
Ġold en
Ġinst igated
ĠAl am
ĠAl be
ob el
Ġfuel ing
Ġmain ten
Ġter ra
Ġph ilos
Ġret ention
Ġco ins
Ġcr ush
Ġqu intess
Ġfac ade
Ġfac ulty
Ġconcl usions
ĠCh u
ĠCh ronic
ĠCh icago
gra ms
Ġchan ced
Ġsec urities
cholo gical
Ġtw in
Ġinf use
pl ing
pl anted
Ġdep icted
Ġbur y
ĠJ S
Ġretire e
Ġretire s
Ġsurve ying
Ġhand ed
Ġhand les
Ġrad ically
Ġdet ers
we ek
Ġsign ing
Ġjust ifies
bers ome
me aning
Ġown s
Ġob sess
Ġob ey
ĠK aiser
Ġcl ou
Ġlevel ed
ĠRe gan
ĠSt ated
ĠSt ove
Ġher s
Ġmin ed
Ġagain t
Ġpay ments
Ġshort ed
Ġshort falls
hen ce
Ġmod ifies
Ġequ ality
Ġmon ies
Ġdiver ge
gen erational
Ġradio logical
Ġmajor ities
Ġbel l
Ġbel ls
Ġche at
Ġthink ers
Ġsche d
ĠPro b
ĠPro grams
Ġent rust
Ġabove mentioned
ĠEn cyclopedia
Ġident ities
Ġphys icists
ĠSo on
Ġform ulate
Ġform ulas
Ġsc ary
Ġsc ored
Ġsubsid ed
Ġer up
Ġscient ifically
ish ly
Ġimm ers
Ġimm ortality
ĠWe ldon
reen ing
Ġkind ness
Ġoblig ate
Ġoblig atory
Ġview point
ĠWh ite
Ġaccess ibilities
Ġbest s
Ġexist ent
Ġcommunic ated
Ġback f
Ġback s
Ġbus ses
unct ure
Ġconf erences
Ġdirect s
Ġda ught
ĠInt el
Ġloc ates
res ult
Ġtax is
ĠWor ks
Ġtow ers
Ġsustain s
Ġgra v
Ġadd iction
Ġlab orers
Ġactiv ation
Ġfl are
Ġfl ashes
Ġ198 2
Ġrest s
Ġrest oring
Ġrest raint
Ġseem ing
Ġair ports
ĠRes erve
Ġpersonal ities
ĠY uan
Ġcomple ments
Ġidentif ies
Ġtend ing
Ġend angers
ĠAfter all
rig e
Ġprob ing
ĠCent uries
Ġmodern ise
Ġbusiness man
Ġcle ver
Ġment ors
Ġfre es
Ġport rays
Ġsom etime
Ġdetect s
Ġagree able
Ġintern ally
Ġdisadvant aged
Ġforce fully
ĠAd ult
ĠAd mitting
ĠAd ults
Ġspecial ise
Ġspecial ize
ĠCon cluding
ĠCon ditions
ĠCon venience
Ġread s
Ġaim ing
be ings
Ġrespect ing
Ġemerg ent
Ġemphas ises
Ġkey word
to xic
Ġrecogn ise
Ġpopular ized
Ġspeed y
Ġcapital s
Ġsure ty
Ġste pping
Ġconver ge
Ġmass age
Ġcoll ided
Ġprec arious
Ġmis sed
Ġassoci ating
Ġpurpose fully
Ġcommer ce
Ġproport ions
Ġmist aken
agno sing
Ġdeple tes
Ġdiagno sing
Ġmet er
Ġmet res
Ġmar rige
Ġhind sight
Ġwind ows
Ġcirc ulatory
Ġimpos es
ĠEurope ans
ang zhou
Ġrev amping
Ġestim ations
Ġrestric ting
Ġelectr ons
Ġgather s
Ġmut ant
Ġinj ure
Ġestabl ishes
Ġchem istry
Ġvis ited
Ġearn s
ground er
acter ial
Ġmaxim ising
Ġcollap ses
Ġexerc ised
ĠOpp onent
ĠSche mes
Ġsound er
Ġade quacy
fect ed
sp end
Ġprefer able
Ġoptim ization
oph y
Ġdom ain
Ġclass ification
Ġcop ies
Ġcomplic ate
ane ous
ĠRob ot
Ġfight s
ĠGP D
ĠOver coming
Ġdev ot
Ġdev ise
ĠMan agers
ĠMan agement
ĠMain taining
Ġvirt ue
Ġfav ours
Ġperfect ed
Ġcriter ions
ĠApart ments
omet ers
ĠGr anted
Ġbroad ened
Ġallevi ates
ĠPsycholo gist
Ġreflect ing
Ġpum ping
Ġmus ical
ĠChan ges
Ġsecret aries
Ġassum es
Ġcharacter ized
Ġbio fuels
Ġver dict
Ġrepl aces
Ġscar ified
Ġhot ter
ĠGM F
ĠEconom y
Ġextend s
Ġdict ated
Ġsell s
Ġwrit es
ĠSouth west
Ġscen es
Ġgre et
Ġcompr ised
Ġ62 2
Ġdetermin ists
The se
Ġhop ed
Ġhop eful
Ġmechan ics
Ġapproxim ate
ĠSoci eties
Ġescap ed
Ġcal m
Ġ14 6
ĠIm aging
ĠIm portant
Ġoverse e
Ġsacrific ing
Ġtap e
Ġtri ps
Ġfra gr
ĠOb stetric
Ġtrust s
Ġcounsel lors
off s
Ġsent ences
Ġparent al
ĠInnov ators
Ġran ged
Ġdiab etic
Ġmand ate
rad ictory
Ġart ist
Ġappe als
Ġsqu atters
Ġpubl ishing
Ġrecess ions
Ġord ering
Ġweight ed
ĠCar riers
Ġadvoc ated
Ġadvoc ators
ĠEd in
Ġevol ves
Ġcomprehen d
ĠLimit ed
ĠLead ing
08 95
Ġsl ide
Ġce ase
ĠPat ient
Ġsafegu arded
ĠSupp ose
Ġdomin ating
Th ree
Ġconvin ient
Ġcas inos
Ġmonop oles
Ġsucceed ing
Ġcra zy
Ġsho es
Ġreview s
-- --
Ġconce aling
Ġstro kes
ĠInv asive
ĠDom inic
Ġswitch ing
Ġlik es
Ġdetri ments
ĠCont in
roph y
Ġresort ing
Ġresort ed
Ġbuff ering
Ġundert aking
Ġrefer r
Ġtherm ometers
Ġguidel ine
19 7
Ġoverwhel m
ĠAny how
Ġboom ed
design ing
Ġshutdown s
Ġdescrib e
Ġbrief ed
Ġreput ations
Ġweigh s
Ġplag ued
Ġcollabor ating
top ic
Ġmalf unctions
Ġren dered
struct ed
struct ive
Ġspaces hip
ĠMod ern
ĠNe g
ĠKe y
ĠKe vin
Ġexceed s
Ġcorresponding ly
polic y
Ġprop elled
Ġprop elling
Ġadap ts
Ġinsp ire
mark et
Ġremark ed
Ġrehabilit ating
depend ence
ĠCitiz en
under stood
ĠExam ple
Ġsickness es
lt ry
Ġbeaut ify
Ġbeaut ifying
Ġgovern ed
Ġintens ify
Ġdesktop s
ĠBer keley
Ġembra ced
Ġsibl ing
ĠImpro ved
ĠSol ving
Ġstabil ized
ĠPol it
ĠTele graph
Ġmanip ulating
Ġvibr ates
Ġsocio economic
ĠDis cus
Ġroof s
Ġsubstit utions
ĠReport ed
Ġstraight away
Ġaccompan ies
28 55
EN ZA
Ġmat ches
Ġrelax ation
Ġpersist ing
Ġshrink s
Ġpand emics
Ġfing er
Ġcontem pl
Ġunderm ines
Ġsky rocket
Ġmisunder stand
Ġcognitive ly
Ġinhib itor
Ġstar vation
Ġpersu asive
Ġdeduct ible
yl ket
heart edly
ĠSc reening
Ġhes itant
ĠBack grounder
Ġcontrad ictory
ĠRel ated
Ġspeak er
Ġspeak ers
Ġmoder ators
Ġaggrav ated
word press
Ġsam ples
Ġmixt ures
Ġuncon structive
ĠKel ly
Ġinsert ion
Ġunsatisf actory
Ġpredecess or
94 09
reg ist
Ġpit fall
Ġpou ltry
Ġfem ale
Ġalign ed
Ġspo on
Ġspo il
Ġhass les
Ġque ue
Ġharness ing
Ġunhapp y
uw ait
Ġaer oplane
Ġaesthe tically
Ġgate keep
Ġmanif est
Ġmanif ested
Ġmanif ests
Ġvac ant
Ġtrad itions
Ġinfl ammable
Ġinfl ammation
ĠUnden iable
Ġscr ut
ĠWee k
Ġstereoty ping
Ġbankrupt cy
Ġasc end
Ġheight ened
Ġrelig ious
Ġnegot iation
Ġnegot iations
Ġlegisl ations
ĠContr arily
direct or
effect iveness
Ġdum ped
Ġconvic ted
ĠSD K
Ġdissemin ated
ĠFact book
Ġexport ing
Ġrob bed
Ġethn ically
Ġheadset s
Ġunintention al
Ġfashion able
Ġtit le
Ġtit les
Ġglo omy
ĠBre ast
Ġsociolo gist
Ġoverload ed
Ġquarant ine
Ġdownload ing
Ġmotorb ike
Ġastron omy
Ġmilest ones
Ġdissatisf ied
Ġgymn astic
Ġmillenn iums
RP LANE
Ġeager ly
Ġreck less
Ġrechar ging
Ġproduc er
ĠTreat ment
ĠAA CC
Ġimpul se
Ġmaid en
Ġvot es
ĠOrig inated
ĠOrig inally
Ġjum ped
Ġunderest imated
Ġrol ling
Ġdefe ated
Ġregist ration
Ġhypot hes
Ġveget ables
Ġveget arian
Ġillum inated
Ġauthent ic
Ġcum bersome
Ġcous ins
Ġfon t
Ġfon ts
Ġfix ing
Ġenzy me
Ġenzy mes
Ġvigor ously
ĠUD HR
Ġoverth rown
Ġmisgu ide
Ġmisgu ided
exam ination
Ġinterpre ted
Ġii i
Ġannounce ment
Ġramp antly
Ġconceal ment
Ġpropag ate
ĠGeor ge
ĠGeor getown
Ġdisappoint ment
Ġdisappoint ments
Ġconfigur ation
Ġconfigur ations
Ġdisproport ionate
Ġdisproport ionately
link s
Ġly rics
Ġod d
Ġcry ing
Ġpiv otal
iter ates
Ġfle w
Ġdread ful
arat nam
imp act
Ġasp iring
Ġassem ble
ĠIP CC
Ġstom achs
ĠAI RPLANE
Ġspur red
Ġspear head
Ġincons istent
Ġchurn ed
Ġmanuf actories
ĠBreak through
Ġindul ge
ĠNB ER
Ġunus ual
ĠVacc ine
Ġoverr ide
Ġovers impl
Ġcommod ities
Ġcoff ers
develop ing
ĠRespon se
ĠDeb ra
Ġantiqu ated
ĠCAD ENZA
Ġindisput able
Ġdissol ve
surve illance
ĠShanmug aratnam
Ġmerchand ise
support ing
inf l
environ mental
Ġcel cius
verat rol
Ġconqu er
ĠComb ined
acceler ating
ĠThousand s
Ġindent ifying
Ġcrus hed
ĠAccomp anied
Ġsmo other
Ġeros ion
Ġmisident ification
Ġsusp end
Ġnutri ents
ĠSociolo gists
Ġfraud s
ĠAdvance ments
ĠRetire es
Ġembarrass ment
Ġdistingu ish
ĠRefriger ators
Ġsemiconduct or
ĠPhilipp ines
DF E
Friend ly
He alth
Hy drogen
fet ched
feed ing
mind ed
riv acy
inot old
onur ia
enned y
Ġsist ers
Ġsyndrom es
Ġwrest le
orpor ated
Ġbloc king
Ġfric tion
Ġfias co
Ġfright ening
Ġrelook ed
Ġrecons idered
associ atedcontent
Ġpropri etary
Ġconse cut
Ġenroll ment
ĠSect ors
Ġstum ble
ĠAck nowledging
Ġneuramin idase
Ġhasten ed
ĠCWR U
ĠMumb ai
Ġadmin ister
ĠWashing ton
Ġprerequ is
ĠRach ael
ĠGaut am
Ġoutwe ighed
Ġunquest ionably
Ġperple x
Ġconscient ious
ĠAlbe it
Ġmainten ances
Ġentrust ing
Ġdaught ers
2855 90
ylket onuria
Ġgatekeep ers
& /
' -
' d
, '
0 33
0 52
0 23
0 26
1 4
1 00
1 31
1 104
2 2
2 000
2 33
2 29
2 27
2 40
3 00
3 29
3 44
4 2
4 9
4 20
4 80
4 29
5 4
5 6
5 9
5 50
5 15
6 2
6 4
6 46
7 2
7 4
7 25
8 2
8 5
8 08
8 84
9 9
9 000
9 11
9 07
A I
A g
A nt
A ge
A pp
A ss
A ccess
A TION
A sc
A rab
B B
B I
B e
B t
B y
B re
B ig
B illion
B esides
B rain
B irth
B ased
B usiness
C H
C on
C or
C ap
C ard
C herno
C AR
C BM
C BC
C ull
C ystic
C ollapse
C ommun
C ircuit
C ommon
C itizen
D O
D S
D e
D i
D r
D s
D em
D own
D IF
D oc
D ictionary
D ulc
D etroit
D aily
D iffusion
E B
E E
E H
E X
E x
E ar
E WR
E ner
E AL
E DO
F O
F er
F ib
F requency
F ibrosis
F inally
F ertilizers
F SS
G reen
G IF
H L
H P
H em
H and
H ard
H ugh
H az
H ING
H artlepool
I H
I P
I d
I f
I nt
I CE
I ME
J A
J I
J on
J ones
K F
K W
K ra
K el
K OM
L N
L ee
L PA
L etter
L ibrary
M D
M L
M R
M V
M ore
M any
M OS
M arina
M orton
M erz
M ovement
M igrants
M athematics
M Bt
N E
N N
N R
N e
N o
N or
N uclear
O L
O T
O U
O X
O l
O n
O nce
O RT
O CA
O OS
O WI
P D
P R
P ort
P ass
P esticides
P acific
P rice
P hot
P sychology
P rivacy
P ORT
R B
R et
R id
R OM
R unning
R ING
S C
S H
S N
S m
S he
S ing
S um
S ome
S pe
S ize
S TA
S TI
S alt
S CE
S yndrome
S LE
S ME
S ES
T F
T Y
T er
T ay
T el
T imes
T ON
T oday
T ype
T alkie
U n
U ID
U ser
U AS
U AL
U DGE
U JI
V L
V i
V ax
V IA
V ilim
W il
W ith
W ER
W alk
W EB
X us
X US
Y u
Y et
Y Daily
a a
a ing
a ar
a gh
a ip
a ise
a wn
a ics
a unt
a fer
a iting
a ug
a ques
a ek
a Bo
a esthesia
b c
b d
b k
b es
b or
b us
b om
b ig
b ate
b iz
b ell
b ru
b urn
b oss
b ish
b ism
b ered
b ral
b man
b iting
b ins
b rains
b earing
b ikes
b aek
c d
c m
c en
c ion
c ation
c aus
c ard
c ab
c ities
c row
c ific
c ertain
c ism
c apt
c aring
c omp
c aster
c sia
c ending
c af
c ulations
c ream
c ano
c ups
c iful
c inated
c ino
c itate
c opic
c odes
c ales
c ault
c lock
c ape
c isiveness
c lick
d a
d h
d l
d in
d ent
d ri
d ak
d rain
d ish
d rug
d rate
d oc
d iction
d ney
d rew
d ull
d ressing
d urable
d efined
d hs
d eter
d urability
d owment
d emanding
d istrib
e a
e i
e an
e ers
e velop
e ag
e ved
e gra
e co
e ches
e uro
e yed
e ga
e omal
e gg
f z
f lo
f ate
f ia
f usion
f ilt
f ix
f iting
f lex
f atal
f ood
f ah
f actors
f arious
f ews
f ailure
f usions
f cee
f eller
f ertilizers
f cd
g t
g w
g it
g ent
g ar
g ly
g us
g ill
g ain
g ri
g and
g ates
g ade
g ium
g ory
g ling
g ivers
g ross
g mental
g lobal
g ley
g oto
g reg
g rey
g fr
g nosis
g overnmental
g reying
h i
h k
h r
h ome
h ire
h ob
h io
h ark
h ink
h ty
h ttp
h ma
h orts
h ah
h unting
h lessness
h lman
h ih
h onest
h ao
h uis
h oltz
h ask
h unger
h hs
h rer
h aran
h avi
h aped
i i
i is
i us
i el
i ever
i ens
i ose
i ased
i verse
i mental
i aries
i els
i peridone
i blity
j i
j id
j amin
j ev
k a
k us
k ay
k ler
k wh
k off
k ula
k ov
k Wh
k anellos
k ki
l is
l an
l ay
l gy
l ab
l ace
l ord
l ag
l ays
l ia
l ish
l ises
l ude
l abor
l uck
l uded
l imited
l text
l ittle
l antic
l amation
l bru
m i
m m
m p
m q
m ation
m et
m ay
m ess
m ad
m ine
m ight
m ard
m ud
m ans
m cy
m other
m ass
m ling
m ash
m ember
m cl
m iles
m oded
m iums
m aterial
m uss
m biotic
m holtz
n r
n on
n st
n ate
n ance
n ell
n ame
n ered
n ick
n cer
n ds
n ished
n ita
n othing
n ica
n utrition
o A
o ing
o ch
o op
o ol
o ag
o ok
o ice
o cons
o zy
o ij
o genic
o irs
o inted
o blast
p f
p y
p en
p it
p al
p ent
p us
p ur
p ill
p se
p ies
p ost
p ter
p one
p our
p ile
p red
p ack
p ics
p ract
p here
p ening
p aces
p ixel
p arency
p icture
p bell
q i
q an
r ud
r ans
r ors
r usion
r ise
r itable
r ancy
r asing
r ton
r ift
r arily
r atic
r net
r ina
r actory
r oneous
r asive
r hyth
s z
s il
s ay
s ci
s cy
s uch
s ound
s che
s ail
s we
s ource
s ick
s ler
s ense
s atisf
s chool
s ery
s iveness
s aking
s ale
s ma
s hield
s cre
s olution
s ah
s alt
s ports
s hips
s ina
s cient
s ignificant
s uccessful
s pection
s ao
s ufficiency
s sex
s fr
s umption
s olescence
t C
t in
t ar
t as
t us
t om
t el
t one
t ire
t ard
t ab
t ag
t ics
t ilities
t int
t ible
t orn
t oty
t ax
t ube
t aj
t rains
t alkie
t mi
t rans
u v
u le
u age
u ations
u ments
u ates
u ator
u ins
u encies
u ah
v or
v ay
v ol
v ac
v ance
v ist
v ie
v ations
v ances
v als
v line
v ins
v ino
v olt
v ko
v oir
w re
w er
w at
w es
w it
w ar
w ab
w ives
w ag
w arm
w hen
w elfare
w rit
w ined
w ood
w alk
w alled
w aste
w da
w ritable
x ter
x ious
x iety
x oo
x Health
y re
y lo
y ers
y ard
y ield
y ne
y be
y pes
y cin
y dney
y rton
z er
z ing
z ar
z ation
z che
z iness
z ler
z ero
z ano
z inc
z ene
Â ¥
Â §
Â ©
Â ¯
Â º
â Ģ
Ġ >
Ġ 00
Ġ ues
Ġ verse
Ġ icon
Ġ uh
Ġ ulter
Ġ iodine
Ġt or
Ġt ro
Ġt et
Ġt act
Ġt el
Ġt ant
Ġt ect
Ġt ard
Ġt ren
Ġt ru
Ġt ip
Ġt ors
Ġt ides
Ġt ier
Ġt ick
Ġt aper
Ġt orn
Ġt aps
Ġt ux
Ġt acr
Ġt ireless
Ġt rick
Ġt aste
Ġt rench
Ġt icking
he it
he al
he id
he ast
he ard
he ating
he sion
he ets
he jiang
Ġa a
Ġa ort
Ġa lder
Ġa bl
Ġa ust
Ġa ft
Ġa unt
Ġa ux
Ġa uct
Ġa ugust
Ġa kin
Ġa flo
in h
in i
in er
in is
in ch
in im
in id
in uclear
in em
in qu
in vent
in ces
in ting
in duced
in ten
in cer
in itude
in ley
in struct
in ometer
in otor
in ologies
Ġthe or
Ġthe ra
Ġthe ater
Ġthe sis
Ġthe ses
re z
re al
re veal
re place
re put
re duction
re aving
re rs
re lying
re ference
re heat
re mo
on k
on al
on ge
on uclear
on so
on em
on ous
on ious
on ates
on ove
on ium
on ds
on ah
on rad
on iorno
on nes
on ami
en y
en st
en gine
en ient
en ger
en ix
en ins
en otic
en amed
en rich
en uk
en ov
en riched
en itic
en kov
er f
er i
er ity
er ical
er ip
er ful
er ring
er ately
er land
er als
er kes
er uo
er ilized
er cise
Ġs q
Ġs or
Ġs ar
Ġs no
Ġs ong
Ġs iz
Ġs ire
Ġs ms
Ġs hed
Ġs ane
Ġs nap
Ġs ynthesis
Ġs ided
Ġs apping
Ġs incer
Ġo re
Ġo us
Ġo mission
Ġo kay
Ġo wes
Ġc m
Ġc her
Ġc ess
Ġc ad
Ġc od
Ġc age
Ġc ab
Ġc av
Ġc asing
Ġc af
Ġc ensus
Ġc net
Ġc oded
Ġc ables
Ġc otton
Ġc arts
Ġc ortex
Ġc clean
Ġc pf
Ġc inem
Ġp g
Ġp ent
Ġp lo
Ġp se
Ġp act
Ġp ac
Ġp aus
Ġp ist
Ġp ence
Ġp ile
Ġp ier
Ġp ian
Ġp edi
Ġp ending
Ġp aving
Ġp lying
Ġp airs
Ġp acking
Ġp iled
Ġp riz
Ġp ouch
Ġp iers
Ġp owder
Ġp ierce
Ġp ixel
Ġp scy
at o
at y
at ar
at om
at ers
at um
at ial
at ility
at ric
at ization
at ible
at hed
at ches
at ibility
at ience
at ify
at aract
at uk
at eness
at ng
at rina
at onnes
es ed
es ium
es ible
es hip
es hk
Ġw i
Ġw ed
Ġw ir
Ġw ap
Ġw ound
Ġw ired
Ġw att
Ġw ounds
Ġw reak
Ġ. ....
Ġ. ........
ing ering
or ow
or ge
or ide
or ily
or age
or ob
or ror
or ality
or man
or ney
or ientated
or rar
is ot
is ks
is hers
is cons
is ibly
is uke
is awa
is diction
is phere
it on
it le
it us
it ity
it ance
it ud
it ering
it ry
it ting
it ts
it te
it atively
it ching
it ters
it arian
it antly
it iya
it ometry
it chen
Ġb ion
Ġb ol
Ġb if
Ġb ac
Ġb and
Ġb und
Ġb oun
Ġb ud
Ġb reat
Ġb red
Ġb oss
Ġb ible
Ġb rit
Ġb aff
Ġb acking
Ġb ump
Ġb ols
Ġb attered
Ġto al
Ġto il
Ġto ms
Ġto ys
Ġto aster
Ġto iling
Ġto ken
Ġto ssed
ed a
ed o
ed os
ed ness
ed ian
ed ded
ed ps
ed nes
an an
an al
an im
an qu
an ie
an ics
an ision
an ish
an oid
an nity
an na
an ching
an caster
an honest
an nica
Ġf et
Ġf are
Ġf ist
Ġf ates
Ġf led
Ġf ills
Ġf ron
Ġf ilt
Ġf ict
Ġf res
Ġf unk
Ġf ending
Ġf ishing
Ġf iction
Ġf rank
Ġf uelled
Ġf isher
Ġf etal
Ġf lick
Ġin ar
Ġin ver
Ġin est
Ġin versely
Ġin esc
Ġin human
Ġin aud
Ġin built
Ġin aug
Ġin nate
Ġof the
Ġof gross
Ġm un
Ġm ich
Ġm um
Ġm os
Ġm ous
Ġm ob
Ġm ates
Ġm ouse
Ġm use
Ġm outh
Ġm iscal
Ġm obiles
Ġm amm
Ġm osh
Ġm asters
Ġm asks
Ġm oths
Ġm ethane
Ġan imes
Ġan onym
Ġan aemia
Ġan terior
Ġan esthesia
Ġan aesthesia
Ġan swe
al o
al ent
al id
al con
al ong
al ile
al ments
al ready
al ded
al ih
al crow
al jev
al py
le in
le en
le ven
le ep
le tic
le vi
le cular
le ading
le phony
le ashing
Ġd k
Ġd ot
Ġd up
Ġd yst
Ġd ivid
Ġd ating
Ġd ates
Ġd ues
Ġd omes
Ġd orm
Ġd well
Ġd reg
Ġd irt
Ġd ental
ic as
ic op
ic able
ic ide
ic ence
ic io
ic iency
ic rous
ic ulous
ic ensing
ic cups
ou l
ou ce
ou st
ou ck
ou les
ou ded
ou chers
ou cault
ou mard
ent e
ent ing
ent ation
ent ive
ent os
ent rum
ent erprise
ent worth
ent uates
ent icide
ion g
ion uc
ro st
ro ist
ro ach
ro vers
ro ars
ro oming
ro duction
ro sive
ro iled
ro omed
ro bb
ro Vax
ro cities
ar is
ar ct
ar ity
ar ri
ar able
ar ations
ar ound
ar ia
ar ating
ar io
ar ai
ar gon
ar ache
ar riages
ar range
ar chen
ar nished
Ġe ther
Ġe ternal
Ġe leg
Ġe economic
Ġe uthanasia
Ġe ternally
Ġe Citizen
Ġe pile
Ġh ate
Ġh ue
Ġh ist
Ġh yst
Ġh ip
Ġh ors
Ġh ides
Ġh int
Ġh omet
Ġh oused
Ġh ij
Ġh ull
Ġh istor
Ġh ipp
Ġh orns
Ġh iccups
ve ment
Ġn d
Ġn as
Ġn il
Ġn ause
Ġn ud
Ġn ie
Ġn ab
Ġn ag
Ġn ative
Ġn ons
Ġn ipped
Ġn ights
Ġn erv
Ġn iece
Ġre ver
Ġre ign
Ġre duc
Ġre ph
Ġre loc
Ġre pr
Ġre formation
Ġre iterate
Ġre designed
Ġre employed
Ġre heat
Ġre hiring
Ġre rout
Ġre occur
Ġre hire
Ġre writable
Ġre arrange
as en
as ide
as ionally
as ma
as eless
as iaone
as ury
as heets
ly an
ly ce
ly zation
Ġth igh
Ġth ud
Ġth orn
Ġth ym
Ġth rew
ct ions
ct ional
ct ares
Ġbe er
Ġbe ver
Ġbe et
Ġbe aches
Ġbe que
Ġbe reaving
il lo
il ation
il ay
il ate
il ical
il ard
il ise
il aw
il ings
il ib
il ator
il ian
il roy
il iary
il kki
lo th
lo ted
lo cked
lo gists
lo vin
lo rey
lo gically
lo gs
lo itte
ld or
Ġg ant
Ġg end
Ġg ates
Ġg lu
Ġg land
Ġg ivers
Ġg ang
Ġg ums
Ġg rains
Ġg olf
Ġg lyce
us um
us ary
us ory
us ave
us sc
us cule
us sex
us citate
om ents
om ass
om bo
om iting
om itantly
ation ers
ch i
ch u
ch im
ch ase
ch ives
ch ures
ch av
ch osen
ch mar
ch iatric
ch olesterol
ch arts
Ġpro sthe
Ġpro create
Ġpro sec
Ġpro gnosis
ver ts
ver ick
ver ichip
ver gence
ĠT P
ĠT S
ĠT en
ĠT ot
ĠT ig
ĠT em
ĠT ong
ĠT ric
ĠT ag
ĠT ack
ĠT ob
ĠT ry
ĠT rib
ĠT rain
ĠT sing
ĠT iles
ĠT iscal
ĠT raine
ĠT eng
ĠT owers
ĠT elling
ĠT amil
ĠT opic
ĠT CP
ĠT ennis
ĠT uek
ĠT yph
ĠT apping
ĠT AT
ĠT entatively
ĠT IME
ĠT ML
ĠT OU
ĠT aip
ĠT sao
ĠT ypes
ĠT alent
ĠT iong
ĠT roVax
ĠT ilkki
ce k
ce lo
ce ter
ce led
ce asing
ce tin
Ġl ion
Ġl un
Ġl ure
Ġl est
Ġl ous
Ġl ud
Ġl ays
Ġl ip
Ġl ia
Ġl iven
Ġl av
Ġl ivers
Ġl isc
Ġl bs
Ġl imb
Ġl apse
Ġl uke
Ġl esion
Ġl uster
Ġl enient
Ġl ingering
Ġon us
Ġon ward
Ġon board
et p
et z
et her
et all
et ween
et oh
et rap
et ected
et rnet
Ġthat t
im r
im al
im ation
im able
im pro
im edia
im eter
im ombo
im chi
st y
st ing
st ain
st art
st ations
st ru
st imes
st ick
st ake
st atic
st rained
st ores
st iy
st ock
st yle
st rait
id en
id an
id el
id ual
id ian
id enced
id iscrimination
id sk
id gw
ore al
ore line
ot iv
ot ions
ot ential
ot ism
ot ee
ot li
ot onous
ur a
ur m
ur s
ur u
ur ation
ur ous
ur gical
ur ization
ur ler
ur ances
ur ches
ur izing
ur ton
ur ses
ur iser
ur dy
ur gence
ur atom
ur isdiction
ur anics
Ġfor ci
Ġfor ged
Ġfor ties
Ġfor going
Ġfor gone
Ġfor saking
ig nt
ig ov
ir a
ir con
ir ability
ir ably
ir gin
ill ation
ill ust
ill ness
ill ator
ill ips
ut y
ut z
ut ten
ut we
ut ier
ut ants
ut ches
Ġas h
Ġas so
Ġas ph
Ġas ks
Ġas hes
Ġas pir
Ġas leep
Ġde lu
Ġde formation
Ġde ception
Ġde cont
Ġde amin
Ġde arest
Ġde xter
Ġcon cess
Ġcon gen
Ġcon gress
Ġcon men
Ġit eration
ow o
ow den
ow ledge
se ven
se curity
se cure
ĠI an
ĠI con
ĠI DA
ĠI CC
ĠI SP
ĠI CBM
ĠI FSS
ĠI SES
her al
her ical
her idan
op o
op ol
op ers
op aus
op ting
op sycholo
op ular
op ath
op hers
op tic
op erate
op erative
op oles
op athy
op pable
Ġen for
Ġen vi
Ġen rol
Ġen vy
ul ver
ul th
ul pt
ul ative
ul ates
ul ged
ul ler
ul ai
ul pit
nt ario
Ġha cking
Ġha iled
Ġha uled
Ġwh ol
Ġwh iled
Ġwh iche
Ġwh isk
ay am
ay ton
ay ama
ay cee
ess ing
ess ional
ess enger
Ġsu ed
Ġal ias
Ġal right
Ġal ighting
Ġal might
Ġal zche
Ġal loted
Ġag itate
Ġag aing
Ġag greg
ol ent
ol ar
ol ation
ol our
ol ence
ol ition
ol ia
ol ants
ol mes
ol berg
ol acu
ĠThe ory
ĠThe sis
ĠThe Free
ĠThe Supercritical
ith ubishi
ies ce
Ġnot ch
Ġnot ions
Ġnot ification
Ġnot ifications
Ġnot ifies
Ġnot atum
uc ci
uc ane
uc ially
uc assen
ĠS at
ĠS an
ĠS et
ĠS per
ĠS ue
ĠS out
ĠS ell
ĠS ep
ĠS ia
ĠS ite
ĠS port
ĠS ized
ĠS hen
ĠS iew
ĠS ick
ĠS put
ĠS hib
ĠS ending
ĠS hand
ĠS ank
ĠS ched
ĠS ym
ĠS olution
ĠS ax
ĠS hel
ĠS ott
ĠS ams
ĠS kept
ĠS lip
ĠS ignificant
ĠS ull
ĠS achs
ĠS irt
ĠS add
ĠS onic
ĠS IM
ĠS istan
ĠS ustainable
ĠS enna
ĠS RF
ĠS aud
ĠS usan
ĠS ahara
ĠS obel
ĠS RB
ĠS STA
ĠS afer
ĠS gt
ĠS ydney
ĠS entos
ĠS ussex
ĠS idgw
ĠS heridan
Ġst am
Ġst iff
Ġst ew
Ġst ars
Ġst ructuring
Ġst amp
Ġst alking
Ġst unning
Ġst unned
Ġst aphylococcus
Ġst enotic
Ġst erilized
Ġst urdy
act ual
act iveness
Ġhe ap
Ġhe ft
Ġhe ars
Ġhe els
Ġhe alty
Ġhe pat
Ġhe ctares
un a
un z
un er
un ge
un od
un ium
un ged
un ching
un nan
un wald
un certain
un nell
un locked
if er
if ists
if inal
if iably
if arious
if iers
ĠA R
ĠA us
ĠA very
ĠA den
ĠA co
ĠA ges
ĠA tt
ĠA bs
ĠA ware
ĠA ero
ĠA ung
ĠA CA
ĠA wards
ĠA DA
ĠA FP
ĠA CS
ĠA GE
ĠA ME
ĠA vail
ĠA RP
ĠA rab
ĠA MA
ĠA wang
ĠA EH
ĠA LPA
ĠA NN
ĠA VIA
ĠA oA
ĠA yrton
ĠA zar
Ġne pt
Ġne ck
Ġne ccess
Ġne farious
iv an
iv ious
iv ism
iv ian
iv ne
iv irus
Ġcan tal
Ġcan celed
Ġwith drew
ci um
ci ety
ci eved
ci ato
ers en
ers ign
ers pectives
ers cience
gy backed
ra w
ra il
ra cies
ra mer
ra ught
ra fts
ra cks
ra ptions
ra flu
ra zil
ra isal
ure r
ure th
ure ate
ure ments
ure rs
Ġsh un
Ġsh am
Ġsh od
Ġsh out
Ġsh ade
Ġsh ove
Ġsh ak
Ġsh ades
Ġsh ake
Ġsh ored
Ġsh ining
Ġsh ipped
Ġsh ipping
Ġsh aker
Ġsh allow
Ġsh unning
Ġsh attered
Ġsh unned
Ġsh owering
Ġsh oreline
el ch
el ter
el ance
el ier
el ty
el ief
el cab
el eny
no i
no on
no ss
no sed
no dak
Ġex empt
Ġex orb
Ġex otic
Ġex aj
Ġex terior
Ġex ternally
th s
th ly
th ard
th ful
th ler
th inking
th ara
th west
th ora
ant ak
ant icip
are a
are tt
are rs
are lli
end y
end ar
end ix
end erg
Ġcom ics
Ġcom ings
Ġcom sumption
Ġcom edian
Ġso ak
Ġso vere
Ġso viet
Ġso ybe
am u
am ing
am is
am ount
am bl
am ide
am ite
am ian
am be
am oto
am bul
am onds
Ġte chno
Ġte ens
Ġte aring
Ġte asing
Ġte chological
Ġ2 200
Ġwor ris
Ġim itated
lop ment
ap es
ap able
ap ped
ap iro
ap iens
ap lan
ap itiya
ad s
ad er
ad der
ad ak
ad ded
ad rup
ad mission
ad ication
ad ditional
ad haran
ad arache
Ġor dered
Ġor biting
ke men
ke eper
ĠH D
ĠH O
ĠH R
ĠH ir
ĠH ich
ĠH ough
ĠH ip
ĠH ob
ĠH ass
ĠH osp
ĠH av
ĠH oll
ĠH ick
ĠH old
ĠH of
ĠH els
ĠH aid
ĠH ero
ĠH eng
ĠH off
ĠH ald
ĠH aut
ĠH FA
ĠH idden
ĠH TS
ĠH aj
ĠH onest
ĠH anny
ĠH AL
ĠH irs
ĠH oo
ĠH arman
ĠH oy
ĠH ayden
ĠH orns
ĠH artlepool
ĠH angzhou
ĠH EAL
ĠH orror
ĠH annity
ĠH alcrow
ĠH olmes
ĠH ambl
ich ten
ich ols
Ġdevelop er
ĠIn for
ĠIn ner
ĠIn fra
ĠIn side
ĠIn nocent
ĠIn jection
ĠIn appropriate
ĠIn etrnet
est a
est ly
est ions
est ration
est iny
est ock
pp er
pp ery
ate gory
Ġimp ing
Ġimp el
Ġimp edi
Ġimp rud
Ġimp atience
Ġgen oty
Ġelder y
ff ins
Ġsp r
Ġsp ed
Ġsp ine
Ġsp out
Ġsp aring
Ġsp here
Ġsp acing
Ġsp earing
Ġsp acious
Ġsp awn
Ġsp onge
Ġsp atial
Ġsp ouce
Ġsp illo
um sy
um ph
um man
um my
ter ly
ter ans
ter ious
Ġhas ty
Ġdis qu
Ġdis per
Ġdis ob
Ġdis oriented
Ġdis located
Ġdis bur
Ġdis content
Ġdis qualified
Ġelderly elderly
Ġres ent
Ġres et
Ġres ale
Ġres idences
Ġres ett
Ġres haped
Ġres onates
Ġres urgence
Ġwe ld
Ġwe arer
Ġwe arers
Ġr ation
Ġr ough
Ġr up
Ġr all
Ġr ally
Ġr ings
Ġr ib
Ġr ang
Ġr iver
Ġr ipping
Ġr upt
Ġr pm
Ġr hyth
Ġr iperidone
rom edia
overn ement
ĠF ine
ĠF ever
ĠF ear
ĠF ans
ĠF red
ĠF low
ĠF ind
ĠF usion
ĠF ield
ĠF ather
ĠF lu
ĠF ission
ĠF unct
ĠF iscal
ĠF ixed
ĠF AS
ĠF reed
ĠF reak
ĠF ede
ĠF lin
ĠF etter
ĠF ruits
ĠF ull
ĠF ox
ĠF eas
ĠF lor
ĠF rench
ĠF uther
ĠF ertil
ĠF uj
ĠF irms
ĠF BI
ĠF OX
ĠF UJI
ĠF VL
ĠF alcon
ĠF oucault
ĠF lorey
chno sty
chnolo gical
Ġinc ision
Ġinc isions
Ġinc iner
ĠC D
ĠC G
ĠC H
ĠC ast
ĠC ult
ĠC ab
ĠC all
ĠC ities
ĠC ases
ĠC hen
ĠC lu
ĠC rimin
ĠC ER
ĠC ross
ĠC olo
ĠC yn
ĠC US
ĠC az
ĠC rist
ĠC rick
ĠC level
ĠC ystic
ĠC roft
ĠC utting
ĠC oping
ĠC LN
ĠC MOS
ĠC erf
ĠC ataract
ĠC urler
ĠC ulver
ĠC adarache
ĠC ategory
Ġshould ering
Ġshould ered
ain ing
ain ees
ain tances
Ġch i
Ġch ime
Ġch aper
Ġch asing
Ġch ats
Ġch amber
Ġch arts
Ġcount s
Ġcount ing
Ġcount ers
Ġcount ering
ac ular
ac hers
ac ology
ac bc
ĠTh reat
ĠTh ans
ĠTh inking
ĠTh orn
ĠTh aind
ĠTh irteen
Ġnuclear generation
du ed
du als
ri a
ri x
ri um
ri ors
ri ks
ri ption
em nt
em ark
em ission
em ned
em inent
em nity
em inently
em itting
ĠM B
ĠM en
ĠM ist
ĠM ong
ĠM ans
ĠM ack
ĠM ach
ĠM ention
ĠM eth
ĠM illion
ĠM oll
ĠM ars
ĠM aster
ĠM IN
ĠM ake
ĠM use
ĠM issions
ĠM aur
ĠM athe
ĠM ah
ĠM eng
ĠM HR
ĠM uk
ĠM issile
ĠM ama
ĠM BT
ĠM ene
ĠM yo
ĠM uss
ĠM etal
ĠM ui
ĠM iy
ĠM ovement
ĠM clean
ĠM athematics
ĠM atthe
ĠM EWR
ĠM SN
ĠM tC
ĠM eshk
ĠM oments
ĠM uller
ĠM essenger
ĠM ithubishi
cial ists
os ine
os ph
os omes
os itions
os ins
os cient
os ophy
os copic
qu acies
Ġthis tle
bl ink
bl inking
bl igation
ase k
ine a
ine gar
ast in
ast ari
ult ation
per ial
per cent
per fect
per manent
and a
and y
and ed
and al
and ered
and arin
and ey
and ria
Ġse ep
Ġse wn
Ġse aling
Ġse ismic
Ġse wed
Ġse wer
Ġse aside
Ġat rocities
Ġad s
Ġad es
Ġad age
Ġad heres
Ġad mire
Ġad olescence
Ġad herence
Ġad rift
Ġad ulth
ue vline
ue enst
Ġpl ough
Ġpl ated
Ġpl ight
Ġpl ug
Ġpl edge
Ġpl ume
Ġpl aques
Ġpl unge
Ġneed ful
Ġneed ier
Ġneed iest
Ġneed lessly
Ġdes erts
Ġdes irability
Ġwork out
Ġwork ability
Ġwork face
Ġwork mans
Ġsa iling
con i
con ies
con vic
con ventional
con structing
con stru
Ġy es
Ġy ard
Ġy ours
Ġy ellow
Ġy outube
Ġy ummy
Ġcomp art
Ġcomp ression
Ġcomp lies
Ġcomp ounded
Ġcomp ilation
Ġlo ck
Ġlo vers
Ġlo go
Ġlo oming
Ġlo ser
Ġlo gic
Ġlo bb
Ġlo itering
Ġdevelopment at
Ġdevelopment and
ĠW W
ĠW o
ĠW u
ĠW as
ĠW all
ĠW ick
ĠW ants
ĠW rit
ĠW omen
ĠW ats
ĠW ired
ĠW att
ĠW els
ĠW illing
ĠW AR
ĠW AS
ĠW rist
ĠW right
ĠW ester
ĠW ondering
ĠW ider
ĠW uh
ĠW olf
ĠW atts
ĠW MD
ĠW OWI
ĠW iscons
ĠW ednes
ĠW entworth
ĠW elcab
ist ors
ist ible
ist ries
ist ein
ist ener
Ġthere after
und ering
und ry
und ancy
od s
od er
od ing
od elling
od och
Ġpre fe
Ġpre text
Ġpre fers
Ġpre emptive
Ġpre eminently
Ġthem e
Ġthem es
Ġab ated
Ġab ound
Ġab ys
Ġab iding
Ġab usive
Ġab ductions
Ġab orted
Ġab rasive
Ġreactor sthe
Ġprocess ors
ual ity
ual ized
Ġma j
Ġma ilt
Ġma fia
Ġma verick
Ġman ger
Ġman oe
ide o
ever kus
Ġhel icop
Ġdesign ating
ong s
ĠB ud
ĠB uch
ĠB low
ĠB ob
ĠB ark
ĠB ons
ĠB atter
ĠB ird
ĠB asing
ĠB illions
ĠB rid
ĠB uck
ĠB ah
ĠB eng
ĠB rief
ĠB run
ĠB rum
ĠB ott
ĠB icy
ĠB auc
ĠB enz
ĠB AC
ĠB ache
ĠB Re
ĠB lock
ĠB ourne
ĠB ES
ĠB oren
ĠB aker
ĠB SA
ĠB enson
ĠB OOS
ĠB UDGE
ĠB hask
ĠB inh
ĠB orow
ĠB etween
ĠB owden
ĠB ulpit
ĠB razil
ĠB arett
Ġv ain
Ġv ices
Ġv itro
Ġv oted
Ġv ulg
Ġv owed
Ġv ortex
Ġv ouchers
Ġv omiting
Ġv inegar
iz u
iz on
iz ant
iz oph
Ġcont ention
Ġcont ended
Ġcont raptions
Ġpop ping
Ġpop ulated
Ġpop ulous
Ġind ivid
Ġind ices
Ġind eb
Ġind iffe
Ġind ulg
Ġind emnity
Ġhelp ers
ident ity
ident ally
vent ure
vent ive
vent ionally
ĠR C
ĠR V
ĠR on
ĠR ig
ĠR ay
ĠR ate
ĠR ound
ĠR oth
ĠR ice
ĠR ising
ĠR isc
ĠR uth
ĠR ember
ĠR TI
ĠR IF
ĠR ode
ĠR osen
ĠR CA
ĠR oster
ĠR ita
ĠR amps
ĠR olf
ĠR DIF
ĠR SC
ĠR UAS
ĠR isks
ĠR ivne
ĠR osins
Ġdo g
Ġdo orbell
ust ry
Ġint ra
Ġint ric
Ġint ending
Ġint imate
Ġint ellect
Ġint uitive
Ġhealth checks
for giving
Ġeff lu
ĠSing ing
ĠSing health
ĠSing stats
ĠSing Tel
ĠSing tel
ight ly
Ġle ach
Ġle ts
Ġle ather
Ġle ech
Ġle uk
Ġle mon
Ġle uke
oun son
ell ano
our al
Ġ1 200
up grading
up ulous
Ġta i
Ġta bs
Ġta bles
Ġeconom ist
Ġgener ously
ear able
ĠG ore
ĠG ain
ĠG one
ĠG ard
ĠG ame
ĠG lob
ĠG ert
ĠG hand
ĠG ang
ĠG round
ĠG aff
ĠG iles
ĠG olo
ĠG CE
ĠG au
ĠG umb
ĠG reed
ĠG CC
ĠG auc
ĠG rounded
ĠG yl
ĠG NP
ĠG ache
ĠG rey
ĠG etting
ĠG upt
ĠG RF
ĠG lind
ĠG eller
ĠG yne
ĠG alile
ĠG enting
ĠG rooming
ĠG loth
ĠG etz
ĠG uru
ĠG utier
ĠG overnement
ard o
ard ment
ĠP C
ĠP W
ĠP g
ĠP ing
ĠP ure
ĠP ass
ĠP ink
ĠP hen
ĠP ick
ĠP ho
ĠP ars
ĠP rel
ĠP TI
ĠP olo
ĠP rad
ĠP AR
ĠP BM
ĠP eb
ĠP onom
ĠP DA
ĠP aya
ĠP OS
ĠP oor
ĠP CP
ĠP ox
ĠP BT
ĠP ere
ĠP add
ĠP andem
ĠP OC
ĠP II
ĠP rab
ĠP ensions
ĠP enicillium
ĠP SP
ĠP usan
ĠP irk
ĠP icture
ĠP HP
ĠP SLE
ĠP enins
ĠP itts
ĠP alih
ĠP otential
ĠP utten
ĠP erspectives
ĠP enderg
ĠP rix
ĠP andey
ĠN D
ĠN p
ĠN ing
ĠN ord
ĠN ep
ĠN ak
ĠN ancy
ĠN ets
ĠN uck
ĠN iet
ĠN abil
ĠN ils
ĠN MI
ĠN AC
ĠN CS
ĠN SA
ĠN gi
ĠN AT
ĠN DT
ĠN utrition
ĠN IH
ĠN KF
ĠN YDaily
ĠN iels
ĠN urses
ĠN ader
ĠN ichols
ĠN esta
ĠN andy
Ġacc count
Ġacc esible
Ġacc entuates
ud o
art en
Ġfin er
Ġfin es
Ġfin ishing
Ġexp ound
Ġexp orts
Ġexp ires
Ġexp unged
Ġsol es
Ġsol ven
Ġsol itude
Ġsol vable
Ġsol icit
Ġk handani
Ġk oe
Ġk amp
Ġk araoke
Ġk onami
Ġk itchen
Ġk anal
Ġk imchi
Ġk owledge
ren ia
ren yl
ren heit
Ġsaf ty
reat ing
Ġpol ities
Ġpol led
Ġpol ished
Ġpol onium
ie u
ie go
ans fe
Ġresearch s
ĠO K
ĠO land
ĠO ath
ĠO tt
ĠO PE
ĠO CBC
ĠO MV
ĠO hio
ĠO lay
ĠO pen
ĠO arai
ĠO ntario
ĠO bligation
Ġgenetic ist
Ġgenetic ists
ens ation
ens ure
ens ual
ens ils
ens ibly
ven ess
ven ue
ven irs
Ġup to
Ġup hold
Ġup scale
Ġup hill
Ġup lift
Ġup gade
Ġup roars
ĠE Z
ĠE ri
ĠE ric
ĠE TA
ĠE ma
ĠE ffective
ĠE wing
ĠE HR
ĠE UP
ĠE uthanasia
ĠE IA
ĠE ben
ĠE DGE
ĠE yal
ĠE erkes
ĠE leven
ĠE chav
ĠE uratom
Ġconc ord
Ġconc ave
Ġconc erted
Ġconc omitantly
yst s
yst al
yst ick
Ġmed itated
ĠThere after
Ġsome way
Ġar row
Ġar more
Ġar ouses
Ġar mor
Ġar chives
Ġem per
Ġem place
Ġem pir
Ġem inently
Ġem ocons
Ġrel ates
Ġrel inqu
ime bon
ition er
Ġsupp li
ab lo
ab ated
ab our
ss on
ss en
ss omed
ss esed
lect s
si bly
Ġcar av
Ġcar go
Ġcar bo
Ġcar makers
Ġcar cin
Ġcar cino
Ġlif ting
Ġlif eless
Ġme at
Ġme ga
Ġme ida
all er
all ation
all ang
Ġtest ers
Ġout n
Ġout ages
Ġout sid
Ġout cl
Ġout sh
Ġout lets
Ġout sider
Ġout smart
Ġout lays
Ġout moded
Ġout wit
Ġun ions
Ġun ite
Ġun ach
Ġun sure
Ġun ass
Ġun co
Ġun pro
Ġun ready
Ġun gr
Ġun cle
Ġun friend
Ġun ified
Ġun load
Ġun gu
Ġun work
Ġun renewable
Ġun seen
Ġun econom
Ġun cared
Ġun mas
Ġun add
Ġun prof
Ġun not
Ġun accessible
Ġun mo
Ġun natural
Ġun sec
Ġun licensed
Ġun qualified
Ġun market
Ġun iverse
Ġun met
Ġun yield
Ġun heard
Ġun anim
Ġun leashing
Ġun ceasing
Ġun secure
Ġun anticip
Ġun blinking
Ġun forgiving
Ġun abated
Ġbet a
Ġbet ww
Ġbet tered
Ġprov oking
Ġprov inces
Ġper il
Ġper ip
Ġper me
Ġper ks
Ġper ishing
Ġper funct
Ġper vasive
Ġper usal
Ġper sever
Ġper tus
Ġper imeter
Ġper cieved
Ġcons erves
Ġcons oles
Ġcons ervation
Ġcons cion
Ġcons olation
Ġcons ensual
ric ated
ric ting
ric ks
ric ane
ple tion
Ġsocial ist
Ġsocial ise
Ġsocial ized
Ġsocial ises
Ġsocial izing
ace a
Ġcare free
Ġcare lessly
ord o
ord ability
Ġall ergy
ĠV R
ĠV ern
ĠV ice
ĠV ision
ĠV ending
ĠV og
ĠV CD
ĠV essel
ĠV acu
ĠV CS
ĠV ilim
ĠV irus
ĠV AI
ĠV OL
ĠV oice
ĠV edo
ĠV irgin
ĠV ivian
ĠV ideo
Ġra ge
Ġra cial
Ġra ces
Ġra ck
Ġra ms
Ġra zed
Ġra cism
Ġtra ms
Ġtra ils
Ġtra umat
Ġtra gically
pt ation
pt ive
pt ember
pt ured
pt oe
ru ments
Ġtime frame
duc ated
ag enic
ag mire
ĠD ot
ĠD over
ĠD ong
ĠD ob
ĠD ID
ĠD elf
ĠD ys
ĠD rain
ĠD ick
ĠD ib
ĠD res
ĠD jo
ĠD ani
ĠD aff
ĠD ug
ĠD yn
ĠD istance
ĠD uff
ĠD AV
ĠD ider
ĠD hill
ĠD DT
ĠD oro
ĠD iffusion
ĠD HL
ĠD NR
ĠD hob
ĠD onah
ĠD atuk
ĠD itle
ĠD anie
ĠD aris
ĠD unnell
ĠD estiny
ĠD iego
ĠD imebon
ĠFor ces
ĠFor cing
ĠFor ward
ĠFor mer
ĠFor bes
Ġlike ability
Ġfe asts
ĠL as
ĠL ive
ĠL ions
ĠL ower
ĠL ys
ĠL ying
ĠL ange
ĠL uck
ĠL illing
ĠL acking
ĠL uxur
ĠL ung
ĠL CD
ĠL AN
ĠL CFR
ĠL LC
ĠL ots
ĠL BS
ĠL amb
ĠL aser
ĠL ask
ĠL IQ
ĠL ayden
ĠL owering
ĠL BB
ĠL OCA
ĠL enov
ĠL ancaster
ĠL icensing
ĠL idsk
ĠL oreal
ĠL utz
ĠL ucassen
ĠL ambe
ĠL ichten
ĠL istener
ĠL everkus
ĠL abour
ef its
ef iciency
red istrib
Ġhum ing
Ġhum ble
Ġhum ping
Ġhum ming
Ġhum ili
ĠU F
ĠU O
ĠU ll
ĠU ser
ĠU med
ĠU GR
ĠU TF
ĠU hlman
ĠU tilities
ĠAs k
ĠAs sem
ĠAs ked
Ġindividual ity
Ġindividual ized
Ġexam ines
Ġexam ining
Ġam ass
Ġam oung
Ġam ylo
Ġdec ays
Ġdec isiveness
Ġdec oder
ern ess
Ġtr ay
Ġtr actors
Ġtr ounced
Ġtr anqu
Ġour s
Ġplant ation
Ġwell s
Ġpos itivity
Ġdisc s
Ġdisc ount
Ġdisc olour
Ġj ack
Ġj ail
Ġj ok
Ġj ew
Ġj ung
Ġj ournal
Ġj uven
Ġj uristic
Ġj uncture
Ġj argon
Ġj urisdiction
Ġdiff ert
Ġchild bearing
Ġed ging
Ġed ged
Ġed itor
Ġed biz
Ġinto xic
Ġlong est
Ġlong time
Ġlong itud
Ġinv ulner
Ġinv isibly
Ġinv alid
Ġover ind
Ġover gra
Ġover power
Ġover head
Ġover rated
Ġover char
Ġover pass
Ġover pop
Ġover doing
Ġover writ
Ġover strained
Ġben ign
Ġben ches
Ġben zene
Ġben chmar
ip an
ip old
ip ov
ip hones
Ġbenef icence
Ġiss ued
Ġeduc ates
Ġapp le
Ġapp ortion
Ġapp arat
Ġapp alling
Ġapp ointed
Ġapp raisal
Ġapp endix
ack ers
Ġadv ising
ep ret
ep noi
Ġpr ank
Ġpr yo
Ġcomm ission
Ġcomm ander
Ġcomm otions
Ġold ness
Ġact ed
Ġact iveness
Ġact uator
row ding
Ġhuman ization
Ġhuman oid
ia ea
ind er
ind ia
ind ered
ind ex
ind iat
ind ustry
Ġinst inct
Ġinst alments
Ġfut her
Ġfut uristic
ruct ions
ĠVH T
ĠVH RT
ĠVH PR
ĠAl ice
ĠAl loc
ĠAl berg
ĠAl ias
ĠAl erts
ĠAl lowing
ĠAl binism
ĠAl umn
ĠAl bre
ĠAl fred
ĠAl bert
ĠAl mq
ĠAl levi
ĠOn co
ĠOn going
ĠOn awa
ĠOn isawa
Ġelect ram
Ġno xious
Ġbenefit ers
ved ev
ob ic
ob ase
ob loc
Ġ19 2
Ġ19 33
Ġ19 11
Ġ19 08
Ġ19 07
Ġ19 28
Ġ19 17
Ġ19 23
Ġ19 27
Ġ19 39
Ġ19 31
Ġ19 35
Ġ19 16
Ġ19 18
Ġ19 37
Ġeffect ually
Ġeducation ists
viron ment
loy ed
Ġser ial
Ġser vant
Ġeven ing
ince ton
pe zil
pe utic
Ġmain land
ploy ment
Ġund o
Ġund efined
Ġund ere
Ġund emanding
Ġund etected
Ġund ersign
Ġfinan ced
Ġter roist
Ġph sychology
Ġph rasing
Ġph osph
Ġtechnolog ist
ful ltext
ry ing
ry sler
Ġret ract
Ġret inal
Ġret rained
Ġco ach
Ġco hes
Ġco erce
Ġco generation
Ġco venient
Ġco horts
Ġco oing
Ġco hesion
Ġoper ative
rib ers
rib utory
rib ean
Ġcr ies
Ġcr anes
Ġcr inim
Ġcr ystal
Ġatt est
Ġatt aches
Ġatt ires
Ġatt uned
Ġatt entive
port ance
Ġless ening
sy mbiotic
ress ible
ress aty
che e
Ġfactor ial
Ġqu es
Ġqu ib
Ġqu eries
Ġqu arters
Ġqu adrup
Ġqu agmire
get t
get ting
get ables
Ġcurrent s
Ġunder powered
Ġunder cut
Ġunder pin
Ġunder frame
Ġeffic acious
ting ham
Ġtake off
Ġconcl udes
Ġconcl uding
ĠCh a
ĠCh i
ĠCh or
ĠCh ain
ĠCh ong
ĠCh ile
ĠCh ia
ĠCh ances
ĠCh att
ĠCh ught
ĠCh oon
ĠCh imombo
ĠCh urches
ĠCh rysler
Ġpat rons
io active
Ġro am
Ġro te
Ġro de
Ġro omm
gra de
sel l
sel ling
pect able
Ġchan elled
ach i
ach ute
Ġsec luded
Ġhealthcare s
ail s
ail able
ber ty
ber land
ber ries
ber dy
Ġevery time
Ġcompan ion
Ġtw ins
Ġinf usion
Ġinf ilt
Ġinf irm
Ġinf ilial
Ġinf eas
Ġinf ras
Ġinf initude
Ġac uity
Ġac oust
ise um
cent red
cent ered
ĠAn ne
ĠAn xiety
ĠAn imal
Ġemploy ments
pl ty
pl sc
pl astic
Ġinvest or
Ġpossi blity
ark son
other ape
ential s
vel s
Ġdep iction
Ġway point
though t
Ġeas tern
Ġbur sting
Ġinvent s
ck side
Ġsub urb
Ġsub mer
Ġsub mit
Ġsub mission
Ġsub sc
Ġsub replace
Ġsub dued
ĠJ im
ĠJ ob
ĠJ ew
ĠJ aff
ĠJ enn
ĠJ itter
ĠJ ager
ĠJ AEA
ĠJ osh
ĠJ erry
ĠJ ayak
ĠJ RP
ĠJ oy
ĠJ enson
ĠJ orge
ĠJ oumard
ĠJ aycee
Ġdi ability
Ġdi eth
Ġdi pped
Ġdi aries
Ġdi amonds
ons et
ts man
ĠGen es
ĠGen erate
ĠGen istein
Ġsurve illances
Ġcit es
ass n
ass ing
ass uring
Ġorder ly
Ġdef ying
Ġdef use
Ġdef ibr
Ġdef ray
Ġdef ends
Ġdef enses
Ġdef lects
Ġhand phone
Ġhand held
Ġhand gri
Ġhand rail
Ġext ents
Ġext ricated
Ġsince rely
ok i
ok er
ok ies
ok esc
Ġrad ial
Ġrad iant
Ġrad ionuc
Ġdem ographical
Ġdem oral
Ġdem otiv
Ġdem olition
Ġgr im
Ġgr out
Ġgr ind
Ġgr ouch
Ġpo x
Ġpo ised
Ġcre am
Ġcre ep
Ġcre ams
Ġafter wards
Ġafter noon
Ġfact book
Ġfact ored
Ġconst ellation
Ġear ner
Ġear mark
Ġear piece
ention ed
Ġdet hr
Ġdet ainees
Ġfo ols
Ġfo cal
Ġreas sured
Ġtem po
Ġtem pret
Ġtem ptation
Ġcontribut ers
Ġcontribut ive
Ġnum bered
Ġnum erical
Ġenc oded
Ġenc roach
Ġpriv ies
Ġpriv atization
Ġstud ios
ning s
Ġfirst hand
ph y
ph ing
ph ase
Ġwaste water
Ġtrans action
Ġtrans planted
Ġtrans cending
Ġtrans fusions
Ġtrans uranics
Ġtrans istors
Ġ3 50
Ġ3 200
Ġ3 30
Ġ3 20
Ġ3 80
Ġ3 28
Ġ3 81
ink i
ink man
Ġke eper
den ed
ys sey
ys itters
pon ed
Ġcommun ist
Ġcommun ism
Ġcommun cation
ĠIV DD
Ġaffect ation
we es
we alth
we ird
we apon
we bd
ĠUn i
ĠUn iver
ĠUn author
ĠUn safe
ĠUn licensed
ĠUn pre
ĠUn limited
ĠUn sound
ĠTo ols
ĠTo xins
Ġsign ify
Ġsign aled
Ġsign alled
Ġsign aller
Ġspe wed
Ġav ian
Ġav atar
Ġreg row
Ġreg ulate
Ġreg rett
Ġreg imental
Ġreg aining
Ġjust ifiable
bers pies
Ġmark ect
Ġsim li
Ġsim ulations
Ġsim ulate
Ġsim ulated
osp ace
Ġ6 50
Ġ6 80
Ġ6 17
me ier
Ġob e
Ġob edi
Ġob esity
Ġob solescence
Ġob ssesed
Ġdepend ability
Ġoff ing
Ġoff ence
Ġoff line
Ġoff ensive
Ġoff ici
Ġoff load
Ġoff sh
Ġoff enses
by e
Ġgood bye
Ġsk ies
arm aceutical
Ġide ally
ĠSe x
ĠSe ats
ĠSe attle
ĠSe aled
ĠSe eing
ĠSe oul
ĠSe etoh
co on
co al
co ated
co inc
co logists
ĠK J
ĠK al
ĠK ate
ĠK ron
ĠK ath
ĠK ee
ĠK ets
ĠK ash
ĠK enn
ĠK eng
ĠK oh
ĠK uk
ĠK amil
ĠK AL
ĠK rue
ĠK rish
ĠK wang
ĠK erz
ĠK aran
ĠK irk
ĠK endra
ĠK uwait
ĠK ennedy
ĠK EDO
ĠK nick
ĠK onrad
ĠK atrina
ĠK orman
ĠK lein
ĠK ilroy
ĠK otli
ĠK unz
ĠK ramer
ĠK aplan
ĠK astari
ĠK odoch
ĠK allang
ĠK ressaty
Ġbas k
Ġfurther s
Ġins ult
Ġins ight
Ġins ulations
Ġins ulated
Ġmater nal
Ġstr ut
Ġstr ay
Ġstr ide
Ġstr ives
Ġstr iving
Ġstr ides
Ġstr ata
Ġstr ands
Ġstr anger
Ġstr atify
Ġstr anded
Ġcl ue
Ġcl one
Ġcl oning
Ġcl icking
Ġcl adding
Ġcl umsy
Ġmaterial ize
Ġmaterial ism
ĠBut arelli
Ġ20 5
Ġ20 7
Ġ20 70
Ġ20 23
Ġ20 26
Ġ20 24
Ġ20 35
Ġ20 21
ards hip
veal ed
urn ed
ĠAcc enda
ĠAcc oding
Ġcitizens hips
av an
av aljev
ĠRe form
ĠRe cl
ĠRe vis
ĠRe comm
ĠRe lying
ĠRe quest
ĠRe cord
ĠRe jection
ĠRe bate
ĠRe venue
Ġsm okesc
ice able
Ġshow ered
Ġpot ent
Ġpot ion
Ġreal ises
Ġreal located
ĠSt em
ĠSt one
ĠSt ew
ĠSt ats
ĠSt orm
ĠSt ang
ĠSt oly
ĠSt een
ĠSt reet
ĠSt aphylococcus
ĠSt oop
ĠSt orage
ĠSt urm
ĠSt olberg
ĠSt ansfe
Ġrespon ding
Ġincl inometer
Ġher ald
Ġher alded
Ġmin isc
Ġmin erals
Ġmin uscule
Ġass erts
Ġass erting
Ġass uage
Ġneg ate
Ġneg ated
Ġneg ativity
Ġpotential ity
Ġshort sighted
Ġshort cuts
ular s
hen s
Ġplan ner
Ġplan ners
Ġrun ner
Ġrun ners
Ġmod al
Ġmod est
Ġmod em
Ġmod elled
ier meier
Ġref rain
Ġref illed
Ġref lex
Ġref uted
Ġref using
Ġref abric
Ġref ractory
Ġface ted
cus es
Ġ5 200
Ġ5 25
Ġ5 71
Ġ5 725
Ġrem odelling
Ġequ als
Ġequ ator
Ġequ ilib
Ġtak ers
Ġmon otonous
Ġmon obloc
Ġdiver gent
gen erated
gen erative
Ġsafe keeping
Ġradio frequency
Ġsitu ating
ĠSome how
Ġvar iet
Ġvar iant
Ġvar iations
aw s
aw ful
aw att
Ġtreat s
int erscience
int epret
int entioned
Ġdown side
Ġdown stream
Ġdown pour
Ġhy drom
Ġbel lic
Ġbel iever
Ġconsum ptions
Ġconsum mation
Ġche w
Ġche st
Ġche ating
Ġdone pezil
Ġ4 30
Ġ4 11
Ġ4 95
Ġyoung ster
ited ly
Ġve il
Ġve ctors
Ġve tting
Ġve ctor
Ġve terans
Ġgroup ing
lic ation
Ġbudget ing
Ġhospital izations
ĠPro duction
ĠPro ton
ĠPro toty
Ġaw ful
Ġaw ake
Ġaw aiting
Ġstand by
Ġstand ings
hic les
Ġent ers
Ġent ail
Ġent rails
Ġent icing
Ġent rench
force ment
Ġprom inently
Ġprom plty
Ġpress ed
Ġpress uring
Ġexpect ant
te bral
te chnological
Ġcreat s
Ġcreat ure
Ġprotect or
Ġresponsi bly
ĠEn act
ĠEn ough
ĠEn abled
ĠEn ergie
ĠEn dowment
ĠEn zler
Ġintro spection
Ġident ical
Ġill usory
Ġinter chan
Ġinter lock
Ġinter ruption
Ġinter cult
Ġinter connect
Ġinter link
Ġinter generational
Ġinter vie
ouse fz
Ġpur ify
Ġpur ifies
Ġconstruct ors
Ġconstruct ivism
Ġpast oral
ĠCP I
ĠCP U
ert ip
ert wined
Ġglobal ising
Ġglobal izing
Ġdefin itions
ĠSo cially
ĠSo ft
ĠSo vac
Ġhard y
Ġhard ening
Ġhard cop
ilit arian
rain ian
Ġturn around
Ġform at
Ġform ally
Ġform ulating
Ġsc ans
Ġsc ars
Ġsc rew
Ġsc rap
Ġsc aled
Ġsc ales
Ġsc rapped
Ġsc ram
Ġsc rolling
Ġsc ulpt
Ġsc andal
Ġpres et
Ġpres chool
Ġpres erves
Ġpres ervation
Ġsubsid ing
Ġsubsid iaries
gan g
ks wag
Ġer as
Ġer ase
Ġer ode
Ġer odes
Ġer ycin
Ġer adication
de ka
de pletion
de generative
Ġimm orality
ĠWe ib
ĠWe iss
ĠWe ida
ĠWe instein
lu enza
oll a
oll uted
Ġtrack ers
Ġstart ling
Ġobl iterated
Ġobl iterates
Ġobl ivious
Ġtransport able
Ġkind erg
ism an
Ġaut umn
Ġpass ion
Ġpass ions
Ġpass iveness
Ġevent ual
Ġlook alike
Ġeffort less
Ġeffort lessly
Ġmethod ologies
ĠSC C
ĠSC OS
ĠSC RW
Ġcool ers
ĠWh ose
ĠWh ittle
Ġaccess ing
Ġaccess ion
Ġaccess orial
stand ard
Ġmeas urable
Ġbest ows
apt ure
Ġcommunic ative
mal n
Ġback pack
Ġfamil ay
pro per
pro blem
pro duce
Ġcor k
Ġcor ne
ĠSCWR S
Ġfound ing
Ġfound ers
Ġmaking s
Ġty coon
Ġminim ising
Ġminim ises
Ġsal ient
ĠHe e
ĠHe at
ĠHe ber
ĠHe ather
ĠHe uevline
Ġbo at
Ġbo ons
Ġbo ldly
Ġbo oths
Ġbo gus
Ġbo ffins
Ġnation wide
Ġaltern ated
Ġaltern ating
abl itity
Ġfore ground
Ġfore run
Ġfore father
Ġfore ns
ators hip
Ġconf ers
Ġconf ine
Ġconf ide
Ġconf erence
Ġhu gest
Ġhu bs
ĠTe ach
ĠTe achers
ĠTe yssey
Ġdirect ors
ict ct
Ġrec iting
Ġrec ompose
Ġrec lamation
Ġrec apture
Ġda zz
Ġcommon place
ĠInt erg
ĠInt imate
ĠInt erve
ĠInt uitive
ĠInt rusion
ĠInt yre
ĠInt ertwined
Ġclo t
Ġclo gged
rest ricted
rest ricting
ĠMed ium
ĠMed vedev
Ġev ade
Ġev oc
Ġev oke
Ġev idenced
Ġterm inating
Ġterm inologies
Ġcondition er
Ġcondition ing
Ġcondition ers
res p
res ort
res idential
res cu
res cue
res istible
Ġtax i
Ġtax ed
Ġtax ies
Ġpract ising
Ġpract ised
Ġpract ises
Ġargu able
Ġargu ably
Ġheat s
ĠWor cest
ned s
Ġtow er
ĠAm ory
ĠAm erip
Ġdiscrimin atory
Ġsustain ably
Ġgra ver
the ft
Ġlab ors
Ġlab els
Ġorgan izing
Ġmaintain ence
ath an
Ġactiv ated
Ġactiv ites
ho c
ho y
ho logy
Ġanal og
Ġanal ysts
ator ial
Ġfl ies
Ġfl ame
Ġfl ik
Ġfl ush
Ġfl ora
Ġfl aunt
Ġafford s
Ġafford ably
Ġhome ward
Ġhome made
Ġrest raining
Ġair fo
Ġair space
Ġair lines
ĠUS SR
Ġavoid ably
Ġmind ful
Ġmillion U
ĠRes onance
ĠRes veratrol
ĠRes idual
unt ouchable
Ġban e
Ġban ners
Ġmy opic
Ġmy oblast
Ġmy ths
Ġdist rust
Ġdist illation
Ġdist raught
gn y
ĠY en
ĠY ong
ĠY ah
ĠY aho
ĠY ao
ĠY oon
ĠY unnan
ĠY ousefz
Ġpric ed
Ġpric eless
Ġur ges
Ġtal isman
ĠMin ing
ĠMin ers
ĠMin istries
Ġlast s
Ġlast ed
gr id
Ġfol ate
Ġgreen houses
Ġcam el
Ġcam pus
mes is
Ġ7 2
Ġ7 10
Ġ7 84
Ġ7 95
ĠInd ira
Ġnext old
aim ura
ĠDe vas
ĠDe aling
ĠDe loitte
Ġidentif iable
erg ic
Ġgu ys
hip aa
Ġtend ons
Ġtend onitis
Ġslow est
Ġend ured
Ġend owment
Ġend oscopic
ĠAfter wards
Ġclaim able
li berty
Ġharm ing
Ġharm onious
Ġtechn ician
Ġfunct ionally
Ġnor thwest
Ġreli ably
Ġreli abil
Ġessential s
omp ression
Ġcall er
Ġ8 7
Ġ8 900
Ġ8 99
Ġlaw makers
Ġlaw fully
Ġlaw yers
Ġrele vance
ĠBe att
ĠBe aches
ĠBe au
ĠBe cker
Ġ10 7
Ġ10 9
Ġ10 20
cking ly
jo had
ĠDes cription
itor ial
Ġinterest ingly
Ġshe ets
Ġcomput ed
Ġcomput ation
Ġenjo ys
Ġnet ted
Ġcond emned
Ġcond ensation
pr us
pr ints
Ġdou bles
Ġdou bled
ĠAll ies
ĠAll ison
Ġaccept s
Ġstandard ized
Ġstandard isation
Ġnational ity
Ġnational ities
Ġprob ablitity
sing le
Ġine qual
Ġbre w
Ġfar fetched
soci ative
Ġunderstand s
Ġlight ers
Ġlight ings
Ġlight ened
Ġlight ening
Ġlight weight
Ġconduct ion
Ġconduct ibility
Ġnon discrimination
Ġnon deter
Ġmodern ize
Ġconditions ins
tt les
Ġapplic ant
Ġinflu ential
Ġstat ues
Ġstat utory
ĠNew ton
ĠAnd erson
Ġut lises
Ġut terly
Ġut ensils
Ġut ilitarian
Ġself ishness
Ġcle arest
ian jian
ĠAct ing
ĠAct ual
ĠAct br
ĠAct ivated
bot tom
rit ating
com as
Ġfre ighters
Ġfre elance
Ġdr um
Ġel astic
Ġel ites
Ġel lag
Ġbeh aves
Ġbeh aved
ĠAt lantic
Ġport s
Ġport fol
Ġport rait
Ġprogram ms
Ġprogram mer
Ġprogram ming
Ġprogram med
Ġautom ates
Ġautom otive
Ġprogress ively
Ġsuper b
Ġsuper man
Ġsuper intend
Ġsuper conduct
Ġrefrig ators
uf urd
Ġclear ness
Ġclear ances
Ġbar red
Ġbar rist
Ġbar rage
Ġbar codes
Ġbar gain
Ġbar racks
Ġdetect ors
Ġprice y
Ġenjoy ments
Ġenjoy ably
Ġfil es
ĠInst abilities
ĠInst allation
ĠInst ruments
ĠInst ructions
friend liness
Ġheart ening
Ġfear less
Ġham mer
bo a
bo x
bo ards
bo omer
ĠFund ament
Ġtyp ed
Ġintern als
Ġintern ships
Ġland ed
Ġland mark
Ġland lord
Ġland mass
Ġcomb ats
Ġcomb inations
Ġclean ed
Ġclean se
Ġclean est
Ġclean ness
Ġrefriger ants
part s
Ġattack es
Ġforce ful
ĠIs a
esty le
Ġworks paces
Ġbatter ing
Ġsug ars
Ġtre es
Ġcell as
Ġcell phone
ĠAd herent
ĠAd mits
ĠAd option
ĠAd dressing
ĠAd opting
Ġworry ingly
Ġspec ify
Ġspec ulate
Ġspec ulated
Ġspec ifies
Ġmanufact urability
Ġspecial ities
Ġtimes cales
Ġfree ze
Ġchar gers
Ġmor phing
ĠCon cept
ĠCon cl
ĠCon tinent
ĠCon ference
ĠCon structing
ĠCon vergence
ĠCon ventionally
Ġtotal itarian
ĠHealth day
ne ed
ne ys
ne eds
ne utron
down load
Ġsatisf atory
Ġhouse keeping
Ġhouse wives
Ġread able
Ġread iness
Ġread back
Ġtele gram
Ġtele comm
Ġtele cast
Ġtele phones
Ġtele medicine
Ġbab e
Ġbab ysitters
ĠComm erce
be havi
ĠRo che
ĠRo gl
ĠRo cke
ĠRo yal
ĠRo hrer
ĠRo oij
Ġsuggest ing
Ġ9 8
Ġ9 84
Ġ9 80
Ġ9 28
Ġ9 17
Ġ9 500
Ġ9 12
isc ated
Ġimmedi acy
Ġcrucial ly
hib itsu
ĠComp ass
ĠComp etitive
ĠComp ressed
ik o
ik usum
Ġcy lind
Ġcy berspies
Ġfall out
Ġcat ches
Ġet ched
Ġet ceter
iss ues
ĠSu it
ĠSu fficient
ĠSu gano
200 1
Ġemot inal
ĠIsland s
Ġmult itudes
Ġmult ilay
Ġmult ifarious
Ġbad ge
ĠProv ision
ĠProv ider
cr upulous
Ġrecogn ising
Ġpopular ly
Ġpopular ize
Ġpopular ised
pri ate
Ġaver ting
Ġaver aged
ĠPublic izing
Ġopt ing
Ġwar riors
Ġspeed ed
Ġspeed ily
Ġcomputer ized
Ġprofess ionally
Ġste er
Ġste ered
Ġste als
Ġspace cra
Ġattract ion
Ġdam pening
Ġconver tion
Ġ197 2
Ġ197 4
Ġ197 6
Ġunt rained
Ġunt hink
Ġunt arnished
Ġmass ively
Ġmass ager
ĠHigh ly
30 8
Ġnur sery
employ ees
Ġcontact ed
Ġcontact able
Ġcoll ide
Ġcoll ared
Ġrepro duced
af ield
af rost
Ġdra ugh
Ġconnect ors
Ġconnect ivity
term ed
Ġprec inct
Ġprec lin
Ġprec lude
Ġcol ours
Ġpar anoid
Ġpar achute
Ġfulf ils
Ġblo gs
Ġblo ssomed
Ġmis place
Ġmis cell
Ġmis direct
Ġmis appropriate
Ġmis leading
Ġmis intepret
Ġmis behavi
Ġdest ined
Ġdest itute
Ġdest iny
Ġdest inations
Ġassoci ates
Ġmo an
Ġmo ck
Ġmo dule
Ġsecure r
Ġsecure ly
Ġpurpose less
ĠMe ir
ĠMe ga
ĠMe izu
Ġlabor ing
Ġlabor atorial
Ġroad map
Ġroad block
Ġethical ity
Ġbal conies
Ġgain fully
ĠMost ly
Ġgeneral ization
Ġinitial izing
Ġmist rust
ĠBo on
ĠBo om
ĠBo ck
ĠBo iled
Ġoutweigh ing
ched uled
Ġbr ink
Ġbr ush
Ġbr unch
Ġbr anching
Ġexpos es
Ġexpos ures
Ġmot ives
Ġmot ors
Ġrenew ing
Ġrenew ability
Ġappropri ateness
Ġbreak age
Ġmet ric
Ġmet acare
Ġselect ive
Ġmar ry
Ġmar ina
Ġwealth ier
Ġobtain able
Ġcommercial izing
ĠMal ul
ĠMal one
ĠMal ten
Ġseek ers
Ġinteract s
ped iting
Ġpe aking
Ġpe aches
Ġpe ception
Ġpe eping
Ġpe cul
Ġpe gged
Ġwind ow
Ġant itry
Ġant idiscrimination
Ġant ivirus
ash ima
Ġpropos als
Ġpropos itions
Ġopen ly
Ġflo aters
ĠEuro lab
Ġpost men
Ġpost pone
Ġpost erity
Ġpost poned
Ġmic r
Ġla x
Ġla uded
Ġla menting
Ġla ziness
Ġla ureate
Ġla undry
Ġ60 7
Ġrapidly ageing
Ġcirc ular
Ġcirc ling
Ġcirc ulate
Ġcirc uits
Ġcirc ulates
Ġbro chures
Ġann ih
Ġden ote
Ġimpos ition
Ġimpos sibility
ĠFin ucane
rel ations
Ġbl end
Ġbl ast
Ġbl ade
Ġbl iss
Ġbl ending
Ġbl ended
Ġbl adder
Ġbl undering
Ġcontr ived
orm ly
ĠTos hih
Ġcompar ision
Ġcontain ers
ĠPet ri
ĠPet ersen
Ġquestion ing
Ġanalyz es
Ġrev ive
Ġrev iving
Ġrev ision
Ġrev ived
Ġservice able
Ġauth ors
Ġspecific ations
Ġelectr ified
Ġelectr city
Ġmodel ing
Ġmodel ed
Ġauthor isation
vi olent
cl usive
cl imated
cl adding
rop ic
Ġfinding Dulc
Ġmut agenic
Ġhaz e
ĠNot with
ĠNot tingham
Ġpoin ter
Ġpoin ting
Ġ30 4
TI C
Ġinj ures
Ġfrequ ented
ex ist
ex istent
of india
Ġleak ages
Ġchem ists
Ġvis itor
ĠEx po
ĠEx ec
ĠEx ternal
ĠEx cel
ĠEx ercise
ĠEx cuses
ĠEx pediting
Ġinsufficient ly
Ġreprocess es
arant ine
arant ees
arant eed
Ġvol cano
Ġindic ating
ĠEduc ated
Ġimmigr ate
Ġign ited
Ġrep el
Ġrep aying
Ġrep airs
ĠSur rounded
ĠSur iah
ĠSur inder
ĠPr inci
ĠPr ana
ĠPr inceton
par as
Ġearn ers
Ġearn estly
aff ected
Ġsens ed
Ġsens ation
Ġsens ibly
acter istics
Ġabs urd
Ġ100 000
Ġobser vant
Ġobser vable
Ġobser vations
Ġeng ages
Ġenabl er
Ġsubject ing
Ġcheck up
Ġsw ing
Ġsw amp
Ġsw arms
Ġsw elter
Ġcontrast ed
Ġappear ing
Ġthought fully
Ġhundred th
Ġleg end
Ġleg itimate
Ġmaxim ally
Ġmaxim izing
Ġuns ual
Ġuns ightly
Ġuns crupulous
Ġuns cheduled
acc ident
ĠWar nings
Ġinvestig ators
Ġinvestig ator
Ġvalu ables
ĠIndones ians
Ġpredic aments
Ġult ras
Ġult ilise
Ġtruth ful
Ġcorrect ion
Ġcorrect ional
Ġlaun ches
oc omm
oc als
oc aly
oc ulars
Ġdispos ing
Ġdispos ition
Ġaband ons
ĠOpp ositions
Ġdecl aration
Ġdecl arations
val ier
ĠSche mas
ĠSche irer
Ġkid neys
Ġiniti ators
Ġdisclose ment
Ġsound ed
Ġnature s
ĠTw enty
ĠTw endy
ĠFace time
ĠFace mash
ĠEar h
ĠEar lier
wh ite
sp f
sp an
sp ent
sp ot
sp read
Ġcontext ualized
Ġpurch aser
Ġoptim ise
ps in
ps on
ps imr
oph ili
ĠNo ir
ĠNo ble
ĠNor way
Ġcollect s
Ġcollect ors
Ġcounter act
Ġcounter productive
Ġcounter meas
Ġrelevant ly
Ġfreedom s
ug gly
Ġapart heid
ote lephony
Ġclass ical
Ġcop per
ĠSp ring
ĠSp anish
ĠSp herical
Ġcomplic ates
ĠAmong st
ht gr
ĠSim one
ĠSim ply
ĠSim ulator
ĠSim pson
ĠAg ricult
Ġtraffic king
Ġfacilit ated
Ġfa x
Ġfa una
Ġbear ish
Ġsepar ator
Ġemb odies
Ġemb roid
Ġemb roiled
Ġconfidential ly
Ġphenomen ally
20 8
20 27
20 12
20 81
ĠII ASA
Ġsun sc
Ġsun gl
Ġsun burn
Ġalle ys
Ġvacc ination
Ġsurround s
Ġsurround ed
min ator
min acies
Ġir k
Ġir is
Ġir resistible
Ġir ritating
Ġshr unk
Ġshr ouded
pert ension
ĠRob bers
ĠRob bins
Ġarr iving
ĠForum eight
Ġgraph ing
Ġgraph ic
Ġgraph ics
Ġeco car
Ġeco logy
Ġhalf way
Ġrat ified
Ġrat ios
Ġ11 3
Ġ11 000
Ġ11 0000
Ġ11 56
ĠDep uty
ĠDep renyl
Ġpossess ion
ĠSuper ior
ĠSuper Critical
Ġbom bers
ĠSh ake
ĠSh uwen
ĠSh angDong
ĠSh antak
ĠSh apiro
ĠOver whel
ĠOver population
ĠEm erson
ĠEm ilian
ĠLo h
ĠLo ok
ĠLo gan
ĠLo og
ĠLo esc
ĠLo zano
Ġsurvey ed
ĠSocial ist
Ġcard board
Ġdev ising
Ġdev ours
Ġdev oting
Ġdev lopment
Ġatmosp heres
Ġ201 4
Ġ201 7
Ġoccup ation
Ġoccup ancy
Ġconsumer ism
Ġrecover s
Ġblood less
Ġunnecess arily
Ġcivil ized
Ġcivil isation
ethe m
Ġ18 0
Ġ18 70
Ġ18 84
Ġ18 40
Ġ18 90
Ġremo vable
ĠAge Lab
ĠMan heimer
ĠMain ly
Ġprim ing
Ġfit test
Ġfav a
Ġfav ors
Ġperfect ing
Ġcour ts
Ġinade quacy
Ġinade quacies
Ġforward ed
ĠCons olid
Ġcompare s
Ġemer ges
Ġemer itus
Ġunex pectable
gard less
og a
og ue
og ens
og ordo
Ġ0 3
ĠSum itro
Ġ15 4
ĠOr bit
eless ly
Ġunc les
Ġunc aring
Ġunc alled
Ġunc apped
Ġextra pol
ici aries
ĠFried en
Ġexpand s
Ġexperiment ing
Ġexperiment ations
Ġflaw less
Ġsym biotic
Ġgam ble
Ġgam bled
ĠTr inid
ĠTr ussc
ĠTr ounson
Ġurg ency
Ġmeaning less
Ġcash ier
Ġcode c
ĠApp endices
Ġimplic ates
Ġjud icious
Ġjud gmental
ĠHuman ity
des cri
ĠGr and
ĠGr oupe
ĠGr unwald
ĠGr umman
rid o
rid ers
ĠPsycholo gically
Ġunp opular
Ġunp olluted
po or
po cket
po inted
Ġten ure
Ġten able
Ġflu ently
Ġflex ion
Ġflex ble
Ġmus cular
Ġdel aminated
ĠWil son
ĠWil fred
ĠWil bert
ĠChan a
ĠChan ging
ĠChan qi
Ġsecret ly
Ġsecret ive
ĠUnder ground
ĠUnder gradu
Ġdoctor al
uck y
ĠSk aar
ĠSk onk
ĠAr ts
ĠAr ticle
ĠAr ticles
ĠAr ctic
ĠAr rhyth
ĠAr chim
Ġ17 00
Ġ17 66
Ġ17 96
ĠStat utes
ĠStat istical
Ġcharacter izes
Ġprosper ing
Ġmotiv ational
vis able
Ġsoph istical
Ġsoph iscated
Ġmess ed
Ġmess aging
Ġge ography
Ġge ograp
Ġge ologic
Ġge orgia
Ġlay ing
Ġfeed s
Ġfeed stock
Ġconstrain ing
Ġcate rers
Ġbio engineering
Ġbio comp
Ġbio logically
ĠInde cisiveness
Ġver ge
Ġver acity
Ġver ifying
Ġver tically
ĠBu oniorno
Ġintr usive
Ġintr usions
Ġideal istic
Ġens uing
Ġhead s
Ġhead line
Ġhead ache
Ġacqu iesce
Ġacqu aintances
Ġguid ing
Ġmicrow aves
aur i
Ġrepl ay
Ġrepl ica
Ġrepl icas
Ġremind ing
Ġscar cer
Ġscar cest
Ġadopt able
Ġtask ed
Ġbomb ardment
ĠHy pertension
rict ions
ĠUk rainian
Ġmicro phone
Ġmicro sur
Ġmicro electronic
Ġmicro sens
Ġmicro filt
Ġhot eli
Ġhot test
Ġhot spot
Ġshop pers
Ġshop lift
ĠGM B
Ġexpress ways
Ġentertain ing
Ġdraw s
Ġdraw back
Ġdict ator
Ġdict atorship
ĠGas oline
Ġconcent rator
agn etically
Ġground ed
Ġground bre
ĠDesign ers
Ġblock ed
Ġcampaign ing
cre as
cre ation
gu ides
gu ably
Ġsell er
Ġsell ers
Ġpain ts
Ġmother land
Ġmother board
Ġred undancy
Ġlist ing
ĠPl ata
ĠPl att
ĠPl asma
Ġprin ted
Ġprin ts
Ġactual ization
Ġwonder fully
Ġpan acea
Ġpan creas
Ġbed side
Ġbed rooms
Ġdrop outs
Ġgre ed
Ġgre ens
Ġdeem s
Ġmagn ifying
Ġmagn ifies
Ġmagn ifier
Ġmagn esium
Ġmagn ifiers
ĠElect ronics
Ġjo ined
Ġjo ystick
Ġphot ograph
Ġphot ov
Ġphot ography
Ġphot ograp
Ġconvert ors
Ġpeace time
10 2
ah l
ah archen
ah ayam
ĠTan ner
ĠSpe ed
ĠMC I
ĠMC Qs
ĠBrit annica
Ġdetermin ant
Ġdetermin istic
Ġdetermin isms
iar ities
ĠX II
ĠX ega
ĠX ianjian
ĠX box
ĠZ use
ĠZ etter
ĠZ oe
ĠZ ao
ĠZ isk
ĠZ eebrugge
ĠZ ahara
ĠZ hao
ĠZ hejiang
ĠZ entrum
ĠZ eleny
ĠZ avaljev
ĠZ olla
ĠZ aharchen
Ġbi otechnology
Ġbi week
Ġbi oscient
Ġhop elessly
vert ically
Ġprem ise
Ġprem ier
Ġ16 7
Ġ16 50
ĠPost um
ĠPost note
Ġmechan ize
Ġmechan ically
Ġmechan ized
Ġmechan ization
ĠUp dated
Ġgoal to
ĠSoci a
ĠSoci etal
Ġoption ally
Ġmid sized
Ġhar p
Ġhar ass
Ġhar bor
Ġneut ronic
Ġconsult s
Ġconsult ations
Ġqual itatively
Ġescap ees
ĠTrans form
ĠTrans itions
ĠTrans parency
Ġcal cium
Ġflow er
Ġflow ing
Ġadapt ive
Ġadapt able
Ġadapt ability
Ġ14 7
Ġ14 8
Ġ14 10
Ġlifes yle
Ġacad emia
Ġ55 5
Ġ55 00
Ġevalu ates
ĠNews asia
sh i
sh ared
sh aking
Ġz ones
Ġz ircon
eng lish
Ġpaper work
Ġgl ance
Ġgl ass
Ġgl ory
Ġgl orious
Ġgl aci
Ġdead lier
[...]
