{"!":0,"\"":1,"#":2,"$":3,"%":4,"&":5,"'":6,"(":7,")":8,"*":9,"+":10,",":11,"-":12,".":13,"/":14,"0":15,"1":16,"2":17,"3":18,"4":19,"5":20,"6":21,"7":22,"8":23,"9":24,":":25,";":26,"<":27,"=":28,">":29,"?":30,"@":31,"A":32,"B":33,"C":34,"D":35,"E":36,"F":37,"G":38,"H":39,"I":40,"J":41,"K":42,"L":43,"M":44,"N":45,"O":46,"P":47,"Q":48,"R":49,"S":50,"T":51,"U":52,"V":53,"W":54,"X":55,"Y":56,"Z":57,"[":58,"\\":59,"]":60,"^":61,"_":62,"`":63,"a":64,"b":65,"c":66,"d":67,"e":68,"f":69,"g":70,"h":71,"i":72,"j":73,"k":74,"l":75,"m":76,"n":77,"o":78,"p":79,"q":80,"r":81,"s":82,"t":83,"u":84,"v":85,"w":86,"x":87,"y":88,"z":89,"{":90,"|":91,"}":92,"~":93,"¡":94,"¢":95,"£":96,"¤":97,"¥":98,"¦":99,"§":100,"¨":101,"©":102,"ª":103,"«":104,"¬":105,"®":106,"¯":107,"°":108,"±":109,"²":110,"³":111,"´":112,"µ":113,"¶":114,"·":115,"¸":116,"¹":117,"º":118,"»":119,"¼":120,"½":121,"¾":122,"¿":123,"À":124,"Á":125,"Â":126,"Ã":127,"Ä":128,"Å":129,"Æ":130,"Ç":131,"È":132,"É":133,"Ê":134,"Ë":135,"Ì":136,"Í":137,"Î":138,"Ï":139,"Ð":140,"Ñ":141,"Ò":142,"Ó":143,"Ô":144,"Õ":145,"Ö":146,"×":147,"Ø":148,"Ù":149,"Ú":150,"Û":151,"Ü":152,"Ý":153,"Þ":154,"ß":155,"à":156,"á":157,"â":158,"ã":159,"ä":160,"å":161,"æ":162,"ç":163,"è":164,"é":165,"ê":166,"ë":167,"ì":168,"í":169,"î":170,"ï":171,"ð":172,"ñ":173,"ò":174,"ó":175,"ô":176,"õ":177,"ö":178,"÷":179,"ø":180,"ù":181,"ú":182,"û":183,"ü":184,"ý":185,"þ":186,"ÿ":187,"Ā":188,"ā":189,"Ă":190,"ă":191,"Ą":192,"ą":193,"Ć":194,"ć":195,"Ĉ":196,"ĉ":197,"Ċ":198,"ċ":199,"Č":200,"č":201,"Ď":202,"ď":203,"Đ":204,"đ":205,"Ē":206,"ē":207,"Ĕ":208,"ĕ":209,"Ė":210,"ė":211,"Ę":212,"ę":213,"Ě":214,"ě":215,"Ĝ":216,"ĝ":217,"Ğ":218,"ğ":219,"Ġ":220,"ġ":221,"Ģ":222,"ģ":223,"Ĥ":224,"ĥ":225,"Ħ":226,"ħ":227,"Ĩ":228,"ĩ":229,"Ī":230,"ī":231,"Ĭ":232,"ĭ":233,"Į":234,"į":235,"İ":236,"ı":237,"Ĳ":238,"ĳ":239,"Ĵ":240,"ĵ":241,"Ķ":242,"ķ":243,"ĸ":244,"Ĺ":245,"ĺ":246,"Ļ":247,"ļ":248,"Ľ":249,"ľ":250,"Ŀ":251,"ŀ":252,"Ł":253,"ł":254,"Ń":255,"Ġt":256,"he":257,"Ġa":258,"in":259,"Ġthe":260,"re":261,"on":262,"en":263,"er":264,"Ġs":265,"Ġo":266,"Ġc":267,"Ġp":268,"Ġ,":269,"at":270,"es":271,"Ġw":272,"Ġ.":273,"ing":274,"or":275,"is":276,"it":277,"Ġb":278,"Ġto":279,"ed":280,"an":281,"Ġf":282,"Ġin":283,"Ġof":284,"Ġm":285,"Ġan":286,"al":287,"le":288,"Ġd":289,"ic":290,"ou":291,"ent":292,"ion":293,"Ġand":294,"ro":295,"ar":296,"Ġe":297,"Ġh":298,"ve":299,"Ġn":300,"Ġre":301,"as":302,"ly":303,"Ġth":304,"ct":305,"Ġbe":306,"il":307,"lo":308,"Ġis":309,"ld":310,"Ġg":311,"us":312,"om":313,"ation":314,"ch":315,"Ġpro":316,"ver":317,"ment":318,"ĠT":319,"ce":320,"Ġl":321,"Ġon":322,"et":323,"Ġthat":324,"im":325,"st":326,"id":327,"ore":328,"ot":329,"ur":330,"Ġfor":331,"ig":332,"ir":333,"ill":334,"Ġare":335,"ut":336,"Ġas":337,"Ġde":338,"Ġcon":339,"Ġit":340,"ow":341,"se":342,"ĠI":343,"ble":344,"her":345,"op":346,"Ġen":347,"ul":348,"nt":349,"Ġha":350,"Ġwh":351,"ay":352,"ess":353,"Ġsu":354,"Ġal":355,"Ġag":356,"ould":357,"ol":358,"ĠThe":359,"ith":360,"ies":361,"Ġnot":362,"uc":363,"ĠS":364,"Ġst":365,"act":366,"Ġhe":367,"un":368,"if":369,"ĠA":370,"Ġne":371,"iv":372,"Ġcan":373,"Ġwith":374,"Ġwill":375,"ci":376,"ers":377,"Ġhave":378,"gy":379,"Ġtheir":380,"ra":381,"ure":382,"Ġsh":383,"el":384,"no":385,"Ġex":386,"th":387,"ant":388,"Ġ(":389,"Ġ)":390,"are":391,"ort":392,"ity":393,"end":394,"Ġcom":395,"ect":396,"Ġso":397,"Ġus":398,"ive":399,"am":400,"over":401,"00":402,"lder":403,"Ġ'":404,"ount":405,"ther":406,"Ġte":407,"Ġ2":408,"Ġwor":409,"Ġim":410,"Ġmore":411,"lop":412,"ap":413,"velop":414,"Ġby":415,"ad":416,"eop":417,"Ġor":418,"ke":419,"ĠH":420,"ich":421,"ge":422,"Ġdevelop":423,"eople":424,"ĠIn":425,"est":426,"pp":427,"ate":428,"lear":429,"igh":430,"Ġwhich":431,"Ġimp":432,"Ġgen":433,"Ġelder":434,"Ġpeople":435,"ost":436,"ff":437,"Ġthey":438,"Ġsp":439,"um":440,"cess":441,"ter":442,"Ġhas":443,"Ġdis":444,"Ġelderly":445,"Ġres":446,"uclear":447,"Ġwe":448,"Ġr":449,"ical":450,"actor":451,"rom":452,"Ġ200":453,"overn":454,"ĠF":455,"overnment":456,"chno":457,"chnolo":458,"Ġinc":459,"ĠC":460,"Ġshould":461,"ain":462,"Ġch":463,"Ġcount":464,"ome":465,"ign":466,"ac":467,"ĠTh":468,"ance":469,"so":470,"Ġnuclear":471,"Ġcountr":472,"du":473,"Ġtechnolo":474,"Ġfrom":475,"Ġgovernment":476,"ri":477,"em":478,"ĠM":479,"cial":480,"os":481,"qu":482,"Ġthis":483,"bl":484,"ase":485,"ine":486,"ast":487,"ult":488,"per":489,"blem":490,"Ġproblem":491,"Ġalso":492,"Ġother":493,"and":494,"gh":495,"Ġse":496,"Ġat":497,"Ġad":498,"ue":499,"Ġwhe":500,"Ġsuch":501,"one":502,"Ġpl":503,"cc":504,"ough":505,"Ġneed":506,"Ġdes":507,"Ġwork":508,"Ġsa":509,"con":510,"Ġy":511,"Ġcomp":512,"ety":513,"Ġlo":514,"able":515,"aus":516,"Ġdevelopment":517,"ĠW":518,"ist":519,"ous":520,"Ġthere":521,"und":522,"od":523,"ubl":524,"ergy":525,"Ġpre":526,"Ġthem":527,"Ġab":528,"ublic":529,"Ġreactor":530,"Ġprocess":531,"Ġspend":532,"ated":533,"alth":534,"ual":535,"Ġma":536,"Ġman":537,"ide":538,"Ġtechnology":539,"ever":540,"Ġhel":541,"Ġaged":542,"Ġdesign":543,"ong":544,"Ġmay":545,"Ġ\"":546,"ĠB":547,"Ġenergy":548,"ulation":549,"out":550,"Ġpublic":551,"Ġv":552,"iz":553,"Ġcont":554,"Ġpop":555,"Ġind":556,"Ġhelp":557,"ire":558,"ident":559,"vent":560,"ĠR":561,"Ġbec":562,"ial":563,"owever":564,"Ġcountry":565,"Ġdo":566,"ust":567,"Ġint":568,"Ġhealth":569,"duct":570,"Ġpopulation":571,"for":572,"Ġincre":573,"sear":574,"Ġwould":575,"ild":576,"Ġeff":577,"Ġone":578,"ĠSing":579,"Ġresear":580,"ight":581,"apore":582,"Ġaging":583,"Ġle":584,"conom":585,"ĠSingapore":586,"ĠThis":587,"Ġspending":588,"Ġcost":589,"oun":590,"ell":591,"gine":592,"our":593,"ĠHowever":594,"ions":595,"Ġ1":596,"up":597,"Ġresult":598,"Ġta":599,"Ġeconom":600,"Ġgener":601,"ear":602,"ause":603,"etic":604,"ĠG":605,"ard":606,"ence":607,"ĠP":608,"ĠN":609,"Ġacc":610,"fore":611,"ud":612,"art":613,"very":614,"Ġfin":615,"ily":616,"Ġexp":617,"Ġsol":618,"Ġwho":619,"Ġk":620,"ren":621,"Ġsaf":622,"reat":623,"Ġwas":624,"Ġengine":625,"age":626,"Ġpol":627,"ie":628,"ans":629,"Ġresearch":630,"ĠO":631,"ower":632,"Ġgenetic":633,"ens":634,"ces":635,"Ġbeen":636,"Ġproduct":637,"ven":638,"Ġup":639,"ĠE":640,"Ġmany":641,"ations":642,"Ġconc":643,"yst":644,"Ġmed":645,"ĠThere":646,"form":647,"Ġonly":648,"ystem":649,"ient":650,"Ġsome":651,"Ġar":652,"Ġthese":653,"Ġem":654,"Ġnew":655,"rent":656,"Ġrel":657,"ime":658,"ition":659,"Ġbut":660,"Ġsupp":661,"ab":662,"Ġpower":663,"ss":664,"lect":665,"Ġits":666,"Ġhigh":667,"si":668,"Ġcar":669,"Ġsystem":670,"ater":671,"Ġuse":672,"Ġlif":673,"Ġfam":674,"ility":675,"Ġme":676,"king":677,"all":678,"Ġtest":679,"ike":680,"ving":681,"Ġout":682,"Ġun":683,"Ġabout":684,"Ġage":685,"Ġbet":686,"Ġwhen":687,"Ġsoci":688,"Ġproblems":689,"ives":690,"Ġprov":691,"Ġper":692,"Ġcons":693,"ric":694,"ple":695,"Ġsocial":696,"ace":697,"Ġyear":698,"Ġif":699,"imit":700,"Ġcare":701,"Ġpolic":702,"ord":703,"Ġall":704,"ĠV":705,"Ġra":706,"cy":707,"Ġlimit":708,"ĠIt":709,"Ġtra":710,"pt":711,"Ġbecause":712,"Ġthan":713,"ru":714,"ary":715,"Ġtime":716,"Ġsociety":717,"duc":718,"ering":719,"ag":720,"now":721,"ĠD":722,"ĠFor":723,"Ġlike":724,"ivid":725,"Ġfe":726,"oney":727,"ĠL":728,"ile":729,"ef":730,"Ġcould":731,"Ġsupport":732,"red":733,"Ġmoney":734,"Ġhum":735,"ividual":736,"Ġsur":737,"ays":738,"Ġmost":739,"Ġimport":740,"ĠU":741,"ĠAs":742,"uch":743,"ities":744,"Ġindividual":745,"iff":746,"Ġexam":747,"Ġam":748,"Ġdec":749,"ern":750,"Ġris":751,"Ġtr":752,"Ġour":753,"Ġplant":754,"Ġreactors":755,"Ġwell":756,"Ġknow":757,"Ġpos":758,"Ġdisc":759,"Ġj":760,"Ġdiff":761,"Ġaccident":762,"Ġchild":763,"ally":764,"low":765,"Ġfund":766,"Ġimpro":767,"Ġed":768,"Ġinto":769,"ound":770,"Ġlong":771,"rough":772,"Ġdise":773,"Ġinv":774,"ose":775,"Ġover":776,"Ġsafety":777,"Ġincreas":778,"Ġused":779,"dition":780,"nov":781,"Ġben":782,"Ġfamily":783,"ip":784,"Ġlife":785,"Ġbenef":786,"Ġbu":787,"Ġiss":788,"Ġeduc":789,"Ġcountries":790,"Ġapp":791,"ors":792,"ack":793,"Ġadv":794,"ious":795,"Ġable":796,"Ġworld":797,"Ġinnov":798,"ature":799,"ep":800,"ĠTherefore":801,"tain":802,"irst":803,"Ġgo":804,"Ġpr":805,"Ġbetter":806,"Ġcomm":807,"Ġold":808,"Ġact":809,"row":810,"Ġstill":811,"Ġhuman":812,"ia":813,"Ġbeing":814,"Ġmake":815,"ind":816,"Ġeconomic":817,"Ġyears":818,"Ġinst":819,"Ġfut":820,"ruct":821,"TR":822,"ĠVH":823,"ger":824,"Ġfuture":825,"ĠVHTR":826,"Ġinform":827,"ĠAl":828,"Ġexample":829,"ĠOn":830,"Ġelect":831,"Ġmuch":832,"ments":833,"duce":834,"Ġwere":835,"Ġno":836,"Ġbenefit":837,"Ġimportant":838,"ved":839,"Ġdue":840,"urther":841,"Ġvery":842,"ative":843,"Ġhis":844,"uel":845,"ob":846,"ency":847,"erson":848,"iron":849,"Ġ19":850,"Ġeffect":851,"Ġchildren":852,"Ġeducation":853,"Ġpart":854,"viron":855,"Ġmedical":856,"ite":857,"Ġfuel":858,"loy":859,"Ġser":860,"Ġeven":861,"ific":862,"ince":863,"Ġenviron":864,"pe":865,"cho":866,"urrent":867,"Ġengineering":868,"Ġareas":869,"Ġmain":870,"Ġ2009":871,"ploy":872,"Ġincrease":873,"Ġund":874,"Ġgeneration":875,"Ġfinan":876,"Ġter":877,"Ġgrow":878,"Ġph":879,"Ġtechnolog":880,"Ġenvironment":881,"ful":882,"ry":883,"Ġlow":884,"Ġneeds":885,"ree":886,"ĠWith":887,"Ġpolicies":888,"Ġret":889,"ution":890,"ases":891,"ating":892,"Ġco":893,"Ġfinancial":894,"Ġany":895,"Ġoper":896,"rib":897,"Ġcr":898,"Ġatt":899,"ves":900,"care":901,"port":902,"ates":903,"Ġaff":904,"Ġrequ":905,"Ġprevent":906,"Ġless":907,"uring":908,"sy":909,"ress":910,"fter":911,"Ġinformation":912,"che":913,"Ġfactor":914,"Ġqu":915,"get":916,"ade":917,"Ġlar":918,"arent":919,"ame":920,"Ġcurrent":921,"Ġfac":922,"Ġrisk":923,"Ġperson":924,"Ġunder":925,"ually":926,"Ġeffic":927,"ources":928,"Ġelectric":929,"ting":930,"Ġmight":931,"der":932,"Ġtake":933,"Ġconcl":934,"iving":935,"vic":936,"Ġdiffe":937,"ĠCh":938,"Ġtesting":939,"ted":940,"Ġpat":941,"Ġthrough":942,"io":943,"Ġro":944,"own":945,"Ġ;":946,"gra":947,"sel":948,"Ġconcern":949,"Ġamount":950,"pect":951,"Ġchan":952,"ach":953,"Ġbuild":954,"Ġsec":955,"Ġhealthcare":956,"usion":957,"ced":958,"Ġgreat":959,"ail":960,"Ġlead":961,"ber":962,"ove":963,"cholo":964,"Ġevery":965,"sycholo":966,"Ġengineers":967,"Ġcompan":968,"Ġ%":969,"ues":970,"ared":971,"Ġtw":972,"Ġinf":973,"Ġac":974,"ise":975,"cent":976,"Ġrequire":977,"Ġyoun":978,"Ġimprove":979,"ides":980,"arents":981,"ID":982,"Ġdisease":983,"ĠAn":984,"Ġemploy":985,"FID":986,"ĠRFID":987,"Ġresults":988,"Ġwast":989,"pl":990,"atives":991,"Ġinvest":992,"Ġget":993,"Ġworking":994,"Ġaddition":995,"Ġpossi":996,"ark":997,"ital":998,"ium":999,"other":1000,"ents":1001,"cept":1002,"Ġhad":1003,"Ġwhere":1004,"Ġcontrib":1005,"sure":1006,"perature":1007,"ential":1008,"Ġpsycholo":1009,"vel":1010,"Ġnow":1011,"Ġdep":1012,"ational":1013,"duced":1014,"Ġeconomy":1015,"Ġlimited":1016,"ject":1017,"Ġway":1018,"ĠThus":1019,"Ġconclusion":1020,"though":1021,"Ġeas":1022,"Ġbur":1023,"Ġinvent":1024,"ĠHence":1025,"ck":1026,"Ġthose":1027,"oth":1028,"Ġsub":1029,"ĠJ":1030,"ring":1031,"Ġarg":1032,"Ġdi":1033,"ons":1034,"Ġparents":1035,"ts":1036,"Ġcaus":1037,"lement":1038,"Ġretire":1039,"ĠGen":1040,"Ġmade":1041,"Ġsurve":1042,"Ġpatient":1043,"Ġtwo":1044,"Ġthus":1045,"ms":1046,"Ġcit":1047,"Ġlarge":1048,"ass":1049,"Ġallow":1050,"Ġorder":1051,"Ġdef":1052,"Ġhand":1053,"ages":1054,"Ġext":1055,"Ġsince":1056,"ok":1057,"Ġrad":1058,"ness":1059,"Ġincreasing":1060,"illance":1061,"Ġdem":1062,"Ġdeveloped":1063,"Ġrelatives":1064,"Ġprovide":1065,"Ġplants":1066,"ak":1067,"Ġgr":1068,"ten":1069,"Ġpo":1070,"Ġcre":1071,"Ġafter":1072,"Ġdifferent":1073,"Ġissue":1074,"Ġfact":1075,"Ġconst":1076,"riend":1077,"ertain":1078,"Ġ:":1079,"Ġear":1080,"ention":1081,"ures":1082,"Ġdet":1083,"Ġfo":1084,"ording":1085,"Ġreas":1086,"Ġdoes":1087,"Ġtem":1088,"ize":1089,"Ġimplement":1090,"Ġproducts":1091,"wn":1092,"ists":1093,"Ġcarri":1094,"eration":1095,"Ġcontribut":1096,"Ġsit":1097,"Ġnum":1098,"Ġenc":1099,"Ġ2008":1100,"Ġpriv":1101,"Ġstud":1102,"urity":1103,"Ġreduce":1104,"Ġliving":1105,"ning":1106,"Ġfirst":1107,"Ġsurveillance":1108,"ph":1109,"Ġhig":1110,"elf":1111,"Ġtechnologies":1112,"Ġwaste":1113,"Ġensure":1114,"Ġusing":1115,"Ġresources":1116,"Ġtrans":1117,"Ġduring":1118,"Ġease":1119,"Ġfactors":1120,"Ġes":1121,"Ġ3":1122,"ink":1123,"Ġboth":1124,"Ġke":1125,"Ġmem":1126,"oura":1127,"den":1128,"ĠChin":1129,"ys":1130,"Ġinnovation":1131,"pon":1132,"Ġcommun":1133,"ĠIV":1134,"Ġaffect":1135,"we":1136,"cond":1137,"Ġsecurity":1138,"ĠIf":1139,"ĠUn":1140,"ĠTo":1141,"Ġbenefits":1142,"Ġsign":1143,"ĠMore":1144,"ically":1145,"Ġspe":1146,"sion":1147,"Ġcitiz":1148,"Ġsci":1149,"Ġwater":1150,"tern":1151,"Ġright":1152,"Ġbecome":1153,"iven":1154,"cially":1155,"ability":1156,"Ġtemperature":1157,"Ġav":1158,"Ġhapp":1159,"Ġgrowth":1160,"Ġreg":1161,"imin":1162,"bility":1163,"Ġjust":1164,"bers":1165,"Ġmark":1166,"Ġhow":1167,"Ġsim":1168,"ory":1169,"Ġdemand":1170,"osp":1171,"ĠAlthough":1172,"Ġconsid":1173,"acy":1174,"Ġfunds":1175,"Ġ6":1176,"ied":1177,"Ġopp":1178,"Ġageing":1179,"me":1180,"Ġown":1181,"Ġexper":1182,"Ġob":1183,"vices":1184,"Ġhigher":1185,"ics":1186,"Ġdepend":1187,"Ġoff":1188,"Ġretirement":1189,"by":1190,"more":1191,"Ġgood":1192,"Ġcause":1193,"Ġsk":1194,"Ġprovid":1195,"ĠFirst":1196,"ilities":1197,"Ġissues":1198,"Ġsame":1199,"arm":1200,"led":1201,"Ġide":1202,"ĠSe":1203,"Ġolder":1204,"ging":1205,"pecially":1206,"co":1207,"ead":1208,"Ġfind":1209,"Ġwithout":1210,"ĠK":1211,"Ġbas":1212,"Ġfurther":1213,"Ġins":1214,"ource":1215,"rast":1216,"Ġwhether":1217,"Ġmater":1218,"Ġcompared":1219,"Ġmarket":1220,"ffic":1221,"ĠFurther":1222,"ional":1223,"Ġhaving":1224,"Ġespecially":1225,"Ġstr":1226,"Ġpolicy":1227,"Ġbuilding":1228,"Ġcl":1229,"Ġcertain":1230,"Ġsee":1231,"Ġencoura":1232,"iency":1233,"selves":1234,"Ġlevel":1235,"Ġmaterial":1236,"ĠBut":1237,"ructure":1238,"Ġ20":1239,"less":1240,"Ġwhat":1241,"Ġcontin":1242,"ards":1243,"veal":1244,"Ġaccidents":1245,"urn":1246,"ĠAcc":1247,"Ġburden":1248,"ĠFurthermore":1249,"Ġindust":1250,"Ġpossible":1251,"Ġcitizens":1252,"ĠThey":1253,"ĠOne":1254,"av":1255,"ĠRe":1256,"Ġsm":1257,"ice":1258,"Ġwhile":1259,"utions":1260,"Ġworkers":1261,"Ġcome":1262,"Ġlot":1263,"Ġjob":1264,"Ġreveal":1265,"Ġbefore":1266,"Ġshow":1267,"Ġpot":1268,"Ġbring":1269,"Ġreal":1270,"Ġprot":1271,"ĠSt":1272,"Ġdeveloping":1273,"Ġthemselves":1274,"ĠMoreover":1275,"les":1276,"Ġrespon":1277,"Ġelectricity":1278,"Ġincl":1279,"Ġsolution":1280,"Ġnumber":1281,"Ġher":1282,"Ġgas":1283,"lob":1284,"Ġmin":1285,"Ġcosts":1286,"ges":1287,"Ġass":1288,"Ġneg":1289,"Ġmembers":1290,"Ġpotential":1291,"Ġcap":1292,"ĠThese":1293,"Ġcase":1294,"Ġagain":1295,"Ġpay":1296,"eth":1297,"Ġlives":1298,"Ġprivacy":1299,"Ġsignific":1300,"ivity":1301,"ospital":1302,"Ġshort":1303,"Ġcontro":1304,"Ġefficiency":1305,"illion":1306,"ular":1307,"ield":1308,"Ġsolve":1309,"Ġcompanies":1310,"FR":1311,"xt":1312,"Ġexperi":1313,"Ġfriend":1314,"ized":1315,"hen":1316,"Ġplan":1317,"Ġrun":1318,"Ġ2007":1319,"Ġmod":1320,"ier":1321,"Ġref":1322,"Ġinclud":1323,"Ġface":1324,"Ġmust":1325,"cus":1326,"Ġdiseases":1327,"Ġ5":1328,"esides":1329,"Ġrem":1330,"Ġfew":1331,"ĠChina":1332,"Ġequ":1333,"Ġtak":1334,"ior":1335,"Ġmon":1336,"Ġdiver":1337,"gen":1338,"jor":1339,"Ġimpact":1340,"Ġrate":1341,"Ġsafe":1342,"Ġeffective":1343,"Ġradio":1344,"Ġmeans":1345,"Ġindividuals":1346,"Ġthen":1347,"Ġocc":1348,"Ġnecess":1349,"Ġsignificant":1350,"Ġsect":1351,"Ġsitu":1352,"ĠSome":1353,"Ġexpens":1354,"sequ":1355,"Ġvar":1356,"Ġhappen":1357,"oup":1358,"Ġmeet":1359,"aw":1360,"ccess":1361,"Ġmajor":1362,"ieve":1363,"day":1364,"ather":1365,"udget":1366,"ror":1367,"Ġtreat":1368,"read":1369,"Ġlack":1370,"Ġglob":1371,"ew":1372,"int":1373,"Ġdown":1374,"Ġpatients":1375,"Ġappro":1376,"Ġset":1377,"Ġhy":1378,"Ġput":1379,"Ġbel":1380,"irect":1381,"Ġaround":1382,"Ġconsum":1383,"Ġdiscover":1384,"Ġpsychology":1385,"Ġcarrier":1386,"Ġche":1387,"Ġthink":1388,"Ġdone":1389,"Ġ4":1390,"Ġaspect":1391,"Ġadvant":1392,"Ġyoung":1393,"ited":1394,"Ġve":1395,"Ġsche":1396,"itive":1397,"Ġthough":1398,"Ġfunding":1399,"Ġargue":1400,"Ġgroup":1401,"lic":1402,"Ġbudget":1403,"ĠAccording":1404,"ween":1405,"ills":1406,"Ġsolutions":1407,"Ġbetween":1408,"Ġperform":1409,"Ġlonger":1410,"Ġhospital":1411,"ĠPro":1412,"Ġinstance":1413,"Ġfocus":1414,"Ġaw":1415,"Ġtoo":1416,"Ġsuccess":1417,"Ġ2005":1418,"Ġmedia":1419,"Ġstand":1420,"ĠBesides":1421,"hic":1422,"Ġfast":1423,"Ġgovernments":1424,"Ġcaused":1425,"Ġent":1426,"Ġcho":1427,"force":1428,"Ġvehic":1429,"Ġproduce":1430,"Ġpercent":1431,"Ġsen":1432,"Ġprom":1433,"Ġenough":1434,"Ġ199":1435,"Ġpress":1436,"Ġexpect":1437,"Ġsmall":1438,"oled":1439,"Ġabove":1440,"te":1441,"gical":1442,"sid":1443,"dro":1444,"Ġcreat":1445,"ision":1446,"Ġdisord":1447,"fficient":1448,"Ġprotect":1449,"Ġresponsi":1450,"ĠEn":1451,"Ġsaving":1452,"Ġful":1453,"Ġintro":1454,"iew":1455,"Ġserious":1456,"Ġident":1457,"elfare":1458,"ĠSecond":1459,"ying":1460,"Ġill":1461,"atter":1462,"Ġinter":1463,"ouse":1464,"Ġ2004":1465,"Ġsay":1466,"Ġpur":1467,"Ġknown":1468,"Ġincreased":1469,"Ġinfrast":1470,"Ġconstruct":1471,"air":1472,"Ġpast":1473,"ately":1474,"Ġkeep":1475,"Ġfail":1476,"ĠCP":1477,"itical":1478,"ences":1479,"ert":1480,"Ġglobal":1481,"ways":1482,"ings":1483,"herno":1484,"Ġfeel":1485,"byl":1486,"Ġvarious":1487,"Ġphys":1488,"ural":1489,"ĠCherno":1490,"Ġefficient":1491,"Ġdefin":1492,"Ġinstead":1493,"Ġwelfare":1494,"ĠSo":1495,"oss":1496,"Ġconsider":1497,"ĠCPF":1498,"Ġgiven":1499,"imes":1500,"active":1501,"ĠChernobyl":1502,"Ġess":1503,"Ġhard":1504,"ilit":1505,"rain":1506,"ization":1507,"Ġyounger":1508,"Ġsituation":1509,"Ġproject":1510,"Ġreason":1511,"Ġoccur":1512,"Ġtoday":1513,"ged":1514,"Ġtrain":1515,"Ġturn":1516,"Ġdeter":1517,"drogen":1518,"Ġform":1519,"ĠNuclear":1520,"Ġinvol":1521,"Ġsc":1522,"anced":1523,"Ġlive":1524,"Ġconcept":1525,"ossil":1526,"Ġanother":1527,"icult":1528,"Ġdifficult":1529,"ave":1530,"Ġcent":1531,"Ġpres":1532,"Ġsubsid":1533,"Ġothers":1534,"Ġnecessary":1535,"WR":1536,"gan":1537,"ks":1538,"wor":1539,"Ġer":1540,"Ġstep":1541,"Ġprocesses":1542,"Ġscient":1543,"Ġsource":1544,"vers":1545,"ish":1546,"Ġfossil":1547,"de":1548,"Ġexpend":1549,"Ġimm":1550,"ĠWe":1551,"lu":1552,"Ġcontrol":1553,"ible":1554,"Ġtell":1555,"oll":1556,"Ġhelps":1557,"Ġamong":1558,"ĠGeneration":1559,"ĠFirstly":1560,"Ġtaken":1561,"Ġprof":1562,"Ġ?":1563,"Ġalways":1564,"Ġtrack":1565,"reen":1566,"Ġstart":1567,"Ġlower":1568,"Ġobl":1569,"Ġwant":1570,"Ġtransport":1571,"ledge":1572,"Ġeach":1573,"Ġneeded":1574,"rend":1575,"Ġagainst":1576,"apan":1577,"Ġkind":1578,"ĠJapan":1579,"Ġexpendit":1580,"Ġinnovations":1581,"ism":1582,"omm":1583,"allen":1584,"Ġoblig":1585,"Ġprogra":1586,"ĠSecondly":1587,"Ġach":1588,"ising":1589,"Ġterror":1590,"Ġaut":1591,"Ġpass":1592,"Ġworkforce":1593,"Ġcars":1594,"any":1595,"omes":1596,"Ġincome":1597,"ality":1598,"ducing":1599,"ethod":1600,"ty":1601,"Ġexplo":1602,"Ġsystems":1603,"ered":1604,"Ġevent":1605,"Ġarea":1606,"Ġmak":1607,"Ġhydrogen":1608,"Ġlook":1609,"Ġeffort":1610,"ised":1611,"Ġmethod":1612,"Ġcompany":1613,"ission":1614,"Ġproper":1615,"adays":1616,"Ġmaterials":1617,"ĠSC":1618,"Ġcompet":1619,"Ġview":1620,"Ġknowledge":1621,"Ġcool":1622,"Ġfacilities":1623,"ĠWh":1624,"Ġinte":1625,"Ġaccess":1626,"stand":1627,"Ġspent":1628,"Ġtaking":1629,"Ġtechnological":1630,"Ġinfrastructure":1631,"Ġmeas":1632,"Ġbest":1633,"Ġexist":1634,"apt":1635,"Ġcommunic":1636,"pos":1637,"rimin":1638,"ilar":1639,"mal":1640,"Ġback":1641,"Ġfamil":1642,"pro":1643,"Ġcor":1644,"Ġsolar":1645,"ĠSCWR":1646,"Ġfound":1647,"Ġyou":1648,"Ġmaking":1649,"Ġadvance":1650,"Ġterms":1651,"Ġstrong":1652,"Ġ$":1653,"Ġty":1654,"Ġchallen":1655,"Ġproduction":1656,"Ġaid":1657,"ick":1658,"ortun":1659,"Ġrecent":1660,"Ġwhole":1661,"oid":1662,"Ġservices":1663,"Ġminim":1664,"Ġsal":1665,"ird":1666,"Ġconsequ":1667,"ĠHe":1668,"Ġimplemented":1669,"Ġdisorder":1670,"Ġbo":1671,"Ġcreate":1672,"iness":1673,"Ġmention":1674,"Ġplace":1675,"Ġnation":1676,"ron":1677,"Ġaltern":1678,"Ġproviding":1679,"pite":1680,"itable":1681,"ilt":1682,"Ġhelped":1683,"ĠAnother":1684,"abl":1685,"Ġbus":1686,"Ġval":1687,"ler":1688,"Ġsuff":1689,"ding":1690,"Ġbig":1691,"Ġfield":1692,"ousing":1693,"Ġfore":1694,"Ġrece":1695,"ĠSince":1696,"Ġstate":1697,"unct":1698,"ĠWhen":1699,"Ġeffects":1700,"Ġtherefore":1701,"ators":1702,"Ġdid":1703,"Ġconf":1704,"Ġplay":1705,"Ġattention":1706,"Ġavail":1707,"Ġop":1708,"Ġhu":1709,"Ġgive":1710,"ĠTe":1711,"Ġsave":1712,"Ġfinal":1713,"Ġdirect":1714,"ict":1715,"Ġrec":1716,"Ġreport":1717,"Ġpressure":1718,"Ġda":1719,"Ġcommon":1720,"ĠInt":1721,"ably":1722,"Ġphone":1723,"Ġclo":1724,"ently":1725,"Ġ]":1726,"rest":1727,"Ġdan":1728,"Ġ2006":1729,"ĠMed":1730,"Ġpoint":1731,"ib":1732,"Ġ[":1733,"Ġones":1734,"Ġev":1735,"Ġterm":1736,"ract":1737,"Ġconvent":1738,"ĠReactor":1739,"ling":1740,"land":1741,"Ġloc":1742,"ustain":1743,"Ġradioactive":1744,"vant":1745,"Ġways":1746,"Ġcondition":1747,"ix":1748,"ances":1749,"Ġenh":1750,"ody":1751,"Ġfuels":1752,"Ġrole":1753,"Ġest":1754,"Ġbuilt":1755,"ĠUnited":1756,"res":1757,"Ġtax":1758,"Ġtreatment":1759,"Ġactually":1760,"Ġpract":1761,"vice":1762,"Ġargu":1763,"Ġmentioned":1764,"als":1765,"Ġfamilies":1766,"Ġreasons":1767,"Ġexpenditure":1768,"ĠBy":1769,"obile":1770,"Ġhuge":1771,"Ġheat":1772,"atively":1773,"Ġillness":1774,"ft":1775,"ĠWor":1776,"Ġdecre":1777,"Ġindustry":1778,"Ġstage":1779,"Ġstudents":1780,"ned":1781,"nce":1782,"Ġtow":1783,"ĠAm":1784,"Ġdiscrimin":1785,"Ġavailable":1786,"Ġsustain":1787,"Ġgra":1788,"Ġadd":1789,"Ġskills":1790,"Ġperformance":1791,"the":1792,"vious":1793,"Ġlab":1794,"Ġorgan":1795,"Ġrather":1796,"rior":1797,"Ġaspects":1798,"Ġhence":1799,"Ġmaintain":1800,"ath":1801,"Ġsever":1802,"Ġactiv":1803,"ready":1804,"urance":1805,"ĠGovernment":1806,"chn":1807,"Ġwithin":1808,"Ġadvantages":1809,"ho":1810,"Ġanal":1811,"Ġconcerns":1812,"ator":1813,"Ġfl":1814,"Ġalready":1815,"Ġfeature":1816,"ilitary":1817,"Ġaccount":1818,"gest":1819,"aring":1820,"Ġprep":1821,"Ġ198":1822,"Ġsector":1823,"aptop":1824,"Ġoften":1825,"Ġafford":1826,"Ġextent":1827,"Ġhome":1828,"itions":1829,"Ġoil":1830,"Ġprior":1831,"Ġrest":1832,"Ġseem":1833,"Ġcreated":1834,"Ġair":1835,"ones":1836,"Ġproduced":1837,"ĠUS":1838,"Ġavoid":1839,"Ġconstruction":1840,"Ġmind":1841,"Ġmillion":1842,"Ġmilitary":1843,"Ġreduced":1844,"ĠRes":1845,"Ġquality":1846,"unt":1847,"Ġtot":1848,"Ġpersonal":1849,"Ġchange":1850,"Ġeasily":1851,"Ġsimilar":1852,"Ġseveral":1853,"ants":1854,"Ġdiverted":1855,"Ġscheme":1856,"Ġban":1857,"Ġlaptop":1858,"ute":1859,"Ġdaily":1860,"Ġmy":1861,"Ġdist":1862,"Ġgenerated":1863,"Ġadvanced":1864,"Ġcontinue":1865,"gn":1866,"ĠY":1867,"Ġgenerate":1868,"Ġpartic":1869,"Ġoperation":1870,"ww":1871,"onents":1872,"Ġpric":1873,"Ġcontribute":1874,"hed":1875,"Ġdeal":1876,"Ġwhy":1877,"Ġequip":1878,"Ġdiscovery":1879,"SR":1880,"Ġur":1881,"Ġtal":1882,"ĠMin":1883,"Ġability":1884,"Ġencourage":1885,"rendip":1886,"Ġlast":1887,"Ġmakes":1888,"Ġactivities":1889,"ee":1890,"gr":1891,"Ġcomple":1892,"Ġpositive":1893,"cooled":1894,"Ġinsurance":1895,"Ġfol":1896,"loc":1897,"Ġgreen":1898,"Ġmean":1899,"Ġcam":1900,"ars":1901,"cer":1902,"ner":1903,"Ġconven":1904,"duces":1905,"Ġregard":1906,"Ġtowards":1907,"go":1908,"mes":1909,"Ġ&":1910,"Ġ7":1911,"Ġshare":1912,"ĠInd":1913,"ĠMSR":1914,"Ġmedic":1915,"Ġidea":1916,"Ġsources":1917,"atural":1918,"ises":1919,"Ġnext":1920,"Ġusually":1921,"Ġrising":1922,"aim":1923,"ĠDe":1924,"Ġexpenses":1925,"Ġdeterm":1926,"irth":1927,"Ġstress":1928,"Ġidentif":1929,"Ġnear":1930,"Ġcommunity":1931,"iation":1932,"Ġhousing":1933,"Ġreact":1934,"000":1935,"Ġhealthy":1936,"Ġideas":1937,"erg":1938,"Ġwheel":1939,"Ġassist":1940,"Ġscientists":1941,"Ġdanger":1942,"Ġgu":1943,"ĠButler":1944,"hip":1945,"Ġtend":1946,"ines":1947,"Ġslow":1948,"Ġend":1949,"Ġcoal":1950,"Ġjobs":1951,"Ġresponsibility":1952,"hers":1953,"ĠAfter":1954,"Ġusage":1955,"ried":1956,"Ġserendip":1957,"Ġclaim":1958,"li":1959,"Ġharm":1960,"Ġtechn":1961,"Ġweap":1962,"ĠMany":1963,"Ġgenerations":1964,"Ġfunct":1965,"Ġthreat":1966,"Ġdevices":1967,"Ġchance":1968,"Ġgetting":1969,"most":1970,"Ġnor":1971,"idered":1972,"Ġreli":1973,"Ġenvironmental":1974,"Ġessential":1975,"Ġhim":1976,"omp":1977,"Ġusers":1978,"ĠLast":1979,"self":1980,"Ġcall":1981,"Ġbirth":1982,"Ġsufficient":1983,"Ġimportance":1984,"Ġbased":1985,"Ġmeasures":1986,"Ġ8":1987,"Ġconsidered":1988,"Ġphysical":1989,"come":1990,"Ġlaw":1991,"Ġimproved":1992,"Ġfriends":1993,"here":1994,"rought":1995,"Ġintroduced":1996,"ral":1997,"rig":1998,"its":1999,"Ġrele":2000,"ope":2001,"Ġ2003":2002,"ĠBe":2003,"Ġ10":2004,"cking":2005,"Ġpsychological":2006,"Ġnegative":2007,"jo":2008,"Ġnatural":2009,"Ġgrowing":2010,"place":2011,"Ġearly":2012,"ĠTechnolo":2013,"ries":2014,"Ġbrought":2015,"aper":2016,"ĠDes":2017,"Ġrequired":2018,"sed":2019,"itor":2020,"Ġpoll":2021,"Ġrelated":2022,"Ġinterest":2023,"tle":2024,"Ġshe":2025,"Ġcomput":2026,"Ġaccording":2027,"ude":2028,"ption":2029,"Ġreally":2030,"Ġenjo":2031,"Ġsum":2032,"ades":2033,"ĠSingaporeans":2034,"ĠNow":2035,"gress":2036,"itous":2037,"Ġnet":2038,"Ġcond":2039,"Ġdesigning":2040,"Ġallows":2041,"Ġprovided":2042,"arming":2043,"Ġfriendly":2044,"Ġproductivity":2045,"Ġupgra":2046,"Ġbelieve":2047,"pr":2048,"Ġdou":2049,"aster":2050,"ĠAll":2051,"Ġaccept":2052,"Ġinvention":2053,"Ġstandard":2054,"por":2055,"Ġday":2056,"Ġnational":2057,"Ġsafer":2058,"Ġgreater":2059,"Ġbasic":2060,"Ġvehicles":2061,"Ġsavings":2062,"ased":2063,"lders":2064,"ĠSFR":2065,"Ġfeatures":2066,"Ġprob":2067,"Ġseen":2068,"Ġdevelopments":2069,"Ġdesigned":2070,"ĠWorld":2071,"sing":2072,"Ġine":2073,"Ġsecond":2074,"Ġexpensive":2075,"Ġaware":2076,"Ġdefinite":2077,"Ġadult":2078,"Ġinit":2079,"ĠCent":2080,"cle":2081,"pid":2082,"Ġbre":2083,"Ġfar":2084,"soci":2085,"Ġlikely":2086,"epend":2087,"Ġunderstand":2088,"Ġlight":2089,"Ġsuccessful":2090,"Ġalternative":2091,"Ġconduct":2092,"Ġalloc":2093,"Ġoperating":2094,"Ġrequires":2095,"nel":2096,"Ġwide":2097,"Ġmove":2098,"Ġnon":2099,"Ġmodern":2100,"Ġsenior":2101,"Ġpromot":2102,"Ġconditions":2103,"gers":2104,"tt":2105,"Ġcut":2106,"Ġcases":2107,"Ġrapid":2108,"Ġdecision":2109,"Ġapplic":2110,"ples":2111,"Ġcauses":2112,"Ġscience":2113,"cing":2114,"Ġpens":2115,"line":2116,"Ġrelatively":2117,"Ġinflu":2118,"tic":2119,"Ġstat":2120,"Ġresearc":2121,"ĠNew":2122,"sia":2123,"ĠAnd":2124,"Ġinventions":2125,"Ġbusiness":2126,"Ġconventional":2127,"Ġshown":2128,"Ġleast":2129,"Ġtrue":2130,"Ġdisclo":2131,"Ġhighly":2132,"Ġfollow":2133,"bon":2134,"Ġut":2135,"ese":2136,"Ġonce":2137,"ĠEven":2138,"Ġsupply":2139,"Ġactive":2140,"Ġforeign":2141,"Ġself":2142,"Ġcle":2143,"Ġthree":2144,"Ġachieve":2145,"Ġconsequences":2146,"Ġdefinitely":2147,"ian":2148,"Ġmobile":2149,"Ġdoing":2150,"Ġcrit":2151,"Ġgreatly":2152,"Ġshows":2153,"Ġhospitals":2154,"Ġpresent":2155,"ĠIntern":2156,"inking":2157,"Ġsix":2158,"ĠAct":2159,"Ġshap":2160,"ĠFrom":2161,"isf":2162,"Ġment":2163,"ification":2164,"Ġfacing":2165,"Ġerr":2166,"bot":2167,"rit":2168,"velopment":2169,"Ġopportun":2170,"Ġneglect":2171,"Ġserendipitous":2172,"com":2173,"Ġcancer":2174,"ĠPeople":2175,"ĠStates":2176,"Ġcore":2177,"Ġfre":2178,"Ġtransportation":2179,"iqu":2180,"ense":2181,"Ġdr":2182,"Ġel":2183,"Ġbeh":2184,"ĠAt":2185,"tenance":2186,"Ġcoolant":2187,"Ġadvancement":2188,"50":2189,"Ġport":2190,"Ġwarming":2191,"edi":2192,"icial":2193,"Ġdeath":2194,"Ġtag":2195,"Ġprogram":2196,"Ġautom":2197,"Ġ/":2198,"Ġprogress":2199,"Ġimpl":2200,"Ġplac":2201,"Ġdifferen":2202,"Ġexperience":2203,"Ġremain":2204,"Ġsom":2205,"Ġhowever":2206,"Ġsuper":2207,"Ġresulted":2208,"Ġoppos":2209,"Ġrefrig":2210,"atisf":2211,"Ġadop":2212,"Ġprovides":2213,"Ġfaced":2214,"Ġfood":2215,"Ġsignificantly":2216,"Ġerrors":2217,"put":2218,"uf":2219,"Ġclear":2220,"Ġbar":2221,"Ġbillion":2222,"Ġincident":2223,"ĠNational":2224,"Ġhumans":2225,"Ġdecades":2226,"Ġincreases":2227,"Ġemployment":2228,"Ġvehicle":2229,"Ġbody":2230,"Ġtop":2231,"Ġlit":2232,"Ġdesigns":2233,"Ġcarry":2234,"Ġimproving":2235,"Ġinvestment":2236,"Ġdetect":2237,"Ġcommunication":2238,"Ġprice":2239,"Ġcamer":2240,"Ġenjoy":2241,"Ġfil":2242,"Ġreach":2243,"Ġchanges":2244,"Ġparticular":2245,"ivers":2246,"ĠInst":2247,"Ġdemands":2248,"ieved":2249,"Ġquite":2250,"Ġconcerned":2251,"Ġrights":2252,"Ġ65":2253,"friend":2254,"iod":2255,"ination":2256,"Ġheart":2257,"advant":2258,"Ġdiscus":2259,"Ġsubsidies":2260,"Ġdiscrimination":2261,"Ġresearchers":2262,"anium":2263,"Ġfear":2264,"Ġham":2265,"Ġuseful":2266,"Ġeventually":2267,"Ġexisting":2268,"bo":2269,"Ġgases":2270,"Ġagree":2271,"Ġheav":2272,"ĠFund":2273,"Ġtracking":2274,"Ġmainly":2275,"ches":2276,"Ġradiation":2277,"Ġmonitor":2278,"Ġtyp":2279,"ĠResear":2280,"Ġ//":2281,"Ġintern":2282,"Ġlater":2283,"unk":2284,"Ġnever":2285,"Ġmanage":2286,"Ġlear":2287,"ange":2288,"Ġdisadvant":2289,"Ġsectors":2290,"friendly":2291,"fort":2292,"ined":2293,"Ġland":2294,"chool":2295,"Ġrobot":2296,"ttp":2297,"ees":2298,"ancy":2299,"Ġcomb":2300,"gether":2301,"Ġchoice":2302,"Ġclean":2303,"Ġrefriger":2304,"ufact":2305,"part":2306,"Ġeth":2307,"Ġelders":2308,"Ġhttp":2309,"Ġthings":2310,"Ġmach":2311,"Ġcarbon":2312,"Ġattack":2313,"Ġstop":2314,"istic":2315,"Ġemployers":2316,"eric":2317,"Ġreducing":2318,"Ġforce":2319,"ĠIs":2320,"Ġstay":2321,"Ġuses":2322,"esty":2323,"Ġworks":2324,"istics":2325,"ĠAlso":2326,"'t":2327,"Ġbatter":2328,"Ġsug":2329,"Ġloss":2330,"Ġindepend":2331,"Ġperiod":2332,"Ġsubst":2333,"Ġcontinu":2334,"Ġtre":2335,"Ġcell":2336,"ĠAd":2337,"Ġworry":2338,"Ġaffected":2339,"Ġspec":2340,"Ġhappened":2341,"Ġcentur":2342,"ronic":2343,"Ġalmost":2344,"Ġmanufact":2345,"Ġrise":2346,"Ġspecial":2347,"ĠAmeric":2348,"set":2349,"Ġtimes":2350,"Ġfree":2351,"idence":2352,"ified":2353,"Ġchar":2354,"Ġdependency":2355,"ĠEngine":2356,"Ġfailure":2357,"Ġchallenges":2358,"Ġreceive":2359,"ĠNowadays":2360,"ds":2361,"ibility":2362,"Ġmor":2363,"ĠCon":2364,"emperature":2365,"phas":2366,"Ġrevealing":2367,"theless":2368,"Ġtotal":2369,"Ġpred":2370,"Ġlifesty":2371,"Ġgoing":2372,"Ġpossibility":2373,"ĠHealth":2374,"ll":2375,"ne":2376,"old":2377,"Ġstructure":2378,"ĠGenetic":2379,"Ġshortage":2380,"Ġincluding":2381,"Ġopin":2382,"down":2383,"tion":2384,"hes":2385,"Ġsatisf":2386,"Ġhouse":2387,"Ġread":2388,"Ġtele":2389,"Ġteam":2390,"Ġsurger":2391,"Ġimprovement":2392,"Ġexpected":2393,"ĠTechnology":2394,"house":2395,"Ġtar":2396,"Ġaim":2397,"Ġschool":2398,"Ġbab":2399,"ived":2400,"ĠComm":2401,"istry":2402,"Ġstrate":2403,"ĠWhile":2404,"Ġpriority":2405,"Ġnetwor":2406,"be":2407,"Ġrecy":2408,"Ġcomfort":2409,"ĠRo":2410,"Ġcruc":2411,"Ġcontributed":2412,"Ġschemes":2413,"fer":2414,"oking":2415,"Ġther":2416,"ĠDevelopment":2417,"Ġsuggest":2418,"Ġeveryone":2419,"Ġsites":2420,"Ġadvantage":2421,"Ġenhance":2422,"ĠDespite":2423,"Ġ9":2424,"isc":2425,"istory":2426,"Ġapply":2427,"Ġemployees":2428,"Ġinvolved":2429,"Ġimmedi":2430,"Ġsuffer":2431,"Ġweapons":2432,"ĠResearch":2433,"eed":2434,"ĠThree":2435,"Ġsaid":2436,"Ġquest":2437,"Ġcrucial":2438,"hib":2439,"ĠComp":2440,"Ġconstant":2441,"Ġinclude":2442,"Ġdoub":2443,"ik":2444,"Ġcy":2445,"uth":2446,"Ġgenes":2447,"Ġresource":2448,"Ġaddress":2449,"Ġfall":2450,"Ġrespect":2451,"Ġunable":2452,"Ġnowadays":2453,"Ġinvented":2454,"Ġdecrease":2455,"ience":2456,"Ġcat":2457,"ison":2458,"pped":2459,"Ġrates":2460,"Ġemerg":2461,"Ġlarger":2462,"Ġ50":2463,"Ġconcepts":2464,"Ġillnesses":2465,"Ġequipment":2466,"Ġsurgery":2467,"new":2468,"Ġ-":2469,"Ġet":2470,"Ġreplace":2471,"Ġalthough":2472,"Ġemphas":2473,"Ġtravel":2474,"Ġundergo":2475,"cogn":2476,"Ġmethods":2477,"IN":2478,"iss":2479,"ĠSu":2480,"Ġinnovative":2481,"200":2482,"pose":2483,"rial":2484,"ĠNever":2485,"Ġemot":2486,"Ġlimiting":2487,"Ġstudy":2488,"Ġaway":2489,"ĠMinistry":2490,"ĠIsland":2491,"lied":2492,"Ġmult":2493,"Ġthird":2494,"Ġkey":2495,"Ġseems":2496,"ĠNevertheless":2497,"to":2498,"ither":2499,"Ġeasier":2500,"Ġprojects":2501,"Ġtarget":2502,"xim":2503,"Ġbad":2504,"Ġrely":2505,"Ġutil":2506,"Ġlittle":2507,"dium":2508,"gin":2509,"isis":2510,"Ġhistory":2511,"asing":2512,"Ġcomes":2513,"Ġsodium":2514,"Ġ2001":2515,"Ġbecomes":2516,"ĠProv":2517,"Ġpollution":2518,"cr":2519,"ery":2520,"Ġtogether":2521,"Ġrecogn":2522,"Ġpros":2523,"Ġgene":2524,"Ġpopular":2525,"Ġtry":2526,"Ġimpacts":2527,"ĠEnergy":2528,"Ġbanned":2529,"Ġfert":2530,"Ġdays":2531,"Ġwilling":2532,"Ġcrisis":2533,"Ġobject":2534,"ake":2535,"pri":2536,"Ġaver":2537,"Ġdoct":2538,"ĠPublic":2539,"Ġdecide":2540,"Ġinstall":2541,"Ġfinancially":2542,"Ġprograms":2543,"Ġfilial":2544,"..":2545,"Ġopt":2546,"Ġwar":2547,"Ġinher":2548,"Ġdevice":2549,"Ġspeed":2550,"Ġsing":2551,"ata":2552,"Ġmatter":2553,"oming":2554,"Ġcapital":2555,"Ġclose":2556,"Ġmedicine":2557,"ĠLastly":2558,"Ġcomputer":2559,"ĠCentral":2560,"iety":2561,"ser":2562,"Ġcover":2563,"oline":2564,"ending":2565,"ĠMile":2566,"duction":2567,"Ġprevented":2568,"Ġeffectively":2569,"Ġprofess":2570,"Ġgreenhouse":2571,"xide":2572,"ond":2573,"Ġsure":2574,"Ġste":2575,"elt":2576,"Ġspace":2577,"Ġincent":2578,"Ġemission":2579,"overed":2580,"Ġmonth":2581,"Ġapproach":2582,"Ġtechnical":2583,"Ġpension":2584,"Ġlifestyle":2585,"ER":2586,"lier":2587,"orn":2588,"omen":2589,"olten":2590,"Ġeasing":2591,"Ġimplementation":2592,"ĠChinese":2593,"book":2594,"Ġ2002":2595,"Ġresearches":2596,"Ġattract":2597,"Ġpoor":2598,"Ġefforts":2599,"Ġuranium":2600,"Ġnormal":2601,"Ġdisadvantages":2602,"ward":2603,"atory":2604,"Ġdam":2605,"igr":2606,"Ġconver":2607,"Ġweak":2608,"ats":2609,"Ġwr":2610,"Ġdeb":2611,"Ġsuitable":2612,"ĠSuch":2613,"Ġdespite":2614,"Ġproductive":2615,"Ġcurrently":2616,"nect":2617,"owered":2618,"Ġ197":2619,"Ġskunk":2620,"Ġgasoline":2621,"Ġhamper":2622,"Ġemergency":2623,"Ġunt":2624,"ished":2625,"Ġmass":2626,"Ġconsumption":2627,"Ġexpectancy":2628,"Ġanaly":2629,"ĠInternational":2630,"man":2631,"ĠHigh":2632,"Ġprevious":2633,"ping":2634,"Ġled":2635,"Ġgroups":2636,"Ġ1986":2637,"Ġbattery":2638,"Ġthermal":2639,"30":2640,"Ġcope":2641,"vere":2642,"Ġnur":2643,"employ":2644,"Ġcontact":2645,"Ġdiscovered":2646,"Ġconsideration":2647,"Ġdifficulties":2648,"Ġobligation":2649,"Ġwidely":2650,"Ġopinion":2651,"Ġaverage":2652,"ext":2653,"Ġcoll":2654,"ross":2655,"Ġrepro":2656,"Ġprol":2657,"Ġitself":2658,"Ġbeings":2659,"Ġbrings":2660,"Ġmajority":2661,"af":2662,"enced":2663,"Ġcou":2664,"isions":2665,"Ġdra":2666,"Ġdoll":2667,"ices":2668,"Ġreduces":2669,"use":2670,"Ġconnect":2671,"ended":2672,"term":2673,"Ġprec":2674,"Ġpolitical":2675,"Ġtradition":2676,"Ġcheaper":2677,"Ġobligated":2678,"Ġtype":2679,"Ġidentify":2680,"Ġcentury":2681,"critical":2682,"TA":2683,"Ġcol":2684,"Ġpar":2685,"Ġtool":2686,"illed":2687,"ĠThird":2688,"Ġoperate":2689,"Ġopponents":2690,"Ġindustrial":2691,"Ġsense":2692,"Ġfulf":2693,"reme":2694,"Ġcir":2695,"Ġblo":2696,"Ġmis":2697,"Ġdest":2698,"Ġproced":2699,"Ġassoci":2700,"ĠAging":2701,"Ġuser":2702,"Ġ2000":2703,"ĠLFR":2704,"weigh":2705,"Ġchoose":2706,"Ġfully":2707,"Ġopportunities":2708,"Ġmulti":2709,"hand":2710,"uro":2711,"ank":2712,"Ġmo":2713,"Ġhelping":2714,"ours":2715,"ĠOther":2716,"Ġapplied":2717,"Ġsecure":2718,"Ġadditional":2719,"Ġextreme":2720,"Ġpurpose":2721,"ply":2722,"Ġfive":2723,"ĠMe":2724,"Ġcareful":2725,"ĠDue":2726,"Ġmaintenance":2727,"iveness":2728,"Ġprobably":2729,"Ġrecyc":2730,"ored":2731,"urb":2732,"Ġyet":2733,"ioxide":2734,"Ġprivate":2735,"Ġplanning":2736,"Ġlabor":2737,"Ġdangerous":2738,"Ġimplant":2739,"Ġeither":2740,"Ġoperators":2741,"Ġroad":2742,"phone":2743,"Ġethical":2744,"Ġmoral":2745,"aving":2746,"like":2747,"ets":2748,"Ġeconomical":2749,"Ġcommer":2750,"Ġearlier":2751,"sequently":2752,"Ġkinds":2753,"ĠProvident":2754,"Ġsingle":2755,"aking":2756,"rect":2757,"Ġbal":2758,"Ġgain":2759,"Ġproport":2760,"quate":2761,"Ġsevere":2762,"Ġhelium":2763,"Ġvi":2764,"Ġvir":2765,"Ġbeneficial":2766,"Ġfull":2767,"Ġtraining":2768,"Ġmanagement":2769,"Ġcame":2770,"Ġalone":2771,"Ġspread":2772,"ĠMost":2773,"Ġleft":2774,"Ġgeneral":2775,"Ġunf":2776,"Ġovercome":2777,"Ġleads":2778,"Ġaffects":2779,"Ġgenerating":2780,"Ġartic":2781,"Ġrelations":2782,"Ġposition":2783,"Ġharmful":2784,"Ġinev":2785,"Ġinitial":2786,"Ġdoubt":2787,"Ġincentives":2788,"LIN":2789,"PER":2790,"YPER":2791,"Ġsize":2792,"Ġpers":2793,"Ġmist":2794,"Ġdioxide":2795,"etro":2796,"Ġworth":2797,"ĠHYPER":2798,"Ġdisaster":2799,"ĠBo":2800,"Ġnews":2801,"Ġtests":2802,"Ġoutweigh":2803,"ĠVery":2804,"agno":2805,"ched":2806,"Ġpractical":2807,"Ġcalled":2808,"LINK":2809,"ĠHYPERLINK":2810,"Ġcater":2811,"isave":2812,"Ġbr":2813,"Ġexpos":2814,"Ġraised":2815,"ĠWhat":2816,"Ġfields":2817,"Ġanalys":2818,"Ġtraditional":2819,"ugh":2820,"eral":2821,"Ġmot":2822,"Ġrenew":2823,"verse":2824,"Ġappropri":2825,"Ġstarted":2826,"Ġterrorists":2827,"Ġcompetitive":2828,"Ġsalt":2829,"Ġboost":2830,"Ġgradu":2831,"Ġmental":2832,"Ġtypes":2833,"Ġ{":2834,"iting":2835,"Ġdeple":2836,"Ġlost":2837,"izing":2838,"Ġlimitation":2839,"Ġdiagno":2840,"Ġlevels":2841,"Ġpercentage":2842,"Ġexplosion":2843,"Ġdirectly":2844,"Ġbreak":2845,"Ġbaby":2846,"Ġfertility":2847,"DP":2848,"Ġmet":2849,"Ġhomes":2850,"Ġbegin":2851,"Ġselect":2852,"Ġplays":2853,"aging":2854,"Ġimprovements":2855,"Ġhappening":2856,"Ġargued":2857,"www":2858,"Ġconvenience":2859,"Ġ}":2860,"Ġmar":2861,"Ġhind":2862,"Ġwords":2863,"Ġwealth":2864,"Ġvia":2865,"Ġbecoming":2866,"Ġexamples":2867,"Ġrisks":2868,"Ġobtain":2869,"Ġfewer":2870,"Ġprepare":2871,"Ġregarding":2872,"Ġrefrigerator":2873,"Ġcommercial":2874,"ded":2875,"wise":2876,"Ġincur":2877,"ĠMal":2878,"ously":2879,"Ġlet":2880,"rug":2881,"Ġcarried":2882,"Ġseek":2883,"Ġresponsible":2884,"Ġinteract":2885,"Ġadults":2886,"Ġelimin":2887,"ped":2888,"ining":2889,"Ġpe":2890,"Ġwind":2891,"ani":2892,"Ġant":2893,"ash":2894,"Ġproducing":2895,"Ġpropos":2896,"esting":2897,"Ġindeed":2898,"idential":2899,"Ġconsumers":2900,"Ġcreating":2901,"Ġopen":2902,"Ġcomplete":2903,"iversity":2904,"Ġindependent":2905,"Ġproportion":2906,"itute":2907,"Ġflo":2908,"Ġstable":2909,"Ġstages":2910,"ĠGDP":2911,"ensive":2912,"ĠEuro":2913,"Ġfeas":2914,"Ġsurv":2915,"Ġquick":2916,"Ġterrorist":2917,"Ġconvenient":2918,"Ġapplication":2919,"Ġbarri":2920,"gies":2921,"mat":2922,"Ġpost":2923,"Ġpetro":2924,"Ġmic":2925,"chair":2926,"Ġla":2927,"Ġsolving":2928,"Ġsupporting":2929,"Ġcontribution":2930,"Ġ60":2931,"Ġprotection":2932,"Ġessay":2933,"Ġupgrading":2934,"Ġrapidly":2935,"Ġcirc":2936,"ogra":2937,"Ġcult":2938,"Ġbro":2939,"Ġann":2940,"Ġden":2941,"Ġdeg":2942,"Ġimpos":2943,"ĠFin":2944,"ĠLee":2945,"Ġchanging":2946,"ĠEurope":2947,"rel":2948,"enic":2949,"Ġcure":2950,"Ġbl":2951,"Ġstated":2952,"Ġyour":2953,"Ġcontr":2954,"ired":2955,"Ġphones":2956,"Ġencouraging":2957,"Ġcamera":2958,"Ġdollars":2959,"ton":2960,"ufficient":2961,"Ġtack":2962,"orm":2963,"ale":2964,"Ġdata":2965,"ĠTos":2966,"Ġcompar":2967,"Ġcontain":2968,"ĠPet":2969,"Ġcrimin":2970,"Ġquestion":2971,"att":2972,"Ġrange":2973,"Ġtested":2974,"Ġcommit":2975,"Ġlesser":2976,"Ġsteps":2977,"Ġbehav":2978,"Ġanalyz":2979,"Ġrelationship":2980,"ym":2981,"ang":2982,"Ġrev":2983,"uton":2984,"ousand":2985,"ĠWithout":2986,"Ġcausing":2987,"Ġsimply":2988,"Ġprofit":2989,"hiba":2990,"Ġconstantly":2991,"Ġuntil":2992,"ĠToshiba":2993,"round":2994,"Ġchip":2995,"Ġlooking":2996,"Ġdecisions":2997,"Ġwastes":2998,"Ġstudies":2999,"Ġcreativity":3000,"Ġlocal":3001,"Ġestim":3002,"Ġrestric":3003,"Ġshaped":3004,"Ġnetwork":3005,"ĠRogers":3006,"Ġemotional":3007,"Ġarticle":3008,"light":3009,"way":3010,"Ġnations":3011,"Ġstor":3012,"Ġstates":3013,"ief":3014,"Ġservice":3015,"Ġearth":3016,"Ġ2030":3017,"ething":3018,"Ġtakes":3019,"Ġauth":3020,"ĠMedisave":3021,"Ġaffordable":3022,"Ġspecific":3023,"Ġetc":3024,"Ġrenewable":3025,"ionally":3026,"Ġproven":3027,"ulner":3028,"thing":3029,"Ġelectr":3030,"Ġmodel":3031,"Ġportion":3032,"Ġcycle":3033,"ĠMalay":3034,"enicill":3035,"alf":3036,"Ġhold":3037,"Ġthousand":3038,"ember":3039,"sible":3040,"Ġsupported":3041,"Ġoverall":3042,"Ġchannel":3043,"Ġinvesting":3044,"Ġeasy":3045,"Ġorganiz":3046,"Ġreaction":3047,"Ġsomething":3048,"handani":3049,"utonium":3050,"Ġauthor":3051,"ma":3052,"vi":3053,"Ġgiving":3054,"Ġgather":3055,"Ġalong":3056,"ify":3057,"Ġvulner":3058,"Ġfinally":3059,"Ġlifts":3060,"Ġeducated":3061,"Ġskunkwor":3062,"bs":3063,"cl":3064,"face":3065,"ret":3066,"ister":3067,"Ġmelt":3068,"rop":3069,"ift":3070,"Ġworse":3071,"Ġfinding":3072,"ĠKhandani":3073,"Ġindustries":3074,"Ġintegr":3075,"Ġwheelchair":3076,"Ġprofessional":3077,"ograph":3078,"Ġbills":3079,"Ġmut":3080,"omers":3081,"Ġhaz":3082,"ĠThough":3083,"ulations":3084,"ĠNot":3085,"Ġsolved":3086,"Ġpoin":3087,"Ġ30":3088,"Ġrealize":3089,"Ġdiscoveries":3090,"Ġassistance":3091,"Ġconducted":3092,"TI":3093,"power":3094,"Ġinj":3095,"Ġgives":3096,"Ġsoon":3097,"Ġdependent":3098,"Ġcapable":3099,"Ġheavy":3100,"Ġappropriate":3101,"Ġproduces":3102,"Ġexer":3103,"Ġlose":3104,"Ġcostly":3105,"Ġdecid":3106,"Ġenvironmentally":3107,"Ġ1999":3108,"Ġestabl":3109,"Ġfrequ":3110,"ĠInstead":3111,"enicillin":3112,"cies":3113,"ex":3114,"of":3115,"ĠThrough":3116,"Ġplutonium":3117,"Ġleak":3118,"Ġencouraged":3119,"Ġincludes":3120,"Ġchem":3121,"Ġcommunicate":3122,"Ġminimize":3123,"Ġfunction":3124,"Ġreliable":3125,"Ġassociated":3126,"CR":3127,"WCR":3128,"cause":3129,"rance":3130,"Ġtas":3131,"Ġwise":3132,"Ġmolten":3133,"Ġaside":3134,"Ġago":3135,"ĠSWCR":3136,"ĠCI":3137,"ĠCurrent":3138,"Ġvis":3139,"Ġvital":3140,"Ġindirect":3141,"ĠEx":3142,"formation":3143,"Ġparts":3144,"Ġinsufficient":3145,"Ġreprocess":3146,"ĠThirdly":3147,"arant":3148,"imate":3149,"Ġresol":3150,"Ġresist":3151,"Ġneedy":3152,"Ġvol":3153,"Ġindic":3154,"Ġengineer":3155,"ĠEduc":3156,"Ġleading":3157,"Ġidentification":3158,"Ġimmigr":3159,"Ġchallenge":3160,"Ġwrong":3161,"Ġmultiple":3162,"Ġextremely":3163,"IF":3164,"Ġ\\":3165,"Ġign":3166,"arch":3167,"Ġrep":3168,"oty":3169,"Ġenable":3170,"ĠSur":3171,"ĠPr":3172,"Ġphysically":3173,"Ġvulnerable":3174,"ON":3175,"par":3176,"itude":3177,"Ġthing":3178,"ulate":3179,"Ġparties":3180,"Ġearn":3181,"Ġcreative":3182,"Ġyouth":3183,"Ġreported":3184,"Ġprepared":3185,"ground":3186,"ĠBecause":3187,"DB":3188,"aff":3189,"inal":3190,"Ġsens":3191,"Ġfig":3192,"lex":3193,"acter":3194,"ured":3195,"undred":3196,"Ġabs":3197,"Ġ100":3198,"Ġresulting":3199,"artment":3200,"Ġoutput":3201,"Ġraise":3202,"Ġobser":3203,"Ġentire":3204,"Ġoccurred":3205,"hood":3206,"Ġdifference":3207,"Ġdifferences":3208,"Ġcust":3209,"outh":3210,"Ġeng":3211,"Ġenabl":3212,"Ġcoming":3213,"ode":3214,"Ġbecame":3215,"aged":3216,"Ġsubject":3217,"Ġcheck":3218,"Ġachieved":3219,"Ġvalue":3220,"Ġunderstanding":3221,"Ġpromote":3222,"Ġfulfill":3223,"ĠPeterson":3224,"Ġelectrical":3225,"TION":3226,"where":3227,"Ġsw":3228,"Ġpace":3229,"Ġcontrast":3230,"Ġsociet":3231,"Ġappear":3232,"Ġeconomics":3233,"Ġconclude":3234,"Ġimplementing":3235,"Ġsimpl":3236,"Ġsuffering":3237,"Ġawareness":3238,"Ġtrem":3239,"Ġanalysis":3240,"Ġfeasible":3241,"hing":3242,"ipped":3243,"rate":3244,"rup":3245,"atch":3246,"itect":3247,"chitect":3248,"Ġfees":3249,"Ġcrime":3250,"Ġpsycholog":3251,"akes":3252,"Ġthought":3253,"Ġsmaller":3254,"Ġterrorism":3255,"Ġlabour":3256,"Ġmindset":3257,"Ġdetermine":3258,"Ġfunctions":3259,"Ġsubstant":3260,"Ġcomfortable":3261,"ĠBoard":3262,"Ġfour":3263,"Ġhundred":3264,"etimes":3265,"Ġleg":3266,"ĠElder":3267,"Ġlimitations":3268,"Ġrobotic":3269,"related":3270,"Ġtremend":3271,"kind":3272,"powered":3273,"Ġwa":3274,"Ġever":3275,"Ġdisast":3276,"Ġmaxim":3277,"ĠGFR":3278,"rence":3279,"Ġuns":3280,"Ġunemploy":3281,"Ġpreventing":3282,"Ġobvious":3283,"ique":3284,"Ġcollap":3285,"TATION":3286,"Ġmeltdown":3287,"ĠCITATION":3288,"ĠEducation":3289,"ooled":3290,"Ġtrend":3291,"ins":3292,"inent":3293,"Ġtour":3294,"Ġreven":3295,"Ġthinking":3296,"iles":3297,"Ġonline":3298,"Ġstren":3299,"ĠHDB":3300,"acc":3301,"ĠWar":3302,"pective":3303,"Ġinvestig":3304,"Ġpossib":3305,"Ġcarriers":3306,"Ġtemperatures":3307,"Ġshowed":3308,"Ġdivert":3309,"Ġinterp":3310,"Ġscientific":3311,"Ġvalu":3312,"ĠIndones":3313,"Ġpredic":3314,"Ġexerc":3315,"Ġindirectly":3316,"Ġult":3317,"Ġsus":3318,"mental":3319,"Ġexce":3320,"ĠEvery":3321,"Ġsomeone":3322,"Ġtruth":3323,"Ġphase":3324,"Ġinvested":3325,"Ġcorrect":3326,"Ġneglected":3327,"Ġlearn":3328,"ĠAmerica":3329,"Ġlaun":3330,"Ġorganizations":3331,"33":3332,"oc":3333,"uted":3334,"iferation":3335,"Ġdispos":3336,"Ġaband":3337,"ĠOpp":3338,"Ġdecl":3339,"Ġchances":3340,"Ġwhereby":3341,"Ġburning":3342,"Ġallowing":3343,"Ġoffer":3344,"Ġ2050":3345,"Ġtreatments":3346,"Ġenter":3347,"Ġrecently":3348,"Ġrecord":3349,"Ġsustainable":3350,"Ġcomplex":3351,"Ġdiscuss":3352,"Ġprocedures":3353,"val":3354,"ĠSche":3355,"Ġstability":3356,"ĠThat":3357,"Ġmankind":3358,"Ġkid":3359,"Ġtrying":3360,"Ġiniti":3361,"Ġdisclose":3362,"Ġtags":3363,"Ġplaces":3364,"Ġmonitoring":3365,"Ġcells":3366,"Ġbalance":3367,"Ġestimated":3368,"know":3369,"Ġsound":3370,"Ġnature":3371,"ĠTw":3372,"ĠInformation":3373,"ĠFace":3374,"Ġade":3375,"Ġvide":3376,"ĠEar":3377,"ĠDuring":3378,"Ġcritical":3379,"Ġobst":3380,"Ġbuildings":3381,"Ġcontrovers":3382,"Ġsuccessfully":3383,"Ġinfluence":3384,"Ġdoctors":3385,"Ġfloor":3386,"fect":3387,"wh":3388,"abilities":3389,"ructures":3390,"ression":3391,"Ġallowed":3392,"Ġdisorders":3393,"Ġinvolves":3394,"Ġstrongly":3395,"Ġargument":3396,"Ġtotally":3397,"Ġguarant":3398,"Ġstatistics":3399,"Ġapplying":3400,"Ġimmediate":3401,"Ġsubstantial":3402,"Ġstreng":3403,"Ġabandon":3404,"sp":3405,"ivil":3406,"Ġprefer":3407,"Ġcontext":3408,"Ġupon":3409,"Ġreturn":3410,"Ġpurch":3411,"Ġscale":3412,"Ġplaced":3413,"Ġclearly":3414,"Ġmachine":3415,"ĠEngineers":3416,"Ġoptim":3417,"Ġrecycling":3418,"ps":3419,"ories":3420,"oph":3421,"ĠSci":3422,"ival":3423,"Ġsaved":3424,"ĠNo":3425,"ĠNor":3426,"Ġaccum":3427,"abor":3428,"Ġincreasingly":3429,"Ġrunning":3430,"Ġstandards":3431,"Ġpromising":3432,"Ġinvolve":3433,"Ġaids":3434,"Ġfollowing":3435,"Ġcollect":3436,"Ġtackle":3437,"Ġskunkworks":3438,"mer":3439,"olo":3440,"Ġbon":3441,"edom":3442,"ĠTemperature":3443,"ĠThen":3444,"overty":3445,"Ġorig":3446,"ĠFast":3447,"Ġcounter":3448,"Ġleave":3449,"Ġsocially":3450,"ĠKore":3451,"Ġprototy":3452,"Ġsituations":3453,"Ġconsequence":3454,"Ġlaws":3455,"Ġrelevant":3456,"Ġfreedom":3457,"Ġdeaths":3458,"Ġinternet":3459,"Ġproliferation":3460,"Ġcarefully":3461,"Ġinevitable":3462,"Ġstorage":3463,"ties":3464,"ug":3465,"ware":3466,"Ġapart":3467,"erous":3468,"Ġpoverty":3469,"Ġfission":3470,"Ġdom":3471,"Ġlink":3472,"ote":3473,"irable":3474,"Ġincor":3475,"Ġdecline":3476,"Ġaction":3477,"Ġelectronic":3478,"Ġregulations":3479,"Ġclass":3480,"Ġcontrary":3481,"Ġcop":3482,"Ġwal":3483,"Ġbrain":3484,"Ġtook":3485,"ĠSp":3486,"Ġcomplic":3487,"ĠGIF":3488,"Ġunlike":3489,"Ġgoes":3490,"Ġcontributions":3491,"ĠUniversity":3492,"Ġbelieved":3493,"Ġpurpos":3494,"Ġmeasure":3495,"Ġtaxes":3496,"ĠAmong":3497,"ĠMinister":3498,"Ġstatus":3499,"Ġmanufacture":3500,"Ġdamage":3501,"ĠMalaysia":3502,"Ġchemical":3503,"ĠScheme":3504,"ĠFacebook":3505,"ht":3506,"iors":3507,"sis":3508,"Ġphen":3509,"ane":3510,"arily":3511,"Ġdeli":3512,"ĠSim":3513,"Ġstore":3514,"ife":3515,"ĠAg":3516,"Ġ21":3517,"ĠHum":3518,"Ġraising":3519,"Ġtraffic":3520,"Ġknowing":3521,"Ġserve":3522,"Ġfacilit":3523,"Ġefficiently":3524,"Ġaccessible":3525,"ĠIndia":3526,"iscal":3527,"issions":3528,"Ġquickly":3529,"Ġcriminals":3530,"Ġreprocessing":3531,"Ġrevenue":3532,"Ġpurposes":3533,"Cooled":3534,"ration":3535,"sess":3536,"Ġfa":3537,"Ġbear":3538,"chan":3539,"illions":3540,"Ġsepar":3541,"Ġeconomically":3542,"ĠGer":3543,"Ġarchitect":3544,"Ġemb":3545,"obility":3546,"Ġcitizen":3547,"Ġreasonable":3548,"Ġconfidential":3549,"Ġpractice":3550,"Ġallocated":3551,"ĠEngineering":3552,"Ġstrategies":3553,"Ġgradually":3554,"Ġproposed":3555,"Ġphenomen":3556,"20":3557,"free":3558,"lain":3559,"ĠII":3560,"Ġsun":3561,"Ġalle":3562,"ively":3563,"Ġvacc":3564,"Ġsurround":3565,"Ġinvestments":3566,"Ġdefense":3567,"Ġencount":3568,"Ġesc":3569,"ortunately":3570,"Ġflats":3571,"Ġmanufacturing":3572,"ĠSurve":3573,"min":3574,"wide":3575,"Ġir":3576,"enn":3577,"Ġpus":3578,"Ġborn":3579,"Ġnut":3580,"oms":3581,"Ġshr":3582,"Ġresident":3583,"pert":3584,"Ġplans":3585,"ĠRob":3586,"Ġhealthier":3587,"Ġarr":3588,"ĠForum":3589,"Ġparty":3590,"pected":3591,"Ġleaders":3592,"Ġrequirements":3593,"Ġexperts":3594,"Ġerror":3595,"Ġgraph":3596,"Ġavoided":3597,"Ġmachines":3598,"Ġinherited":3599,"ĠEarth":3600,"mit":3601,"ened":3602,"Ġside":3603,"Ġfight":3604,"Ġeco":3605,"Ġhalf":3606,"Ġname":3607,"iring":3608,"Ġrat":3609,"ĠCrit":3610,"Ġadverse":3611,"Ġ11":3612,"ĠGP":3613,"Ġaccur":3614,"ĠDep":3615,"Ġpossess":3616,"Ġcited":3617,"Ġsetting":3618,"Ġfailed":3619,"abled":3620,"Ġorganization":3621,"Ġimmediately":3622,"ĠSuper":3623,"Ġperspective":3624,"Ġcomparison":3625,"ĠIndonesia":3626,"ye":3627,"erve":3628,"atic":3629,"Ġbom":3630,"edia":3631,"ancing":3632,"aries":3633,"ĠSh":3634,"Ġhearing":3635,"through":3636,"aches":3637,"ĠOver":3638,"ĠEm":3639,"Ġemissions":3640,"ĠLo":3641,"Ġsurvey":3642,"Ġsimple":3643,"ĠSocial":3644,"Ġvalues":3645,"Ġcritics":3646,"Ġsometimes":3647,"Ġcameras":3648,"Ġtelephone":3649,"ĠOpponents":3650,"ĠCritics":3651,"mosp":3652,"yond":3653,"Ġsick":3654,"Ġcard":3655,"Ġfair":3656,"Ġfiscal":3657,"omic":3658,"Ġlat":3659,"Ġforms":3660,"Ġdev":3661,"Ġneigh":3662,"Ġchronic":3663,"Ġatmosp":3664,"Ġunne":3665,"ĠAssoci":3666,"ersonal":3667,"Ġpersons":3668,"Ġtransfer":3669,"Ġ201":3670,"Ġoccup":3671,"Ġconsumer":3672,"Ġdeterior":3673,"Ġmakers":3674,"Ġrecover":3675,"Ġcommonly":3676,"Ġblood":3677,"Ġmistakes":3678,"Ġanti":3679,"ĠCurrently":3680,"Ġneighb":3681,"Ġunnecess":3682,"Ġcivil":3683,"Ġpiety":3684,"atal":3685,"Ġwon":3686,"ethe":3687,"irm":3688,"une":3689,"ĠAsia":3690,"Ġdesigners":3691,"Ġ18":3692,"ĠNon":3693,"Ġaccomm":3694,"Ġfaces":3695,"Ġlargely":3696,"Ġrevealed":3697,"Ġremo":3698,"Ġ40":3699,"ĠInstitute":3700,"being":3701,"Ġobstac":3702,"ĠGPS":3703,"Ġaccommod":3704,"body":3705,"lies":3706,"ening":3707,"ĠSystem":3708,"Ġstrain":3709,"ĠAge":3710,"ĠMan":3711,"ĠMain":3712,"elled":3713,"Ġprim":3714,"Ġbasis":3715,"Ġresponse":3716,"Ġequipped":3717,"Ġdefined":3718,"Ġcompetition":3719,"Ġmaintaining":3720,"Ġclaimed":3721,"Ġsatisfy":3722,"Ġvirt":3723,"Ġdegree":3724,"Ġhazard":3725,"Ġvaluable":3726,"ĠDepartment":3727,"Ġunnecessary":3728,"Ġfit":3729,"Ġfav":3730,"used":3731,"imer":3732,"olic":3733,"Ġshut":3734,"acity":3735,"sian":3736,"Ġperfect":3737,"Ġsurge":3738,"Ġactions":3739,"Ġretired":3740,"Ġfocusing":3741,"tee":3742,"Ġenhanced":3743,"Ġweapon":3744,"Ġcutting":3745,"Ġcriter":3746,"Ġdetection":3747,"Ġlearning":3748,"Ġemphasis":3749,"Ġbarrier":3750,"Ġimpossible":3751,"Ġadequate":3752,"Ġgraphite":3753,"mak":3754,"vision":3755,"ream":3756,"Ġcour":3757,"Ġfaster":3758,"Ġinade":3759,"lements":3760,"ented":3761,"Ġreduction":3762,"Ġbeyond":3763,"Ġforward":3764,"ĠApart":3765,"ĠCons":3766,"Ġcompare":3767,"Ġcomprom":3768,"ĠParents":3769,"Ġarise":3770,"Ġemer":3771,"Ġunex":3772,"Ġimportantly":3773,"Ġprevention":3774,"Ġdefect":3775,"Ġcontributing":3776,"Ġnumbers":3777,"Ġnumerous":3778,"Ġcheap":3779,"Ġsalary":3780,"Ġevident":3781,"Ġequipments":3782,"Ġtalk":3783,"Ġtalents":3784,"Ġattacks":3785,"Ġbeginning":3786,"Ġthousands":3787,"Ġphenomenon":3788,"Ġvaccine":3789,"etheless":3790,"back":3791,"gard":3792,"og":3793,"ses":3794,"Ġ0":3795,"heimer":3796,"Ġbound":3797,"Ġmobility":3798,"leum":3799,"ĠSum":3800,"Ġstaff":3801,"Ġhere":3802,"Ġ15":3803,"ĠOr":3804,"Ġeased":3805,"ĠSept":3806,"Ġdiverting":3807,"Ġcorpor":3808,"Ġparticularly":3809,"Ġstrategy":3810,"Ġmonthly":3811,"Ġtools":3812,"Ġpetroleum":3813,"ographic":3814,"Ġinterpersonal":3815,"cu":3816,"Ġpenicillin":3817,"Ġretain":3818,"Ġprove":3819,"imately":3820,"ulated":3821,"eless":3822,"Ġunc":3823,"Ġattitude":3824,"gram":3825,"Ġextra":3826,"Ġdepends":3827,"Ġexperienced":3828,"Ġevidence":3829,"Ġprogrammes":3830,"Ġtreated":3831,"Ġimmigrants":3832,"ĠElderly":3833,"Ġcollapse":3834,"Ġunexpected":3835,"RT":3836,"zheimer":3837,"Ġdile":3838,"ici":3839,"omet":3840,"ĠFried":3841,"Ġexpand":3842,"ĠAlzheimer":3843,"Ġexperiment":3844,"Ġpurs":3845,"Ġconventionally":3846,"hold":3847,"Ġflaw":3848,"Ġdistrib":3849,"Ġ1033":3850,"Ġpredict":3851,"Ġcompletely":3852,"Ġdisposal":3853,"Ġsym":3854,"Ġgam":3855,"ĠTr":3856,"Ġlatter":3857,"els":3858,"ached":3859,"undant":3860,"Ġrelative":3861,"Ġproved":3862,"Ġinstit":3863,"ception":3864,"Ġregular":3865,"Ġexpenditures":3866,"Ġreceived":3867,"ĠGovernments":3868,"Ġurg":3869,"Ġmeaning":3870,"Ġprobability":3871,"Ġopposition":3872,"Ġinstalled":3873,"Ġdilem":3874,"time":3875,"Ġcash":3876,"Ġcode":3877,"Ġdrug":3878,"ĠApp":3879,"Ġimplic":3880,"Ġdisabled":3881,"Ġotherwise":3882,"izes":3883,"ildren":3884,"Ġ1000":3885,"Ġjud":3886,"Ġthroughout":3887,"Ġencourages":3888,"Ġproperly":3889,"Ġcooling":3890,"Ġlocation":3891,"Ġbehind":3892,"ĠConsequently":3893,"Ġ1979":3894,"Ġpreca":3895,"Ġviol":3896,"ĠHuman":3897,"Ġlatest":3898,"ĠNonetheless":3899,"des":3900,"ub":3901,"erves":3902,"ittee":3903,"etary":3904,"cious":3905,"ĠFrance":3906,"Ġchat":3907,"ĠGr":3908,"Ġeffectiveness":3909,"Ġwhereas":3910,"Ġcapacity":3911,"Ġintroduction":3912,"Ġsubsidy":3913,"Ġdecreasing":3914,"Ġrobots":3915,"ĠCommittee":3916,"Ġnursing":3917,"Ġbroad":3918,"ĠFinally":3919,"Ġfigure":3920,"Ġpredicted":3921,"Ġallevi":3922,"ĠAssociation":3923,"rid":3924,"temperature":3925,"encies":3926,"Ġwomen":3927,"Ġages":3928,"Ġexcess":3929,"ĠHospital":3930,"ĠWater":3931,"ĠPsycholo":3932,"Ġemit":3933,"Ġunp":3934,"ipedia":3935,"Ġensures":3936,"Ġhappens":3937,"Ġreflect":3938,"ĠProgram":3939,"Ġconfidence":3940,"Ġopportunity":3941,"Ġautomobile":3942,"ikipedia":3943,"Ġenterpr":3944,"known":3945,"Ġvideo":3946,"Ġoriginal":3947,"Ġincorpor":3948,"ĠSimilar":3949,"Ġresidents":3950,"ĠSupercritical":3951,"ĠMaintenance":3952,"ĠSeptember":3953,"fra":3954,"po":3955,"rs":3956,"sive":3957,"Ġten":3958,"Ġpum":3959,"Ġflu":3960,"Ġflex":3961,"Ġinert":3962,"Ġmus":3963,"Ġgot":3964,"Ġforget":3965,"Ġdel":3966,"Ġitem":3967,"Ġnothing":3968,"ĠHousing":3969,"Ġsearch":3970,"Ġworker":3971,"Ġloved":3972,"ĠWil":3973,"Ġadvances":3974,"Ġworldwide":3975,"Ġpartial":3976,"Ġcooled":3977,"ĠChan":3978,"Ġsecret":3979,"ĠGeneral":3980,"Ġkept":3981,"ĠUnder":3982,"Ġminor":3983,"Ġassum":3984,"Ġexperiences":3985,"Ġarguments":3986,"Ġaccounts":3987,"Ġadopted":3988,"Ġdoctor":3989,"Ġdecided":3990,"while":3991,"ĠSummer":3992,"CT":3993,"ming":3994,"ood":3995,"pa":3996,"side":3997,"yn":3998,"Ġpict":3999,"ceed":4000,"utes":4001,"uck":4002,"ĠSk":4003,"ĠAr":4004,"Ġsharing":4005,"emic":4006,"Ġ17":4007,"Ġgenerally":4008,"Ġcaring":4009,"Ġtrou":4010,"ĠStat":4011,"Ġalternatives":4012,"Ġdealing":4013,"Ġhimself":4014,"Ġapplications":4015,"Ġcharacter":4016,"Ġprosper":4017,"Ġmotiv":4018,"Ġbreakthrough":4019,"Ġchips":4020,"Ġcontroversial":4021,"Ġstrength":4022,"she":4023,"vis":4024,"Ġsoph":4025,"org":4026,"Ġmess":4027,"Ġge":4028,"Ġlay":4029,"Ġline":4030,"orts":4031,"Ġsole":4032,"estic":4033,"ension":4034,"Ġfeed":4035,"Ġemployer":4036,"Ġconstrain":4037,"Ġclimate":4038,"Ġcapability":4039,"Ġ1998":4040,"Ġscreen":4041,"Ġaccessibility":4042,"Ġplayed":4043,"Ġ80":4044,"Ġdisclosure":4045,"Ġheavily":4046,"Ġcontinuous":4047,"ĠCommun":4048,"ĠCompared":4049,"Ġimplanted":4050,"Ġpoints":4051,"Ġfacilitate":4052,"Ġatmosphere":4053,"Ġobstacles":4054,"car":4055,"hest":4056,"Ġcate":4057,"Ġbio":4058,"ĠId":4059,"ĠAsian":4060,"Ġshift":4061,"aps":4062,"ĠInde":4063,"Ġvast":4064,"Ġoutcome":4065,"Ġanyone":4066,"Ġroot":4067,"Ġskilled":4068,"Ġseriously":4069,"Ġconsiderations":4070,"Ġpresence":4071,"ishing":4072,"Ġpassed":4073,"Ġpassive":4074,"Ġevents":4075,"Ġbackground":4076,"Ġsales":4077,"Ġsustainability":4078,"Ġpensions":4079,"ĠInternet":4080,"Ġroads":4081,"Ġunemployment":4082,"htm":4083,"Ġratio":4084,"Ġprimary":4085,"Ġcourse":4086,"Ġdilemma":4087,"many":4088,"sory":4089,"Ġver":4090,"Ġbase":4091,"Ġreject":4092,"ulsory":4093,"Ġstim":4094,"empt":4095,"ĠBu":4096,"Ġintr":4097,"Ġpopulations":4098,"Ġacross":4099,"Ġideal":4100,"Ġexperiments":4101,"Ġdifficulty":4102,"Ġdetermined":4103,"Ġinterests":4104,"Ġaccepted":4105,"Ġinfluenced":4106,"ĠActually":4107,"ĠAmerican":4108,"Ġinteraction":4109,"Ġcustomers":4110,"Ġdisasters":4111,"ĠFriedland":4112,"iable":4113,"Ġ!":4114,"ĠÃ":4115,"Ġhours":4116,"load":4117,"illing":4118,"Ġens":4119,"ĠTheir":4120,"Ġhead":4121,"Ġwithstand":4122,"Ġlots":4123,"vention":4124,"Ġresearching":4125,"Ġseries":4126,"Ġrequesting":4127,"Ġamounts":4128,"Ġacqu":4129,"Ġhighest":4130,"Ġconsidering":4131,"Ġreality":4132,"Ġguid":4133,"Ġrelease":4134,"Ġincidents":4135,"Ġdiscussed":4136,"Ġsteam":4137,"Ġcouples":4138,"Ġdestruct":4139,"Ġmicrow":4140,"Ġgathering":4141,"Ġenables":4142,"Ġtourism":4143,"ĠKorea":4144,"ĠGermany":4145,"minist":4146,"NA":4147,"aur":4148,"just":4149,"Ġi":4150,"Ġafra":4151,"Ġrepl":4152,"Ġcompulsory":4153,"Ġsupports":4154,"redit":4155,"Ġchanged":4156,"Ġpaying":4157,"Ġremind":4158,"Ġoccurring":4159,"Ġscar":4160,"Ġbigger":4161,"Ġadopt":4162,"Ġprofessionals":4163,"Ġtask":4164,"ĠSurveillance":4165,"Ġshrinking":4166,"ĠRobert":4167,"Ġbomb":4168,"ĠEmploy":4169,"ĠSimilarly":4170,"Ġsophistic":4171,"Ġafraid":4172,"cra":4173,"hield":4174,"Ġsend":4175,"atform":4176,"Ġbesides":4177,"alu":4178,"enty":4179,"opulation":4180,"aying":4181,"ĠAust":4182,"raine":4183,"ĠHy":4184,"ffect":4185,"ĠCan":4186,"Ġplatform":4187,"oday":4188,"ĠSingaporean":4189,"rict":4190,"ĠUk":4191,"ĠOnce":4192,"Ġemployee":4193,"Ġhandle":4194,"Ġofficial":4195,"Ġcertainly":4196,"Ġchoices":4197,"Ġ1990":4198,"Ġsimilarities":4199,"Ġcomputers":4200,"Ġaims":4201,"Ġcatast":4202,"Ġweakness":4203,"Ġexposed":4204,"Ġmicro":4205,"Ġestablished":4206,"Ġvolunt":4207,"ĠPrime":4208,"ĠAgency":4209,"Ġinadequate":4210,"Ġmicrowave":4211,"Ġsophisticated":4212,"aid":4213,"reli":4214,"Ġdut":4215,"Ġhot":4216,"Ġhope":4217,"activity":4218,"Ġshop":4219,"Ġwors":4220,"ĠGM":4221,"ĠPower":4222,"Ġexpress":4223,"ĠEconom":4224,"Ġprone":4225,"Ġeducational":4226,"Ġlessen":4227,"Ġpersonnel":4228,"Ġrequirement":4229,"Ġextend":4230,"Ġtempor":4231,"Ġcontinues":4232,"Ġputting":4233,"Ġentertain":4234,"Ġ1996":4235,"Ġminimal":4236,"Ġdistance":4237,"Ġidentified":4238,"Ġcarrying":4239,"Ġinternational":4240,"Ġobjective":4241,"Ġdebate":4242,"Ġdraw":4243,"ught":4244,"Ġincurred":4245,"Ġbehavior":4246,"Ġcriteria":4247,"ux":4248,"yes":4249,"Ġturb":4250,"Ġdict":4251,"ĠToday":4252,"Ġask":4253,"ĠHaving":4254,"ĠGas":4255,"Ġconcent":4256,"Ġlift":4257,"agn":4258,"Ġoperates":4259,"Ġdepression":4260,"Ġdefence":4261,"Ġground":4262,"Ġequally":4263,"Ġintroduce":4264,"product":4265,"Ġclosed":4266,"Ġadded":4267,"Ġaircra":4268,"ĠYet":4269,"Ġcampa":4270,"ĠBeing":4271,"ĠDesign":4272,"Ġpromoting":4273,"Ġcoverage":4274,"Ġmonths":4275,"Ġblock":4276,"Ġcommercialization":4277,"Ġdeny":4278,"Ġinjur":4279,"Ġtremendous":4280,"spring":4281,"Ġcomplicated":4282,"Ġimplications":4283,"ĠUkraine":4284,"Ġcampaign":4285,"cre":4286,"gu":4287,"hone":4288,"mission":4289,"tinent":4290,"Ġsell":4291,"Ġcoun":4292,"Ġpain":4293,"Ġwrit":4294,"Ġmother":4295,"Ġred":4296,"look":4297,"Ġlist":4298,"olution":4299,"ĠSouth":4300,"Ġworried":4301,"Ġrul":4302,"ĠPl":4303,"Ġpowerful":4304,"Ġprin":4305,"Ġactual":4306,"Ġattempt":4307,"Ġextensive":4308,"Ġmember":4309,"Ġinfrastructures":4310,"Ġkeeping":4311,"Ġhardly":4312,"Ġscen":4313,"Ġminimum":4314,"Ġparticip":4315,"Ġprices":4316,"Ġwheels":4317,"Ġreleased":4318,"Ġupgrade":4319,"Ġschools":4320,"Ġmoving":4321,"ĠEuropean":4322,"Ġfault":4323,"Ġnamely":4324,"Ġwonder":4325,"Ġurgent":4326,"ec":4327,"Ġpan":4328,"athe":4329,"Ġbed":4330,"Ġdrain":4331,"Ġdrop":4332,"Ġgre":4333,"Ġdeem":4334,"Ġenerg":4335,"umst":4336,"ĠMO":4337,"Ġmagn":4338,"Ġmanpower":4339,"ĠElect":4340,"Ġconsent":4341,"Ġjo":4342,"Ġphot":4343,"Ġcrimes":4344,"Ġdetail":4345,"Ġbelong":4346,"Ġcontrolled":4347,"Ġviews":4348,"Ġbuses":4349,"ixed":4350,"ĠUSA":4351,"Ġmedication":4352,"Ġreactions":4353,"Ġdouble":4354,"Ġmentally":4355,"Ġconvert":4356,"afety":4357,"Ġpeace":4358,"Ġcircumst":4359,"Ġanalyzing":4360,"Ġrepres":4361,"ĠAgeing":4362,"ĠIndeed":4363,"10":4364,"ah":4365,"comm":4366,"nap":4367,"erate":4368,"ĠTan":4369,"Ġlate":4370,"ĠSpe":4371,"ĠApr":4372,"aced":4373,"ĠMC":4374,"Ġcompr":4375,"ĠBoth":4376,"ĠBrit":4377,"Ġfinance":4378,"Ġexpense":4379,"Ġhighlight":4380,"Ġmeant":4381,"Ġpertinent":4382,"Ġburn":4383,"Ġcreation":4384,"Ġ62":4385,"Ġoffspring":4386,"ĠAccident":4387,"Ġmonetary":4388,"Ġradioactivity":4389,"Ġdetermin":4390,"Ġreliance":4391,"Ġsupercritical":4392,"Ġopposing":4393,"Ġhousehold":4394,"Ġdramat":4395,"Ġviable":4396,"Ġhinder":4397,"Ġultimately":4398,"Ġpurchase":4399,"Ġuncertain":4400,"Ġenterprises":4401,"ĠWilpert":4402,"Ġsolely":4403,"Ġensuring":4404,"Ġentertainment":4405,"The":4406,"ax":4407,"iar":4408,"ĠX":4409,"ĠZ":4410,"Ġbi":4411,"Ġmillions":4412,"Ġdrast":4413,"roy":4414,"Ġhop":4415,"vert":4416,"acr":4417,"Ġprem":4418,"Ġ16":4419,"ĠPost":4420,"Ġexplain":4421,"ieving":4422,"Ġfamous":4423,"Ġmechan":4424,"Ġraw":4425,"Ġmostly":4426,"ĠUp":4427,"Ġgoal":4428,"ĠRecent":4429,"Ġassess":4430,"Ġapproxim":4431,"Ġapproaches":4432,"ĠSoci":4433,"ĠJapanese":4434,"Ġstronger":4435,"Ġstatement":4436,"Ġdiscriminated":4437,"Ġregardless":4438,"Ġnearly":4439,"Ġallocate":4440,"Ġmovement":4441,"Ġmovements":4442,"iques":4443,"uthor":4444,"Ġprecise":4445,"Ġexposure":4446,"Ġsurvive":4447,"Ġculture":4448,"Ġexcell":4449,"Ġguarantee":4450,"Ġaccumulate":4451,"Ġvirtual":4452,"ĠAustral":4453,"fe":4454,"high":4455,"ooth":4456,"Ġ=":4457,"Ġoption":4458,"Ġpose":4459,"Ġpowered":4460,"Ġmid":4461,"Ġhar":4462,"Ġlon":4463,"Ġstations":4464,"Ġneut":4465,"Ġsoft":4466,"Ġimage":4467,"ighter":4468,"Ġadjust":4469,"Ġleaving":4470,"Ġconsult":4471,"Ġrail":4472,"ĠIts":4473,"Ġsurpr":4474,"Ġqual":4475,"Ġcontributes":4476,"Ġdepending":4477,"Ġgoods":4478,"Ġmarketing":4479,"lobal":4480,"Ġfocused":4481,"Ġseniors":4482,"Ġconsiderable":4483,"Ġharder":4484,"Ġoccurs":4485,"Ġproperty":4486,"iscrimin":4487,"Ġprolong":4488,"Ġobtained":4489,"Ġkidnap":4490,"Ġescap":4491,"Ġaccommodate":4492,"ĠTrans":4493,"ĠStatistics":4494,"ĠApril":4495,"lation":4496,"uct":4497,"water":4498,"rees":4499,"ero":4500,"Ġsi":4501,"Ġcal":4502,"Ġcities":4503,"Ġflow":4504,"alt":4505,"Ġded":4506,"Ġeyes":4507,"Ġforces":4508,"Ġconv":4509,"ĠSafety":4510,"ifically":4511,"Ġchain":4512,"Ġadapt":4513,"Ġintended":4514,"Ġ14":4515,"ĠPolic":4516,"Ġlifes":4517,"Ġdiscoura":4518,"ports":4519,"Ġfactories":4520,"Ġacad":4521,"Ġinvestors":4522,"Ġdefic":4523,"Ġextended":4524,"Ġinside":4525,"Ġrefers":4526,"Ġ55":4527,"Ġcreates":4528,"Ġfeeling":4529,"standing":4530,"Ġevalu":4531,"Ġtechniques":4532,"Ġreliability":4533,"ĠNews":4534,"Ġremains":4535,"Ġdenied":4536,"Ġrelationships":4537,"Ġsocieties":4538,"sh":4539,"Ġz":4540,"head":4541,"eng":4542,"Ġsacr":4543,"Ġpaper":4544,"Ġfatal":4545,"Ġdow":4546,"lying":4547,"Ġgl":4548,"Ġdead":4549,"ĠIm":4550,"nturn":4551,"Ġworries":4552,"ĠHaw":4553,"bles":4554,"Ġworked":4555,"ĠBased":4556,"ights":4557,"ĠNext":4558,"Ġarising":4559,"Ġoverse":4560,"Ġbuy":4561,"Ġappre":4562,"grading":4563,"Ġdemographic":4564,"Ġgrant":4565,"Ġintervention":4566,"airs":4567,"Ġwants":4568,"Ġminimized":4569,"Ġdangers":4570,"Ġrecognized":4571,"Ġconnected":4572,"Ġvirus":4573,"Ġsurvival":4574,"Ġresistant":4575,"Ġsympt":4576,"Ġduty":4577,"Ġsoftware":4578,"Ġsacrific":4579,"Ġdownturn":4580,"ĠHawk":4581,"based":4582,"xic":4583,"Ġtap":4584,"Ġtri":4585,"Ġtried":4586,"Ġca":4587,"atically":4588,"itably":4589,"Ġfif":4590,"Ġfra":4591,"Ġinput":4592,"Ġmom":4593,"Ġhire":4594,"Ġisol":4595,"Ġwhom":4596,"ĠSer":4597,"ĠAf":4598,"elsi":4599,"Ġexec":4600,"Ġ25":4601,"Ġrich":4602,"ĠCelsi":4603,"aces":4604,"Ġdesire":4605,"Ġabundant":4606,"ĠGlobal":4607,"ĠPopulation":4608,"Ġkil":4609,"ĠOb":4610,"Ġmedian":4611,"Ġunique":4612,"Ġsurface":4613,"Ġtrust":4614,"Ġimproves":4615,"Ġgold":4616,"Ġactivity":4617,"Ġinformed":4618,"Ġundes":4619,"Ġpath":4620,"Ġemployed":4621,"Ġ33":4622,"Ġregards":4623,"Ġoffered":4624,"ĠReactors":4625,"Ġthreats":4626,"Ġtopic":4627,"Ġrefrigerators":4628,"2009":4629,"Ġ1970":4630,"Ġdepleting":4631,"Ġdiagnosed":4632,"Ġmarried":4633,"Ġeliminate":4634,"Ġpacemak":4635,"Ġprototype":4636,"Ġwalk":4637,"ĠCommunity":4638,"Ġcounsel":4639,"ĠCelsius":4640,"dom":4641,"ech":4642,"haus":4643,"ners":4644,"off":4645,"pers":4646,"sc":4647,"Ġtill":4648,"requ":4649,"Ġsent":4650,"Ġparent":4651,"Ġpark":4652,"Ġwish":4653,"Ġantic":4654,"ĠTimes":4655,"ĠTake":4656,"Ġforced":4657,"Ġword":4658,"ĠHel":4659,"ĠInnov":4660,"Ġdesirable":4661,"Ġworkplace":4662,"Ġabuse":4663,"Ġprocessing":4664,"Ġwhose":4665,"ĠEs":4666,"Ġtrade":4667,"agers":4668,"Ġsurgical":4669,"Ġfunda":4670,"Ġfunded":4671,"Ġoverlook":4672,"Ġ196":4673,"Ġenvironments":4674,"Ġdied":4675,"Ġensured":4676,"Ġoppose":4677,"Ġsafely":4678,"Ġbelief":4679,"Ġidentity":4680,"Ġturned":4681,"Ġformer":4682,"respon":4683,"Ġ70":4684,"Ġimplies":4685,"Ġutilize":4686,"Ġutilized":4687,"Ġbarriers":4688,"Ġblind":4689,"Ġswit":4690,"Ġsocietal":4691,"Ġpossibly":4692,"Ġlaunch":4693,"Ġacademic":4694,"eye":4695,"isation":4696,"Ġtouch":4697,"ederal":4698,"Ġdig":4699,"iling":4700,"mentia":4701,"igence":4702,"Ġdeep":4703,"Ġagent":4704,"olute":4705,"Ġteach":4706,"Ġreserves":4707,"Ġran":4708,"ĠThose":4709,"ĠMolten":4710,"Ġadvert":4711,"Ġconsist":4712,"Ġconsists":4713,"ĠDNA":4714,"ĠLabor":4715,"Ġ194":4716,"Ġ195":4717,"Ġoperated":4718,"Ġattrib":4719,"Ġdiab":4720,"Ġhandic":4721,"Ġequal":4722,"Ġ1997":4723,"Ġpressing":4724,"Ġillust":4725,"Ġcentres":4726,"ishield":4727,"Ġexistence":4728,"ibr":4729,"Ġtalent":4730,"ĠMSRs":4731,"Ġtypical":4732,"Ġcombust":4733,"Ġtelevision":4734,"Ġfalling":4735,"afe":4736,"Ġdestroy":4737,"Ġprocedure":4738,"Ġunfair":4739,"Ġleakage":4740,"Ġpossibilities":4741,"Ġdeclining":4742,"ĠTwo":4743,"Ġabandoned":4744,"ĠÃĤ":4745,"iscrimination":4746,"Ġmoment":4747,"ĠAfric":4748,"US":4749,"bilities":4750,"cles":4751,"Ġcity":4752,"orb":4753,"Ġtough":4754,"Ġmand":4755,"Ġmature":4756,"Ġanx":4757,"aly":4758,"Ġelements":4759,"Ġthor":4760,"Ġgone":4761,"Ġlies":4762,"urning":4763,"Ġexhaus":4764,"adget":4765,"Ġrout":4766,"Ġcomponents":4767,"odies":4768,"Ġ12":4769,"ĠPer":4770,"Ġexpans":4771,"ĠDr":4772,"Ġunden":4773,"berg":4774,"ternal":4775,"Ġbringing":4776,"Ġbudgets":4777,"Ġtelling":4778,"Ġprofits":4779,"Ġflat":4780,"Ġlaptops":4781,"Ġidentifying":4782,"Ġinterested":4783,"Ġsumm":4784,"ĠNewater":4785,"Ġportable":4786,"Ġautomatically":4787,"Ġadoption":4788,"Ġconversion":4789,"Ġcouple":4790,"Ġannual":4791,"Ġanalyze":4792,"Ġrestricted":4793,"Ġtasks":4794,"Ġresolve":4795,"Ġappearance":4796,"Ġsuscept":4797,"Ġconfidentiality":4798,"Ġdrugs":4799,"ffective":4800,"Ġapproximately":4801,"Ġanticip":4802,"do":4803,"ris":4804,"Ġahead":4805,"Ġtheory":4806,"Ġdream":4807,"arin":4808,"Ġnote":4809,"Ġstrict":4810,"rad":4811,"actors":4812,"ĠMay":4813,"ĠMac":4814,"ĠMRT":4815,"Ġload":4816,"Ġdocu":4817,"ients":4818,"Ġart":4819,"Ġunw":4820,"Ġperce":4821,"ĠUr":4822,"Ġposes":4823,"ditionally":4824,"Ġappe":4825,"ĠOnly":4826,"Ġoperations":4827,"ĠChildren":4828,"Ġinventing":4829,"Ġhands":4830,"Ġpool":4831,"ĠUnlike":4832,"Ġclin":4833,"Ġglobally":4834,"Ġsaying":4835,"Ġconstructing":4836,"Ġcorrup":4837,"Ġdisturb":4838,"Ġsuperior":4839,"Ġbabies":4840,"Ġquestions":4841,"Ġcatch":4842,"Ġinevitably":4843,"Ġpetrol":4844,"Ġdegrees":4845,"Ġauthorities":4846,"Ġintegrated":4847,"Ġabsolute":4848,"Ġexercise":4849,"Ġlaunched":4850,"ĠNorth":4851,"Ġsurrounding":4852,"Ġnutshe":4853,"Ġcateg":4854,"Ġrules":4855,"Ġcircumstances":4856,"Ġexcellent":4857,"Ġnutshell":4858,"YS":4859,"dden":4860,"Ġsqu":4861,"Ġwis":4862,"Ġwid":4863,"anwhile":4864,"logical":4865,"Ġgadget":4866,"Ġsudden":4867,"ĠSen":4868,"Ġ24":4869,"Ġyield":4870,"Ġcontract":4871,"ĠPh":4872,"udes":4873,"uded":4874,"ĠOur":4875,"ĠDo":4876,"Ġquant":4877,"Ġeverything":4878,"Ġtransl":4879,"Ġshowing":4880,"Ġassets":4881,"raining":4882,"Ġcompete":4883,"unction":4884,"Ġestates":4885,"Ġpriorities":4886,"Ġnorm":4887,"Ġactively":4888,"Ġshaping":4889,"Ġelse":4890,"Ġopposite":4891,"Ġsuggests":4892,"Ġrespectively":4893,"ĠMeanwhile":4894,"Ġinitially":4895,"Ġmistake":4896,"Ġdiagnosis":4897,"Ġselecting":4898,"Ġannoun":4899,"Ġpsychologists":4900,"Ġlegal":4901,"icians":4902,"Ġalleviate":4903,"Ġenergies":4904,"ĠMCYS":4905,"Ġlifesp":4906,"Ġdiabet":4907,"Ġexpansion":4908,"az":4909,"cast":4910,"oh":4911,"rated":4912,"Ġtank":4913,"inary":4914,"Ġpubl":4915,"itan":4916,"itter":4917,"Ġrecess":4918,"Ġbelow":4919,"ĠIT":4920,"ĠSod":4921,"ellect":4922,"Ġteac":4923,"Ġwebs":4924,"Ġrig":4925,"ĠMiz":4926,"astic":4927,"Ġatomic":4928,"ĠPenn":4929,"Ġpolit":4930,"Ġupd":4931,"Ġarises":4932,"Ġram":4933,"Ġraises":4934,"Ġadvice":4935,"ĠGener":4936,"Ġgraying":4937,"Ġcrew":4938,"Ġsmart":4939,"ĠStud":4940,"Ġasset":4941,"Ġ45":4942,"Ġprotected":4943,"Ġresponsibilities":4944,"Ġexplore":4945,"Ġproperties":4946,"Ġcompetit":4947,"Ġadvancements":4948,"Ġreports":4949,"unting":4950,"Ġacceptable":4951,"Ġallocation":4952,"Ġbusinesses":4953,"Ġdriven":4954,"Ġsatisfied":4955,"ĠSub":4956,"...":4957,"Ġoptions":4958,"Ġmetal":4959,"Ġrestrict":4960,"Ġmodels":4961,"Ġpsychologist":4962,"Ġbonus":4963,"Ġencounter":4964,"Ġ2012":4965,"ĠOrgan":4966,"Ġexcessive":4967,"ĠPsychology":4968,"Ġitems":4969,"html":4970,"Ġshopping":4971,"Ġdeemed":4972,"Ġoverseas":4973,"Ġappreci":4974,"Ġfifty":4975,"Ġpacemaker":4976,"Ġhandicap":4977,"Ġcombustion":4978,"Ġlifespan":4979,"ĠSodium":4980,"ai":4981,"dle":4982,"gment":4983,"van":4984,"Ġoven":4985,"Ġpie":4986,"oring":4987,"Ġbodies":4988,"ication":4989,"Ġnight":4990,"Ġrein":4991,"versy":4992,"ĠTitan":4993,"Ġluck":4994,"imb":4995,"Ġstre":4996,"Ġstrug":4997,"Ġexternal":4998,"amily":4999,"Ġord":5000,"ĠHow":5001,"Ġthereby":5002,"Ġeconomies":5003,"ĠNUS":5004,"Ġoutside":5005,"Ġlimits":5006,"ivided":5007,"Ġeducate":5008,"Ġafflu":5009,"Ġrequest":5010,"Ġeveryday":5011,"Ġinfring":5012,"Ġgets":5013,"Ġsubsequently":5014,"Ġrealized":5015,"Ġcontroversy":5016,"Ġentit":5017,"Ġtrained":5018,"Ġreceiving":5019,"Ġconfirm":5020,"ĠMedishield":5021,"going":5022,"ĠBefore":5023,"Ġcenturies":5024,"Ġsuggested":5025,"Ġpopularity":5026,"Ġclosely":5027,"Ġpara":5028,"Ġmutation":5029,"Ġpointed":5030,"Ġdeciding":5031,"ugust":5032,"Ġprecautions":5033,"ministration":5034,"Ġtemporary":5035,"Ġrepresent":5036,"ĠUpgrading":5037,"ĠSociety":5038,"Ġdiabetes":5039,"ĠMizog":5040,"Ġstrugg":5041,"CE":5042,"gic":5043,"lvan":5044,"Ġing":5045,"rep":5046,"Ġbul":5047,"anks":5048,"Ġfixed":5049,"Ġreached":5050,"sters":5051,"otic":5052,"Ġenorm":5053,"Ġalert":5054,"ĠSM":5055,"Ġstation":5056,"Ġshared":5057,"Ġexists":5058,"estern":5059,"Ġwee":5060,"Ġweight":5061,"ĠCar":5062,"Ġcomparing":5063,"ĠWi":5064,"alls":5065,"Ġunav":5066,"ruly":5067,"uchi":5068,"Ġknows":5069,"Ġadvoc":5070,"Ġanything":5071,"Ġoperational":5072,"sylvan":5073,"Ġgrants":5074,"Ġoffers":5075,"Ġseeking":5076,"Ġcapabilities":5077,"Ġshorter":5078,"Ġincluded":5079,"Ġnecessarily":5080,"Ġvariety":5081,"ĠProduct":5082,"Ġdefining":5083,"Ġformed":5084,"Ġera":5085,"Ġtracked":5086,"Ġcorro":5087,"ĠWork":5088,"Ġserendipity":5089,"Ġcritic":5090,"Ġdrive":5091,"Ġreplacement":5092,"Ġbehavi":5093,"Ġwisely":5094,"Ġresistance":5095,"Ġfourth":5096,"Ġtremendously":5097,"ĠScient":5098,"ĠScience":5099,"ĠNorr":5100,"Ġhazardous":5101,"Ġfavor":5102,"Ġpictures":5103,"Ġbreakthroughs":5104,"requency":5105,"ĠUranium":5106,"ellectual":5107,"ĠPennsylvan":5108,"ĠPennsylvania":5109,"09":5110,"11":5111,"AR":5112,"brid":5113,"iet":5114,"med":5115,"uit":5116,"rehen":5117,"Ġsil":5118,"Ġwatch":5119,"Ġtoile":5120,"Ġli":5121,"Ġlie":5122,"Ġassure":5123,"Ġdementia":5124,"Ġsuit":5125,"Ġstored":5126,"ĠAugust":5127,"Ġexact":5128,"Ġuseless":5129,"Ġdisag":5130,"ĠCount":5131,"osen":5132,"osition":5133,"outs":5134,"Ġvision":5135,"Ġvict":5136,"ĠRad":5137,"ĠEd":5138,"Ġanywhere":5139,"Ġconcerning":5140,"ĠJune":5141,"Ġmemory":5142,"Ġpotentially":5143,"Ġremote":5144,"Ġdefinition":5145,"Ġwanted":5146,"Ġbiggest":5147,"Ġprepar":5148,"ĠYouth":5149,"Ġfunctional":5150,"Ġdrinking":5151,"Ġcombination":5152,"Ġcontinued":5153,"Ġfreely":5154,"Ġrecognition":5155,"Ġmassive":5156,"Ġnurses":5157,"Ġvisit":5158,"Ġignored":5159,"Ġobserved":5160,"Ġwaiting":5161,"Ġmaximize":5162,"Ġdelivery":5163,"Ġsurgeons":5164,"Ġpursue":5165,"Ġaircraft":5166,"Ġinjuries":5167,"ĠRecently":5168,"Ġescape":5169,"Ġfundamental":5170,"Ġmandatory":5171,"ĠTitanic":5172,"ĠMizoguchi":5173,"Ġenormous":5174,"Ġvictim":5175,"BM":5176,"IV":5177,"au":5178,"aho":5179,"year":5180,"Ġtiss":5181,"leg":5182,"Ġdur":5183,"Ġdie":5184,"Ġlens":5185,"ideop":5186,"idences":5187,"ifying":5188,"ĠAccess":5189,"Ġ28":5190,"appro":5191,"Ġru":5192,"ĠCo":5193,"acking":5194,"ĠMoney":5195,"Ġdesc":5196,"ĠRep":5197,"Ġgenerators":5198,"ĠOf":5199,"Ġbutton":5200,"Ġwhenever":5201,"Ġprovision":5202,"Ġperception":5203,"ricult":5204,"Ġrace":5205,"ruit":5206,"Ġinvas":5207,"Ġacts":5208,"Ġinstant":5209,"Ġeverywhere":5210,"Ġinfect":5211,"ĠJan":5212,"ĠJust":5213,"Ġcitation":5214,"Ġextract":5215,"Ġplanned":5216,"Ġprotecting":5217,"Ġintroducing":5218,"Ġpassen":5219,"Ġdirection":5220,"Ġevol":5221,"Ġenhancing":5222,"Ġslower":5223,"Ġfollowed":5224,"Ġcleaner":5225,"ĠAdditionally":5226,"Ġspecifically":5227,"Ġcharge":5228,"Ġdoubts":5229,"Ġfrequency":5230,"ology":5231,"Ġmanufacturers":5232,"Ġneighbour":5233,"ĠManpower":5234,"Ġdistribution":5235,"ĠSkunk":5236,"Ġconstraints":5237,"reliance":5238,"Ġgolden":5239,"Ġundesirable":5240,"ĠAfrica":5241,"Ġnormally":5242,"ĠNorrgard":5243,"Ġdisagree":5244,"Water":5245,"haps":5246,"uly":5247,"hel":5248,"herent":5249,"Ġsays":5250,"Ġsite":5251,"Ġpaid":5252,"Ġinject":5253,"ald":5254,"rol":5255,"Ġreb":5256,"Ġreform":5257,"char":5258,"ĠAb":5259,"Ġspl":5260,"ĠCl":5261,"ĠCor":5262,"Ġcomprehen":5263,"ouses":5264,"ĠPark":5265,"Ġsolid":5266,"Ġuniversity":5267,"Ġtraged":5268,"ĠLimit":5269,"ĠLead":5270,"Ġtrig":5271,"Ġfinances":5272,"Ġcoop":5273,"Ġpreventive":5274,"Ġroles":5275,"Ġacute":5276,"Ġemployability":5277,"ĠJuly":5278,"Ġdemon":5279,"ponents":5280,"Ġcommunities":5281,"Ġmonit":5282,"Ġconsuming":5283,"Ġchoos":5284,"Ġoccurrence":5285,"Ġinvolving":5286,"Ġachieving":5287,"Ġviewed":5288,"ront":5289,"ĠMedi":5290,"Ġtendency":5291,"Ġshel":5292,"Ġacceptance":5293,"Ġlighten":5294,"Ġshape":5295,"Ġcombined":5296,"Ġbatteries":5297,"Ġrecycle":5298,"Ġtargets":5299,"Ġfrequently":5300,"Ġinvestigation":5301,"Ġapartments":5302,"Ġaccurate":5303,"Ġrecovery":5304,"Ġdefects":5305,"Ġflaws":5306,"Ġmotivation":5307,"Ġdestruction":5308,"uxur":5309,"Ġprinci":5310,"ĠElectric":5311,"Ġdramatically":5312,"ĠAustralia":5313,"08":5314,"70":5315,"NG":5316,"ken":5317,"rous":5318,"Ġtruly":5319,"rete":5320,"Ġsl":5321,"Ġce":5322,"ingly":5323,"ingdom":5324,"Ġbra":5325,"Ġdate":5326,"celer":5327,"Ġliqu":5328,"ĠIss":5329,"Ġsuc":5330,"ĠSm":5331,"ĠSw":5332,"Ġstri":5333,"Ġhear":5334,"ifund":5335,"Ġ26":5336,"ĠHunting":5337,"Ġdevelops":5338,"Ġspouse":5339,"Ġweb":5340,"ĠCCT":5341,"ĠCNG":5342,"rief":5343,"Ġsea":5344,"ĠPat":5345,"ĠNic":5346,"Ġconcrete":5347,"ĠLe":5348,"eful":5349,"Ġsurf":5350,"Ġedge":5351,"Ġserves":5352,"Ġgrown":5353,"Ġprevents":5354,"Ġ31":5355,"Ġ35":5356,"Ġdependence":5357,"ĠReg":5358,"Ġsafegu":5359,"Ġmeeting":5360,"Ġ400":5361,"Ġprojected":5362,"Ġpassing":5363,"Ġexploit":5364,"Ġexploded":5365,"Ġguide":5366,"hips":5367,"Ġpollut":5368,"Ġupgraded":5369,"Ġallocating":5370,"Ġdisadvantage":5371,"ĠSupp":5372,"Ġwillingness":5373,"Ġmisuse":5374,"Ġnewsp":5375,"Ġeliminated":5376,"atters":5377,"Ġinjured":5378,"ĠTwitter":5379,"Ġdomin":5380,"Ġarchitecture":5381,"Ġcorporations":5382,"Ġchatting":5383,"Ġflexible":5384,"ĠChannel":5385,"Ġcharacteristics":5386,"ĠIdaho":5387,"Ġparks":5388,"ĠLaboratory":5389,"Ġunavoid":5390,"Ġliquid":5391,"ĠCCTV":5392,"Th":5393,"cil":5394,"dra":5395,"ractive":5396,"then":5397,"inct":5398,"erved":5399,"Ġcredit":5400,"Ġwent":5401,"Ġdivided":5402,"Ġluxur":5403,"storm":5404,"ĠSports":5405,"ung":5406,"Ġworst":5407,"ĠMot":5408,"ĠMich":5409,"ands":5410,"Ġattain":5411,"ought":5412,"ĠWell":5413,"Ġhelpful":5414,"Ġintention":5415,"forced":5416,"Ġfamine":5417,"Ġpermission":5418,"ĠLaur":5419,"Ġdecade":5420,"Ġdiffer":5421,"Ġgrows":5422,"Ġearned":5423,"ĠUnion":5424,"ĠKingdom":5425,"ĠAccount":5426,"ĠStra":5427,"Ġnecessity":5428,"Ġstarts":5429,"Ġobliged":5430,"Ġlooked":5431,"iction":5432,"viously":5433,"Ġbank":5434,"Ġcalls":5435,"Ġreadily":5436,"Ġaddressed":5437,"Ġdebates":5438,"Ġrecycled":5439,"Ġlegis":5440,"Ġpreferred":5441,"Ġgames":5442,"Ġturbine":5443,"Ġselling":5444,"Ġpremium":5445,"Ġconvin":5446,"Ġrecession":5447,"ĠLaura":5448,"CA":5449,"CD":5450,"ael":5451,"fortunately":5452,"how":5453,"iver":5454,"pes":5455,"sions":5456,"vation":5457,"Ġtheories":5458,"encing":5459,"Ġcas":5460,"Ġpip":5461,"Ġpack":5462,"Ġwom":5463,"Ġtold":5464,"Ġfelt":5465,"Ġrepe":5466,"ĠTra":5467,"Ġalarm":5468,"Ġagencies":5469,"Ġagricult":5470,"Ġstick":5471,"raph":5472,"Ġshar":5473,"Ġshall":5474,"Ġexcl":5475,"Ġsold":5476,"Ġresidential":5477,"ĠCal":5478,"acing":5479,"rie":5480,"Ġmanner":5481,"Ġcontent":5482,"Ġintellectual":5483,"ĠPenicillin":5484,"ĠNations":5485,"ieves":5486,"ĠElders":5487,"Ġunknown":5488,"Ġeducating":5489,"Ġgoals":5490,"Ġroom":5491,"Ġinventors":5492,"Ġhandling":5493,"Ġgrand":5494,"Ġearning":5495,"ĠUnfortunately":5496,"Ġhappy":5497,"Ġ2020":5498,"Ġmining":5499,"Ġmonop":5500,"Ġsubsidized":5501,"Ġbook":5502,"Ġsimilarity":5503,"Ġfolks":5504,"Ġ75":5505,"Ġinteresting":5506,"ĠCentre":5507,"ĠAtomic":5508,"Ġcontinuously":5509,"Ġworrying":5510,"ney":5511,"Ġopinions":5512,"Ġutilization":5513,"Ġdepletion":5514,"Ġcriminal":5515,"Ġcommitted":5516,"Ġindicates":5517,"ĠPriv":5518,"Ġcustom":5519,"Ġhundreds":5520,"Ġdisastrous":5521,"Ġunsafe":5522,"ĠApple":5523,"ĠProgramme":5524,"Ġdelay":5525,"Ġlayer":5526,"ĠBuild":5527,"Ġcatastrop":5528,"Ġphotos":5529,"Ġsymptoms":5530,"Ġanxiety":5531,"ĠSenior":5532,"Ġramps":5533,"ĠRadio":5534,"ideophone":5535,"Ġsplit":5536,"Ġdemonst":5537,"Ġsucceed":5538,"ĠHuntington":5539,"Ġunavoidable":5540,"AS":5541,"drom":5542,"rons":5543,"wikipedia":5544,"Ġtable":5545,"rew":5546,"Ġcur":5547,"Ġcra":5548,"Ġcurb":5549,"Ġwit":5550,"educ":5551,"Ġmigr":5552,"ley":5553,"iced":5554,"Ġbegan":5555,"etically":5556,"ĠIphone":5557,"Ġnotice":5558,"Ġsho":5559,"Ġshif":5560,"ĠIncre":5561,"learly":5562,"Ġincon":5563,"Ġincap":5564,"ĠClearly":5565,"cont":5566,"Ġlosing":5567,"ĠGiven":5568,"Ġreluct":5569,"Ġunst":5570,"Ġrain":5571,"ager":5572,"Ġexamination":5573,"Ġappli":5574,"Ġinforming":5575,"Ġfinancing":5576,"Ġattend":5577,"Ġlargest":5578,"pled":5579,"Ġstudent":5580,"Ġowners":5581,"ĠState":5582,"Ġruns":5583,"Ġrefuse":5584,"Ġapproved":5585,"Ġthoughts":5586,"Ġstands":5587,"Ġstarting":5588,"Ġforemost":5589,"Ġlocate":5590,"Ġpractices":5591,"Ġstressful":5592,"ĠTechnologies":5593,"coming":5594,"ĠHealthcare":5595,"Ġready":5596,"ĠCompany":5597,"Ġfalls":5598,"Ġemphasize":5599,"Ġprospect":5600,"Ġspreading":5601,"Ġreview":5602,"Ġchanneled":5603,"Ġmaximum":5604,"Ġunemployed":5605,"Ġbonding":5606,"ĠSpending":5607,"Ġarchitectural":5608,"ĠConsid":5609,"ĠHydrogen":5610,"Ġscenar":5611,"Ġzero":5612,"Ġannounced":5613,"Ġpublished":5614,"ĠCountries":5615,"--":5616,"author":5617,"eb":5618,"egr":5619,"iant":5620,"iary":5621,"oly":5622,"pread":5623,"rition":5624,"uary":5625,"wik":5626,"Ġvers":5627,"Ġturning":5628,"onent":5629,"Ġpen":5630,"Ġpure":5631,"Ġpad":5632,"Ġpick":5633,"Ġwides":5634,"Ġfire":5635,"Ġfarm":5636,"Ġfirm":5637,"Ġmal":5638,"Ġmatters":5639,"Ġrepos":5640,"Ġreward":5641,"chip":5642,"Ġonto":5643,"Ġfort":5644,"Ġdeploy":5645,"Ġconce":5646,"Ġstro":5647,"Ġstem":5648,"Ġexc":5649,"Ġ23":5650,"ĠInv":5651,"Ġdisabilities":5652,"Ġchosen":5653,"ĠMass":5654,"Ġmanaged":5655,"Ġmaybe":5656,"ourn":5657,"Ġ13":5658,"ĠEV":5659,"Ġperman":5660,"ĠDa":5661,"ĠDom":5662,"ĠDay":5663,"ĠLet":5664,"ĠLTA":5665,"ĠUsing":5666,"obiles":5667,"ificial":5668,"ifications":5669,"chede":5670,"Ġdiet":5671,"Ġpoly":5672,"Ġskin":5673,"Ġfacebook":5674,"Ġfocuses":5675,"Ġfastest":5676,"Ġcentre":5677,"Ġscientist":5678,"Ġplaying":5679,"ĠMedical":5680,"Ġ1980":5681,"gov":5682,"Ġenjoying":5683,"Ġdriving":5684,"Ġnetworks":5685,"Ġrecognize":5686,"Ġpreviously":5687,"Ġauthority":5688,"viet":5689,"Ġwheelchairs":5690,"Ġignore":5691,"Ġengage":5692,"Ġguaranteed":5693,"Ġcopy":5694,"ĠIII":5695,"Ġsurroundings":5696,"Ġpush":5697,"ĠLoong":5698,"Ġdevast":5699,"Ġinstitutions":5700,"Ġmessage":5701,"Ġworsen":5702,"Ġcampaigns":5703,"Ġhighlighted":5704,"Ġdrastically":5705,"ĠEschede":5706,"Ġswitch":5707,"Ġdigital":5708,"Ġquantity":5709,"Ġinvasion":5710,"ĠNicoll":5711,"Ġwitness":5712,"wiki":5713,"Ġwidespread":5714,"52":5715,"AE":5716,"AN":5717,"agine":5718,"dens":5719,"efficient":5720,"nam":5721,"wing":5722,"Ġil":5723,"onom":5724,"erated":5725,"Ġslight":5726,"Ġple":5727,"Ġpul":5728,"Ġwestern":5729,"Ġfederal":5730,"Ġinherent":5731,"Ġdire":5732,"Ġhour":5733,"Ġnav":5734,"change":5735,"ĠTaking":5736,"Ġlik":5737,"Ġleng":5738,"Ġhab":5739,"Ġheld":5740,"Ġwithdra":5741,"amed":5742,"Ġtext":5743,"Ġ22":5744,"Ġimaging":5745,"Ġimagine":5746,"pping":5747,"Ġspot":5748,"ĠCreat":5749,"osed":5750,"Ġcompelled":5751,"Ġprecious":5752,"ĠBar":5753,"Ġvo":5754,"Ġkill":5755,"renew":5756,"ĠOffic":5757,"Ġarms":5758,"Ġunivers":5759,"Ġcareer":5760,"ĠUs":5761,"Ġlowering":5762,"Ġpattern":5763,"Ġrods":5764,"ĠAng":5765,"Ġburdens":5766,"cked":5767,"Ġdetri":5768,"Ġsigns":5769,"Ġclimb":5770,"Ġnegl":5771,"Ġremember":5772,"Ġapproval":5773,"Ġkeeps":5774,"Ġtrains":5775,"work":5776,"Ġamongst":5777,"Ġboomers":5778,"ĠMedifund":5779,"resh":5780,"Ġtalking":5781,"Ġslowing":5782,"Ġinfluences":5783,"Ġreaching":5784,"Ġinternal":5785,"Ġindependently":5786,"ĠCont":5787,"Ġtravelling":5788,"2007":5789,"Ġrelying":5790,"Ġhampering":5791,"ĠHighway":5792,"Ġgained":5793,"Ġhazards":5794,"Ġresolved":5795,"Ġvolum":5796,"Ġentirely":5797,"Ġwaves":5798,"Ġexercises":5799,"yndrom":5800,"Ġvoluntary":5801,"agnetic":5802,"Ġmiddle":5803,"Ġneutrons":5804,"Ġundeniable":5805,"Ġsusceptible":5806,"Ġordinary":5807,"ĠScientists":5808,"Ġinconven":5809,"Ġunstable":5810,"CFR":5811,"Shield":5812,"aut":5813,"gone":5814,"hard":5815,"ny":5816,"pass":5817,"run":5818,"rich":5819,"rum":5820,"whel":5821,"ĠQ":5822,"inate":5823,"rely":5824,"erv":5825,"erted":5826,"Ġslop":5827,"Ġcross":5828,"essel":5829,"Ġwat":5830,"itro":5831,"Ġbacter":5832,"Ġmen":5833,"let":5834,"Ġdign":5835,"ician":5836,"roph":5837,"Ġelement":5838,"Ġhom":5839,"iled":5840,"Ġgave":5841,"Ġproceed":5842,"iding":5843,"ott":5844,"ĠSalt":5845,"Ġstructures":5846,"ifies":5847,"elong":5848,"Ġexcept":5849,"ĠHsi":5850,"Ġsports":5851,"umb":5852,"Ġdispl":5853,"Ġresort":5854,"ĠFortunately":5855,"ĠCol":5856,"ĠCoun":5857,"ĠMr":5858,"ĠMarch":5859,"Ġsake":5860,"ĠWikipedia":5861,"Ġabilities":5862,"ireless":5863,"ĠRus":5864,"Ġintell":5865,"Ġresearched":5866,"Ġunless":5867,"Ġunauthor":5868,"ĠLWR":5869,"Ġsupporters":5870,"Ġoverhe":5871,"Ġprison":5872,"Ġinstru":5873,"Ġtechnologically":5874,"Ġeverybody":5875,"Ġtwenty":5876,"Ġacceler":5877,"Ġdepr":5878,"Ġdepress":5879,"cket":5880,"Ġdefine":5881,"Ġstudying":5882,"Ġspecially":5883,"Ġcapt":5884,"Ġ500":5885,"Ġconstructed":5886,"ĠSoviet":5887,"Ġcenter":5888,"development":5889,"Ġprofitable":5890,"Ġconsequently":5891,"Ġconflic":5892,"atories":5893,"Ġcompleted":5894,"Ġtends":5895,"Ġtechnique":5896,"Ġreliant":5897,"Ġbreast":5898,"Ġdisclosed":5899,"Ġprogramme":5900,"Ġremaining":5901,"ĠFunds":5902,"Ġundergoing":5903,"Ġinherit":5904,"Ġconnection":5905,"ĠMeh":5906,"Ġseverely":5907,"Ġdepleted":5908,"Ġimposed":5909,"Ġsimplified":5910,"Ġobviously":5911,"inson":5912,"Ġdomestic":5913,"Ġwalking":5914,"Ġescal":5915,"mitted":5916,"Ġmeaningful":5917,"pox":5918,"Ġtrouble":5919,"ĠCanad":5920,"Ġparticipate":5921,"ĠBritain":5922,"Ġsixt":5923,"Ġdedic":5924,"Ġgadgets":5925,"Ġteachers":5926,"ĠGenerally":5927,"Ġhandicapped":5928,"ĠJanuary":5929,"ĠParkinson":5930,"efully":5931,"Ġdignity":5932,"ĠHsien":5933,"ECD":5934,"city":5935,"eur":5936,"fts":5937,"hab":5938,"life":5939,"reed":5940,"erative":5941,"Ġox":5942,"Ġcours":5943,"Ġtoxic":5944,"leming":5945,"icy":5946,"Ġhur":5947,"vered":5948,"ĠTV":5949,"ulating":5950,"Ġnotes":5951,"Ġnoted":5952,"Ġstead":5953,"eli":5954,"eliness":5955,"ames":5956,"Ġimag":5957,"ĠFleming":5958,"chnology":5959,"Ġincomes":5960,"Ġchair":5961,"Ġsaves":5962,"Ġintensive":5963,"ĠGross":5964,"ĠOECD":5965,"Ġrelief":5966,"Ġamen":5967,"Ġdecay":5968,"Ġposed":5969,"Ġbuff":5970,"Ġinnovators":5971,"Ġnobody":5972,"Ġundert":5973,"Ġpatents":5974,"Ġregion":5975,"Ġregions":5976,"Ġfinds":5977,"fficiency":5978,"Ġsmooth":5979,"Ġrefer":5980,"Ġremove":5981,"Ġconsumed":5982,"ĠProject":5983,"Ġ1994":5984,"Ġcorrespon":5985,"Ġcloser":5986,"Ġdecreases":5987,"Ġorganis":5988,"Ġairport":5989,"Ġregarded":5990,"Ġstresses":5991,"Ġdrink":5992,"Ġliter":5993,"ĠAdvis":5994,"Ġtherm":5995,"Ġwarning":5996,"Ġinheriting":5997,"employment":5998,"Ġrevolution":5999,"Ġfrequent":6000,"Ġindicated":6001,"Ġabsorb":6002,"Ġinitiatives":6003,"Ġbrainstorm":6004,"ĠConsum":6005,"ometric":6006,"Ġguidel":6007,"Ġweaknesses":6008,"Ġconcentrate":6009,"Ġartificial":6010,"Ġstreets":6011,"Ġentitled":6012,"Ġmonitored":6013,"ĠMichael":6014,"ĠPrivacy":6015,"Ġappliances":6016,"ĠConsidering":6017,"renewable":6018,"Ġcourses":6019,"ĠAdvisory":6020,"19":6021,"band":6022,"comes":6023,"ios":6024,"mor":6025,"pic":6026,"ran":6027,"wards":6028,"Â°":6029,"erce":6030,"Ġwars":6031,"Ġwireless":6032,"ites":6033,"ano":6034,"Ġanim":6035,"Ġeight":6036,"Ġhit":6037,"Ġprohib":6038,"Ġlacking":6039,"ĠIBM":6040,"opia":6041,"Ġenforce":6042,"Ġsty":6043,"Ġstra":6044,"iforn":6045,"Ġcand":6046,"Ġship":6047,"Ġteen":6048,"veloped":6049,"eopard":6050,"ĠInf":6051,"Ġimpart":6052,"Ġspect":6053,"ump":6054,"Ġdischar":6055,"ĠFamily":6056,"percus":6057,"oughly":6058,"Ġdesal":6059,"Ġcomplain":6060,"Ġloop":6061,"ĠBern":6062,"Ġvessel":6063,"Ġgenerates":6064,"ĠGIN":6065,"ĠGCFR":6066,"ĠPress":6067,"ensus":6068,"Ġnewly":6069,"Ġrelieve":6070,"aby":6071,"agraph":6072,"ĠLike":6073,"ĠUK":6074,"iffe":6075,"Ġjeopard":6076,"ounds":6077,"Ġoverwhel":6078,"iaone":6079,"Ġpartly":6080,"Ġcogn":6081,"Ġcovered":6082,"Ġattractive":6083,"chem":6084,"Ġunderground":6085,"Ġundergone":6086,"ĠAny":6087,"Ġspeaking":6088,"Ġproviders":6089,"Ġrespond":6090,"Ġhydro":6091,"Ġhybrid":6092,"Ġhospitalization":6093,"Ġinterfe":6094,"Ġscan":6095,"Ġobligations":6096,"Ġboom":6097,"Ġvalid":6098,"Ġlocated":6099,"Ġslowly":6100,"Ġautomobiles":6101,"Ġdetected":6102,"Ġcombat":6103,"Ġindependence":6104,"Ġnetworking":6105,"Ġemotionally":6106,"Ġparad":6107,"Ġlaboratories":6108,"Ġselected":6109,"Ġmargin":6110,"Ġantib":6111,"Ġcultiv":6112,"Ġbroken":6113,"Ġfigures":6114,"Ġinitiated":6115,"Ġprototypes":6116,"Ġlinked":6117,"Ġunlikely":6118,"Ġnutrition":6119,"Ġaccuracy":6120,"Ġtransferred":6121,"Ġremoved":6122,"Ġcompromise":6123,"Ġcompromised":6124,"Ġcorporate":6125,"Ġjudge":6126,"Ġviolation":6127,"design":6128,"Ġassume":6129,"Ġtroubles":6130,"Ġfeedback":6131,"Ġmicrochip":6132,"Ġpanels":6133,"Ġloneliness":6134,"Ġattributed":6135,"Ġaffluent":6136,"Ġcomprehensive":6137,"Ġwoman":6138,"Ġpads":6139,"Ġdetrimental":6140,"yndrome":6141,"ĠCouncil":6142,"ĠRussia":6143,"Ġsixty":6144,"ifornia":6145,"ĠGINA":6146,"ament":6147,"aves":6148,"iably":6149,"net":6150,"pay":6151,"uper":6152,"health":6153,"inc":6154,"Ġtheft":6155,"Ġcards":6156,"Ġpill":6157,"Ġpra":6158,"Ġbicy":6159,"Ġfat":6160,"Ġinsure":6161,"Ġmatch":6162,"Ġeye":6163,"Ġhiring":6164,"Ġrepercus":6165,"Ġlone":6166,"Ġongoing":6167,"igation":6168,"Ġconve":6169,"ula":6170,"Ġstairs":6171,"action":6172,"raint":6173,"Ġexchan":6174,"Ġexchange":6175,"Ġimpose":6176,"Ġgenetically":6177,"riage":6178,"Ġadding":6179,"ĠWhere":6180,"Ġvideophone":6181,"Ġtaught":6182,"ĠGreen":6183,"ĠPre":6184,"Ġkilled":6185,"ĠEvent":6186,"Ġnewer":6187,"Ġsupposed":6188,"abil":6189,"Ġunb":6190,"Ġperhaps":6191,"Ġpolice":6192,"ĠDef":6193,"ructural":6194,"pered":6195,"Ġconcluded":6196,"Ġgreatest":6197,"Ġskill":6198,"Ġinsist":6199,"lessness":6200,"Ġpayout":6201,"Ġplanes":6202,"Ġmeets":6203,"Ġ1995":6204,"tered":6205,"ortunate":6206,"Ġsalts":6207,"ronary":6208,"Ġplayer":6209,"Ġestate":6210,"Ġminds":6211,"Ġclaims":6212,"Ġseconds":6213,"Ġfears":6214,"ĠAdv":6215,"ĠCommission":6216,"Ġwarf":6217,"Ġcoupled":6218,"Ġparagraph":6219,"Ġunfortunate":6220,"Ġcultural":6221,"aneously":6222,"Ġembed":6223,"Ġshutdown":6224,"Ġregularly":6225,"Ġincorporated":6226,"Ġscarcity":6227,"Ġdictronary":6228,"Ġcalc":6229,"ĠPolicies":6230,"Ġsacrifice":6231,"Ġteaching":6232,"Ġwider":6233,"Ġcompetitiveness":6234,"ĠOrganization":6235,"Ġpiece":6236,"Ġtoilets":6237,"Ġdescrib":6238,"ĠStraits":6239,"Ġincapable":6240,"Ġilleg":6241,"Ġlikeli":6242,"Ġvolume":6243,"Ġamenities":6244,"Ġlikelihood":6245,"FA":6246,"LC":6247,"There":6248,"Temperature":6249,"ein":6250,"my":6251,"vity":6252,"Ġtum":6253,"Ġast":6254,"Ġtheore":6255,"ony":6256,"onym":6257,"Ġsides":6258,"Ġcents":6259,"attle":6260,"Ġwin":6261,"itiz":6262,"Ġbrief":6263,"Ġfal":6264,"Ġmit":6265,"Ġdry":6266,"Ġrect":6267,"Ġreput":6268,"ils":6269,"using":6270,"igent":6271,"Ġcongest":6272,"ĠICE":6273,"Ġaggress":6274,"rap":6275,"gevity":6276,"Ġspite":6277,"Ġweigh":6278,"ĠFeb":6279,"ĠCA":6280,"Ġgovernmental":6281,"ĠMW":6282,"Ġplag":6283,"Ġcompens":6284,"Ġdesigner":6285,"ĠBell":6286,"Ġvary":6287,"Ġgenerator":6288,"ĠNet":6289,"ĠNond":6290,"Ġkilling":6291,"Ġrelating":6292,"Ġoutstanding":6293,"Ġoutcomes":6294,"Ġunl":6295,"Ġunre":6296,"Ġfee":6297,"ĠLong":6298,"Ġapparent":6299,"Ġinnovate":6300,"Ġelectrom":6301,"Ġbenefited":6302,"Ġ1950":6303,"Ġoperator":6304,"Ġtwice":6305,"Ġwhereab":6306,"Ġaviation":6307,"Ġprominent":6308,"Ġcontrolling":6309,"Ġlooks":6310,"ĠHere":6311,"Ġsuffered":6312,"Ġavailability":6313,"Ġdirected":6314,"ĠInter":6315,"Ġdecreased":6316,"Ġtalented":6317,"Ġ700":6318,"ĠIndust":6319,"Ġstressed":6320,"Ġthreatening":6321,"ĠTechnological":6322,"Ġinex":6323,"Ġineffective":6324,"Ġsecondary":6325,"Ġconductor":6326,"Ġautomatic":6327,"Ġdiscussion":6328,"ĠAmericans":6329,"Ġlifestyles":6330,"Ġteams":6331,"Ġtargeted":6332,"Ġobjects":6333,"Ġinstalling":6334,"Ġcollabor":6335,"Ġcolle":6336,"Ġlaboratory":6337,"Ġbalanced":6338,"ĠFinance":6339,"Ġcontained":6340,"Ġholds":6341,"Ġholding":6342,"ĠExp":6343,"Ġobserve":6344,"Ġfulfilling":6345,"Ġcontroversies":6346,"Ġinvolvement":6347,"Ġcoping":6348,"Ġirre":6349,"Ġremoval":6350,"liest":6351,"Ġprecaution":6352,"Ġunpre":6353,"Ġpumped":6354,"Ġminority":6355,"ĠIdent":6356,"Ġacquire":6357,"Ġofficials":6358,"Ġvolunte":6359,"ĠEconomic":6360,"Ġgreying":6361,"Ġcomprises":6362,"ĠXiaone":6363,"Ġsurprising":6364,"Ġkidnapping":6365,"ĠTransport":6366,"ĠObviously":6367,"Ġadvertise":6368,"Ġdocument":6369,"Ġperceived":6370,"Ġclinical":6371,"Ġcorruption":6372,"Ġwebsite":6373,"Ġassured":6374,"ĠAccessibility":6375,"Ġextracted":6376,"Ġnewspaper":6377,"Ġcasual":6378,"ĠCalifornia":6379,"ĠEldershield":6380,"Ġdevastating":6381,"rophic":6382,"Ġguidelines":6383,"Ġdesalination":6384,"Ġlonely":6385,"Ġfalse":6386,"ĠNondiscrimination":6387,"ĠXiaonei":6388,"25":6389,"84":6390,"ban":6391,"iro":6392,"men":6393,"medi":6394,"ray":6395,"top":6396,"Ġice":6397,"Ġtons":6398,"Ġail":6399,"Ġsight":6400,"Ġwave":6401,"Ġbill":6402,"Ġfun":6403,"Ġfell":6404,"Ġfusion":6405,"Ġmalf":6406,"Ġren":6407,"Ġgathe":6408,"Ġproponents":6409,"Ġlighter":6410,"struct":6411,"see":6412,"Ġusual":6413,"ested":6414,"Ġspaces":6415,"ĠCertain":6416,"rible":6417,"ĠMod":6418,"quately":6419,"Ġsegment":6420,"Ġplenty":6421,"Ġdesk":6422,"Ġdeserve":6423,"cons":6424,"Ġcomponent":6425,"Ġlove":6426,"ĠBudget":6427,"ĠRather":6428,"arded":6429,"ĠPres":6430,"ĠNe":6431,"Ġexpl":6432,"reneur":6433,"ĠOld":6434,"iented":6435,"Ġcarries":6436,"ĠDO":6437,"Ġaccidentally":6438,"Ġinvad":6439,"Ġretraining":6440,"Ġinflation":6441,"Ġsignals":6442,"Ġoffice":6443,"ĠKe":6444,"Ġ2052":6445,"Ġnegatively":6446,"Ġpayment":6447,"Ġconsume":6448,"Ġdiscovering":6449,"Ġpressures":6450,"tech":6451,"Ġfails":6452,"Ġcenters":6453,"Ġpresident":6454,"Ġcoolants":6455,"Ġchallenging":6456,"Ġalternate":6457,"ĠMedic":6458,"Ġtoward":6459,"Ġforeigners":6460,"Ġachievements":6461,"Ġopposed":6462,"Ġsubstances":6463,"ĠComparing":6464,"Ġrespective":6465,"Ġoutweighs":6466,"Ġyouths":6467,"Ġengines":6468,"Ġexceed":6469,"ĠEveryone":6470,"Ġrecorded":6471,"Ġcollected":6472,"Ġpushed":6473,"ĠLooking":6474,"Ġsurgeon":6475,"makers":6476,"Ġmessages":6477,"commun":6478,"ĠService":6479,"Ġ1960":6480,"repreneur":6481,"Ġvictims":6482,"Ġneighbourhood":6483,"Ġtragedy":6484,"Ġcooperation":6485,"ĠIssues":6486,"Ġlegislation":6487,"educated":6488,"ĠDomestic":6489,"Ġwitnessed":6490,"Ġnegligence":6491,"Ġdedicated":6492,"Ġimagination":6493,"Ġcorresponding":6494,"ĠEventually":6495,"Ġwhereabouts":6496,"mediate":6497,"Ġailments":6498,"Ġgathered":6499,"SD":6500,"gans":6501,"gmat":6502,"iat":6503,"lman":6504,"polic":6505,"sberg":6506,"tect":6507,"tiary":6508,"vas":6509,"Ġtight":6510,"reak":6511,"Ġbattle":6512,"Ġder":6513,"Ġdri":6514,"Ġdyn":6515,"Ġreap":6516,"ilight":6517,"Ġprop":6518,"oto":6519,"ots":6520,"urong":6521,"uters":6522,"Ġdeaf":6523,"Ġagreed":6524,"olen":6525,"Ġstolen":6526,"Ġheredit":6527,"amm":6528,"amic":6529,"Ġorgans":6530,"ĠHar":6531,"Ġimpair":6532,"Ġweather":6533,"Ġric":6534,"Ġrank":6535,"ĠMon":6536,"ĠMic":6537,"ander":6538,"Ġadap":6539,"Ġdesired":6540,"Ġspends":6541,"ĠBaby":6542,"Ġcontam":6543,"ĠRet":6544,"ĠGe":6545,"Ġaccomp":6546,"Ġsomehow":6547,"Ġconscious":6548,"Ġconserv":6549,"Ġcareg":6550,"Ġcarelessness":6551,"ĠViet":6552,"ruary":6553,"ĠForsberg":6554,"ĠLi":6555,"ĠLaw":6556,"ĠLSD":6557,"Ġbuying":6558,"eping":6559,"Ġactin":6560,"ĠAlan":6561,"Ġtertiary":6562,"Ġlowest":6563,"Ġcold":6564,"Ġanytime":6565,"Ġcrash":6566,"ĠChang":6567,"Ġpatent":6568,"cedented":6569,"Ġtwilight":6570,"ĠAnonym":6571,"ĠJurong":6572,"Ġargues":6573,"Ġdifferently":6574,"Ġconstraint":6575,"Ġstudio":6576,"Ġtransform":6577,"Ġ36":6578,"Ġsciences":6579,"ĠKW":6580,"Ġinsp":6581,"Ġrealise":6582,"Ġsignificance":6583,"Ġnecessities":6584,"Ġperformed":6585,"Ġentrepreneur":6586,"Ġpressur":6587,"Ġsmallpox":6588,"Ġimmune":6589,"Ġbackup":6590,"Ġrecre":6591,"ĠIndividual":6592,"Ġmedicines":6593,"Ġinefficient":6594,"Ġadopting":6595,"Ġlands":6596,"Ġsatisfying":6597,"Ġfertil":6598,"Ġsurely":6599,"Ġsteel":6600,"Ġdamaged":6601,"ĠOtherwise":6602,"Ġsecured":6603,"Ġbrid":6604,"Ġbright":6605,"Ġproposal":6606,"Ġestablishing":6607,"Ġvisual":6608,"Ġvideos":6609,"Ġfighting":6610,"Ġdefective":6611,"Ġpartially":6612,"Ġpicture":6613,"Ġbiological":6614,"ĠEmployers":6615,"Ġcatastrophic":6616,"Ġwritten":6617,"ĠMOM":6618,"commerce":6619,"Ġuncertainty":6620,"Ġassessment":6621,"Ġharv":6622,"Ġevaluate":6623,"Ġoverlooked":6624,"Ġroutine":6625,"ĠStudies":6626,"ĠSubsequently":6627,"Ġingred":6628,"Ġbulk":6629,"Ġweek":6630,"Ġrule":6631,"ĠLimiting":6632,"Ġprinciple":6633,"ĠBuilding":6634,"Ġreluctant":6635,"Ġfarmers":6636,"ournal":6637,"Ġwithdraw":6638,"Ġbacteria":6639,"Ġhomeless":6640,"Ġunauthorized":6641,"Ġspectrum":6642,"Ġparadig":6643,"Ġantibi":6644,"Ġpragmat":6645,"Ġembedded":6646,"ĠFebruary":6647,"Ġelectromagnetic":6648,"ĠIdentification":6649,"ĠDOE":6650,"Ġhereditary":6651,"BC":6652,"DA":6653,"High":6654,"gl":6655,"hop":6656,"liness":6657,"made":6658,"mark":6659,"nity":6660,"nelled":6661,"oke":6662,"pd":6663,"Ġtu":6664,"iny":6665,"Ġsle":6666,"Ġsch":6667,"Ġsending":6668,"Ġwall":6669,"Ġbillions":6670,"Ġfill":6671,"Ġdying":6672,"arter":6673,"Ġnamed":6674,"Ġrehab":6675,"Ġbeg":6676,"Ġisland":6677,"ush":6678,"children":6679,"Ġproof":6680,"Ġlang":6681,"idden":6682,"oted":6683,"owers":6684,"Ġsuic":6685,"Ġnoticed":6686,"ĠAss":6687,"anted":6688,"app":6689,"ĠHome":6690,"Ġimpression":6691,"oster":6692,"Ġspark":6693,"ĠFour":6694,"ains":6695,"ultaneously":6696,"Ġindis":6697,"ups":6698,"Ġsafest":6699,"ĠEast":6700,"Ġmerely":6701,"imited":6702,"Ġexamine":6703,"Ġourselves":6704,"Ġretail":6705,"Ġquarter":6706,"Ġchannelled":6707,"Ġextending":6708,"Ġradi":6709,"Ġspeech":6710,"Ġexperiencing":6711,"Ġplanet":6712,"Ġremark":6713,"Ġglobe":6714,"Ġhypert":6715,"techn":6716,"ĠEnviron":6717,"rained":6718,"Ġliveli":6719,"Ġbusy":6720,"Ġconfident":6721,"Ġplayers":6722,"Ġrecomm":6723,"Ġthreatens":6724,"Ġbreach":6725,"Ġpromoted":6726,"Ġachievement":6727,"Ġneglecting":6728,"Ġcontinuing":6729,"Ġreading":6730,"Ġcomfortably":6731,"Ġemphasized":6732,"Ġinstallation":6733,"Ġletting":6734,"Ġfeasibility":6735,"Ġcontains":6736,"Ġskunkwork":6737,"Ġsensor":6738,"Ġsubjects":6739,"Ġemitted":6740,"Ġguidance":6741,"Ġdestructive":6742,"Ġreplaced":6743,"Ġlongevity":6744,"Ġqualified":6745,"Ġgranted":6746,"Ġcategories":6747,"Ġrestrictions":6748,"appropri":6749,"Ġchoosing":6750,"Ġshelter":6751,"Ġcatastrophe":6752,"Ġstroke":6753,"Ġuniversities":6754,"Ġslopes":6755,"ĠConsumer":6756,"ifferent":6757,"Ġparadigm":6758,"Ġrehabilit":6759,"Ġlivelihood":6760,"07":6761,"80":6762,"FP":6763,"HR":6764,"bul":6765,"depend":6766,"eper":6767,"five":6768,"gists":6769,"iate":6770,"ians":6771,"km":6772,"na":6773,"rative":6774,"sight":6775,"uous":6776,"ya":6777,"Ġtanks":6778,"inics":6779,"income":6780,"onus":6781,"Ġsat":6782,"Ġwages":6783,"Ġwife":6784,"ork":6785,"oriented":6786,"itory":6787,"itutes":6788,"Ġfresh":6789,"Ġmer":6790,"Ġmel":6791,"aling":6792,"aled":6793,"ications":6794,"Ġhor":6795,"Ġhol":6796,"Ġhouses":6797,"Ġnin":6798,"usiness":6799,"etooth":6800,"ima":6801,"irty":6802,"uting":6803,"utical":6804,"ulatory":6805,"Ġwhate":6806,"aya":6807,"Ġstating":6808,"Ġstructural":6809,"iful":6810,"ams":6811,"apers":6812,"kept":6813,"Ġspan":6814,"Ġdisability":6815,"Ġresp":6816,"ĠFrequency":6817,"ĠCity":6818,"ĠCitiz":6819,"riz":6820,"ĠMor":6821,"under":6822,"oded":6823,"ĠBlu":6824,"ĠRP":6825,"ĠRally":6826,"ford":6827,"Ġleaves":6828,"Ġsupplies":6829,"Ġlifelong":6830,"Ġouter":6831,"ĠItaly":6832,"pted":6833,"ĠLin":6834,"Ġsurpl":6835,"Ġdecides":6836,"taining":6837,"Ġpharm":6838,"Ġcoord":6839,"Ġunderlying":6840,"Ġdepart":6841,"Ġpoison":6842,"Ġfirstly":6843,"Ġaffecting":6844,"Ġ67":6845,"Ġoffset":6846,"Ġmarketed":6847,"Ġ550":6848,"Ġ44":6849,"Ġpromises":6850,"Ġintermediate":6851,"Ġfailing":6852,"Ġconsiderably":6853,"Ġturns":6854,"Ġscope":6855,"developed":6856,"Ġcontrols":6857,"Ġpassport":6858,"Ġfamiliar":6859,"ĠIntegr":6860,"Ġevidences":6861,"Ġsustaining":6862,"Ġavoiding":6863,"Ġdistinct":6864,"ĠYork":6865,"Ġurban":6866,"arsh":6867,"Ġdetermining":6868,"Ġreactivity":6869,"Ġpromotes":6870,"Ġapplicable":6871,"Ġserendipitously":6872,"Ġtagged":6873,"Ġhampers":6874,"Ġstopped":6875,"Ġstaying":6876,"Ġsubstitute":6877,"ĠAdministration":6878,"Ġcharging":6879,"Ġmorally":6880,"Ġtelecommun":6881,"ĠRoger":6882,"Ġattracted":6883,"Ġwrite":6884,"Ġdollar":6885,"Ġindustrialization":6886,"Ġworthy":6887,"Ġmotor":6888,"Ġhinders":6889,"Ġcontainment":6890,"Ġearthqu":6891,"clinics":6892,"Ġmutated":6893,"Ġmutual":6894,"ĠExam":6895,"Ġrepair":6896,"Ġobservation":6897,"Ġsimpler":6898,"Ġrecords":6899,"Ġkids":6900,"Ġinitiative":6901,"Ġchemicals":6902,"Ġsickness":6903,"Ġemerged":6904,"Ġexpanding":6905,"Ġunpred":6906,"Ġmusic":6907,"Ġprosperity":6908,"Ġstimulate":6909,"athemat":6910,"Ġdetails":6911,"ĠSpeech":6912,"Ġbiometric":6913,"Ġwalkway":6914,"Ġcounseling":6915,"ĠHelium":6916,"Ġanticipated":6917,"Ġappeared":6918,"Ġcontracting":6919,"Ġliability":6920,"Ġexactly":6921,"ĠEdison":6922,"Ġpreparation":6923,"Ġpassengers":6924,"ĠSupport":6925,"ĠMotors":6926,"Ġrepository":6927,"ĠUsually":6928,"Ġwatched":6929,"Ġdisplay":6930,"ĠMehlman":6931,"ĠCanada":6932,"Ġdrinkable":6933,"ĠBernhard":6934,"ĠWhereas":6935,"Ġmitig":6936,"Ġcongestion":6937,"Ġunprecedented":6938,"Ġmalfunction":6939,"Ġricher":6940,"ĠAnonymous":6941,"Ġentrepreneurs":6942,"Ġlangu":6943,"Ġwhatever":6944,"ĠBluetooth":6945,"Ġsurplus":6946,"BS":6947,"CC":6948,"In":6949,"RI":6950,"erest":6951,"ias":6952,"lt":6953,"tical":6954,"vy":6955,"ina":6956,"inations":6957,"onald":6958,"Ġswe":6959,"itudes":6960,"Ġinability":6961,"Ġang":6962,"alk":6963,"lets":6964,"oub":6965,"arge":6966,"Ġrevel":6967,"Ġbeaut":6968,"Ġgovern":6969,"oting":6970,"Ġforth":6971,"Ġenem":6972,"Ġenforced":6973,"Ġhack":6974,"Ġalarming":6975,"Ġheated":6976,"cient":6977,"Ġusages":6978,"ĠHear":6979,"Ġspons":6980,"Ġdisrup":6981,"Ġchose":6982,"ĠMI":6983,"ĠMa":6984,"Ġsequ":6985,"ĠBFA":6986,"ĠBBC":6987,"Ġintens":6988,"Ġincrement":6989,"ĠNE":6990,"ĠNob":6991,"Ġmedium":6992,"alled":6993,"Ġunit":6994,"Ġunhealth":6995,"Ġproves":6996,"aceutical":6997,"Ġrare":6998,"Ġthanks":6999,"Ġdiffusion":7000,"Ġadvancing":7001,"Ġprud":7002,"Ġserving":7003,"Ġretren":7004,"Ġanymore":7005,"Ġdepartment":7006,"Ġfacts":7007,"Ġprivile":7008,"Ġregulation":7009,"Ġoffic":7010,"Ġoffering":7011,"Ġbasically":7012,"Ġcontinual":7013,"ĠRegard":7014,"Ġrefe":7015,"Ġtreating":7016,"Ġputs":7017,"ĠProf":7018,"Ġentering":7019,"Ġexplosive":7020,"Ġexisted":7021,"Ġcommunicating":7022,"Ġfamilial":7023,"Ġsalaries":7024,"Ġdistress":7025,"Ġencouragement":7026,"Ġmedications":7027,"Ġlights":7028,"Ġresearcher":7029,"Ġdisclosing":7030,"Ġplacing":7031,"Ġhampered":7032,"Ġaimed":7033,"Ġaddressing":7034,"2003":7035,"Ġbadly":7036,"Ġobjectives":7037,"Ġanalyse":7038,"Ġselection":7039,"Ġcircuit":7040,"Ġtackling":7041,"Ġcommitment":7042,"Ġestablish":7043,"Ġignor":7044,"Ġengaging":7045,"Ġwait":7046,"Ġinvestigations":7047,"Ġdeliver":7048,"Ġencountered":7049,"Ġoccupational":7050,"Ġdeteriorating":7051,"Ġflawed":7052,"Ġdistributed":7053,"ĠGroup":7054,"Ġfluor":7055,"Ġflexibility":7056,"Ġscreening":7057,"Ġreplacing":7058,"ĠCancer":7059,"Ġturbines":7060,"ĠBritish":7061,"Ġdeterminism":7062,"Ġmechanical":7063,"Ġkilomet":7064,"Ġthorium":7065,"Ġsummary":7066,"Ġunwilling":7067,"Ġreinforce":7068,"Ġstruggling":7069,"Ġcorrosion":7070,"Ġfunctionality":7071,"Ġtissue":7072,"ĠSwed":7073,"Ġstrike":7074,"Ġsharp":7075,"rieved":7076,"Ġnavigation":7077,"ĠOffice":7078,"Ġcapture":7079,"Ġteenagers":7080,"Ġreputation":7081,"Ġunlimited":7082,"Ġdesktop":7083,"Ġranked":7084,"pdf":7085,"Ġschol":7086,"Ġrevelation":7087,"St":7088,"auc":7089,"curity":7090,"cular":7091,"eem":7092,"flow":7093,"jaya":7094,"mber":7095,"making":7096,"rist":7097,"rank":7098,"sk":7099,"testing":7100,"uing":7101,"uan":7102,"vable":7103,"yed":7104,"Ġtension":7105,"inated":7106,"erts":7107,"Ġskept":7108,"Ġwel":7109,"Ġtomor":7110,"Ġfruit":7111,"Ġfront":7112,"Ġmiles":7113,"Ġdiv":7114,"aract":7115,"Ġhide":7116,"Ġhidden":7117,"Ġnuc":7118,"Ġreci":7119,"Ġger":7120,"etus":7121,"etime":7122,"state":7123,"orer":7124,"seen":7125,"ols":7126,"ĠSom":7127,"Ġheating":7128,"ĠAir":7129,"ĠAut":7130,"ĠAuthor":7131,"eland":7132,"nocent":7133,"Ġusable":7134,"ĠHiro":7135,"ĠCO":7136,"acu":7137,"soft":7138,"Ġseven":7139,"Ġplastic":7140,"Ġsaw":7141,"istance":7142,"ĠBer":7143,"ĠBCA":7144,"Ġvending":7145,"ourney":7146,"ĠPu":7147,"ĠPan":7148,"ĠPosition":7149,"ĠNLC":7150,"uding":7151,"Ġupload":7152,"Ġoutdo":7153,"ĠDise":7154,"ĠLater":7155,"ĠLife":7156,"Ġjourney":7157,"Ġaccidental":7158,"Ġoldsters":7159,"rown":7160,"fully":7161,"Ġlowered":7162,"tedly":7163,"Ġacid":7164,"plant":7165,"Ġpoorer":7166,"Ġtransmit":7167,"Ġ300":7168,"Ġfurthermore":7169,"Ġmarkets":7170,"ĠReuters":7171,"Ġ43":7172,"ĠProcess":7173,"Ġenth":7174,"Ġpromise":7175,"Ġfailures":7176,"Ġphysician":7177,"Ġhardware":7178,"Ġpasses":7179,"Ġexplode":7180,"Ġboiling":7181,"Ġdawn":7182,"Ġpractic":7183,"Ġdiscriminate":7184,"ĠYear":7185,"Ġthreaten":7186,"Ġthreatened":7187,"ĠCenter":7188,"Ġstatistic":7189,"ĠAndrew":7190,"Ġagreement":7191,"Ġheavier":7192,"Ġcharged":7193,"hesis":7194,"Ġenhancement":7195,"....":7196,"Ġincentive":7197,"Ġmotion":7198,"Ġeliminating":7199,"Ġpeb":7200,"rounded":7201,"ographical":7202,"ĠThroughout":7203,"Ġindicate":7204,"Ġimmigration":7205,"Ġseparate":7206,"Ġembra":7207,"ĠSurvey":7208,"Ġarrange":7209,"ĠOverall":7210,"Ġdeterioration":7211,"Ġretaining":7212,"Ġpump":7213,"Ġprosperous":7214,"Ġplatforms":7215,"Ġblocks":7216,"Ġfaults":7217,"ĠMOH":7218,"iarism":7219,"Ġdrastic":7220,"Ġsibl":7221,"Ġdeficit":7222,"shima":7223,"Ġglue":7224,"ĠImpro":7225,"Ġbeliefs":7226,"Ġ1955":7227,"Ġillustrate":7228,"ĠPercy":7229,"Ġsummar":7230,"Ġrigor":7231,"Ġinfringe":7232,"ĠWijaya":7233,"Ġbehaviour":7234,"Ġbehaviours":7235,"ARS":7236,"Ġevolved":7237,"Ġsafeguard":7238,"Ġconvinced":7239,"Ġgrandchildren":7240,"Ġscenario":7241,"Ġpermanent":7242,"Ġpolyclinics":7243,"AEA":7244,"Ġvoice":7245,"ĠAngel":7246,"Ġoverheating":7247,"Ġconflicts":7248,"Ġbuffer":7249,"Ġoverwhelming":7250,"Ġdescribed":7251,"Ġcasualties":7252,"ĠMicro":7253,"Ġactinides":7254,"Ġingredient":7255,"Ġpragmatic":7256,"Ġsatell":7257,"Ġmitigate":7258,"oubtedly":7259,"Ġunhealthy":7260,"Ġscholars":7261,"Ġtomorrow":7262,"ĠHiroshima":7263,"04":7264,"Asia":7265,"bike":7266,"econom":7267,"fty":7268,"ixt":7269,"nuclear":7270,"sg":7271,"tons":7272,"ua":7273,"zy":7274,"ino":7275,"Ġcures":7276,"Ġwo":7277,"itate":7278,"Ġble":7279,"Ġbike":7280,"Ġtoll":7281,"ede":7282,"eds":7283,"ancies":7284,"Ġfir":7285,"Ġinappropri":7286,"alty":7287,"lete":7288,"ouch":7289,"arious":7290,"Ġreverse":7291,"logy":7292,"usive":7293,"ĠTour":7294,"Ġlines":7295,"otel":7296,"Ġsums":7297,"Ġalter":7298,"Ġalloy":7299,"oles":7300,"Ġnotion":7301,"ĠSol":7302,"Ġstagn":7303,"Ġstabil":7304,"Ġhefty":7305,"ĠAnt":7306,"enda":7307,"Ġcomment":7308,"Ġroughly":7309,"Ġchief":7310,"rier":7311,"Ġadminist":7312,"Ġadministration":7313,"ĠWhe":7314,"oused":7315,"Ġabn":7316,"Ġmanaging":7317,"ĠBas":7318,"Ġvoid":7319,"elling":7320,"ĠPol":7321,"Ġknew":7322,"ĠEver":7323,"Ġsupplement":7324,"Ġsupplements":7325,"sile":7326,"Ġpertaining":7327,"rick":7328,"order":7329,"ĠUN":7330,"Ġtries":7331,"Ġpositions":7332,"ĠChallen":7333,"Ġwastage":7334,"Ġinventor":7335,"ĠJames":7336,"ourable":7337,"Ġsimultaneously":7338,"Ġinsur":7339,"Ġherself":7340,"Ġmodified":7341,"Ġmodifications":7342,"away":7343,"Ġentrance":7344,"Ġglobalization":7345,"Ġfeelings":7346,"working":7347,"Ġimmense":7348,"Ġcorner":7349,"Ġminimizing":7350,"ĠTele":7351,"Ġrecuper":7352,"Ġtaxpay":7353,"Ġsustained":7354,"Ġorganized":7355,"Ġmaintained":7356,"Ġreleasing":7357,"Ġbreed":7358,"Ġfollows":7359,"Ġutmost":7360,"Ġtagging":7361,"Ġcleaning":7362,"Ġstops":7363,"Ġlosses":7364,"ĠRoad":7365,"Ġsuggestion":7366,"Ġ--":7367,"2006":7368,"Ġcovers":7369,"Ġdebated":7370,"ĠOthers":7371,"Ġgraduate":7372,"Ġmarriage":7373,"Ġinteractions":7374,"Ġbehaviors":7375,"Ġintegrate":7376,"Ġleaks":7377,"Ġsensitive":7378,"Ġenabling":7379,"Ġsubjected":7380,"Ġreturns":7381,"Ġincorrect":7382,"Ġseparated":7383,"Ġadversely":7384,"Ġaccommodation":7385,"backs":7386,"Ġinstitutes":7387,"Ġintrusion":7388,"Ġscarce":7389,"Ġscene":7390,"Ġcomprise":7391,"ĠPolicy":7392,"Ġframe":7393,"Ġexhausted":7394,"Ġanticipate":7395,"Ġsquare":7396,"Ġwiser":7397,"ĠPhys":7398,"Ġrigid":7399,"ĠAbout":7400,"ĠMediShield":7401,"Ġexploitation":7402,"Ġdominant":7403,"This":7404,"Ġcustomer":7405,"ĠIncreasing":7406,"Ġfortun":7407,"ĠCreative":7408,"Ġorganisations":7409,"Ġliteracy":7410,"Ġbrainstorming":7411,"Ġanimals":7412,"chemical":7413,"policies":7414,"Ġrehabilitation":7415,"ĠCitizens":7416,"Ġpharmaceutical":7417,"Ġdepartments":7418,"Ġnucle":7419,"29":7420,"Free":7421,"LM":7422,"OS":7423,"PA":7424,"UR":7425,"WO":7426,"br":7427,"bal":7428,"lin":7429,"lip":7430,"map":7431,"pens":7432,"press":7433,"pensive":7434,"sw":7435,"son":7436,"well":7437,"Ġtiny":7438,"Ġsess":7439,"Ġcred":7440,"Ġcrow":7441,"atient":7442,"ormal":7443,"orhood":7444,"Ġbor":7445,"Ġbond":7446,"Ġbott":7447,"Ġtown":7448,"Ġfract":7449,"Ġinnocent":7450,"Ġmil":7451,"Ġmiss":7452,"Ġmathemat":7453,"ara":7454,"Ġnone":7455,"asia":7456,"Ġgap":7457,"ĠTer":7458,"Ġlig":7459,"etter":7460,"ores":7461,"ĠIra":7462,"ĠIran":7463,"ĠIAEA":7464,"opefully":7465,"ĠSP":7466,"ĠSch":7467,"Ġstory":7468,"Ġheights":7469,"Ġsoaring":7470,"Ġ27":7471,"Ġ29":7472,"ĠHopefully":7473,"Ġwear":7474,"actory":7475,"Ġincomp":7476,"ĠCode":7477,"ĠMar":7478,"quipped":7479,"blems":7480,"Ġsex":7481,"Ġmanip":7482,"ĠBonus":7483,"Ġvibr":7484,"ĠRem":7485,"ĠRef":7486,"Ġdoors":7487,"rences":7488,"Ġconcurrent":7489,"Ġrelation":7490,"Ġunits":7491,"Ġageism":7492,"Ġsocio":7493,"Ġpercept":7494,"ĠVWO":7495,"ĠDis":7496,"ĠLight":7497,"ĠLiving":7498,"ĠLift":7499,"ĠUlt":7500,"Ġamb":7501,"Ġdecent":7502,"Ġnoise":7503,"Ġpartners":7504,"Ġcoefficient":7505,"Ġattitudes":7506,"Ġroof":7507,"owned":7508,"Ġwasted":7509,"cks":7510,"ĠJac":7511,"ĠJoh":7512,"ĠJournal":7513,"Ġallowance":7514,"Ġhandled":7515,"Ġexpert":7516,"Ġfindings":7517,"ĠKho":7518,"ĠKLM":7519,"Ġmode":7520,"Ġ56":7521,"Ġbelieves":7522,"Ġthinks":7523,"Ġessence":7524,"Ġpreserve":7525,"Ġsubsidizing":7526,"world":7527,"Ġaiding":7528,"ĠTeck":7529,"Ġoneself":7530,"ractical":7531,"Ġlocations":7532,"Ġlocals":7533,"Ġ1984":7534,"Ġ1985":7535,"Ġ1987":7536,"Ġrestaur":7537,"ĠYap":7538,"Ġdealt":7539,"Ġlastly":7540,"Ġstressing":7541,"Ġendless":7542,"Ġpolluted":7543,"Ġaccordingly":7544,"Ġsubstit":7545,"Ġreader":7546,"Ġcyber":7547,"Ġcataract":7548,"Ġstepped":7549,"Ġdrawn":7550,"Ġfulfil":7551,"Ġcircle":7552,"Ġdestination":7553,"Ġmoon":7554,"ĠMeht":7555,"Ġimplanting":7556,"Ġbrand":7557,"Ġappropriately":7558,"Ġincurable":7559,"Ġletter":7560,"Ġconveniently":7561,"Ġblue":7562,"Ġcontractors":7563,"Ġenabled":7564,"Ġultra":7565,"Ġultimate":7566,"Ġsuspect":7567,"Ġsuspic":7568,"Ġstrengthen":7569,"Ġdeliber":7570,"Ġneighborhood":7571,"Ġemerge":7572,"Ġbroadcast":7573,"Ġpainful":7574,"Ġwriting":7575,"Ġredundant":7576,"Ġbelonging":7577,"Ġhoping":7578,"ĠTransit":7579,"Ġdiscourage":7580,"Ġdiscouraged":7581,"Ġdeficiency":7582,"Ġisolation":7583,"Ġexecut":7584,"scale":7585,"ĠInnovation":7586,"ibrary":7587,"Ġdestroyed":7588,"Ġdocuments":7589,"Ġtranslate":7590,"Ġconfirmed":7591,"ĠReport":7592,"Ġpollutants":7593,"ictionary":7594,"Ġpremiums":7595,"Ġshifted":7596,"ĠLWRs":7597,"Ġdepressed":7598,"Ġhurt":7599,"Ġsteady":7600,"Ġundertake":7601,"Ġstyle":7602,"Ġstraight":7603,"Ġcandid":7604,"ĠLikewise":7605,"Ġdynamic":7606,"Ġaccompan":7607,"Ġconservative":7608,"Ġrecreational":7609,"Ġantibiotic":7610,"Ġsuicide":7611,"Ġindispens":7612,"Ġremarkable":7613,"bulb":7614,"Ġrespons":7615,"ĠSometimes":7616,"ĠAuthority":7617,"ĠPuat":7618,"Ġenthus":7619,"ĠMicrosoft":7620,"ĠIraq":7621,"ĠUltimately":7622,"ĠKhoo":7623,"ĠMehta":7624,"28":7625,"EN":7626,"MI":7627,"WI":7628,"col":7629,"een":7630,"effective":7631,"field":7632,"hum":7633,"iencies":7634,"long":7635,"law":7636,"oor":7637,"pol":7638,"rating":7639,"tically":7640,"uk":7641,"uff":7642,"Ġiron":7643,"Ġtens":7644,"isms":7645,"iterate":7646,"Ġbars":7647,"edy":7648,"Ġmat":7649,"Ġmalls":7650,"Ġdens":7651,"Ġdimin":7652,"Ġho":7653,"Ġrecon":7654,"Ġgross":7655,"omple":7656,"ompl":7657,"urse":7658,"Ġforty":7659,"ntil":7660,"Ġagenda":7661,"ĠAlex":7662,"Ġexcus":7663,"ivered":7664,"Ġbyproduct":7665,"ĠHis":7666,"ĠHotel":7667,"Ġimply":7668,"Ġdiss":7669,"ĠFound":7670,"ĠChe":7671,"ĠMark":7672,"Ġcompat":7673,"Ġcompact":7674,"Ġlog":7675,"istant":7676,"Ġmanagers":7677,"ĠBur":7678,"Ġvic":7679,"Ġaccompl":7680,"Ġsolves":7681,"Ġgenetics":7682,"Ġupset":7683,"ĠEach":7684,"Ġrelax":7685,"Ġbuttons":7686,"Ġlifetime":7687,"Ġpolices":7688,"ruits":7689,"ĠDifferent":7690,"ĠUntil":7691,"Ġexaminations":7692,"Ġjet":7693,"Ġapplies":7694,"Ġadvised":7695,"Ġprime":7696,"Ġinstruct":7697,"Ġretirees":7698,"ĠTogether":7699,"Ġfriendliness":7700,"Ġmodification":7701,"Ġmodify":7702,"Ġdivers":7703,"Ġdiverse":7704,"Ġperforming":7705,"Ġpromised":7706,"works":7707,"ictable":7708,"Ġrecruit":7709,"Ġflight":7710,"Ġflour":7711,"Ġpriorit":7712,"Ġdistances":7713,"ĠDevelop":7714,"Ġupgrades":7715,"Ġlightbulb":7716,"Ġconducting":7717,"Ġdrives":7718,"Ġautomation":7719,"Ġprogressing":7720,"Ġcombine":7721,"Ġmachin":7722,"Ġdamages":7723,"Ġnurt":7724,"Ġunfortunately":7725,"Ġpersist":7726,"Ġcomparable":7727,"Ġstories":7728,"Ġchannels":7729,"Ġorganizational":7730,"Ġintegrity":7731,"Ġsenses":7732,"Ġengaged":7733,"Ġtourists":7734,"Ġvalued":7735,"Ġpurchasing":7736,"Ġaccumulated":7737,"Ġcounterpart":7738,"Ġclassified":7739,"Ġcomplications":7740,"Ġstores":7741,"Ġstorey":7742,"Ġshrink":7743,"Ġbombs":7744,"Ġ2010":7745,"Ġoccupied":7746,"Ġdeteriorate":7747,"Ġcivilian":7748,"Ġinstitution":7749,"Ġreflects":7750,"point":7751,"Ġmuscle":7752,"Ġdelivered":7753,"Ġstimul":7754,"Ġasked":7755,"Ġaircrafts":7756,"Ġinjury":7757,"Ġburns":7758,"ĠNewsAsia":7759,"ĠServices":7760,"Ġdeeply":7761,"Ġranging":7762,"Ġroute":7763,"Ġstruggle":7764,"Ġadvocates":7765,"Ġsilver":7766,"Ġtissues":7767,"Ġrebates":7768,"ĠSmith":7769,"ĠRegency":7770,"Ġagriculture":7771,"ĠBarrier":7772,"Ġinconvenience":7773,"Ġdeprived":7774,"Ġrepercussions":7775,"Ġinexpensive":7776,"Ġtightly":7777,"ĠIndividuals":7778,"Ġbegun":7779,"Ġhypertension":7780,"ĠExamples":7781,"Ġunpredictable":7782,"Ġfluoride":7783,"Ġsiblings":7784,"ĠBasically":7785,"ĠChallenger":7786,"Ġrecuperate":7787,"ĠFoundation":7788,"17":7789,"23":7790,"Es":7791,"HO":7792,"cur":7793,"cern":7794,"ez":7795,"fit":7796,"frequency":7797,"gonom":7798,"jud":7799,"mis":7800,"mar":7801,"night":7802,"ov":7803,"pace":7804,"spe":7805,"slip":7806,"view":7807,"Ġted":7808,"Ġties":7809,"inite":7810,"Ġtherap":7811,"enz":7812,"erpr":7813,"Ġsli":7814,"Ġcast":7815,"Ġcru":7816,"Ġpand":7817,"Ġpays":7818,"Ġpowers":7819,"atur":7820,"ita":7821,"Ġbird":7822,"Ġtoug":7823,"Ġfing":7824,"Ġfoster":7825,"Ġmort":7826,"Ġmish":7827,"Ġansw":7828,"level":7829,"Ġharsh":7830,"ason":7831,"Ġbeat":7832,"ilial":7833,"Ġgun":7834,"omy":7835,"ĠTesting":7836,"Ġlic":7837,"Ġlived":7838,"illiant":7839,"Ġdeeper":7840,"owatt":7841,"ĠIma":7842,"ĠICT":7843,"Ġenrich":7844,"Ġaltered":7845,"Ġaggra":7846,"ĠSARS":7847,"Ġstig":7848,"Ġstream":7849,"ĠAc":7850,"Ġneither":7851,"racy":7852,"ĠHer":7853,"Ġdevelopers":7854,"esthe":7855,"Ġgenome":7856,"Ġspir":7857,"ums":7858,"ĠFrank":7859,"ĠCare":7860,"ĠCensus":7861,"ignific":7862,"ĠMid":7863,"Ġseats":7864,"Ġatom":7865,"Ġadvent":7866,"Ġplural":7867,"Ġdeserves":7868,"Ġlogical":7869,"ĠWelfare":7870,"ĠWFP":7871,"ĠWHO":7872,"istical":7873,"Ġprejud":7874,"Ġmanual":7875,"Ġmanager":7876,"ĠBank":7877,"Ġcontem":7878,"ĠRose":7879,"ĠPa":7880,"ĠPart":7881,"ĠPoly":7882,"Ġfinish":7883,"vene":7884,"ĠEl":7885,"Ġaroused":7886,"Ġsupplied":7887,"Ġoutlet":7888,"ĠDav":7889,"ĠData":7890,"ĠForrest":7891,"ĠLew":7892,"ĠUpon":7893,"Ġrises":7894,"Ġimprov":7895,"Ġinvades":7896,"Ġbenefici":7897,"peace":7898,"Ġcoinc":7899,"Ġcrude":7900,"Ġattached":7901,"Ġrequiring":7902,"Ġfactory":7903,"Ġpersonally":7904,"Ġunderm":7905,"Ġefficiencies":7906,"Ġemploying":7907,"othermal":7908,"Ġsubsequ":7909,"aki":7910,"Ġearliest":7911,"Ġencry":7912,"Ġmemories":7913,"Ġsignal":7914,"Ġhappiness":7915,"Ġ63":7916,"Ġ64":7917,"Ġ600":7918,"byopia":7919,"Ġsky":7920,"ĠSecurity":7921,"ĠKh":7922,"ĠKnow":7923,"Ġplane":7924,"Ġequival":7925,"iorno":7926,"Ġvaries":7927,"Ġ41":7928,"text":7929,"Ġprotects":7930,"ĠEngl":7931,"Ġcentral":7932,"Ġpresbyopia":7933,"Ġexplosions":7934,"proof":7935,"Ġfoundation":7936,"Ġminimise":7937,"ĠHeath":7938,"ables":7939,"Ġsuffers":7940,"Ġevacu":7941,"thening":7942,"Ġ1983":7943,"Ġrestructure":7944,"Ġairpl":7945,"Ġbanning":7946,"Ġlasting":7947,"Ġnearby":7948,"Ġaccepting":7949,"Ġfoods":7950,"Ġtopics":7951,"Ġenjoyable":7952,"Ġnevertheless":7953,"Ġsubstance":7954,"hesive":7955,"Ġstrategic":7956,"Ġadvantageous":7957,"Ġ90":7958,"Ġ99":7959,"Ġemergence":7960,"news":7961,"Ġobjected":7962,"Ġattractions":7963,"Ġconverting":7964,"Ġconverted":7965,"Ġnurse":7966,"Ġmisunder":7967,"Ġunfav":7968,"Ġarticles":7969,"Ġbrilliant":7970,"Ġanalysing":7971,"Ġhindered":7972,"Ġopened":7973,"Ġmindsets":7974,"Ġinvestigate":7975,"Ġinterpret":7976,"Ġexercising":7977,"Ġexcel":7978,"Ġsubstantially":7979,"ological":7980,"Ġirrig":7981,"Ġirrespon":7982,"Ġpushing":7983,"Ġtalked":7984,"Ġjudgment":7985,"Ġpumps":7986,"Ġgeographical":7987,"Ġcatered":7988,"Ġrejection":7989,"Ġintrudes":7990,"ĠHyatt":7991,"Ġmothers":7992,"Ġmagnetic":7993,"Ġdetailed":7994,"Ġdeterminist":7995,"Ġdramatic":7996,"Ġsurprise":7997,"Ġtrials":7998,"Ġisolated":7999,"ĠInnovations":8000,"Ġperceive":8001,"Ġcorrupt":8002,"Ġabsolutely":8003,"Ġsuddenly":8004,"Ġpolitics":8005,"Ġupdate":8006,"Ġappreciation":8007,"Ġappreciate":8008,"Ġduration":8009,"Ġpassenger":8010,"rolled":8011,"Ġtrigger":8012,"Ġluxurious":8013,"Ġrepeat":8014,"Ġagricultural":8015,"Ġmigration":8016,"ĠInvesting":8017,"Ġpleas":8018,"Ġcrossing":8019,"Ġinstruments":8020,"Ġcomplaints":8021,"Ġcognitive":8022,"Ġinterfere":8023,"Ġpillars":8024,"Ġbicycles":8025,"ĠGreenpeace":8026,"Ġwarfarin":8027,"Ġparagraphs":8028,"ĠCAI":8029,"ĠBellis":8030,"Ġvarying":8031,"Ġcolleag":8032,"Ġvolunteers":8033,"Ġadvertisements":8034,"Ġimpairment":8035,"Ġcontamination":8036,"ĠVietnam":8037,"Ġbridge":8038,"ĠIntegrated":8039,"ĠProfess":8040,"ĠPositioning":8041,"Ġsummarize":8042,"Ġfirms":8043,"ĠRoadmap":8044,"ĠSPUR":8045,"Ġperceptions":8046,"ĠJohn":8047,"Ġsuspicious":8048,"Ġindispensable":8049,"Ġresponses":8050,"Ġtedious":8051,"aturally":8052,"Ġtougher":8053,"ĠImagine":8054,"ignificant":8055,"Ġsubsequent":8056,"ĠEnglish":8057,"Res":8058,"THR":8059,"aired":8060,"bly":8061,"break":8062,"cers":8063,"chers":8064,"elect":8065,"fired":8066,"gments":8067,"iers":8068,"kes":8069,"rase":8070,"system":8071,"site":8072,"ued":8073,"erb":8074,"erving":8075,"Ġpage":8076,"eside":8077,"Ġbone":8078,"Ġbought":8079,"edu":8080,"Ġfruits":8081,"Ġinhib":8082,"Ġmaster":8083,"Ġdro":8084,"entions":8085,"road":8086,"arrow":8087,"Ġnarrow":8088,"Ġrent":8089,"ctob":8090,"los":8091,"ldly":8092,"omed":8093,"ching":8094,"versible":8095,"Ġonset":8096,"Ġconduc":8097,"ĠID":8098,"ĠIM":8099,"Ġenact":8100,"uccess":8101,"ĠSil":8102,"Ġstar":8103,"Ġheater":8104,"Ġexac":8105,"ares":8106,"amil":8107,"adic":8108,"Ġimper":8109,"Ġimpaired":8110,"Ġreserve":8111,"ĠFederal":8112,"Ġincomple":8113,"ĠCost":8114,"ĠThanks":8115,"ĠMN":8116,"ĠMo":8117,"quality":8118,"Ġcomplement":8119,"ĠWWI":8120,"Ġpregn":8121,"Ġpreval":8122,"Ġabused":8123,"Ġvent":8124,"izers":8125,"Ġdoor":8126,"Ġleaking":8127,"ĠGold":8128,"ĠNatural":8129,"ĠOper":8130,"ĠOctob":8131,"Ġmedisave":8132,"Ġemits":8133,"sians":8134,"Ġsystematic":8135,"ĠVTHR":8136,"Ġtrapped":8137,"ĠDig":8138,"ĠLine":8139,"ĠLarge":8140,"Ġsurpass":8141,"Ġrisen":8142,"Ġwellness":8143,"Ġimproper":8144,"Ġbug":8145,"Ġinnovating":8146,"cared":8147,"Ġlessons":8148,"Ġrod":8149,"Ġacknow":8150,"Ġburnt":8151,"asses":8152,"Ġhandy":8153,"ĠSerendip":8154,"Ġinclined":8155,"Ġshortages":8156,"Ġmodifying":8157,"Ġsection":8158,"Ġlacks":8159,"Ġilliterate":8160,"Ġphysics":8161,"Ġsubsidize":8162,"Ġchallenger":8163,"Ġboard":8164,"ĠIntell":8165,"Ġevolution":8166,"Ġtermed":8167,"Ġgrade":8168,"Ġbanks":8169,"ĠYou":8170,"Ġenvironmentalists":8171,"ĠAllen":8172,"Ġpresented":8173,"Ġdetecting":8174,"board":8175,"Ġstructured":8176,"ĠProviding":8177,"Ġprospective":8178,"Ġinheritable":8179,"Ġsteal":8180,"Ġapproaching":8181,"Ġattracting":8182,"Ġfulfilled":8183,"Ġpersu":8184,"Ġbrighter":8185,"versely":8186,"Ġpeak":8187,"Ġanalyzed":8188,"Ġrevised":8189,"Ġrestriction":8190,"Ġchecks":8191,"rupt":8192,"Ġcollapsed":8193,"Ġtrends":8194,"ĠEverything":8195,"Ġoptimal":8196,"Ġoptimize":8197,"Ġdomains":8198,"Ġarray":8199,"Ġarrived":8200,"mitting":8201,"Ġremoving":8202,"Ġemerging":8203,"Ġstaffs":8204,"ĠArchitect":8205,"Ġrejected":8206,"Ġstimulated":8207,"ĠEmployment":8208,"Ġhotels":8209,"Ġtemporarily":8210,"Ġdeduct":8211,"Ġfatalities":8212,"Ġsymptom":8213,"risk":8214,"radiation":8215,"Ġunwanted":8216,"Ġcompetitors":8217,"Ġcriticism":8218,"ĠCorpor":8219,"Ġluxury":8220,"Ġprospects":8221,"Ġversus":8222,"Ġpenet":8223,"Ġinsurers":8224,"Therefore":8225,"Ġirreversible":8226,"ĠMedicine":8227,"Ġtransformed":8228,"Ġfertilization":8229,"Ġharvest":8230,"Ġretailers":8231,"Ġtelecommunication":8232,"Ġearthquakes":8233,"ĠMajor":8234,"ĠRegarding":8235,"ĠSweden":8236,"Ġrigorous":8237,"economic":8238,"ĠTourism":8239,"ĠWhether":8240,"Ġabnormal":8241,"ĠAlexander":8242,"ĠDavid":8243,"ĠKhal":8244,"Ġconducive":8245,"uccessful":8246,"Ġexacerb":8247,"ĠOctober":8248,"15":8249,"26":8250,"27":8251,"39":8252,"40":8253,"AC":8254,"CS":8255,"GE":8256,"OM":8257,"UP":8258,"bide":8259,"cin":8260,"cest":8261,"cri":8262,"dated":8263,"fare":8264,"fuel":8265,"gon":8266,"gas":8267,"ham":8268,"ih":8269,"ij":8270,"iences":8271,"million":8272,"nes":8273,"right":8274,"ube":8275,"yl":8276,"ynt":8277,"Ġub":8278,"Ġton":8279,"Ġtim":8280,"Ġtub":8281,"heart":8282,"Ġaven":8283,"ona":8284,"oning":8285,"enry":8286,"encer":8287,"Ġsul":8288,"Ġost":8289,"Ġcuring":8290,"Ġpion":8291,"Ġpil":8292,"Ġwage":8293,"isure":8294,"issile":8295,"Ġbow":8296,"Ġbrow":8297,"Ġfly":8298,"Ġfate":8299,"Ġfish":8300,"Ġancient":8301,"lege":8302,"Ġdial":8303,"icted":8304,"oud":8305,"Ġeat":8306,"Ġele":8307,"Ġhards":8308,"Ġhalt":8309,"Ġreused":8310,"asaki":8311,"Ġthick":8312,"Ġthirty":8313,"ilty":8314,"ationally":8315,"Ġproactive":8316,"ĠTata":8317,"cel":8318,"iguous":8319,"Ġasking":8320,"Ġconvers":8321,"owder":8322,"heric":8323,"opic":8324,"Ġending":8325,"ull":8326,"iest":8327,"ĠSc":8328,"ĠSyndrome":8329,"Ġstone":8330,"Ġhes":8331,"unal":8332,"ĠAriz":8333,"Ġwithhold":8334,"ureau":8335,"Ġshot":8336,"aren":8337,"ends":8338,"Ġimages":8339,"apid":8340,"ĠHong":8341,"ĠHenry":8342,"ichip":8343,"ĠInc":8344,"ĠIncome":8345,"esteem":8346,"Ġimpending":8347,"Ġeldercare":8348,"Ġsport":8349,"Ġrated":8350,"Ġrational":8351,"ĠFord":8352,"ĠFood":8353,"access":8354,"ĠMc":8355,"ĠMent":8356,"ques":8357,"Ġsevent":8358,"Ġatoms":8359,"Ġdesper":8360,"Ġworkload":8361,"conception":8362,"Ġcomposition":8363,"Ġlocked":8364,"istically":8365,"undance":8366,"odes":8367,"Ġpret":8368,"Ġabundance":8369,"Ġprocessed":8370,"Ġmanually":8371,"ongiorno":8372,"ĠBack":8373,"ĠBureau":8374,"Ġvill":8375,"Ġcontrad":8376,"Ġinduc":8377,"ires":8378,"ventional":8379,"ĠRel":8380,"ĠRapid":8381,"Ġintense":8382,"forces":8383,"Ġleisure":8384,"gineering":8385,"ĠGra":8386,"ĠNag":8387,"Ġkin":8388,"ievable":8389,"ĠOS":8390,"ĠOut":8391,"ĠOlder":8392,"ĠEnt":8393,"Ġarmy":8394,"abin":8395,"Ġunh":8396,"Ġuncont":8397,"ricular":8398,"ĠVol":8399,"ĠVel":8400,"Ġtrace":8401,"ĠLa":8402,"ĠLow":8403,"Ġimported":8404,"Ġampl":8405,"Ġhumanity":8406,"Ġmakeup":8407,"Ġinstill":8408,"Ġelectro":8409,"Ġbenefitted":8410,"ueling":8411,"Ġpartner":8412,"Ġretro":8413,"Ġretrieved":8414,"Ġcoated":8415,"Ġcook":8416,"ribunal":8417,"iovas":8418,"pection":8419,"Ġinflex":8420,"ĠGenome":8421,"Ġcontributors":8422,"Ġsitting":8423,"Ġtransp":8424,"Ġtransplant":8425,"Ġspeak":8426,"Ġdemanded":8427,"ĠKong":8428,"ĠKuan":8429,"Ġseeing":8430,"Ġ2025":8431,"Ġsmoking":8432,"Ġminutes":8433,"Ġshortcom":8434,"Ġmoder":8435,"Ġrefused":8436,"Ġrefueling":8437,"Ġ53":8438,"Ġ54":8439,"gencies":8440,"Ġoccas":8441,"aware":8442,"Ġconsumes":8443,"Ġ47":8444,"Ġyoungsters":8445,"ĠProtect":8446,"ĠProblems":8447,"Ġsenile":8448,"Ġ1993":8449,"Ġexpectancies":8450,"Ġintervene":8451,"Ġphysicians":8452,"Ġhardworking":8453,"Ġergonom":8454,"Ġimmun":8455,"Ġcontroll":8456,"Ġtells":8457,"Ġtransported":8458,"Ġexplored":8459,"Ġcompetent":8460,"Ġmeasured":8461,"Ġcorners":8462,"Ġaided":8463,"Ġsale":8464,"ronted":8465,"Ġforesee":8466,"Ġconfronted":8467,"Ġhub":8468,"Ġclothing":8469,"Ġterminal":8470,"Ġenhances":8471,"ĠWorking":8472,"Ġbanking":8473,"ĠYew":8474,"located":8475,"Ġ74":8476,"Ġ78":8477,"Ġguilty":8478,"Ġended":8479,"Ġnorms":8480,"Ġ85":8481,"Ġ88":8482,"Ġreleases":8483,"Ġ101":8484,"Ġcritically":8485,"Ġmentality":8486,"iquitous":8487,"Ġautomated":8488,"Ġdiscussing":8489,"Ġusefulness":8490,"Ġlearnt":8491,"Ġrespected":8492,"Ġrecognizing":8493,"Ġprofession":8494,"Ġweaker":8495,"Ġdebris":8496,"Ġmisconception":8497,"Ġassociate":8498,"Ġmov":8499,"ĠMexic":8500,"Ġimplantation":8501,"Ġimplantable":8502,"Ġgains":8503,"Ġexposing":8504,"Ġdiagnose":8505,"Ġhindrance":8506,"Ġflood":8507,"Ġcirculation":8508,"ĠMalaysians":8509,"Ġvisually":8510,"Ġsensors":8511,"Ġsword":8512,"Ġappears":8513,"Ġdiscussions":8514,"Ġobstruct":8515,"Ġoptimized":8516,"Ġoptimistic":8517,"ĠKorean":8518,"Ġapartment":8519,"ĠSpencer":8520,"ĠGerst":8521,"Ġsunlight":8522,"Ġarrive":8523,"Ġaccurately":8524,"Ġfairly":8525,"Ġneighboring":8526,"ĠSystems":8527,"Ġcriterion":8528,"Ġemergencies":8529,"Ġviolates":8530,"Ġassumed":8531,"Ġmotivated":8532,"Ġstrengths":8533,"Ġversion":8534,"ĠBuongiorno":8535,"ĠÃĥ":8536,"ĠiP":8537,"ĠPlant":8538,"Ġprinter":8539,"Ġattempts":8540,"Ġextensively":8541,"Ġfaulty":8542,"Ġwonderful":8543,"Ġjoining":8544,"Ġhouseholds":8545,"ĠAustralian":8546,"Ġadjustments":8547,"Ġconsultation":8548,"Ġrailings":8549,"Ġrailway":8550,"Ġconvince":8551,"Ġdeadly":8552,"Ġinputs":8553,"Ġkilowatt":8554,"Ġcounselling":8555,"Ġpoliticians":8556,"Ġupdated":8557,"ĠSMRT":8558,"Ġweeks":8559,"Ġinfections":8560,"Ġchooses":8561,"Ġbrake":8562,"ĠPatients":8563,"ĠWellness":8564,"Ġpipes":8565,"Ġpiping":8566,"Ġmonopoly":8567,"Ġbooks":8568,"Ġdelayed":8569,"Ġmalign":8570,"Ġpull":8571,"Ġhabits":8572,"ĠCollege":8573,"Ġintelligence":8574,"ĠAnyway":8575,"Ġexchanger":8576,"Ġcalculations":8577,"Ġtumors":8578,"Ġrectify":8579,"Ġcompensate":8580,"ĠModel":8581,"ĠPresident":8582,"ĠNeil":8583,"Ġinvaded":8584,"iatric":8585,"Ġdrivers":8586,"Ġadapted":8587,"Ġcaregivers":8588,"Ġsparked":8589,"ĠEnvironment":8590,"Ġmelting":8591,"ĠLinux":8592,"ĠSupporters":8593,"Ġenemy":8594,"Ġprudent":8595,"Ġignorant":8596,"ĠAutom":8597,"ĠDisease":8598,"Ġfortunate":8599,"pressure":8600,"Ġexpertise":8601,"Ġdensity":8602,"Ġaggrav":8603,"ĠPaul":8604,"ĠLewan":8605,"Ġequivalent":8606,"ĠHeathfield":8607,"Ġcolleagues":8608,"ĠProfessor":8609,"Ġincomplete":8610,"Ġprevalent":8611,"ynthesis":8612,"Ġubiquitous":8613,"Ġpione":8614,"ĠArizona":8615,"ĠNagasaki":8616,"iovascular":8617,"Ġshortcomings":8618,"CP":8619,"Cs":8620,"TS":8621,"born":8622,"called":8623,"dr":8624,"family":8625,"got":8626,"gile":8627,"nd":8628,"natal":8629,"oe":8630,"ocr":8631,"sur":8632,"sufficient":8633,"ters":8634,"upp":8635,"word":8636,"Ġtrial":8637,"Ġtiles":8638,"Ġson":8639,"Ġsam":8640,"Ġsizes":8641,"itation":8642,"anger":8643,"Ġmixt":8644,"ales":8645,"Ġdon":8646,"Ġdim":8647,"Ġdos":8648,"arian":8649,"Ġecommerce":8650,"Ġeldly":8651,"Ġreactive":8652,"Ġbearing":8653,"Ġgro":8654,"ĠTill":8655,"cell":8656,"Ġlim":8657,"stood":8658,"Ġforcing":8659,"Ġforgot":8660,"Ġconj":8661,"Ġsuited":8662,"ĠSun":8663,"ĠAward":8664,"Ġcancers":8665,"Ġusability":8666,"amin":8667,"lderly":8668,"apse":8669,"Ġimpetus":8670,"Ġimpede":8671,"Ġresid":8672,"ĠCr":8673,"ĠCap":8674,"Ġshoulder":8675,"Ġcounty":8676,"Ġcountless":8677,"eman":8678,"ĠMer":8679,"ĠMas":8680,"ĠMem":8681,"ĠMult":8682,"ĠMuch":8683,"Ġloans":8684,"Ġprede":8685,"ĠBusiness":8686,"Ġvit":8687,"Ġvice":8688,"ĠNR":8689,"ĠNature":8690,"ĠNove":8691,"ĠEr":8692,"ĠEv":8693,"Ġrelies":8694,"abric":8695,"Ġoutbreak":8696,"Ġuncon":8697,"Ġunfore":8698,"Ġunrelated":8699,"Ġyearly":8700,"Ġadvices":8701,"Ġinnovated":8702,"ĠAltern":8703,"Ġphrase":8704,"ressing":8705,"achs":8706,"Ġsecre":8707,"Ġinfer":8708,"Ġemployable":8709,"ĠJe":8710,"aken":8711,"Ġconstitutes":8712,"Ġstudied":8713,"iminary":8714,"Ġowner":8715,"Ġoffices":8716,"coaled":8717,"ĠKel":8718,"Ġinsert":8719,"Ġmaternity":8720,"Ġclients":8721,"lessly":8722,"Ġrealistic":8723,"Ġassign":8724,"Ġassert":8725,"Ġpayers":8726,"Ġremedy":8727,"genetic":8728,"Ġinterface":8729,"Ġformation":8730,"Ġformula":8731,"Ġsubsidise":8732,"Ġeradic":8733,"Ġauto":8734,"Ġexploited":8735,"Ġmethodology":8736,"Ġcompeting":8737,"ĠWhy":8738,"Ġbooming":8739,"Ġforecast":8740,"thes":8741,"Ġseemed":8742,"Ġseemingly":8743,"ĠDecl":8744,"Ġguard":8745,"Ġguards":8746,"Ġends":8747,"porary":8748,"Ġpromotion":8749,"Ġinflux":8750,"Ġshapes":8751,"Ġelabor":8752,"Ġimplants":8753,"Ġremained":8754,"ĠResearchers":8755,"Ġethically":8756,"Ġspecialized":8757,"ĠConcern":8758,"Ġsuggestions":8759,"Ġ96":8760,"Ġcycles":8761,"Ġaddresses":8762,"Ġ---":8763,"Ġundergoes":8764,"2008":8765,"Ġrecognised":8766,"Ġconnecting":8767,"Ġmissing":8768,"ĠLFRs":8769,"Ġgaining":8770,"Ġfullest":8771,"Ġbegins":8772,"Ġeliminates":8773,"Ġpeers":8774,"Ġopening":8775,"ĠPeter":8776,"Ġquestionable":8777,"Ġcommitting":8778,"Ġchanneling":8779,"Ġfunctioning":8780,"ĠExper":8781,"Ġsimplify":8782,"Ġunsatisf":8783,"ĠIndonesian":8784,"Ġdeclined":8785,"Ġsounds":8786,"Ġadequately":8787,"Ġlinks":8788,"Ġcopying":8789,"Ġembar":8790,"Ġsunsh":8791,"Ġpossesses":8792,"Ġsettings":8793,"ĠShan":8794,"ĠShould":8795,"Ġobstacle":8796,"Ġvirtually":8797,"Ġperfectly":8798,"Ġpursuing":8799,"Ġalleviating":8800,"Ġreflected":8801,"Ġincorporating":8802,"Ġmuscles":8803,"Ġbackgrounds":8804,"Ġverify":8805,"Ġacquired":8806,"Ġreminds":8807,"Ġreminder":8808,"reliant":8809,"Ġgrounds":8810,"Ġbeds":8811,"Ġbelongs":8812,"ĠSpecial":8813,"Ġuncertainties":8814,"Ġhopes":8815,"Ġmechanism":8816,"Ġprecisely":8817,"Ġneutron":8818,"Ġprolonged":8819,"Ġkidnapped":8820,"Ġviruses":8821,"Ġfragile":8822,"Ġisolate":8823,"ĠEspecially":8824,"Ġadvertising":8825,"Ġthorough":8826,"Ġdisturbance":8827,"Ġrequested":8828,"Ġliber":8829,"Ġpreparations":8830,"Ġneighbouring":8831,"ĠSmall":8832,"ĠRegulatory":8833,"Ġsafeguards":8834,"ĠMotor":8835,"Ġsharply":8836,"Ġearnings":8837,"Ġdemonstrate":8838,"Ġscenarios":8839,"Ġslightly":8840,"Ġlengthen":8841,"Ġclimbing":8842,"ĠInfrast":8843,"Ġimparting":8844,"Ġrespondents":8845,"Ġmarginal":8846,"designed":8847,"Ġplagiarism":8848,"Ġrender":8849,"struction":8850,"ĠChangi":8851,"Ġrecommended":8852,"Ġhorrible":8853,"Ġcoordination":8854,"Ġlanguage":8855,"Ġangle":8856,"Ġbeautiful":8857,"Ġhackers":8858,"ĠHeart":8859,"Ġofficers":8860,"Ġrecip":8861,"Ġoutdoor":8862,"Ġinfringement":8863,"Ġinappropriate":8864,"Ġcommented":8865,"Ġfraction":8866,"Ġexcuse":8867,"Ġcompatible":8868,"Ġpandemic":8869,"Ġcontemporary":8870,"ĠPolytechn":8871,"Ġmisunderstanding":8872,"ĠMNCs":8873,"Ġacknowledge":8874,"ĠKhalik":8875,"Ġlimbs":8876,"Ġpredecess":8877,"31":8878,"66":8879,"94":8880,"AV":8881,"Al":8882,"Fi":8883,"It":8884,"NP":8885,"Te":8886,"bur":8887,"discrimination":8888,"eing":8889,"efficiency":8890,"equipped":8891,"elderly":8892,"fall":8893,"ga":8894,"hour":8895,"mod":8896,"mia":8897,"ox":8898,"oint":8899,"poll":8900,"powder":8901,"rates":8902,"vitro":8903,"win":8904,"went":8905,"wind":8906,"ycar":8907,"Ġ*":8908,"Ġ000":8909,"Ġtall":8910,"inst":8911,"reg":8912,"reoty":8913,"eries":8914,"Ġsan":8915,"Ġsem":8916,"Ġsought":8917,"Ġsyndrome":8918,"Ġscared":8919,"Ġoxide":8920,"Ġought":8921,"Ġpit":8922,"Ġped":8923,"Ġpou":8924,"Ġpel":8925,"Ġ...":8926,"orized":8927,"Ġbure":8928,"Ġbath":8929,"Ġtomat":8930,"anol":8931,"anies":8932,"ancial":8933,"anasia":8934,"Ġfan":8935,"Ġfend":8936,"Ġfem":8937,"Ġfissile":8938,"Ġinduce":8939,"Ġmixed":8940,"alyst":8941,"alys":8942,"Ġdwind":8943,"icon":8944,"icity":8945,"ioned":8946,"rosis":8947,"Ġhus":8948,"Ġhost":8949,"Ġhosp":8950,"Ġnan":8951,"Ġnitro":8952,"ctu":8953,"ili":8954,"Ġisot":8955,"Ġgym":8956,"Ġgau":8957,"uset":8958,"omal":8959,"omas":8960,"mentation":8961,"ĠTai":8962,"ĠTMI":8963,"urable":8964,"irt":8965,"Ġdegra":8966,"Ġdegen":8967,"Ġcondu":8968,"ulc":8969,"Ġalign":8970,"olt":8971,"olved":8972,"ithium":8973,"ĠSever":8974,"ĠScho":8975,"ĠSony":8976,"ĠSBS":8977,"Ġsto":8978,"Ġstays":8979,"Ġstair":8980,"Ġheard":8981,"ĠAre":8982,"rapped":8983,"Ġshy":8984,"Ġshield":8985,"ellow":8986,"ama":8987,"Ġtech":8988,"apy":8989,"ĠHistory":8990,"geoning":8991,"ester":8992,"estri":8993,"pple":8994,"Ġimperative":8995,"Ġimpractical":8996,"Ġspo":8997,"umat":8998,"umerous":8999,"Ġhass":9000,"Ġdisap":9001,"Ġround":9002,"Ġincidence":9003,"Ġincidences":9004,"ĠCE":9005,"ĠCam":9006,"ĠCong":9007,"ĠCooled":9008,"ĠCivil":9009,"Ġcha":9010,"ache":9011,"ĠThail":9012,"ĠThomas":9013,"ĠMP":9014,"ĠMys":9015,"ĠMiles":9016,"osh":9017,"osis":9018,"aste":9019,"Ġadmitted":9020,"Ġadhesive":9021,"Ġcompos":9022,"Ġpreced":9023,"Ġmail":9024,"ĠBl":9025,"ĠBall":9026,"ĠBaid":9027,"ĠBetter":9028,"outube":9029,"Ġcontag":9030,"irement":9031,"ially":9032,"ĠGu":9033,"ĠPast":9034,"ĠNation":9035,"ĠNumerous":9036,"Ġkills":9037,"Ġwashing":9038,"ystic":9039,"Ġempt":9040,"Ġunint":9041,"Ġunaware":9042,"Ġprovince":9043,"ĠVI":9044,"Ġtraits":9045,"ĠDC":9046,"ĠDen":9047,"ĠLif":9048,"ĠLond":9049,"ĠLIF":9050,"ĠLoc":9051,"efined":9052,"Ġamaz":9053,"Ġdecomm":9054,"Ġdiffers":9055,"Ġovernight":9056,"ditional":9057,"Ġcommand":9058,"rowing":9059,"ructuring":9060,"Ġinformal":9061,"Ġserved":9062,"Ġundoubtedly":9063,"Ġterrible":9064,"ĠWithin":9065,"Ġretiring":9066,"Ġattach":9067,"Ġque":9068,"Ġfacility":9069,"Ġrisky":9070,"Ġunderwent":9071,"ĠChair":9072,"Ġrooms":9073,"achuset":9074,"Ġinfra":9075,"Ġinflic":9076,"Ġwherever":9077,"entially":9078,"Ġdepos":9079,"Ġburgeoning":9080,"ckets":9081,"ĠJen":9082,"ĠJack":9083,"Ġdefend":9084,"Ġextension":9085,"phur":9086,"phones":9087,"Ġ34":9088,"Ġmemor":9089,"Ġsigned":9090,"Ġregional":9091,"Ġmarks":9092,"Ġdemanding":9093,"Ġ66":9094,"Ġideology":9095,"ĠKy":9096,"Ġinsignificant":9097,"Ġinspection":9098,"Ġpolicymakers":9099,"Ġsmoke":9100,"Ġrealization":9101,"Ġrealised":9102,"Ġprotoc":9103,"ĠSte":9104,"ĠStan":9105,"Ġcaptain":9106,"Ġ5000":9107,"intensive":9108,"Ġ46":9109,"Ġ48":9110,"ĠProto":9111,"ĠProponents":9112,"Ġprompted":9113,"Ġ1992":9114,"Ġexpecting":9115,"Ġexpectation":9116,"Ġpurification":9117,"Ġglobalised":9118,"Ġsubsidised":9119,"dered":9120,"Ġimmature":9121,"Ġautonom":9122,"Ġpassively":9123,"Ġcommunications":9124,"ronics":9125,"Ġvalve":9126,"Ġrecall":9127,"ibrosis":9128,"Ġconvention":9129,"odynam":9130,"resistant":9131,"Ġtaxing":9132,"Ġtaxation":9133,"Ġorganize":9134,"Ġ1981":9135,"Ġairb":9136,"Ġ71":9137,"Ġ73":9138,"Ġbirthrate":9139,"Ġ850":9140,"ĠAndre":9141,"Ġutility":9142,"Ġutilities":9143,"Ġsupplying":9144,"ĠActive":9145,"Ġelig":9146,"Ġprogression":9147,"Ġsupervis":9148,"Ġmanageable":9149,"Ġethic":9150,"Ġcontinuity":9151,"ĠAdding":9152,"Ġspecies":9153,"Ġmanufactured":9154,"Ġcharity":9155,"ĠConversely":9156,"Ġsatisfies":9157,"Ġ900":9158,"ĠCompanies":9159,"uthanasia":9160,"Ġcattle":9161,"Ġcatalyst":9162,"Ġemotions":9163,"together":9164,"Ġpopularization":9165,"Ġobjection":9166,"Ġwarn":9167,"Ġcovering":9168,"Ġprofessor":9169,"Ġwrist":9170,"employed":9171,"Ġcollision":9172,"Ġparam":9173,"Ġmole":9174,"Ġmorale":9175,"Ġsizeable":9176,"Ġboosts":9177,"Ġgraduates":9178,"Ġdiagnost":9179,"Ġobtaining":9180,"Ġproportionately":9181,"Ġposts":9182,"Ġcultures":9183,"Ġbrother":9184,"ĠFinancial":9185,"Ġblame":9186,"Ġcontractor":9187,"Ġrevol":9188,"ĠMalaysian":9189,"Ġintegral":9190,"Ġintegration":9191,"Ġreprocessed":9192,"Ġresolution":9193,"Ġvolat":9194,"Ġpsychologically":9195,"Ġtourist":9196,"Ġcorrective":9197,"Ġdisposed":9198,"Ġdeclared":9199,"Ġaccumulating":9200,"Ġcollecting":9201,"ĠKoreans":9202,"Ġbrains":9203,"Ġfacilitates":9204,"Ġfacial":9205,"Ġsunset":9206,"Ġencountering":9207,"ennis":9208,"Ġleadership":9209,"Ġcardiovascular":9210,"Ġatmospheric":9211,"Ġdeteriorates":9212,"Ġstrained":9213,"Ġfavour":9214,"Ġcompromising":9215,"Ġexpanded":9216,"Ġgaming":9217,"Ġurgently":9218,"Ġincorporate":9219,"Ġfluctu":9220,"Ġforgetting":9221,"Ġsearching":9222,"Ġgeographic":9223,"Ġgeothermal":9224,"Ġheading":9225,"Ġacquiring":9226,"ĠEconomist":9227,"Ġdiction":9228,"Ġconcentration":9229,"ĠPlan":9230,"Ġpanel":9231,"Ġjoy":9232,"Ġphoto":9233,"Ġpeaceful":9234,"Ġhopefully":9235,"Ġharness":9236,"Ġeyesight":9237,"Ġsacrificed":9238,"Ġtriple":9239,"Ġdesires":9240,"Ġconsistent":9241,"Ġillustrated":9242,"Ġundeniably":9243,"ĠMaybe":9244,"Ġappeal":9245,"Ġtranslates":9246,"Ġteacher":9247,"Ġwebsites":9248,"Ġstreet":9249,"Ġrepresenting":9250,"ĠSMEs":9251,"ĠCarbon":9252,"Ġtoilet":9253,"Ġvisitors":9254,"Ġlenses":9255,"Ġinfected":9256,"Ġinfection":9257,"Ġinjected":9258,"Ġtragedies":9259,"Ġpolluting":9260,"Ġrepeated":9261,"ĠTracking":9262,"Ġmonopol":9263,"Ġownership":9264,"Ġrewarding":9265,"Ġdeployment":9266,"ĠMassachuset":9267,"Ġpermanently":9268,"ĠDawn":9269,"Ġpatterns":9270,"Ġintelligent":9271,"Ġprisoners":9272,"Ġthermo":9273,"Ġeighty":9274,"Ġinterference":9275,"Ġmicrochips":9276,"ĠDefense":9277,"Ġillegal":9278,"ĠIndustry":9279,"Ġfunny":9280,"Ġinspired":9281,"Ġbulky":9282,"dependency":9283,"Ġninet":9284,"Ġsponsors":9285,"Ġsequence":9286,"Ġreference":9287,"Ġkilometers":9288,"Ġdivor":9289,"Ġpracticing":9290,"ĠImprove":9291,"Ġscholarships":9292,"Ġstabilize":9293,"ĠPolitical":9294,"Ġinsurances":9295,"PACT":9296,"ĠTerror":9297,"Ġexecutives":9298,"Ġcandidate":9299,"Ġenthusi":9300,"curricular":9301,"speed":9302,"enza":9303,"Ġbirds":9304,"Ġmortality":9305,"Ġmishap":9306,"Ġanswer":9307,"Ġstigma":9308,"Ġspirit":9309,"Ġcoincidence":9310,"ĠKnowing":9311,"Ġirrigation":9312,"Ġirresponsible":9313,"systems":9314,"Ġdropped":9315,"ĠIMPACT":9316,"cription":9317,"Ġsulphur":9318,"Ġelev":9319,"ĠMentor":9320,"Ġunhapp":9321,"Ġergonomics":9322,"Ġimmunity":9323,"ĠMexico":9324,"ĠGerstner":9325,"Ġmalignant":9326,"Ġforgotten":9327,"Ġrecipients":9328,"moderated":9329,"Ġpedestri":9330,"Ġpellets":9331,"Ġbureauc":9332,"Ġtomato":9333,"Ġdwindling":9334,"Ġhusband":9335,"Ġnitrogen":9336,"ĠSeveral":9337,"ĠSchoen":9338,"Ġstairc":9339,"ĠThailand":9340,"ĠMyspace":9341,"ĠBaidu":9342,"Ġcontagious":9343,"Ġempty":9344,"ĠLondon":9345,"ĠLIFE":9346,"Ġdecommission":9347,"ĠProtocol":9348,"Ġsupervisors":9349,"ĠMassachusetts":9350,"IA":9351,"Re":9352,"TU":9353,"ault":9354,"bol":9355,"bound":9356,"cn":9357,"cut":9358,"cue":9359,"dep":9360,"eas":9361,"hones":9362,"ipping":9363,"liminary":9364,"mon":9365,"mas":9366,"pir":9367,"rd":9368,"rust":9369,"sm":9370,"saving":9371,"uw":9372,"vin":9373,"Ġaer":9374,"Ġaesthe":9375,"rey":9376,"regard":9377,"ener":9378,"Ġoce":9379,"Ġpic":9380,"Ġpess":9381,"iture":9382,"angers":9383,"Ġfabric":9384,"Ġmir":9385,"Ġdual":9386,"roll":9387,"Ġeases":9388,"Ġnaturally":9389,"Ġrewards":9390,"astern":9391,"ctors":9392,"Ġgate":9393,"Ġgod":9394,"uses":9395,"Ġproving":9396,"Ġluc":9397,"eting":9398,"imistic":9399,"stop":9400,"stream":9401,"idst":9402,"otion":9403,"utious":9404,"Ġenl":9405,"ulg":9406,"olid":9407,"Ġstuff":9408,"ĠAged":9409,"ĠAAR":9410,"elior":9411,"Ġcomments":9412,"amous":9413,"Ġworn":9414,"ests":9415,"Ġimpress":9416,"Ġdisint":9417,"Ġdispose":9418,"Ġdisappro":9419,"Ġwearing":9420,"Ġrays":9421,"Ġrub":9422,"ĠFore":9423,"ĠFac":9424,"Ġchores":9425,"emb":9426,"ĠMart":9427,"bling":9428,"asters":9429,"Ġloy":9430,"ĠWatch":9431,"istor":9432,"Ġpreliminary":9433,"Ġabroad":9434,"Ġmanif":9435,"Ġvac":9436,"Ġconting":9437,"Ġintends":9438,"Ġlett":9439,"Ġeconomists":9440,"ĠPerson":9441,"ĠParent":9442,"ĠPract":9443,"ĠNTU":9444,"Ġaccord":9445,"Ġexpon":9446,"Ġupcoming":9447,"ĠEastern":9448,"Ġsomebody":9449,"Ġarrest":9450,"ĠVal":9451,"Ġtrad":9452,"Ġtraced":9453,"Ġtragic":9454,"ĠDet":9455,"ĠForm":9456,"ĠLand":9457,"Ġamelior":9458,"Ġdiscarded":9459,"Ġchildless":9460,"Ġdiseased":9461,"Ġinstability":9462,"ĠVHTRs":9463,"Ġnovel":9464,"Ġcoin":9465,"Ġcoating":9466,"Ġattending":9467,"Ġattended":9468,"Ġlessened":9469,"Ġsecuring":9470,"Ġinfl":9471,"Ġdepth":9472,"ĠJones":9473,"Ġallowances":9474,"Ġcreations":9475,"Ġconstitute":9476,"Ġtransit":9477,"Ġtransition":9478,"Ġ32":9479,"ĠUnit":9480,"ĠUnden":9481,"ĠRele":9482,"ĠStill":9483,"Ġassurance":9484,"Ġsets":9485,"Ġstanding":9486,"Ġfeels":9487,"Ġtrainings":9488,"Ġdeterrence":9489,"Ġforming":9490,"Ġscr":9491,"ĠWee":9492,"ollar":9493,"ollapse":9494,"Ġmaker":9495,"ĠWho":9496,"Ġbox":9497,"Ġopens":9498,"Ġdaugh":9499,"Ġterminate":9500,"Ġadds":9501,"Ġseverity":9502,"Ġaccounted":9503,"Ġaffordability":9504,"ĠResource":9505,"Ġparticles":9506,"ĠDec":9507,"Ġclaiming":9508,"Ġessentially":9509,"Ġ81":9510,"print":9511,"Ġbreaking":9512,"Ġunderstandable":9513,"Ġstatistical":9514,"comed":9515,"Ġportions":9516,"Ġprogresses":9517,"Ġsuperv":9518,"Ġrefrigeration":9519,"Ġlanding":9520,"Ġworkshop":9521,"Ġperiods":9522,"ĠGenetics":9523,"Ġsatisfactory":9524,"Ġemphasizes":9525,"Ġutilizes":9526,"ondering":9527,"Ġstereoty":9528,"Ġweakened":9529,"Ġreproduce":9530,"Ġmisused":9531,"Ġmood":9532,"Ġmoved":9533,"Ġviability":9534,"Ġworthwhile":9535,"Ġdeplete":9536,"Ġbreaks":9537,"Ġhindering":9538,"Ġinteracting":9539,"Ġposture":9540,"Ġleaked":9541,"Ġvisible":9542,"Ġabsor":9543,"Ġcheckups":9544,"ĠElderShield":9545,"Ġrevenues":9546,"Ġbonds":9547,"Ġorigin":9548,"ĠSpain":9549,"ĠHumans":9550,"Ġseparately":9551,"Ġcivilians":9552,"Ġprimarily":9553,"Ġinadequately":9554,"Ġbounded":9555,"Ġpursuit":9556,"Ġinertia":9557,"Ġcharacteristic":9558,"Ġconstrained":9559,"Ġdrawbacks":9560,"ĠDesigning":9561,"Ġredirect":9562,"Ġgrew":9563,"Ġenergetic":9564,"Ġconverters":9565,"Ġexplains":9566,"Ġqualities":9567,"Ġprolonging":9568,"Ġranking":9569,"Ġanxious":9570,"Ġexhaust":9571,"Ġaffluence":9572,"repared":9573,"Ġadvocate":9574,"Ġfavorable":9575,"Ġwatching":9576,"years":9577,"Ġprinciples":9578,"ĠIssue":9579,"Ġbankrupt":9580,"Ġconvincing":9581,"Ġsoldiers":9582,"Ġcatastrophes":9583,"Ġdemonstrated":9584,"Ġcurren":9585,"Ġshocking":9586,"Ġpicked":9587,"Ġexcite":9588,"Ġpulled":9589,"Ġburdensome":9590,"ĠControl":9591,"ĠQu":9592,"Ġescalate":9593,"Ġprohibited":9594,"Ġdischarged":9595,"Ġcultivating":9596,"Ġbicycle":9597,"Ġfatality":9598,"Ġwarfare":9599,"Ġtheoretical":9600,"Ġpropel":9601,"ĠNobel":9602,"Ġprivilege":9603,"Ġembrace":9604,"Ġsatellites":9605,"Ġalloys":9606,"Ġstagnation":9607,"Ġadministrative":9608,"Ġtaxpayers":9609,"Ġframework":9610,"Ġligament":9611,"Ġsuspects":9612,"Ġaccompanied":9613,"Ġprioritized":9614,"Ġcounterparts":9615,"Ġairplane":9616,"electric":9617,"ĠSilver":9618,"ĠSerendipity":9619,"ĠCorporation":9620,"ĠVolunt":9621,"driven":9622,"Ġconjunction":9623,"ĠNRC":9624,"ĠNovember":9625,"ĠAlternatively":9626,"Ġeradicate":9627,"Technology":9628,"Ġcomposite":9629,"Ġdiagnostic":9630,"Ġpedestrians":9631,"Ġpessimistic":9632,"Ġlucrative":9633,"ĠAARP":9634,"ĠMartin":9635,"Ġletters":9636,"Ġdaughter":9637,"05":9638,"06":9639,"24":9640,"35":9641,"500":9642,"96":9643,"900":9644,"BT":9645,"En":9646,"GS":9647,"GNP":9648,"However":9649,"LE":9650,"ME":9651,"MW":9652,"Ms":9653,"Save":9654,"SAE":9655,"View":9656,"aj":9657,"ev":9658,"ere":9659,"fo":9660,"fig":9661,"fund":9662,"funct":9663,"farin":9664,"gg":9665,"gering":9666,"gically":9667,"gaw":9668,"hy":9669,"iative":9670,"kg":9671,"lor":9672,"nest":9673,"oC":9674,"population":9675,"patient":9676,"ractors":9677,"sun":9678,"sest":9679,"surance":9680,"trained":9681,"uine":9682,"uya":9683,"vob":9684,"vail":9685,"viation":9686,"ysi":9687,"ygen":9688,"yyed":9689,"ze":9690,"zone":9691,"Ġtennis":9692,"Ġtsun":9693,"heed":9694,"heumat":9695,"Ġaro":9696,"Ġaud":9697,"inational":9698,"Ġthefts":9699,"resid":9700,"onest":9701,"ene":9702,"erry":9703,"Ġsank":9704,"Ġowing":9705,"Ġozone":9706,"Ġcul":9707,"Ġcoura":9708,"Ġcrop":9709,"Ġcodes":9710,"Ġpour":9711,"Ġpall":9712,"Ġpages":9713,"Ġpounds":9714,"atitude":9715,"Ġwww":9716,"orious":9717,"orosis":9718,"Ġborder":9719,"anch":9720,"anging":9721,"anny":9722,"Ġfi":9723,"Ġfine":9724,"Ġfather":9725,"Ġfilled":9726,"Ġfash":9727,"Ġfellow":9728,"Ġfibrosis":9729,"Ġmould":9730,"Ġmac":9731,"Ġmix":9732,"Ġmisc":9733,"Ġancest":9734,"Ġdin":9735,"Ġdat":9736,"Ġdil":9737,"Ġdark":9738,"iche":9739,"icient":9740,"Ġeating":9741,"Ġerect":9742,"Ġhired":9743,"Ġhorm":9744,"Ġrecept":9745,"Ġredesign":9746,"asqu":9747,"Ġthr":9748,"ilst":9749,"ilience":9750,"lock":9751,"losis":9752,"Ġgent":9753,"Ġgard":9754,"Ġgame":9755,"Ġpropose":9756,"ĠTam":9757,"ĠTri":9758,"ĠTets":9759,"ĠTribunal":9760,"Ġlag":9761,"Ġliable":9762,"etitive":9763,"stat":9764,"stract":9765,"idone":9766,"Ġarena":9767,"Ġasc":9768,"herland":9769,"opes":9770,"Ġenvis":9771,"Ġwhilst":9772,"Ġsue":9773,"Ġalerted":9774,"Ġaltogether":9775,"Ġagile":9776,"oling":9777,"olester":9778,"iesel":9779,"ĠSource":9780,"ĠSaving":9781,"ĠSvob":9782,"Ġstric":9783,"Ġstove":9784,"Ġstring":9785,"Ġstret":9786,"Ġstood":9787,"Ġheight":9788,"unch":9789,"iflu":9790,"ĠAT":9791,"ivision":9792,"cipl":9793,"Ġshad":9794,"anton":9795,"antly":9796,"arer":9797,"ortion":9798,"ortium":9799,"enders":9800,"ected":9801,"amb":9802,"ami":9803,"add":9804,"eoporosis":9805,"keep":9806,"ĠHu":9807,"ĠHom":9808,"ĠHapt":9809,"ĠHIV":9810,"ĠInsurance":9811,"ateful":9812,"Ġgenuine":9813,"Ġspare":9814,"uming":9815,"Ġdish":9816,"Ġdisp":9817,"Ġdisput":9818,"Ġdispar":9819,"Ġdisapp":9820,"Ġdismis":9821,"Ġdisregard":9822,"Ġdiscipl":9823,"Ġrip":9824,"Ġrural":9825,"Ġrats":9826,"Ġrheumat":9827,"ĠFar":9828,"ĠFree":9829,"ĠFSAE":9830,"Ġinculc":9831,"ĠCi":9832,"ĠCold":9833,"ĠCorm":9834,"Ġcounties":9835,"solete":9836,"emia":9837,"emphas":9838,"ĠMobile":9839,"ĠMax":9840,"asts":9841,"peridone":9842,"andem":9843,"Ġseat":9844,"Ġseeds":9845,"oneous":9846,"Ġsav":9847,"Ġsabot":9848,"Ġcompli":9849,"Ġcompounds":9850,"ĠWNA":9851,"oda":9852,"ĠBa":9853,"ĠBio":9854,"ĠBhop":9855,"Ġvap":9856,"Ġvib":9857,"ĠRM":9858,"Ġcosting":9859,"ourne":9860,"earance":9861,"ĠPM":9862,"ĠPension":9863,"ĠNeed":9864,"ĠNGNP":9865,"Ġkm":9866,"rencing":9867,"ĠEco":9868,"Ġrelig":9869,"Ġrelied":9870,"Ġrelieved":9871,"Ġsuppose":9872,"abase":9873,"Ġcarbide":9874,"Ġoutdated":9875,"Ġunion":9876,"Ġunim":9877,"Ġunatt":9878,"Ġprovisions":9879,"Ġconsensus":9880,"Ġconsortium":9881,"Ġcares":9882,"ĠVarious":9883,"agger":9884,"ĠDu":9885,"ĠDem":9886,"ĠDepend":9887,"ĠDivision":9888,"ĠLim":9889,"Ġsupportive":9890,"Ġimporting":9891,"ĠUAV":9892,"Ġamidst":9893,"ounded":9894,"Ġinvade":9895,"Ġoverflow":9896,"Ġadvise":9897,"Ġbetterment":9898,"Ġcommence":9899,"Ġelectronics":9900,"obs":9901,"Ġ1900":9902,"Ġ1930":9903,"Ġphysi":9904,"Ġretard":9905,"Ġretrain":9906,"Ġcoals":9907,"Ġquote":9908,"Ġquoted":9909,"Ġunderstood":9910,"ĠChap":9911,"ĠChrist":9912,"Ġrot":9913,"bercu":9914,"Ġtwent":9915,"Ġwasting":9916,"plan":9917,"Ġinvests":9918,"iums":9919,"otherapy":9920,"Ġnowhere":9921,"ĠGenIV":9922,"Ġgratitude":9923,"Ġfog":9924,"Ġtransmission":9925,"Ġhappier":9926,"Ġsimulation":9927,"Ġ68":9928,"Ġobsolete":9929,"Ġskim":9930,"ĠSeyyed":9931,"Ġinsights":9932,"Ġstrive":9933,"Ġclick":9934,"Ġseeks":9935,"Ġrealloc":9936,"ĠStaff":9937,"Ġnegot":9938,"Ġcaps":9939,"Ġshortened":9940,"Ġ58":9941,"genic":9942,"ews":9943,"Ġhyper":9944,"irectly":9945,"Ġ4000":9946,"Ġperformances":9947,"ĠProper":9948,"Ġaward":9949,"Ġawarded":9950,"Ġpercents":9951,"Ġexpectations":9952,"tees":9953,"Ġconstructive":9954,"rains":9955,"Ġformal":9956,"Ġprescription":9957,"ishun":9958,"Ġexpended":9959,"Ġimminent":9960,"ĠWeb":9961,"Ġproficient":9962,"Ġtransportations":9963,"ommun":9964,"Ġpassports":9965,"protect":9966,"Ġcorrid":9967,"ĠSCWRs":9968,"Ġchallenged":9969,"ortune":9970,"ĠHej":9971,"ronically":9972,"Ġforeseen":9973,"Ġstatements":9974,"Ġconfig":9975,"Ġdirector":9976,"ictory":9977,"Ġrecru":9978,"Ġclothes":9979,"Ġclosest":9980,"ĠMedia":9981,"ibly":9982,"Ġpractition":9983,"Ġarguing":9984,"Ġgrab":9985,"Ġgrades":9986,"atha":9987,"hole":9988,"Ġflip":9989,"Ġpreparing":9990,"Ġrestructuring":9991,"ĠResort":9992,"ĠResilience":9993,"ĠYoutube":9994,"ĠYishun":9995,"Ġfolk":9996,"Ġmeanwhile":9997,"Ġshares":9998,"ĠIndirectly":9999,"Ġdetermines":10000,"Ġassisting":10001,"Ġendanger":10002,"Ġsufficiently":10003,"ĠBeij":10004,"itories":10005,"Ġpollute":10006,"Ġcomputing":10007,"Ġsummer":10008,"Ġlighting":10009,"Ġinfluenza":10010,"Ġprogressed":10011,"Ġsupervision":10012,"Ġethanol":10013,"Ġtreas":10014,"Ġcellular":10015,"ĠAdvant":10016,"Ġspecified":10017,"Ġspecialists":10018,"Ġreaders":10019,"bein":10020,"Ġcomforts":10021,"Ġ97":10022,"Ġcyc":10023,"Ġcycl":10024,"Ġcataly":10025,"Ġemphasizing":10026,"Ġtravelers":10027,"Ġspeeding":10028,"Ġwrink":10029,"Ġmasses":10030,"Ġconnections":10031,"Ġprecision":10032,"Ġparking":10033,"ankind":10034,"ĠMegaw":10035,"Ġpositioning":10036,"ĠBoeing":10037,"Ġcatering":10038,"Ġbrands":10039,"Ġbreakdown":10040,"Ġmarvel":10041,"Ġwealthy":10042,"Ġprepares":10043,"Ġbroke":10044,"Ġdenying":10045,"Ġblack":10046,"Ġcommittees":10047,"anga":10048,"Ġrevise":10049,"Ġestimation":10050,"Ġstoring":10051,"ography":10052,"Ġinjuring":10053,"Ġresolving":10054,"Ġimmigrant":10055,"Ġabsence":10056,"Ġswift":10057,"Ġsimplification":10058,"Ġsimplicity":10059,"ruption":10060,"ĠWarfarin":10061,"Ġinvestigated":10062,"Ġkidney":10063,"Ġinitiate":10064,"Ġabandoning":10065,"Ġoptimally":10066,"Ġprototyping":10067,"Ġmeasurements":10068,"Ġstatuses":10069,"ĠAgatha":10070,"Ġirradiation":10071,"Ġsickle":10072,"Ġfairness":10073,"Ġdevised":10074,"Ġoccupy":10075,"Ġcivilization":10076,"Ġ187":10077,"Ġfitness":10078,"Ġboundaries":10079,"Ġunexpectedly":10080,"Ġdistribute":10081,"Ġpredictive":10082,"Ġviolated":10083,"ĠGrant":10084,"Ġbroadband":10085,"ĠPsychologists":10086,"Ġincorporates":10087,"Ġfluid":10088,"Ġassumption":10089,"ĠSkills":10090,"Ġlayers":10091,"ĠBuy":10092,"ĠRoberti":10093,"Ġworsened":10094,"Ġexpressed":10095,"products":10096,"ĠElectronic":10097,"Ġjoin":10098,"Ġcircumstance":10099,"Ġevaluation":10100,"Ġtapping":10101,"Ġcaught":10102,"Ġcautious":10103,"Ġexecution":10104,"Ġpaths":10105,"Ġwalkways":10106,"ĠInnovative":10107,"Ġblindly":10108,"Ġblindness":10109,"Ġ1945":10110,"ĠPerhaps":10111,"Ġsusceptibility":10112,"Ġdreams":10113,"Ġstrictly":10114,"Ġdisturbing":10115,"Ġcatchment":10116,"Ġcategory":10117,"Ġcategorized":10118,"Ġwishes":10119,"Ġ2400":10120,"Ġyields":10121,"Ġsmartphones":10122,"ĠStudents":10123,"ĠSubsid":10124,"Ġappreciated":10125,"Ġreinforced":10126,"Ġinfringes":10127,"Ġentitlement":10128,"Ġcorrosive":10129,"Ġdurable":10130,"Ġdurability":10131,"Ġinjection":10132,"ĠMediSave":10133,"Ġcele":10134,"Ġstriking":10135,"ĠLease":10136,"Ġsurfaced":10137,"Ġnewspapers":10138,"Ġlegisl":10139,"ASA":10140,"Ġnoticeable":10141,"Ġreviewing":10142,"Ġdeployed":10143,"ĠInvest":10144,"ĠDaily":10145,"Ġkiller":10146,"ĠContr":10147,"Ġaccelerated":10148,"Ġoxygen":10149,"Ġprohibit":10150,"Ġenforcement":10151,"Ġdischarge":10152,"Ġjeopardize":10153,"Ġcognition":10154,"Ġscanner":10155,"Ġpillar":10156,"Ġrepercussion":10157,"Ġdryers":10158,"Ġaggressively":10159,"ĠNetherland":10160,"ĠIndustrial":10161,"Ġcollaboration":10162,"Ġprecautionary":10163,"ĠCertainly":10164,"ĠPresently":10165,"Ġdriver":10166,"Ġcaregiver":10167,"ĠAssistance":10168,"Ġrecommend":10169,"Ġentrepreneurship":10170,"Ġsurpluses":10171,"ĠNobody":10172,"Ġretrench":10173,"Ġskeptics":10174,"Ġgeriatric":10175,"ĠYears":10176,"ĠAndrews":10177,"Ġpebble":10178,"Ġpebbles":10179,"Ġarrangements":10180,"Ġbreeder":10181,"Ġsessions":10182,"Ġcrowded":10183,"Ġborne":10184,"Ġbottom":10185,"Ġmilk":10186,"Ġmathematics":10187,"Ġincompet":10188,"Ġmanipulate":10189,"Ġambiguous":10190,"ĠJacques":10191,"Ġrestaurants":10192,"Ġmaturity":10193,"Ġaccomplish":10194,"Ġflourish":10195,"Ġmachinery":10196,"Ġstimulates":10197,"Ġtherapy":10198,"erprise":10199,"Ġcruel":10200,"ĠMiddle":10201,"Ġrestructured":10202,"Ġunfavourable":10203,"Ġrental":10204,"Ġstarving":10205,"Ġimperfect":10206,"ĠIntelligent":10207,"Ġpersuade":10208,"ĠArchitecture":10209,"Ġdeducted":10210,"Ġexacerbate":10211,"Ġtonnes":10212,"Ġavenues":10213,"Ġosteoporosis":10214,"Ġdesperate":10215,"Ġpretty":10216,"Ġvillages":10217,"ĠVelasqu":10218,"Ġtransplantation":10219,"ĠProtection":10220,"Ġ747":10221,"Ġmixture":10222,"ĠDeclan":10223,"Ġembarr":10224,"Ġpredecessors":10225,"Ġisotopes":10226,"ĠCongress":10227,"Ġinfrared":10228,"ĠJenner":10229,"ĠKyoto":10230,"Ġprotocols":10231,"Ġautonomy":10232,"Ġairbag":10233,"ĠSchoenbein":10234,"Ġdecommissioning":10235,"Ġdisintegr":10236,"Ġloyalty":10237,"ĠFormula":10238,"ĠRelease":10239,"Ġarose":10240,"Ġcourage":10241,"Ġpalliative":10242,"ĠTamiflu":10243,"ĠTetsuya":10244,"olesterol":10245,"ĠSvoboda":10246,"Ġstringent":10247,"ĠHaptic":10248,"Ġdismissed":10249,"ĠBhopal":10250,"ĠNGNPs":10251,"aggerated":10252,"berculosis":10253,"protected":10254,"ĠBeijing":10255,"Ġcatalytic":10256,"ĠVelasquez":10257,"95":10258,"IS":10259,"aments":10260,"averse":10261,"bring":10262,"ca":10263,"cult":10264,"coura":10265,"cifically":10266,"dis":10267,"dering":10268,"direct":10269,"dible":10270,"dog":10271,"effect":10272,"ficial":10273,"ien":10274,"iment":10275,"pot":10276,"rances":10277,"uity":10278,"west":10279,"xford":10280,"Â¶":10281,"Ġid":10282,"hent":10283,"heres":10284,"incre":10285,"onance":10286,"Ġcow":10287,"Ġpir":10288,"esc":10289,"isen":10290,"isive":10291,"Ġbother":10292,"Ġboring":10293,"edged":10294,"Ġfur":10295,"Ġfever":10296,"Ġfake":10297,"Ġinner":10298,"Ġmission":10299,"Ġdum":10300,"Ġdys":10301,"ionic":10302,"ionate":10303,"rocess":10304,"rooms":10305,"Ġreaches":10306,"asons":10307,"looking":10308,"Ġgrie":10309,"Ġgiant":10310,"omin":10311,"mentioned":10312,"ĠTom":10313,"ĠTax":10314,"cember":10315,"ider":10316,"Ġfork":10317,"igher":10318,"uter":10319,"Ġdelic":10320,"Ġdeals":10321,"Ġdelete":10322,"Ġconvic":10323,"semin":10324,"Ġende":10325,"Ġalerts":10326,"ĠSD":10327,"ĠSchool":10328,"ĠAff":10329,"ram":10330,"thy":10331,"enditure":10332,"Ġimbal":10333,"ĠHigher":10334,"ĠInit":10335,"estival":10336,"Ġdissemin":10337,"Ġresorts":10338,"Ġreserved":10339,"Ġrescue":10340,"Ġride":10341,"ĠFact":10342,"ĠFuel":10343,"ĠFactors":10344,"ĠFamil":10345,"ĠCow":10346,"ĠCust":10347,"ĠCollapse":10348,"Ġshoulders":10349,"Ġchina":10350,"andering":10351,"Ġplates":10352,"Ġdesert":10353,"Ġworkpl":10354,"ĠWood":10355,"ĠWestern":10356,"Ġabol":10357,"Ġabusing":10358,"ĠBeside":10359,"ĠBionic":10360,"Ġpublicity":10361,"Ġhelpless":10362,"Ġhealthily":10363,"Ġincredible":10364,"Ġlever":10365,"oung":10366,"earing":10367,"ĠNO":10368,"ĠNorm":10369,"Ġexport":10370,"Ġexpose":10371,"ĠOxford":10372,"Ġproductions":10373,"Ġupbring":10374,"ĠEither":10375,"ientated":10376,"Ġsomewhere":10377,"Ġarisen":10378,"Ġunknow":10379,"Ġuneducated":10380,"Ġunmar":10381,"Ġcared":10382,"Ġcareers":10383,"cycle":10384,"Ġthank":10385,"ĠDi":10386,"ĠDictionary":10387,"ĠLear":10388,"Ġindividually":10389,"Ġample":10390,"ips":10391,"Ġadvis":10392,"Ġinstances":10393,"Ġinstilled":10394,"ĠAlmost":10395,"ĠOnline":10396,"Ġbenefiting":10397,"Ġbenefitting":10398,"Ġlowers":10399,"ressed":10400,"Ġquiet":10401,"Ġpersonality":10402,"ĠChar":10403,"Ġrob":10404,"pectives":10405,"Ġsurveys":10406,"assed":10407,"Ġradar":10408,"Ġradical":10409,"Ġpocket":10410,"Ġconstit":10411,"Ġdetractors":10412,"Ġfoot":10413,"Ġimplementations":10414,"Ġcontributor":10415,"Ġlivings":10416,"Ġtransmitted":10417,"ĠUnivers":10418,"Ġjustification":10419,"Ġjustify":10420,"ĠSelect":10421,"Ġcontinually":10422,"vealing":10423,"Ġburdened":10424,"ĠReason":10425,"ĠRevealing":10426,"Ġpotable":10427,"Ġrealizing":10428,"Ġmines":10429,"ethics":10430,"Ġshorten":10431,"Ġrememb":10432,"Ġmeetings":10433,"Ġdowns":10434,"Ġperforms":10435,"Ġhospitalisation":10436,"Ġsuccesses":10437,"Ġentered":10438,"Ġprompt":10439,"Ġintroduces":10440,"Ġconstructs":10441,"Ġconsiderate":10442,"Ġdeterring":10443,"versed":10444,"Ġcontroller":10445,"Ġtransports":10446,"Ġexploiting":10447,"Ġaccessed":10448,"Ġminimization":10449,"Ġboil":10450,"Ġrecovered":10451,"Ġclover":10452,"Ġlocally":10453,"Ġlabours":10454,"ĠResident":10455,"ĠYes":10456,"Ġtalks":10457,"ĠDecember":10458,"Ġdetermination":10459,"Ġguilt":10460,"Ġslows":10461,"Ġslowed":10462,"Ġcalling":10463,"Ġ800":10464,"Ġfriendship":10465,"ĠCentres":10466,"Ġbusinessmen":10467,"Ġcleared":10468,"Ġsuperficial":10469,"Ġoppositions":10470,"Ġenjoyed":10471,"Ġtyping":10472,"Ġcombining":10473,"Ġethn":10474,"Ġcontinuation":10475,"Ġsatisfaction":10476,"Ġsurgeries":10477,"ĠComputer":10478,"Ġcaters":10479,"Ġreplacements":10480,"Ġtraveling":10481,"2004":10482,"Ġspeeds":10483,"Ġprofessors":10484,"Ġbalancing":10485,"Ġboosting":10486,"Ġmeters":10487,"Ġfloors":10488,"Ġposted":10489,"Ġannually":10490,"Ġcomparatively":10491,"Ġcontainer":10492,"Ġestimate":10493,"Ġpredicting":10494,"Ġdeclare":10495,"ĠSpace":10496,"ĠAgain":10497,"Ġseparation":10498,"Ġseparates":10499,"Ġarchitectures":10500,"omsday":10501,"Ġlatent":10502,"Ġtransferring":10503,"Ġfavourable":10504,"Ġcourt":10505,"ĠConsult":10506,"Ġprediction":10507,"Ġsymp":10508,"Ġsymbol":10509,"Ġimplication":10510,"Ġjudging":10511,"ĠGraying":10512,"Ġbroader":10513,"ĠPsychological":10514,"Ġenterprise":10515,"Ġgotten":10516,"Ġroots":10517,"Ġintruding":10518,"Ġheadset":10519,"Ġhotel":10520,"Ġworsens":10521,"ĠEconomics":10522,"Ġdrawing":10523,"Ġlisted":10524,"Ġdraining":10525,"ĠSpecifically":10526,"Ġhighlights":10527,"ĠAccidents":10528,"Ġbias":10529,"ference":10530,"Ġharms":10531,"Ġsurprised":10532,"Ġflows":10533,"Ġevaluating":10534,"Ġcaution":10535,"Ġexecute":10536,"Ġexecuted":10537,"Ġswitched":10538,"Ġthoroughly":10539,"Ġexhausting":10540,"Ġwisdom":10541,"Ġquantities":10542,"Ġelsewhere":10543,"Ġpolitic":10544,"Ġbonuses":10545,"ĠOrganisation":10546,"ĠWorkers":10547,"ĠWorkforce":10548,"Ġcriticize":10549,"ĠOften":10550,"ĠAbove":10551,"ĠClin":10552,"Thus":10553,"Ġattained":10554,"Ġexclusive":10555,"Ġshock":10556,"Ġreluctance":10557,"Ġversa":10558,"Ġpurely":10559,"Ġlength":10560,"Ġlengthening":10561,"Ġhabit":10562,"Ġconflict":10563,"Ġsmoothly":10564,"Ġorganisms":10565,"199":10566,"Ġanimal":10567,"Ġjeopardy":10568,"Ġscanning":10569,"Ġunborn":10570,"ĠAdvanced":10571,"Ġillegally":10572,"Ġtheoretically":10573,"Ġcompensated":10574,"ĠExpenditure":10575,"Ġrendering":10576,"Ġexploring":10577,"Ġinvading":10578,"ammable":10579,"Ġsleeping":10580,"ĠFourth":10581,"ĠEnvironmental":10582,"Ġlanguages":10583,"Ġsweet":10584,"Ġgoverning":10585,"ĠMIT":10586,"Ġretrenched":10587,"Ġdelivering":10588,"Ġsatellite":10589,"ĠAnti":10590,"ĠPhysical":10591,"Ġnucleus":10592,"Ġdeliberate":10593,"Ġdeliberately":10594,"human":10595,"Ġholder":10596,"Ġinstructions":10597,"ĠDevelopments":10598,"Ġnurturing":10599,"Ġslipping":10600,"Ġprejudice":10601,"Reserved":10602,"Ġinhibit":10603,"Ġpregnancy":10604,"ĠDigital":10605,"ĠMajority":10606,"Ġhesitate":10607,"Ġinduced":10608,"Ġmoderator":10609,"Ġcontrollers":10610,"Ġmovie":10611,"Ġdoses":10612,"Ġsecrets":10613,"Ġinferior":10614,"ĠExperts":10615,"ĠInfrastructure":10616,"ĠPolytechnic":10617,"Ġpoured":10618,"Ġfemales":10619,"Ġhassle":10620,"Ġunintention":10621,"Ġamazing":10622,"Ġqueues":10623,"Ġnineteen":10624,"Reactor":10625,"depth":10626,"ĠForeign":10627,"ĠWatchdog":10628,"istorical":10629,"ĠNTUC":10630,"Ġaccordance":10631,"Ġexponentially":10632,"Ġsupervise":10633,"Ġworkshops":10634,"Ġcurrency":10635,"Ġexcitement":10636,"ĠVoluntary":10637,"residence":10638,"Ġfashion":10639,"Ġgentle":10640,"Ġdiscipline":10641,"Ġvibration":10642,"Ġendeav":10643,"ĠFamilies":10644,"Ġworkplaces":10645,"ĠNormally":10646,"Ġunknowingly":10647,"Ġunmarried":10648,".,":10649,"21":10650,"36":10651,"44":10652,"55":10653,"75":10654,"700":10655,"90":10656,"98":10657,"AL":10658,"Ar":10659,"Bar":10660,"DV":10661,"Donald":10662,"ES":10663,"ETR":10664,"HM":10665,"News":10666,"OC":10667,"So":10668,"Sho":10669,"Super":10670,"Sachs":10671,"Wh":10672,"ao":10673,"bu":10674,"bin":10675,"bit":10676,"bid":10677,"brug":10678,"bourne":10679,"cor":10680,"cul":10681,"cure":10682,"cke":10683,"cost":10684,"culation":10685,"def":10686,"disc":10687,"doubtedly":10688,"eu":10689,"euthanasia":10690,"fted":10691,"falls":10692,"green":10693,"hatt":10694,"ieth":10695,"iots":10696,"iya":10697,"mount":10698,"math":10699,"marin":10700,"nan":10701,"ocket":10702,"pric":10703,"rong":10704,"rison":10705,"sustain":10706,"saries":10707,"safe":10708,"training":10709,"uis":10710,"uelled":10711,"ufficiency":10712,"wan":10713,"wage":10714,"yo":10715,"Ġ+":10716,"Ġ@":10717,"Ġip":10718,"Ġlying":10719,"Ġumb":10720,"Ġtit":10721,"Ġtid":10722,"Ġtun":10723,"Ġtire":10724,"Ġtandem":10725,"Ġap":10726,"inci":10727,"inter":10728,"ints":10729,"reens":10730,"rell":10731,"oned":10732,"onic":10733,"onto":10734,"energy":10735,"enious":10736,"enerate":10737,"engineering":10738,"erichip":10739,"Ġslo":10740,"Ġove":10741,"Ġcer":10742,"Ġcri":10743,"Ġcush":10744,"Ġcabin":10745,"Ġcystic":10746,"Ġpa":10747,"Ġpin":10748,"Ġpater":10749,"Ġpsy":10750,"Ġpunct":10751,"atable":10752,"Ġwro":10753,"oral":10754,"organ":10755,"isk":10756,"itivity":10757,"ittle":10758,"itimate":10759,"Ġbid":10760,"Ġbord":10761,"Ġbind":10762,"Ġbones":10763,"Ġbored":10764,"eding":10765,"edge":10766,"anation":10767,"Ġfans":10768,"Ġfile":10769,"Ġfired":10770,"Ġfought":10771,"Ġinad":10772,"Ġmill":10773,"Ġmount":10774,"Ġmetic":10775,"Ġmice":10776,"Ġmism":10777,"Ġmisf":10778,"Ġanten":10779,"Ġdrough":10780,"Ġdump":10781,"icine":10782,"ouis":10783,"room":10784,"roft":10785,"Ġhob":10786,"Ġhung":10787,"Ġhanging":10788,"Ġnest":10789,"Ġnine":10790,"Ġnick":10791,"Ġniche":10792,"Ġreimb":10793,"aser":10794,"asive":10795,"lym":10796,"lysis":10797,"Ġthin":10798,"cture":10799,"Ġbelo":10800,"ilia":10801,"ldom":10802,"Ġgar":10803,"Ġglo":10804,"Ġgase":10805,"Ġgift":10806,"Ġgrief":10807,"user":10808,"usable":10809,"omb":10810,"Ġproxim":10811,"ĠTet":10812,"ĠTay":10813,"ĠTime":10814,"ĠTelf":10815,"ĠTener":10816,"Ġlibr":10817,"Ġlung":10818,"Ġlump":10819,"Ġlibrary":10820,"Ġlithium":10821,"Ġonsite":10822,"ett":10823,"imated":10824,"imatic":10825,"strom":10826,"stud":10827,"ided":10828,"iday":10829,"oren":10830,"otive":10831,"otics":10832,"otton":10833,"urized":10834,"Ġforum":10835,"Ġforbid":10836,"igra":10837,"igue":10838,"illa":10839,"Ġdeleg":10840,"sein":10841,"ĠIR":10842,"operation":10843,"Ġenvision":10844,"ulous":10845,"Ġhay":10846,"ayak":10847,"Ġsuits":10848,"Ġalike":10849,"Ġnotable":10850,"Ġnotified":10851,"Ġnotify":10852,"Ġnotorious":10853,"ucca":10854,"ĠSA":10855,"ĠSri":10856,"acters":10857,"unit":10858,"ĠAC":10859,"ĠADV":10860,"Ġneuro":10861,"ivile":10862,"Ġcancel":10863,"rails":10864,"elbourne":10865,"Ġexception":10866,"arest":10867,"Ġsoar":10868,"Ġsoil":10869,"amp":10870,"Ġ''":10871,"ountain":10872,"Ġtear":10873,"ading":10874,"addo":10875,"ĠHave":10876,"ĠHomes":10877,"gered":10878,"Ġimpover":10879,"Ġimpatient":10880,"oston":10881,"Ġspans":10882,"Ġdissi":10883,"Ġdispro":10884,"Ġring":10885,"Ġrid":10886,"Ġrating":10887,"Ġrice":10888,"Ġriding":10889,"ĠFed":10890,"ĠFro":10891,"ĠFol":10892,"ĠFacing":10893,"ĠCW":10894,"ĠCore":10895,"ĠCould":10896,"ĠCard":10897,"Ġcholesterol":10898,"ĠThor":10899,"ĠThane":10900,"ancement":10901,"duke":10902,"ĠMY":10903,"ĠMun":10904,"ĠMary":10905,"ĠMilitary":10906,"ĠMoh":10907,"ĠMountain":10908,"astics":10909,"perform":10910,"anding":10911,"Ġseaw":10912,"Ġseldom":10913,"Ġadhere":10914,"Ġadmit":10915,"uek":10916,"Ġcompl":10917,"Ġcompelling":10918,"Ġloan":10919,"ĠWill":10920,"ĠWest":10921,"ĠWald":10922,"ĠWaste":10923,"Ġprenatal":10924,"Ġprevail":10925,"ĠBre":10926,"ĠBed":10927,"ĠBal":10928,"ĠBill":10929,"ĠBry":10930,"ĠBray":10931,"ĠBoto":10932,"ĠBouch":10933,"ĠBoston":10934,"Ġpublicize":10935,"Ġven":10936,"Ġvote":10937,"izations":10938,"izab":10939,"idently":10940,"ĠRen":10941,"ĠRights":10942,"ĠRonald":10943,"Ġdoz":10944,"Ġintentions":10945,"ductions":10946,"forcing":10947,"search":10948,"Ġleaps":10949,"Ġlecture":10950,"Ġ120":10951,"Ġgenerous":10952,"ĠGS":10953,"ĠGree":10954,"ĠGates":10955,"ĠPE":10956,"ĠPop":10957,"ĠPort":10958,"ĠPrior":10959,"ĠPocket":10960,"ĠPaddo":10961,"ĠNan":10962,"ĠNam":10963,"ĠNish":10964,"ĠNER":10965,"ĠNatal":10966,"ĠNano":10967,"ĠNASA":10968,"artic":10969,"arters":10970,"Ġpolar":10971,"ĠOcc":10972,"ĠOlym":10973,"ensed":10974,"ensional":10975,"ĠEth":10976,"ĠERI":10977,"Ġarouse":10978,"Ġemp":10979,"Ġemail":10980,"Ġemph":10981,"Ġrelate":10982,"Ġrelieving":10983,"Ġhighways":10984,"Ġhighway":10985,"six":10986,"aterial":10987,"Ġoutflow":10988,"Ġunve":10989,"Ġuncom":10990,"Ġunaff":10991,"Ġunjust":10992,"Ġsociolo":10993,"Ġconserve":10994,"Ġconsolid":10995,"riched":10996,"ĠVis":10997,"ĠVirt":10998,"ĠVerichip":10999,"ptions":11000,"ĠDown":11001,"ĠDirect":11002,"ĠDub":11003,"ĠDiver":11004,"Ġlikewise":11005,"ĠLaptop":11006,"ĠLank":11007,"ĠLibrary":11008,"ĠLUP":11009,"ĠLLE":11010,"ĠLouis":11011,"Ġimports":11012,"ĠAsh":11013,"ĠAsher":11014,"Ġindividualism":11015,"Ġrisperidone":11016,"Ġtrillion":11017,"Ġjourn":11018,"Ġedges":11019,"Ġinvalu":11020,"Ġoversp":11021,"Ġoverload":11022,"Ġinnovatively":11023,"Ġpride":11024,"gery":11025,"Ġnoble":11026,"obots":11027,"Ġfueled":11028,"Ġmainstream":11029,"Ġcolo":11030,"Ġcrises":11031,"Ġquarant":11032,"adeh":11033,"arently":11034,"ĠChua":11035,"gradu":11036,"ailure":11037,"Ġinfant":11038,"Ġinfert":11039,"Ġeasiest":11040,"Ġbursaries":11041,"cker":11042,"ckheed":11043,"othing":11044,"Ġdiets":11045,"assen":11046,"Ġextinct":11047,"Ġdemocr":11048,"aker":11049,"akers":11050,"Ġgrateful":11051,"Ġpockets":11052,"Ġencomp":11053,"php":11054,"phony":11055,"Ġ37":11056,"Ġ3000":11057,"Ġkeys":11058,"ĠUndoubtedly":11059,"Ġsignifies":11060,"Ġregulated":11061,"Ġregenerate":11062,"Ġ61":11063,"Ġ69":11064,"Ġ670":11065,"Ġdepended":11066,"Ġdependents":11067,"Ġinserted":11068,"Ġstrangers":11069,"Ġclient":11070,"Ġcloned":11071,"Ġclimatic":11072,"avation":11073,"ĠReal":11074,"Ġrealities":11075,"ĠStar":11076,"ĠStart":11077,"Ġminist":11078,"Ġminute":11079,"Ġcapita":11080,"Ġrunaway":11081,"Ġmodular":11082,"Ġmoderate":11083,"Ġmoderated":11084,"ierce":11085,"Ġrefined":11086,"Ġrefresh":11087,"Ġ52":11088,"Ġ510":11089,"Ġequation":11090,"generation":11091,"Ġvariable":11092,"Ġtreatable":11093,"intend":11094,"Ġdownload":11095,"Ġsett":11096,"Ġsetback":11097,"Ġsetbacks":11098,"Ġ42":11099,"Ġbudgetary":11100,"Ġ1991":11101,"technology":11102,"sider":11103,"ĠEnh":11104,"ĠEncoura":11105,"Ġseriousness":11106,"Ġdefines":11107,"Ġessays":11108,"Ġdeterred":11109,"Ġscreens":11110,"Ġconceptual":11111,"Ġcentigra":11112,"Ġwanting":11113,"Ġtransporting":11114,"Ġcompetitor":11115,"Ġviewing":11116,"prof":11117,"profit":11118,"Ġfoundations":11119,"Ġbold":11120,"abling":11121,"Ġforever":11122,"Ġforesight":11123,"Ġreceives":11124,"Ġreceiver":11125,"Ġconfined":11126,"ibilities":11127,"Ġlocating":11128,"ixel":11129,"Ġdiscriminating":11130,"Ġgrace":11131,"there":11132,"athy":11133,"Ġactivate":11134,"Ġ1988":11135,"ĠResources":11136,"Ġdistant":11137,"Ġdistract":11138,"ĠYucca":11139,"Ġurge":11140,"eebrug":11141,"Ġgreener":11142,"Ġconveniences":11143,"Ġ76":11144,"Ġ77":11145,"Ġ750":11146,"ĠIndian":11147,"Ġslowdown":11148,"ompose":11149,"Ġfriendships":11150,"privile":11151,"Ġlightly":11152,"Ġnonrenewable":11153,"Ġseniority":11154,"Ġclearer":11155,"Ġpresenting":11156,"Ġerroneous":11157,"Ġcores":11158,"Ġportability":11159,"Ġsuperiors":11160,"Ġclearance":11161,"Ġbarrel":11162,"Ġdetector":11163,"Ġfilm":11164,"Ġfiled":11165,"Ġfearing":11166,"Ġfearful":11167,"ĠFunding":11168,"Ġinternationally":11169,"fortable":11170,"partite":11171,"Ġattacked":11172,"Ġsugar":11173,"Ġcharges":11174,"Ġcharacters":11175,"ĠEngineer":11176,"Ġmorning":11177,"Ġpredis":11178,"Ġschooling":11179,"Ġkeyboard":11180,"Ġtargeting":11181,"Ġutilised":11182,"Ġwillingly":11183,"Ġoptional":11184,"Ġwarned":11185,"eltdown":11186,"books":11187,"Ġpoorly":11188,"igration":11189,"Ġconverter":11190,"Ġdebatable":11191,"Ġ1978":11192,"Ġuntested":11193,"Ġanalytical":11194,"Ġcontacts":11195,"TAGE":11196,"Ġcolon":11197,"Ġcolor":11198,"Ġcolour":11199,"Ġassociation":11200,"ĠMeeting":11201,"rectal":11202,"Ġspreads":11203,"Ġleftover":11204,"Ġunfilial":11205,"Ġunfounded":11206,"etroit":11207,"Ġworthless":11208,"Ġbranch":11209,"erald":11210,"Ġmotive":11211,"Ġmotorb":11212,"Ġcommercialize":11213,"Ġcommercialized":11214,"Ġincurring":11215,"Ġpeel":11216,"Ġopener":11217,"Ġsurviving":11218,"Ġlazy":11219,"Ġcirculated":11220,"Ġimposing":11221,"Ġcured":11222,"Ġyourself":11223,"Ġtackled":11224,"Ġcontaining":11225,"angible":11226,"Ġrestricts":11227,"Ġmutations":11228,"Ġchemically":11229,"ĠCIA":11230,"Ġindication":11231,"Ġrepetitive":11232,"Ġsensory":11233,"Ġ10000":11234,"Ġsufferings":11235,"Ġlegally":11236,"Ġunsuccessful":11237,"Ġunsolved":11238,"Ġpredicts":11239,"Ġpredicament":11240,"Ġsuspected":11241,"ocracy":11242,"Ġcomplexity":11243,"what":11244,"opholes":11245,"ophilia":11246,"Ġfissionable":11247,"otechnology":11248,"Ġclasses":11249,"Ġmeasurement":11250,"Ġseparators":11251,"Ġembry":11252,"ĠRobotic":11253,"Ġarrival":11254,"Ġ114":11255,"ĠLockheed":11256,"Ġfairs":11257,"Ġ2015":11258,"Ġoccupies":11259,"ĠManhatt":11260,"Ġfitted":11261,"Ġweaponry":11262,"Ġ1500":11263,"Ġcorporation":11264,"ometry":11265,"Ġexperimented":11266,"Ġpredictions":11267,"Ġgamers":11268,"ĠApparently":11269,"ĠGray":11270,"ĠGranny":11271,"Ġbroadly":11272,"Ġalleviated":11273,"Ġdelays":11274,"ĠSkycar":11275,"ĠArmy":11276,"ĠCommunication":11277,"Ġverification":11278,"Ġverbal":11279,"Ġintrude":11280,"ĠiSho":11281,"Ġbombing":11282,"ĠEmployability":11283,"Ġmicrosc":11284,"Ġduties":11285,"productive":11286,"Ġredefined":11287,"Ġlistening":11288,"Ġparticipation":11289,"Ġpanic":11290,"Ġdrops":11291,"Ġmagnitude":11292,"Ġjoint":11293,"Ġbiomed":11294,"Ġpremature":11295,"Ġexcellence":11296,"Ġadjustment":11297,"Ġconsulting":11298,"Ġconsultancy":11299,"Ġqualification":11300,"Ġcalor":11301,"Ġdiscourages":11302,"Ġdeficient":11303,"Ġzone":11304,"Ġdeadliest":11305,"ĠImm":11306,"Ġundesired":11307,"Ġsentence":11308,"Ġfundament":11309,"Ġ1964":11310,"Ġconsistently":11311,"Ġ1947":11312,"Ġ1949":11313,"Ġ1954":11314,"ĠAfrican":11315,"arina":11316,"ĠMacbook":11317,"ĠMacDonald":11318,"Ġclinic":11319,"Ġclinics":11320,"Ġdisturbed":11321,"Ġsuperiority":11322,"Ġsquee":11323,"Ġtranslated":11324,"Ġcrews":11325,"Ġingenious":11326,"ĠWorkfare":11327,"Ġcriticized":11328,"ĠScientific":11329,"medicine":11330,"Ġsilence":11331,"Ġsilicon":11332,"Ġevolving":11333,"ĠSkunkworks":11334,"Ġinjections":11335,"Ġreforming":11336,"ĠCorp":11337,"Ġtriggered":11338,"Ġmonitors":11339,"Ġceased":11340,"Ġbrave":11341,"Ġsurfing":11342,"Ġsurfaces":11343,"ĠAccountability":11344,"ĠTrade":11345,"Ġcrack":11346,"Ġmigrating":11347,"Ġshifting":11348,"Ġreviewed":11349,"Ġpenal":11350,"Ġfirmly":11351,"Ġmales":11352,"Ġrepositories":11353,"Ġconceived":11354,"Ġexciting":11355,"Ġexcavation":11356,"ANTAGE":11357,"Ġhabitable":11358,"Ġuniversal":11359,"Ġinconvenient":11360,"umbia":11361,"ĠColumbia":11362,"Ġdepriving":11363,"Ġescalating":11364,"Ġoxid":11365,"Ġoxides":11366,"Ġsteadily":11367,"Ġreliefs":11368,"Ġundertaken":11369,"Ġreferred":11370,"Ġthermodynam":11371,"Ġrevolutionary":11372,"Ġstyles":11373,"Ġboomer":11374,"Ġnutritional":11375,"Ġfatigue":11376,"Ġinsisted":11377,"Ġtumor":11378,"Ġaston":11379,"Ġastron":11380,"Ġrectified":11381,"Ġaggressive":11382,"Ġaggressors":11383,"consuming":11384,"Ġexplor":11385,"Ġexplanation":11386,"ĠMedicare":11387,"vasive":11388,"Ġderail":11389,"Ġderived":11390,"Ġpressurized":11391,"Ġwithdrawal":11392,"Ġtuition":11393,"Ġtuberculosis":11394,"Ġsleep":11395,"sighted":11396,"Ġmerch":11397,"Ġmelted":11398,"Ġholiday":11399,"Ġninety":11400,"Ġcoordinate":11401,"Ġpoisoning":11402,"Ġpoisonous":11403,"Ġangles":11404,"ĠHearing":11405,"Ġdisrupted":11406,"Ġdisruption":11407,"ĠNEWater":11408,"Ġprivileges":11409,"Ġofficer":11410,"Story":11411,"ski":11412,"skilled":11413,"Ġfruitful":11414,"Ġuploaded":11415,"Ġ436":11416,"Ġarrangement":11417,"Ġbleak":11418,"Ġbleeding":11419,"ĠSolutions":11420,"Ġstagnant":11421,"Ġtaxpayer":11422,"Ġsession":11423,"Ġcrowd":11424,"Ġmilest":11425,"ĠSchu":11426,"ĠRemember":11427,"Ġrestaurant":11428,"Ġironic":11429,"ĠHisense":11430,"Ġdissatisf":11431,"ĠBurton":11432,"Ġvicious":11433,"ĠDeveloping":11434,"initely":11435,"Ġgunpowder":11436,"Ġlicense":11437,"ĠElizab":11438,"Ġbeneficiary":11439,"Ġbeneficiaries":11440,"Ġundermining":11441,"Ġpleasant":11442,"Ġtubes":11443,"Ġbrowser":11444,"Ġhardship":11445,"Ġconversation":11446,"arency":11447,"Ġseventy":11448,"Ġkinetic":11449,"ĠEnterprise":11450,"Ġuncontroll":11451,"Ġretrofit":11452,"Ġinflexible":11453,"Ġtransparent":11454,"Ġsample":11455,"ĠEvidently":11456,"Ġunforeseen":11457,"ĠJeff":11458,"Ġelaborated":11459,"burgh":11460,"polluting":11461,"Ġsanitation":11462,"Ġhospice":11463,"Ġgymn":11464,"Ġgauge":11465,"ĠTaiwan":11466,"Ġdegrade":11467,"Ġconduit":11468,"oltz":11469,"Ġshielding":11470,"ĠCEO":11471,"ĠLifelong":11472,"Ġparamount":11473,"Ġvolatile":11474,"Ġdictionary":11475,"Ġenthusiastic":11476,"Ġelevators":11477,"Ġunhappiness":11478,"Ġbureaucracy":11479,"Ġstaircase":11480,"uwen":11481,"Ġcontingency":11482,"ĠUndeniably":11483,"Viewer":11484,"funded":11485,"functional":11486,"Ġtsunami":11487,"Ġculpr":11488,"Ġmacro":11489,"Ġmiscommun":11490,"Ġancestors":11491,"Ġdatabase":11492,"Ġreceptive":11493,"Ġshadow":11494,"ĠHomeland":11495,"Ġgenuinely":11496,"Ġdisparity":11497,"Ġrheumatism":11498,"ĠCormode":11499,"ĠMaxwell":11500,"Ġsavvy":11501,"Ġsabotage":11502,"Ġvapor":11503,"ĠDepending":11504,"Ġcommencement":11505,"Ġphysiological":11506,"ĠChapin":11507,"Ġtwentieth":11508,"ĠProperty":11509,"Ġcorridors":11510,"ĠHejz":11511,"Ġcyclists":11512,"Ġwrinkles":11513,"increasing":11514,"rocessing":11515,"ĠInitially":11516,"Ġupbringing":11517,"ETRY":11518,"Supercritical":11519,"mountable":11520,"sustained":11521,"Ġtidal":11522,"Ġtunnel":11523,"Ġcripple":11524,"Ġwrote":11525,"Ġborders":11526,"Ġmillenn":11527,"Ġmismatch":11528,"Ġantenna":11529,"Ġdroughts":11530,"Ġbeloved":11531,"Ġgaseous":11532,"ĠTelfon":11533,"ĠTenerife":11534,"Ġlibraries":11535,"students":11536,"ĠADVANTAGE":11537,"Ġdissip":11538,"Ġseawater":11539,"ĠBrayton":11540,"ĠBotox":11541,"ĠBouchard":11542,"ĠPocketViewer":11543,"ĠPaddock":11544,"ĠNERAC":11545,"ĠERIS":11546,"Ġuncomfortable":11547,"ĠVirtual":11548,"ĠDubai":11549,"Ġjournals":11550,"Ġinvaluable":11551,"ĠEncouraging":11552,"Ġcentigrade":11553,"eebrugge":11554,"privileged":11555,"Ġbarrels":11556,"ĠManhattan":11557,"ĠiShoe":11558,"Ġbiomedical":11559,"ĠElizabeth":11560,"Ġuncontrollable":11561,"12":11562,"16":11563,"83":11564,"KIA":11565,"RP":11566,"aily":11567,"bars":11568,"business":11569,"date":11570,"dictionary":11571,"dollar":11572,"ek":11573,"fid":11574,"fers":11575,"final":11576,"function":11577,"famous":11578,"gist":11579,"gged":11580,"kward":11581,"ls":11582,"not":11583,"paced":11584,"prepared":11585,"uitable":11586,"uits":11587,"vard":11588,"Ġx":11589,"Ġtort":11590,"Ġtong":11591,"inity":11592,"inition":11593,"reet":11594,"retion":11595,"eness":11596,"Ġsou":11597,"Ġsad":11598,"Ġsister":11599,"Ġov":11600,"Ġpon":11601,"Ġpapers":11602,"Ġwins":11603,"Ġwandering":11604,"orial":11605,"iser":11606,"edes":11607,"eday":11608,"anes":11609,"anel":11610,"Ġfed":11611,"Ġfade":11612,"Ġfallen":11613,"Ġmine":11614,"Ġmile":11615,"Ġdare":11616,"Ġdressing":11617,"icing":11618,"Ġeager":11619,"Ġhous":11620,"Ġhall":11621,"Ġhier":11622,"Ġnice":11623,"Ġnerve":11624,"Ġreck":11625,"Ġrechar":11626,"asks":11627,"Ġthread":11628,"Ġthrown":11629,"lot":11630,"usal":11631,"usions":11632,"Ġproduc":11633,"ĠTu":11634,"ĠTop":11635,"ĠTreat":11636,"step":11637,"otal":11638,"Ġforge":11639,"igor":11640,"irs":11641,"ircle":11642,"ircu":11643,"Ġdeeds":11644,"ows":11645,"sem":11646,"ĠIN":11647,"ĠShe":11648,"ĠSel":11649,"ĠSelf":11650,"Ġstic":11651,"Ġheal":11652,"ĠAA":11653,"amat":11654,"amps":11655,"Ġ250":11656,"ape":11657,"Ġbypass":11658,"Ġorientated":11659,"Ġimpul":11660,"Ġimplements":11661,"uma":11662,"terror":11663,"romotion":11664,"ĠFossil":11665,"ĠCircle":11666,"aind":11667,"Ġchairs":11668,"ignation":11669,"accept":11670,"dule":11671,"emics":11672,"ĠMother":11673,"ĠMasters":11674,"qual":11675,"bled":11676,"ults":11677,"Ġproblematic":11678,"Ġdeserved":11679,"Ġdeserving":11680,"Ġworkable":11681,"Ġworkforces":11682,"Ġcompound":11683,"Ġloopholes":11684,"ĠWDA":11685,"Ġmaid":11686,"ĠBel":11687,"ĠBirth":11688,"Ġvot":11689,"Ġcontented":11690,"Ġindoor":11691,"Ġindignation":11692,"ĠRa":11693,"Ġintent":11694,"ĠGo":11695,"ĠPred":11696,"ĠPromotion":11697,"Ġfinished":11698,"rench":11699,"ageing":11700,"ansas":11701,"ĠOrig":11702,"Ġupkeep":11703,"Ġnewborn":11704,"Ġsupplier":11705,"Ġunaccept":11706,"ĠVideophone":11707,"Ġtrauma":11708,"Ġtimely":11709,"agiarism":11710,"ĠForce":11711,"Ġexamined":11712,"Ġdecisive":11713,"Ġwellbeing":11714,"Ġposing":11715,"Ġdiscretion":11716,"Ġjum":11717,"Ġaccidently":11718,"Ġoverly":11719,"Ġoverweigh":11720,"Ġolds":11721,"Ġinstil":11722,"Ġunderest":11723,"portant":11724,"iox":11725,"Ġrol":11726,"Ġrose":11727,"graph":11728,"Ġamounting":11729,"Ġbuilds":11730,"Ġinfancy":11731,"cents":11732,"ĠJul":11733,"ĠGene":11734,"Ġdefe":11735,"Ġdefici":11736,"Ġaftermath":11737,"Ġfold":11738,"Ġtransformation":11739,"Ġspewing":11740,"Ġregist":11741,"Ġregime":11742,"Ġconsiders":11743,"Ġprovider":11744,"Ġstrange":11745,"Ġreveals":11746,"ĠStrate":11747,"ĠStein":11748,"Ġministry":11749,"Ġdiversion":11750,"Ġsettle":11751,"Ġhypot":11752,"Ġchecking":11753,"Ġveget":11754,"Ġawkward":11755,"Ġentities":11756,"Ġillum":11757,"Ġinterf":11758,"Ġpresents":11759,"Ġpresently":11760,"ĠWei":11761,"Ġauthent":11762,"Ġpassage":11763,"Ġcompetitions":11764,"Ġknowledgeable":11765,"Ġbacked":11766,"Ġminimised":11767,"Ġminimizes":11768,"Ġalternatively":11769,"Ġconfused":11770,"ĠTechn":11771,"Ġdirections":11772,"Ġreporting":11773,"ĠInterest":11774,"Ġheath":11775,"Ġdiscriminations":11776,"Ġgrave":11777,"Ġorganisation":11778,"Ġpricing":11779,"Ġequips":11780,"Ġcompletion":11781,"ĠDementia":11782,"ergency":11783,"Ġassistive":11784,"Ġassistances":11785,"Ġnonpolluting":11786,"Ġapplicants":11787,"Ġinfluencing":11788,"Ġdiscloses":11789,"Ġmentions":11790,"Ġbehave":11791,"Ġbehalf":11792,"Ġportray":11793,"Ġsomeday":11794,"Ġhearts":11795,"ĠResearches":11796,"Ġlearned":11797,"Ġethics":11798,"ĠAdmitted":11799,"Ġspecialist":11800,"Ġmorals":11801,"ĠConf":11802,"ĠCompare":11803,"ikes":11804,"Ġrespects":11805,"Ġutilise":11806,"Ġsingular":11807,"Ġdamaging":11808,"Ġweaken":11809,"Ġdrafted":11810,"Ġrecycles":11811,"Ġproportional":11812,"Ġviral":11813,"Ġunfit":11814,"Ġpersists":11815,"Ġperspectives":11816,"Ġpracticality":11817,"Ġanalyses":11818,"Ġanalysed":11819,"Ġmetals":11820,"ashing":11821,"Ġsurvived":11822,"Ġpostal":11823,"Ġlaid":11824,"Ġannum":11825,"Ġcommitments":11826,"Ġcommittee":11827,"Ġprofitability":11828,"Ġalongside":11829,"class":11830,"cluding":11831,"Ġsooner":11832,"Ġexerted":11833,"Ġvisiting":11834,"ĠExaggerated":11835,"archy":11836,"Ġunsuitable":11837,"Ġcorrected":11838,"Ġcorrectly":11839,"Ġstrengthening":11840,"Ġoptimum":11841,"ĠSciences":11842,"Ġcollection":11843,"Ġcollective":11844,"ĠGerman":11845,"Ġembark":11846,"Ġphenomena":11847,"Ġalleviation":11848,"Ġpushes":11849,"Ġpossessed":11850,"ĠEmergency":11851,"Ġdevote":11852,"Ġdevoted":11853,"Ġoccupations":11854,"Ġneighbors":11855,"Ġstrains":11856,"Ġvirtues":11857,"Ġfitting":11858,"Ġcheaply":11859,"ometer":11860,"ĠFriedlos":11861,"Ġexperimentation":11862,"Ġdilemmas":11863,"Ġjudgments":11864,"ubic":11865,"ĠUnderstanding":11866,"ĠStatistic":11867,"esticides":11868,"ĠCommunications":11869,"carbon":11870,"Ġverified":11871,"Ġconcentrating":11872,"Ġcouncil":11873,"Ġruling":11874,"ĠPlagiarism":11875,"Ġparticipating":11876,"Ġrepresented":11877,"Ġmeantime":11878,"They":11879,"ĠZEN":11880,"Ġbiased":11881,"Ġexplained":11882,"Ġmechanisms":11883,"Ġadjusted":11884,"Ġrails":11885,"Ġqualifications":11886,"Ġescaping":11887,"ĠImple":11888,"Ġapprehen":11889,"Ġsacrifices":11890,"Ġtrip":11891,"Ġfrail":11892,"Ġtrusted":11893,"Ġcounselors":11894,"Ġsentiment":11895,"ĠHelp":11896,"Ġlaunching":11897,"Ġconsisting":11898,"ĠDoctors":11899,"ĠDoomsday":11900,"Ġrequests":11901,"Ġconfirmation":11902,"Ġrepresentatives":11903,"Ġdescend":11904,"ĠReprocessing":11905,"Ġinstantly":11906,"Ġevolve":11907,"Ġtriggers":11908,"Ġcooperate":11909,"Ġshelters":11910,"ĠSwRI":11911,"Ġpackage":11912,"Ġpackages":11913,"Ġexcluded":11914,"Ġsucceeded":11915,"Ġmigrate":11916,"Ġshifts":11917,"ĠIncrease":11918,"ĠIncreased":11919,"content":11920,"Ġrainy":11921,"Ġattendants":11922,"Ġpenalty":11923,"Ġconceiving":11924,"Ġplease":11925,"ĠAngst":11926,"Ġslope":11927,"Ġmenial":11928,"Ġaccelerating":11929,"Ġaccelerators":11930,"Ġreferring":11931,"Ġrevolutionize":11932,"Ġhydroelectric":11933,"Ġcultivate":11934,"Ġfeedbacks":11935,"Ġmatching":11936,"Ġconvey":11937,"Ġexchangers":11938,"ĠPreviously":11939,"Ġsupposedly":11940,"ĠDefence":11941,"ĠKeeping":11942,"Ġreaped":11943,"ĠHarvard":11944,"Ġadapting":11945,"ĠRetrieved":11946,"Ġradiations":11947,"Ġearthquake":11948,"Ġenemies":11949,"Ġignorance":11950,"Ġkilometres":11951,"Ġwelcome":11952,"Ġwelcomed":11953,"Ġpracticable":11954,"Ġinsurmountable":11955,"Ġligaments":11956,"Ġvibrations":11957,"Ġconcurrently":11958,"Ġbroadcasting":11959,"Ġvicinity":11960,"Ġupsetting":11961,"Ġdiversify":11962,"Ġmachineries":11963,"Ġenriching":11964,"Ġenrichment":11965,"Ġimprovised":11966,"Ġexcels":11967,"ĠMoving":11968,"ĠWWII":11969,"Ġventure":11970,"ĠOperating":11971,"Ġpenetrate":11972,"Ġwithholding":11973,"accessible":11974,"Ġobstruction":11975,"ĠiPhone":11976,"Ġaggravate":11977,"Ġpioneer":11978,"ĠCritical":11979,"Ġassigned":11980,"Ġsunshades":11981,"Although":11982,"Ġinflicted":11983,"ĠImprovement":11984,"Ġocean":11985,"Ġimpressive":11986,"Ġrubber":11987,"ĠFacilities":11988,"ĠPersonally":11989,"Ġdinner":11990,"Ġlagging":11991,"ĠHuge":11992,"Ġdispute":11993,"Ġdisputes":11994,"Ġdisregarded":11995,"Ġreallocate":11996,"ĠContrary":11997,"Ġdysfunction":11998,"Ġgrieving":11999,"Ġdelicate":12000,"ĠAffairs":12001,"ĠCowan":12002,"ĠNOKIA":12003,"ĠLearning":12004,"ĠClinical":12005,"Ġcushion":12006,"Ġreimburse":12007,"ĠThorium":12008,"ĠStarting":12009,"Ġexploration":12010,"anellos":12011,"Ġhousings":12012,"Ġhierarchy":12013,"ircuit":12014,"ĠSelamat":12015,"Ġdeficiencies":12016,"ĠAdmittedly":12017,"18":12018,"1000":12019,"400":12020,"51":12021,"58":12022,"68":12023,"71":12024,"81":12025,"87":12026,"800":12027,"BWR":12028,"CO":12029,"Dong":12030,"East":12031,"HS":12032,"Hz":12033,"Hua":12034,"II":12035,"IM":12036,"Lum":12037,"Loren":12038,"RCA":12039,"SA":12040,"We":12041,"Zeebrugge":12042,"aq":12043,"acious":12044,"bi":12045,"ben":12046,"bent":12047,"but":12048,"bies":12049,"bone":12050,"bons":12051,"billion":12052,"cher":12053,"cars":12054,"croft":12055,"cotton":12056,"dy":12057,"diz":12058,"divided":12059,"erence":12060,"eval":12061,"eveloped":12062,"fol":12063,"factor":12064,"first":12065,"father":12066,"flu":12067,"front":12068,"fuelled":12069,"gi":12070,"gs":12071,"gaz":12072,"hill":12073,"hol":12074,"hres":12075,"ipp":12076,"iants":12077,"iams":12078,"jian":12079,"ki":12080,"ked":12081,"kol":12082,"kara":12083,"lal":12084,"lable":12085,"lives":12086,"liferation":12087,"mate":12088,"mach":12089,"mills":12090,"mits":12091,"nature":12092,"oo":12093,"oon":12094,"pin":12095,"pret":12096,"rue":12097,"rite":12098,"rish":12099,"spect":12100,"sav":12101,"supp":12102,"tra":12103,"test":12104,"tested":12105,"uh":12106,"uo":12107,"uke":12108,"uven":12109,"uitous":12110,"vag":12111,"vio":12112,"visions":12113,"volution":12114,"watt":12115,"ype":12116,"yph":12117,"zo":12118,"Ġion":12119,"Ġupp":12120,"Ġtie":12121,"Ġtree":12122,"Ġtune":12123,"Ġtips":12124,"inating":12125,"inently":12126,"inrich":12127,"invasive":12128,"rele":12129,"reactor":12130,"rett":12131,"reano":12132,"enagers":12133,"ercial":12134,"erting":12135,"Ġsink":12136,"Ġsorts":12137,"Ġciv":12138,"Ġcum":12139,"Ġcos":12140,"Ġcous":12141,"Ġpet":12142,"Ġpig":12143,"Ġpun":12144,"Ġpeop":12145,"Ġpave":12146,"Ġpaced":12147,"Ġpiling":12148,"ati":12149,"atrick":12150,"atilla":12151,"atlal":12152,"Ġwet":12153,"Ġwild":12154,"Ġwip":12155,"Ġwarm":12156,"Ġwards":12157,"Ġwake":12158,"Ġwished":12159,"Ġwood":12160,"Ġwrap":12161,"orable":12162,"isher":12163,"itz":12164,"itis":12165,"itant":12166,"itage":12167,"itime":12168,"Ġbag":12169,"Ġbiod":12170,"Ġbands":12171,"Ġbeside":12172,"Ġtoiled":12173,"Ġfon":12174,"Ġfas":12175,"Ġfant":12176,"Ġfost":12177,"Ġfum":12178,"Ġfurn":12179,"Ġfix":12180,"Ġfarming":12181,"Ġfighter":12182,"Ġfixt":12183,"Ġfierce":12184,"Ġinse":12185,"Ġinacc":12186,"Ġmp":12187,"Ġmyst":12188,"Ġanger":12189,"alking":12190,"allow":12191,"alph":12192,"alistic":12193,"allocated":12194,"Ġdiesel":12195,"ica":12196,"icip":12197,"entiful":12198,"roid":12199,"robot":12200,"arms":12201,"arga":12202,"Ġeuro":12203,"Ġegg":12204,"Ġnom":12205,"Ġreth":12206,"Ġreche":12207,"Ġreass":12208,"Ġreply":12209,"Ġreusing":12210,"Ġreversed":12211,"Ġreusable":12212,"Ġreductions":12213,"ask":12214,"asp":12215,"Ġthief":12216,"Ġthieves":12217,"cter":12218,"ilient":12219,"Ġgir":12220,"Ġgiants":12221,"uss":12222,"users":12223,"omfort":12224,"cht":12225,"child":12226,"chard":12227,"ĠTor":12228,"ĠTim":12229,"ĠTest":12230,"ĠTok":12231,"ĠTak":12232,"ĠTFR":12233,"ĠTrend":12234,"Ġlid":12235,"Ġlur":12236,"Ġliv":12237,"Ġlad":12238,"Ġlately":12239,"Ġloud":12240,"etal":12241,"etting":12242,"imats":12243,"impa":12244,"sthe":12245,"stit":12246,"station":12247,"stein":12248,"strapped":12249,"stiya":12250,"ida":12251,"idity":12252,"ideman":12253,"otor":12254,"ursing":12255,"Ġforgo":12256,"Ġforums":12257,"Ġforgery":12258,"igan":12259,"ighed":12260,"irte":12261,"irculation":12262,"uther":12263,"utting":12264,"Ġdece":12265,"Ġdefore":12266,"Ġdegrading":12267,"sey":12268,"ĠIll":12269,"ĠIronically":12270,"option":12271,"Ġenzy":12272,"Ġenrolled":12273,"Ġenriched":12274,"uled":12275,"ulter":12276,"ulously":12277,"Ġsupers":12278,"Ġalco":12279,"Ġalien":12280,"Ġagility":12281,"Ġagency":12282,"Ġagents":12283,"Ġagrees":12284,"olf":12285,"Ġnotably":12286,"ĠSal":12287,"ĠSter":12288,"ĠSign":12289,"ĠSade":12290,"ĠSeng":12291,"ĠSyed":12292,"ĠSOS":12293,"Ġstir":12294,"Ġstance":12295,"Ġstuck":12296,"Ġhem":12297,"unger":12298,"unning":12299,"ifier":12300,"ĠAh":12301,"ĠAch":12302,"ivated":12303,"ivial":12304,"Ġcans":12305,"Ġcanal":12306,"Ġtheirs":12307,"rab":12308,"ravel":12309,"elievable":12310,"Ġexhib":12311,"threat":12312,"thrit":12313,"orton":12314,"amber":12315,"amics":12316,"0000":12317,"Ġtea":12318,"Ġ230":12319,"Ġimitate":12320,"Ġmoreover":12321,"apon":12322,"apping":12323,"Ġbystand":12324,"Ġorph":12325,"ĠHC":12326,"ĠHI":12327,"ĠHT":12328,"ĠHa":12329,"ĠHit":12330,"ĠHill":12331,"ĠHag":12332,"ĠHouse":12333,"ĠHug":12334,"ĠHoltz":12335,"ĠInvent":12336,"estruct":12337,"establ":12338,"learning":12339,"Ġelderlies":12340,"Ġspin":12341,"Ġspike":12342,"Ġspared":12343,"Ġspied":12344,"Ġspying":12345,"Ġdisb":12346,"Ġdisting":12347,"Ġdishes":12348,"Ġdisheart":12349,"Ġdisfig":12350,"Ġresonance":12351,"Ġresilient":12352,"Ġrand":12353,"Ġrivers":12354,"Ġrounds":12355,"Ġrationally":12356,"Ġriots":12357,"ĠFY":12358,"ĠFern":12359,"ĠFilial":12360,"ĠFortune":12361,"ĠFailure":12362,"ĠCS":12363,"ĠCy":12364,"ĠCou":12365,"ĠCas":12366,"ĠClo":12367,"ĠCell":12368,"ĠCDA":12369,"ĠCabin":12370,"Ġchrom":12371,"acific":12372,"acles":12373,"ĠThink":12374,"rian":12375,"riages":12376,"ĠMy":12377,"ĠMur":12378,"ĠMand":12379,"ĠMink":12380,"ĠMarsh":12381,"ĠMRI":12382,"ĠMankind":12383,"ĠMaterial":12384,"ĠMarina":12385,"ĠMHz":12386,"osynthesis":12387,"osomal":12388,"quarters":12389,"bless":12390,"andez":12391,"Ġseal":12392,"Ġseam":12393,"Ġseating":12394,"Ġplentiful":12395,"Ġneedless":12396,"Ġworkfare":12397,"connect":12398,"confe":12399,"Ġloses":12400,"ĠWal":12401,"ĠWesting":12402,"ĠWang":12403,"ĠWAN":12404,"ĠWrite":12405,"istan":12406,"istive":12407,"Ġabstract":12408,"Ġmagaz":12409,"Ġmanages":12410,"ĠBC":12411,"ĠBI":12412,"ĠBi":12413,"ĠBro":12414,"ĠBrain":12415,"ĠBush":12416,"ĠBrown":12417,"ĠBorder":12418,"ĠBRCA":12419,"Ġpublication":12420,"Ġvan":12421,"Ġvigor":12422,"Ġcontest":12423,"Ġcontents":12424,"Ġindef":12425,"Ġindex":12426,"Ġindifferent":12427,"Ġindestruct":12428,"irer":12429,"ventions":12430,"ĠRight":12431,"ĠRail":12432,"ĠRead":12433,"ĠRBM":12434,"ĠReduc":12435,"ĠROM":12436,"ĠRalph":12437,"Ġintake":12438,"ductive":12439,"ĠSingSt":12440,"ĠSingstat":12441,"ighters":12442,"Ġspendings":12443,"ionship":12444,"Ġ150":12445,"upational":12446,"Ġresultant":12447,"ĠGH":12448,"ĠGar":12449,"ĠGir":12450,"ĠGill":12451,"ĠGreat":12452,"ĠGord":12453,"ĠGood":12454,"ĠGoh":12455,"ĠGraph":12456,"ĠPA":12457,"ĠPos":12458,"ĠPack":12459,"ĠPaper":12460,"ĠNany":12461,"ĠNurse":12462,"ĠNothing":12463,"ĠNintend":12464,"arts":12465,"Ġexplic":12466,"Ġexpression":12467,"Ġkn":12468,"Ġkins":12469,"Ġkwh":12470,"Ġwash":12471,"Ġengineered":12472,"iece":12473,"ĠOak":12474,"ĠOstrom":12475,"enses":12476,"ensing":12477,"ensions":12478,"venient":12479,"ĠEqu":12480,"ĠEasing":12481,"ĠECC":12482,"ĠEquipped":12483,"ĠEcker":12484,"ĠEhres":12485,"Ġsomewhat":12486,"Ġarbit":12487,"Ġarthrit":12488,"Ġempowered":12489,"Ġsuppress":12490,"Ġmere":12491,"Ġmeal":12492,"Ġmeals":12493,"Ġoutpatient":12494,"Ġoutperform":12495,"Ġunif":12496,"Ġundu":12497,"Ġunrest":12498,"Ġunreli":12499,"Ġuneas":12500,"Ġunravel":12501,"Ġprovident":12502,"rice":12503,"ricted":12504,"ordinary":12505,"ĠVe":12506,"ĠVi":12507,"ĠVinci":12508,"ĠVarga":12509,"Ġracing":12510,"cyc":12511,"Ġlimitless":12512,"Ġtrait":12513,"Ġtracing":12514,"ducible":12515,"ĠDioxide":12516,"ĠDetroit":12517,"Ġfeat":12518,"Ġfeared":12519,"ĠLip":12520,"ĠLink":12521,"Ġhumidity":12522,"ĠUD":12523,"ĠUV":12524,"ĠUse":12525,"Ġindividualistic":12526,"Ġdeck":12527,"Ġdecompose":12528,"Ġrisking":12529,"Ġtrivial":12530,"Ġdiscard":12531,"Ġdiscomfort":12532,"Ġdiffcult":12533,"lowing":12534,"Ġinvited":12535,"Ġoverc":12536,"Ġoverth":12537,"Ġovercoming":12538,"Ġoverpopulation":12539,"Ġappoint":12540,"iah":12541,"Ġfutile":12542,"Ġfutures":12543,"Ġinforms":12544,"ĠAlong":12545,"Ġelections":12546,"Ġ1910":12547,"Ġmedically":12548,"Ġundeveloped":12549,"Ġphases":12550,"Ġreturning":12551,"Ġcoast":12552,"Ġcooking":12553,"Ġcrust":12554,"Ġlessens":12555,"Ġundergradu":12556,"Ġunderprivileged":12557,"ĠChild":12558,"ĠChris":12559,"Ġpatho":12560,"iokol":12561,"Ġrock":12562,"Ġrocket":12563,"Ġleader":12564,"Ġcompanionship":12565,"Ġinflow":12566,"Ġinfinite":12567,"ĠAnalys":12568,"ĠRFIDs":12569,"Ġwasteland":12570,"play":12571,"Ġburned":12572,"Ġinventory":12573,"ĠJa":12574,"ĠJoint":12575,"rings":12576,"Ġdietary":12577,"msr":12578,"Ġhandful":12579,"Ġhandrails":12580,"Ġhandbars":12581,"Ġdemocracy":12582,"Ġgrid":12583,"Ġgray":12584,"Ġpoets":12585,"Ġdifferentiate":12586,"Ġfoetus":12587,"Ġtransm":12588,"Ġ39":12589,"Ġ370":12590,"Ġkeen":12591,"Ġmembr":12592,"ĠUnique":12593,"ĠTock":12594,"Ġgrowths":12595,"Ġregulatory":12596,"Ġjustified":12597,"Ġmarked":12598,"Ġsimulating":12599,"Ġ610":12600,"meas":12601,"Ġdependable":12602,"Ġoffenders":12603,"ĠSeat":12604,"ĠSevere":12605,"ĠSeah":12606,"ĠSeideman":12607,"cooling":12608,"ĠKah":12609,"ĠKaly":12610,"ĠKaz":12611,"ĠKansas":12612,"Ġinsists":12613,"Ġinsufficiency":12614,"Ġmarketplace":12615,"Ġclar":12616,"ĠRecogn":12617,"ĠReview":12618,"ĠRevolution":12619,"Ġsmell":12620,"Ġrealm":12621,"ĠStop":12622,"ĠStanton":12623,"Ġmini":12624,"Ġminers":12625,"Ġminors":12626,"Ġminister":12627,"Ġassists":12628,"Ġasserted":12629,"Ġcapac":12630,"Ġcapped":12631,"Ġpayoff":12632,"ethical":12633,"Ġshortest":12634,"Ġshortcoming":12635,"Ġexperimental":12636,"Ġrefine":12637,"Ġrefining":12638,"Ġrefuses":12639,"Ġmono":12640,"Ġmonet":12641,"Ġdiverts":12642,"Ġimpactful":12643,"ĠSomeone":12644,"Ġhappenings":12645,"oups":12646,"awi":12647,"Ġlacked":12648,"intosh":12649,"Ġapprove":12650,"Ġ49":12651,"Ġfundings":12652,"Ġgrouped":12653,"ĠProcter":12654,"Ġawards":12655,"Ġstandpoint":12656,"Ġentry":12657,"Ġpromulg":12658,"Ġcreatures":12659,"Ġcreativeness":12660,"Ġinterior":12661,"Ġinterview":12662,"Ġinterventions":12663,"ertil":12664,"Ġscore":12665,"Ġscra":12666,"Ġconception":12667,"Ġcentered":12668,"Ġpreserved":12669,"Ġsubsidizes":12670,"Ġsubsidiary":12671,"Ġeroded":12672,"ishness":12673,"Ġimmobility":12674,"ĠWeil":12675,"Ġprofile":12676,"Ġprofound":12677,"ismic":12678,"ommon":12679,"Ġautosomal":12680,"Ġpassword":12681,"Ġexplodes":12682,"Ġlookout":12683,"Ġcompetiveness":12684,"Ġbackbone":12685,"proliferation":12686,"Ġcorrel":12687,"Ġfounder":12688,"Ġfounded":12689,"ĠHeinrich":12690,"Ġmentioning":12691,"Ġvalves":12692,"Ġsuffere":12693,"Ġreceivers":12694,"Ġconfront":12695,"ĠTech":12696,"ĠTeenagers":12697,"Ġrecording":12698,"Ġrecirculation":12699,"ĠIntellectual":12700,"Ġcloth":12701,"Ġclock":12702,"Ġdancing":12703,"Ġevil":12704,"ustainable":12705,"Ġesteem":12706,"resources":12707,"Ġlabs":12708,"Ġmaintains":12709,"Ġflammable":12710,"Ġaccountable":12711,"Ġ1989":12712,"Ġhomebound":12713,"Ġoils":12714,"ĠUSD":12715,"Ġavoidance":12716,"ĠRespir":12717,"Ġmyself":12718,"Ġmyopia":12719,"ĠYang":12720,"ĠYoung":12721,"Ġurged":12722,"groups":12723,"Ġpositively":12724,"locity":12725,"ĠIndepend":12726,"ĠDeatrick":12727,"Ġreacting":12728,"ergie":12729,"Ġassisted":12730,"Ġguides":12731,"Ġharmed":12732,"Ġtechnically":12733,"Ġbirthday":12734,"Ġ870":12735,"ralization":12736,"ĠBereano":12737,"itoring":12738,"Ġpollutions":12739,"Ġsheer":12740,"Ġshell":12741,"Ġcomputational":12742,"Ġinequality":12743,"Ġfaraway":12744,"Ġlightens":12745,"ticle":12746,"Ġsixth":12747,"ĠActivity":12748,"Ġprogressive":12749,"Ġsupermark":12750,"Ġliterate":12751,"Ġfilter":12752,"Ġfilms":12753,"Ġfilament":12754,"boomers":12755,"Ġlandf":12756,"Ġcombating":12757,"Ġrefrigerant":12758,"Ġrefrigerations":12759,"Ġstopping":12760,"Ġperiodically":12761,"ĠAdams":12762,"ĠAdditional":12763,"ĠConventional":12764,"ĠConstruction":12765,"Ġtelephony":12766,"Ġtarn":12767,"ĠCommercial":12768,"ĠRock":12769,"Ġenhancements":12770,"Ġ92":12771,"Ġ95":12772,"iscoll":12773,"ĠCompar":12774,"ĠCompaq":12775,"ikolo":12776,"Ġemphasise":12777,"Ġtravels":12778,"Ġemotion":12779,"ĠProvidence":12780,"Ġprospers":12781,"Ġprospered":12782,"Ġfertile":12783,"Ġobjections":12784,"Ġoptical":12785,"Ġwarr":12786,"Ġsingles":12787,"Ġcapitalism":12788,"Ġstealing":12789,"Ġattracts":12790,"Ġdams":12791,"Ġdamping":12792,"Ġ1973":12793,"Ġ1977":12794,"Ġreproducing":12795,"Ġreproduction":12796,"Ġreproductive":12797,"Ġreproducible":12798,"Ġcoumarin":12799,"Ġtraditionally":12800,"Ġindustrialized":12801,"Ġmisgu":12802,"Ġdestro":12803,"Ġassociations":12804,"Ġmoves":12805,"Ġrecyclable":12806,"Ġcommercially":12807,"Ġdoubtful":12808,"ĠBogon":12809,"Ġboosted":12810,"Ġdiagnoses":12811,"Ġmaritime":12812,"Ġincurs":12813,"Ġelimination":12814,"Ġwindmills":12815,"Ġantiox":12816,"Ġproposes":12817,"Ġproposing":12818,"Ġflooded":12819,"Ġquicker":12820,"Ġcircles":12821,"ogram":12822,"Ġannou":12823,"Ġannuity":12824,"ĠFinland":12825,"ĠFinancing":12826,"Ġquestioned":12827,"angDong":12828,"Ġelectrically":12829,"enicillium":12830,"retirement":12831,"exam":12832,"Ġindicator":12833,"Ġrepay":12834,"ĠSuranga":12835,"paralys":12836,"Ġcreatively":12837,"Ġpreparedness":12838,"Ġoutputs":12839,"Ġobserving":12840,"Ġsubjective":12841,"Ġchecked":12842,"Ġswine":12843,"Ġsubstantiate":12844,"Ġmaximise":12845,"Ġmaximized":12846,"Ġunsound":12847,"Ġcollapsing":12848,"Ġinvestigating":12849,"Ġinterpre":12850,"ĠEveryday":12851,"Ġdisposable":12852,"Ġdeclines":12853,"ĠEarly":12854,"Ġflooring":12855,"space":12856,"Ġreturned":12857,"Ġpurchases":12858,"Ġpurchased":12859,"ĠNoyes":12860,"Ġaccumulation":12861,"Ġclassify":12862,"Ġcopied":12863,"ĠMinisterial":12864,"Ġmanufacturer":12865,"Ġfacilitating":12866,"2050":12867,"Ġvaccines":12868,"Ġencounters":12869,"enna":12870,"Ġfighters":12871,"Ġ110":12872,"ĠShar":12873,"ĠShut":12874,"ĠAssociate":12875,"Ġ2011":12876,"Ġdeteriorated":12877,"Ġ1800":12878,"ĠManufact":12879,"Ġshuttle":12880,"Ġcheapest":12881,"Ġ09":12882,"cule":12883,"Ġretained":12884,"Ġextraordinary":12885,"Ġpursued":12886,"Ġpredictable":12887,"Ġgamma":12888,"ĠTruth":12889,"ĠAppro":12890,"ĠApplied":12891,"ĠApplying":12892,"ĠAppearance":12893,"Ġviolence":12894,"ridden":12895,"Ġunpractical":12896,"ĠWilcke":12897,"Ġminorities":12898,"Ġassuming":12899,"ĠArgu":12900,"ĠArmed":12901,"Ġ172":12902,"Ġtroubling":12903,"Ġmotivates":12904,"Ġgeometry":12905,"Ġlayout":12906,"carbons":12907,"ĠIndex":12908,"Ġrooted":12909,"Ġii":12910,"Ġreplen":12911,"Ġreminded":12912,"ĠAustrian":12913,"ĠHybrid":12914,"Ġofficially":12915,"Ġshops":12916,"ĠEconomically":12917,"Ġdictate":12918,"Ġconcentrated":12919,"Ġwriter":12920,"Ġlisten":12921,"ĠPlus":12922,"ĠPlutonium":12923,"Ġattempted":12924,"Ġdrains":12925,"Ġdrainage":12926,"ĠMOE":12927,"Ġmagnet":12928,"Ġmagnify":12929,"Ġjobless":12930,"Ġrepresents":12931,"ĠMCA":12932,"ĠXin":12933,"Ġ160":12934,"Ġ1600":12935,"Ġassessed":12936,"Ġmidst":12937,"Ġadjusting":12938,"Ġconsultant":12939,"Ġkidnappers":12940,"Ġcalam":12941,"Ġ1400":12942,"Ġdiscouraging":12943,"Ġglasses":12944,"Ġfifth":12945,"Ġkilo":12946,"Ġkilogram":12947,"ĠObama":12948,"Ġpathway":12949,"Ġpacemakers":12950,"Ġ1966":12951,"Ġ1968":12952,"Ġswitches":12953,"Ġranges":12954,"Ġadvertised":12955,"Ġ1940":12956,"Ġ1946":12957,"Ġattribute":12958,"Ġattributes":12959,"Ġillustration":12960,"Ġillustrates":12961,"orbell":12962,"Ġmatured":12963,"ĠMacintosh":12964,"Ġloading":12965,"Ġunwel":12966,"Ġappealing":12967,"Ġdisturbances":12968,"Ġcatching":12969,"Ġwidening":12970,"Ġ240":12971,"ĠPhil":12972,"Ġannounce":12973,"Ġupdating":12974,"Ġupdates":12975,"Ġramp":12976,"ĠGenerating":12977,"ĠSubst":12978,"ĠOrganizations":12979,"Ġpieces":12980,"Ġinfringed":12981,"Ġbulb":12982,"ĠSMS":12983,"ĠCarl":12984,"Ġadvocating":12985,"091":12986,"Ġlieu":12987,"ĠCountry":12988,"ĠEdwards":12989,"Ġremotely":12990,"Ġruined":12991,"ĠRepublic":12992,"Ġinvasive":12993,"Ġdisagreement":12994,"ĠCla":12995,"ĠClar":12996,"ĠCorruption":12997,"ĠLeaders":12998,"Ġtriggering":12999,"Ġceiling":13000,"ĠPatent":13001,"ĠLeon":13002,"Ġpollutant":13003,"ĠMichigan":13004,"ĠStraugh":13005,"Ġpackets":13006,"Ġcontentment":13007,"Ġcustomized":13008,"ĠBuildings":13009,"Ġphotosynthesis":13010,"ĠRadioactive":13011,"Ġcram":13012,"Ġcracking":13013,"Ġcurbed":13014,"Ġrewarded":13015,"Ġfortuitous":13016,"Ġconceal":13017,"Ġconceive":13018,"Ġstems":13019,"Ġ235":13020,"Ġpleasing":13021,"Ġinherently":13022,"Ġnavig":13023,"Ġwithdrawn":13024,"Ġtextbooks":13025,"ĠCreating":13026,"ĠCreativity":13027,"Ġvoices":13028,"ĠOfficer":13029,"Ġinconveniences":13030,"ĠQuek":13031,"Ġhomeland":13032,"Ġdisplays":13033,"Ġunauthorised":13034,"Ġoverheated":13035,"Ġinstrumentation":13036,"Ġaccelerate":13037,"Ġdepressing":13038,"Ġinheritance":13039,"ĠMehdiz":13040,"Ġtoxicity":13041,"Ġhurd":13042,"Ġabsorbed":13043,"ĠConsumers":13044,"ranz":13045,"Ġhitting":13046,"Ġcandy":13047,"ĠInfo":13048,"Ġdischarging":13049,"Ġcomplaining":13050,"ĠPressurized":13051,"Ġhydrocarbons":13052,"Ġinsured":13053,"Ġconveys":13054,"Ġconveying":13055,"ĠPrevention":13056,"Ġunbal":13057,"Ġunbelievable":13058,"ĠAdvances":13059,"Ġillegitimate":13060,"Ġwinning":13061,"ĠMWe":13062,"ĠMWh":13063,"Ġplagiar":13064,"ĠNett":13065,"ĠNetwork":13066,"Ġunreactive":13067,"Ġunremitting":13068,"Ġunrealistic":13069,"ĠLonger":13070,"Ġcollaborated":13071,"Ġcollege":13072,"Ġvolunteer":13073,"Ġsurprisingly":13074,"ĠTransportation":13075,"Ġdocumentation":13076,"Ġpropag":13077,"ammad":13078,"Ġimpairments":13079,"ĠMonitoring":13080,"ĠGeor":13081,"Ġfertilizers":13082,"Ġbridges":13083,"Ġantibiotics":13084,"Ġtube":13085,"ĠEaston":13086,"Ġradius":13087,"technical":13088,"Ġbreaching":13089,"dependent":13090,"Ġhollow":13091,"rize":13092,"ĠMoratilla":13093,"ĠLinares":13094,"ĠIntegrity":13095,"Ġdistinctive":13096,"Ġtelecommunications":13097,"Ġmalfunctioning":13098,"iasm":13099,"Ġhacker":13100,"Ġintensity":13101,"Ġintensified":13102,"Ġreinforcement":13103,"Ġskeptical":13104,"ĠBerlin":13105,"ĠDiseases":13106,"........":13107,"ĠAngelique":13108,"Ġinappropriately":13109,"ouchable":13110,"ĠSolar":13111,"ĠTelevision":13112,"ĠTelemedicine":13113,"Ġbreeding":13114,"Ġnuclei":13115,"Ġcredibility":13116,"Ġmathematical":13117,"araoke":13118,"ĠMarriage":13119,"Ġsexual":13120,"ĠRefrig":13121,"Ġdecentralization":13122,"ĠJacobs":13123,"Ġsubstitution":13124,"Ġsubstituted":13125,"Ġcataracts":13126,"Ġblueprint":13127,"Ġultravio":13128,"Ġcandidates":13129,"Ġenthusiasm":13130,"Ġdiminish":13131,"Ġdiminished":13132,"Ġreconstruction":13133,"Ġreconsider":13134,"Ġbyproducts":13135,"Ġflourishing":13136,"Ġinstitutional":13137,"Ġfingerpr":13138,"ĠAcute":13139,"ĠHerranz":13140,"ĠFrankly":13141,"ĠPartner":13142,"Ġencrypted":13143,"Ġevacuation":13144,"Ġevacuated":13145,"Ġunfavorable":13146,"Ġpregnant":13147,"Ġrodents":13148,"fuels":13149,"Ġtiming":13150,"Ġhardships":13151,"ĠScott":13152,"ĠRelief":13153,"ĠGrace":13154,"ĠGraham":13155,"Ġuncontrolled":13156,"Ġamplified":13157,"Ġelectrolysis":13158,"Ġinflexibility":13159,"Ġtransparency":13160,"Ġoccasions":13161,"Ġoccasional":13162,"ĠAutomotive":13163,"ĠPaulin":13164,"surgical":13165,"Ġresidue":13166,"Ġresidual":13167,"ĠMercer":13168,"ĠMemory":13169,"ĠMultinational":13170,"Ġvitamin":13171,"Ġunconventional":13172,"ĠKelvin":13173,"ĠConcerns":13174,"Ġunsatisfying":13175,"Ġsunshine":13176,"Ġliberal":13177,"Ġlengthened":13178,"instein":13179,"Ġsemin":13180,"Ġnanobots":13181,"Ġdegenerative":13182,"Ġdisappoint":13183,"ĠCamer":13184,"Ġchaos":13185,"Ġchaotic":13186,"ĠDenmark":13187,"ĠLocal":13188,"Ġdeposited":13189,"ĠStanley":13190,"ĠStanford":13191,"Ġeligible":13192,"Ġeligibility":13193,"Ġwristband":13194,"Ġmolecul":13195,"Ġrevolving":13196,"Ġrepeatedly":13197,"Ġmonopolies":13198,"Ġthermochemical":13199,"Ġsponsorship":13200,"Ġdivorced":13201,"ĠTerrorism":13202,"Ġspiritual":13203,"cuts":13204,"Ġenlarge":13205,"ĠParenthood":13206,"ĠValley":13207,"Ġtraders":13208,"Engineering":13209,"Ġgardens":13210,"Ġstricken":13211,"ĠATC":13212,"Ġripe":13213,"ĠFarley":13214,"ĠBaard":13215,"ĠRMB":13216,"Ġunattractive":13217,"Ġretardation":13218,"ĠChristian":13219,"planned":13220,"Ġhyperopia":13221,"Ġconfigur":13222,"Ġrecruited":13223,"Ġpractitioner":13224,"ĠAdvantage":13225,"Ġcycling":13226,"ĠMegawatt":13227,"Ġmarvelous":13228,"Ġcelebr":13229,"ĠInvestment":13230,"ĠNetherlands":13231,"Ġincompetence":13232,"Ġdisintegration":13233,"Ġdumping":13234,"Ġdisseminate":13235,"ĠCustomers":13236,"ĠDiLoren":13237,"Ġadvisable":13238,"ĠSelection":13239,"Ġethnic":13240,"Ġsympathy":13241,"Ġunintentionally":13242,"binism":13243,"definition":13244,"priced":13245,"Ġiphone":13246,"Ġumbrell":13247,"Ġoverest":13248,"Ġceramic":13249,"Ġpaternity":13250,"Ġpsych":13251,"Ġmounting":13252,"Ġmeticulously":13253,"Ġhobbies":13254,"Ġproximity":13255,"ĠTetstiya":13256,"Ġenvisioned":13257,"ayakkara":13258,"ĠACL":13259,"Ġimpoverish":13260,"Ġdisproport":13261,"ĠFrot":13262,"ĠMYCS":13263,"ĠMohammad":13264,"Ġcomplac":13265,"ĠWilliams":13266,"ĠBryn":13267,"ĠGSM":13268,"ĠPopatlal":13269,"ĠPortability":13270,"ĠNanayakkara":13271,"ĠNishimats":13272,"ĠOccupational":13273,"ĠOlympic":13274,"ĠDiverting":13275,"ĠLanka":13276,"ĠAshcroft":13277,"Ġoverspending":13278,"Ġcolorectal":13279,"Ġextinction":13280,"Ġdemocratic":13281,"Ġsettled":13282,"Ġpredispos":13283,"Ġmicroscopic":13284,"Ġcalorie":13285,"Ġsqueeze":13286,"Ġastonishing":13287,"Ġretrofitting":13288,"Ġmiscommunication":13289,"businessdictionary":13290,"Ġovarian":13291,"Ġsticks":13292,"ĠRaven":13293,"Ġinterfered":13294,"ĠTechnical":13295,"ĠInterestingly":13296,"ĠConfuc":13297,"Ġfittings":13298,"Ġdescendants":13299,"bentz":13300,"evalu":13301,"savvy":13302,"Ġupper":13303,"Ġfantastic":13304,"Ġfumes":13305,"Ġfixtures":13306,"Ġinaccur":13307,"impaired":13308,"irteen":13309,"Ġdeforestation":13310,"Ġalcohol":13311,"ĠSterbentz":13312,"threatening":13313,"Ġbystanders":13314,"Ġorphans":13315,"ĠHoltzman":13316,"established":13317,"Ġdisfigured":13318,"Ġrandom":13319,"ĠFernandez":13320,"ĠCabinet":13321,"ĠMinkoff":13322,"ĠMarshall":13323,"conferencing":13324,"ĠWestinghouse":13325,"ĠWANO":13326,"Ġindefinitely":13327,"Ġindestructible":13328,"ĠRBMK":13329,"ĠROMAN":13330,"ĠGordon":13331,"ĠPackage":13332,"ĠNanyang":13333,"Ġexplicit":13334,"Ġkinship":13335,"ĠECCS":13336,"ĠEhresman":13337,"Ġarthritis":13338,"Ġunreliable":13339,"Ġuneasy":13340,"Ġappointments":13341,"ĠAnalysis":13342,"Ġmembrane":13343,"ĠUniquely":13344,"ĠKalyani":13345,"ĠRespiratory":13346,"ikolos":13347,"ĠBogonikolos":13348,"Ġantioxid":13349,"paralysed":13350,"ĠMehdizadeh":13351,"Ġultraviolet":13352,"Ġmolecules":13353,"ĠDiLorenzo":13354,"Ġumbrella":13355,"ĠNishimatsu":13356,"46":13357,"67":13358,"Ad":13359,"DD":13360,"For":13361,"Fried":13362,"MS":13363,"One":13364,"To":13365,"bed":13366,"bbles":13367,"burning":13368,"circuit":13369,"dinary":13370,"ey":13371,"eath":13372,"eins":13373,"erences":13374,"gree":13375,"hs":13376,"hou":13377,"houses":13378,"iations":13379,"killed":13380,"lon":13381,"lar":13382,"link":13383,"lift":13384,"lane":13385,"mare":13386,"mates":13387,"mail":13388,"miss":13389,"mug":13390,"meltdown":13391,"ng":13392,"ole":13393,"oors":13394,"phe":13395,"papers":13396,"rising":13397,"sides":13398,"td":13399,"times":13400,"ui":13401,"ubs":13402,"was":13403,"who":13404,"xas":13405,"zz":13406,"zed":13407,"zhou":13408,"Ġ~":13409,"Ġly":13410,"Ġtain":13411,"Ġtighter":13412,"heat":13413,"held":13414,"Ġaug":13415,"Ġaero":13416,"inally":13417,"research":13418,"enet":13419,"enabled":13420,"erable":13421,"erating":13422,"Ġsne":13423,"Ġod":13424,"Ġowe":13425,"Ġcry":13426,"Ġcert":13427,"Ġcave":13428,"Ġcubic":13429,"Ġpy":13430,"Ġpiv":13431,"Ġpesticides":13432,"Ġware":13433,"Ġwalls":13434,"Ġwander":13435,"Ġwondering":13436,"isy":13437,"isition":13438,"ishes":13439,"isiveness":13440,
[...]
