{"!":0,"\"":1,"#":2,"$":3,"%":4,"&":5,"'":6,"(":7,")":8,"*":9,"+":10,",":11,"-":12,".":13,"/":14,"0":15,"1":16,"2":17,"3":18,"4":19,"5":20,"6":21,"7":22,"8":23,"9":24,":":25,";":26,"<":27,"=":28,">":29,"?":30,"@":31,"A":32,"B":33,"C":34,"D":35,"E":36,"F":37,"G":38,"H":39,"I":40,"J":41,"K":42,"L":43,"M":44,"N":45,"O":46,"P":47,"Q":48,"R":49,"S":50,"T":51,"U":52,"V":53,"W":54,"X":55,"Y":56,"Z":57,"[":58,"\\":59,"]":60,"^":61,"_":62,"`":63,"a":64,"b":65,"c":66,"d":67,"e":68,"f":69,"g":70,"h":71,"i":72,"j":73,"k":74,"l":75,"m":76,"n":77,"o":78,"p":79,"q":80,"r":81,"s":82,"t":83,"u":84,"v":85,"w":86,"x":87,"y":88,"z":89,"{":90,"|":91,"}":92,"~":93,"¡":94,"¢":95,"£":96,"¤":97,"¥":98,"¦":99,"§":100,"¨":101,"©":102,"ª":103,"«":104,"¬":105,"®":106,"¯":107,"°":108,"±":109,"²":110,"³":111,"´":112,"µ":113,"¶":114,"·":115,"¸":116,"¹":117,"º":118,"»":119,"¼":120,"½":121,"¾":122,"¿":123,"À":124,"Á":125,"Â":126,"Ã":127,"Ä":128,"Å":129,"Æ":130,"Ç":131,"È":132,"É":133,"Ê":134,"Ë":135,"Ì":136,"Í":137,"Î":138,"Ï":139,"Ð":140,"Ñ":141,"Ò":142,"Ó":143,"Ô":144,"Õ":145,"Ö":146,"×":147,"Ø":148,"Ù":149,"Ú":150,"Û":151,"Ü":152,"Ý":153,"Þ":154,"ß":155,"à":156,"á":157,"â":158,"ã":159,"ä":160,"å":161,"æ":162,"ç":163,"è":164,"é":165,"ê":166,"ë":167,"ì":168,"í":169,"î":170,"ï":171,"ð":172,"ñ":173,"ò":174,"ó":175,"ô":176,"õ":177,"ö":178,"÷":179,"ø":180,"ù":181,"ú":182,"û":183,"ü":184,"ý":185,"þ":186,"ÿ":187,"Ā":188,"ā":189,"Ă":190,"ă":191,"Ą":192,"ą":193,"Ć":194,"ć":195,"Ĉ":196,"ĉ":197,"Ċ":198,"ċ":199,"Č":200,"č":201,"Ď":202,"ď":203,"Đ":204,"đ":205,"Ē":206,"ē":207,"Ĕ":208,"ĕ":209,"Ė":210,"ė":211,"Ę":212,"ę":213,"Ě":214,"ě":215,"Ĝ":216,"ĝ":217,"Ğ":218,"ğ":219,"Ġ":220,"ġ":221,"Ģ":222,"ģ":223,"Ĥ":224,"ĥ":225,"Ħ":226,"ħ":227,"Ĩ":228,"ĩ":229,"Ī":230,"ī":231,"Ĭ":232,"ĭ":233,"Į":234,"į":235,"İ":236,"ı":237,"Ĳ":238,"ĳ":239,"Ĵ":240,"ĵ":241,"Ķ":242,"ķ":243,"ĸ":244,"Ĺ":245,"ĺ":246,"Ļ":247,"ļ":248,"Ľ":249,"ľ":250,"Ŀ":251,"ŀ":252,"Ł":253,"ł":254,"Ń":255,"Ġt":256,"he":257,"Ġa":258,"in":259,"re":260,"Ġthe":261,"er":262,"on":263,"en":264,"Ġ,":265,"Ġs":266,"Ġ.":267,"at":268,"Ġo":269,"Ġc":270,"Ġp":271,"es":272,"or":273,"Ġw":274,"ing":275,"is":276,"ed":277,"it":278,"an":279,"Ġf":280,"Ġb":281,"Ġto":282,"Ġof":283,"Ġin":284,"al":285,"le":286,"ic":287,"ro":288,"Ġm":289,"Ġan":290,"ion":291,"Ġd":292,"ar":293,"ent":294,"Ġh":295,"ou":296,"Ġand":297,"Ġe":298,"ct":299,"Ġn":300,"as":301,"Ġre":302,"ve":303,"il":304,"Ġth":305,"Ġbe":306,"ly":307,"lo":308,"Ġis":309,"ld":310,"om":311,"ation":312,"Ġg":313,"ĠT":314,"et":315,"st":316,"ch":317,"Ġpro":318,"ce":319,"ver":320,"se":321,"ment":322,"Ġ2":323,"id":324,"im":325,"Ġl":326,"00":327,"ig":328,"ur":329,"ore":330,"Ġon":331,"ot":332,"Ġthat":333,"ĠS":334,"ĠI":335,"Ġfor":336,"ut":337,"ill":338,"ow":339,"ir":340,"Ġu":341,"Ġare":342,"Ġ)":343,"Ġas":344,"uc":345,"Ġ(":346,"Ġde":347,"ĠA":348,"Ġcon":349,"Ġ200":350,"ble":351,"ul":352,"Ġit":353,"Ġen":354,"her":355,"ĠThe":356,"op":357,"nt":358,"ri":359,"act":360,"ol":361,"ess":362,"ay":363,"ould":364,"Ġha":365,"gy":366,"ĠR":367,"Ġal":368,"Ġsu":369,"Ġ:":370,"ĠH":371,"ith":372,"Ġnot":373,"Ġag":374,"ure":375,"Ġwh":376,"if":377,"ra":378,"Ġst":379,"ers":380,"no":381,"Ġhe":382,"ci":383,"Ġne":384,"Ġcan":385,"el":386,"rom":387,"lear":388,"tt":389,"Ġwill":390,"th":391,"ity":392,"ant":393,"Ġwith":394,"em":395,"Ġsh":396,"ies":397,"Ġfrom":398,"ĠC":399,"uclear":400,"Ġhave":401,"ap":402,"Ġex":403,"ww":404,"iv":405,"am":406,"ort":407,"Ġtheir":408,"ect":409,"are":410,"us":411,"ive":412,"Ġ'":413,"un":414,"ding":415,"Ġcom":416,"ĠIn":417,"ge":418,"ĠM":419,"ech":420,"ĠF":421,"est":422,"um":423,"actor":424,"ad":425,"pen":426,"ther":427,"igh":428,"Ġim":429,"Ġwor":430,"over":431,"Ġso":432,"Ġby":433,"ount":434,"Ġgen":435,"ate":436,"lder":437,"lop":438,"Ġ1":439,"cess":440,"ff":441,"velop":442,"Ġmore":443,"ost":444,"echno":445,"echnolo":446,"ical":447,"ke":448,"Ġimp":449,"Ġor":450,"ĠN":451,"eop":452,"ign":453,"Ġdevelop":454,"ich":455,"eople":456,"ĠTh":457,"du":458,"ĠP":459,"ac":460,"pp":461,"Ġnuclear":462,"Ġres":463,"Ġ/":464,"ance":465,"ere":466,"ttp":467,"Ġ//":468,"per":469,"Ġhttp":470,"ast":471,"Ġwhich":472,"Ġpeople":473,"Ġhas":474,"Ġdis":475,"ain":476,"ĠW":477,"Ġelder":478,"Ġtechnolo":479,"Ġr":480,"Ġshould":481,"ine":482,"ĠB":483,"so":484,"Ġ2009":485,"Ġthey":486,"os":487,"Ġch":488,"qu":489,"bl":490,"Ġelderly":491,"ĠO":492,"Ġinc":493,"Ġthis":494,"ry":495,"ome":496,"overn":497,"ĠE":498,"Ġcount":499,"ĠG":500,"Ġus":501,"overnment":502,"ist":503,"ase":504,"and":505,"Ġdes":506,"con":507,"ergy":508,"ult":509,"cial":510,"Ġ\"":511,"ved":512,"Ġpl":513,"Ġgovernment":514,"blem":515,"ue":516,"cc":517,"Ġsa":518,"able":519,"Ġalso":520,"Ġproblem":521,"ety":522,"Ġreactor":523,"Ġad":524,"ever":525,"ber":526,"gh":527,"Ġwe":528,"od":529,"Ġother":530,"Ġsuch":531,"Ġdesign":532,"Ġcomp":533,"Ġtechnology":534,"ĠD":535,"Ġint":536,"one":537,"Ġwhe":538,"Ġprocess":539,"Ġlo":540,"pt":541,"Ġy":542,"our":543,"Ġneed":544,"Ġpre":545,"alth":546,"ubl":547,"ated":548,"Ġwork":549,"www":550,"Ġenergy":551,"ial":552,"ower":553,"art":554,"etic":555,"Ġthere":556,"ous":557,"Ġse":558,"ublic":559,"Ġun":560,"ong":561,"ire":562,"Ġdevelopment":563,"Ġab":564,"ident":565,"ew":566,"out":567,"vent":568,"ces":569,"Ġman":570,"ulation":571,"ual":572,"ingap":573,"for":574,"ingapore":575,"Ġv":576,"owever":577,"ide":578,"Ġhel":579,"gine":580,"ĠThis":581,"eration":582,"Ġmay":583,"Ġma":584,"arch":585,"ef":586,"iz":587,"Ġthem":588,"Ġcont":589,"ĠSingapore":590,"ern":591,"ence":592,"opulation":593,"ĠHowever":594,"Ġwould":595,"ions":596,"Ġeff":597,"com":598,"Ġspen":599,"ight":600,"Ġaged":601,"Ġhelp":602,"conom":603,"ĠV":604,"duct":605,"eved":606,"Ġcost":607,"Ġpublic":608,"age":609,"ĠL":610,"der":611,"Ġdo":612,"ell":613,"Ġle":614,"Ġpower":615,"ia":616,"Ġhealth":617,"Ġat":618,"Ġcountry":619,"Ġresult":620,"ss":621,"ater":622,"Ġrese":623,"ds":624,"etri":625,"Ġsaf":626,"Ġpopulation":627,"au":628,"ily":629,"Ġone":630,"Ġincre":631,"lect":632,"Ġeconom":633,"Ġta":634,"ĠRetri":635,"yst":636,"fore":637,"Ġengine":638,"Ġacc":639,"Ġaging":640,"ĠRetrieved":641,"very":642,"ystem":643,"Ġsol":644,"Ġspending":645,"ric":646,"ans":647,"Ġgenetic":648,"ear":649,"form":650,"Ġk":651,"ature":652,"Ġcar":653,"ations":654,"ud":655,"dit":656,"Ġwas":657,"ause":658,"Ġfin":659,"Ġpol":660,"Ġbec":661,"ĠThere":662,"Ġnew":663,"ĠU":664,"Ġind":665,"Ġuse":666,"ven":667,"cy":668,"ient":669,"Ġresearch":670,"Ġconc":671,"pe":672,"Ġhigh":673,"Ġem":674,"reat":675,"ust":676,"ab":677,"Ġproduct":678,"rou":679,"ĠSe":680,"all":681,"ility":682,"Ġ]":683,"Ġ[":684,"Ġmany":685,"Ġthese":686,"Ġtest":687,"Ġup":688,"Ġsystem":689,"Ġrel":690,"Ġwho":691,"Ġits":692,"ĠAs":693,"Ġbeen":694,"ht":695,"ime":696,"ary":697,"Ġ%":698,"ering":699,"Ġsupp":700,"ter":701,"ag":702,"king":703,"duc":704,"Ġsur":705,"Ġmed":706,"ĠIt":707,"Ġfam":708,"Ġra":709,"ild":710,"ives":711,"Ġper":712,"Ġage":713,"ace":714,"htm":715,"ĠJ":716,"Ġout":717,"ru":718,"ple":719,"ough":720,"Ġtra":721,"Ġonly":722,"Ġsome":723,"TR":724,"Ġreactors":725,"Ġcons":726,"Ġme":727,"ving":728,"Ġproblems":729,"Ġfun":730,"ĠVH":731,"Ġabout":732,"si":733,"ĠVHTR":734,"Ġ=":735,"Ġbut":736,"ĠFor":737,"Ġpolic":738,"Ġall":739,"Ġlif":740,"oun":741,"ike":742,"imit":743,"plo":744,"Ġthan":745,"Ġyear":746,"nov":747,"ren":748,"Ġif":749,"Ġprov":750,"Ġcould":751,"Ġcare":752,"now":753,"Ġwhen":754,"Ġplant":755,"ile":756,"ard":757,"Ġ19":758,"ciety":759,"ries":760,"eren":761,"iff":762,"ays":763,"ID":764,"ip":765,"ities":766,"Ġsocial":767,"Ġsafety":768,"ER":769,"Ġlimit":770,"IN":771,"Ġris":772,"ivid":773,"Ġexam":774,"uman":775,"Ġmost":776,"Ġelect":777,"Ġgeneration":778,"Ġimport":779,"Ġar":780,"Ġaccident":781,"Ġ20":782,"Ġinnov":783,"ger":784,"ors":785,"ally":786,"ool":787,"pect":788,"ividual":789,"Ġtime":790,"Ġused":791,"Ġsupport":792,"ĠGen":793,"Ġam":794,"Ġour":795,"Ġdiff":796,"ency":797,"uch":798,"Ġindividual":799,"Ġsociety":800,"ments":801,"low":802,"Ġpos":803,"Ġbecause":804,"ie":805,"ĠTherefore":806,"olo":807,"Ġknow":808,"port":809,"Ġwell":810,"PER":811,"Ġover":812,"oney":813,"uel":814,"FID":815,"LIN":816,"ĠHY":817,"Ġworld":818,"PERLIN":819,"ĠHYPERLIN":820,"ĠHYPERLINK":821,"enef":822,"Ġiss":823,"ack":824,"Ġj":825,"Ġed":826,"irst":827,"Ġfamily":828,"Ġinto":829,"Ġ{":830,"Ġ}":831,"Ġdisc":832,"Ġlike":833,"Ġbenef":834,"rough":835,"Ġgo":836,"ĠRFID":837,"dition":838,"Ġimpro":839,"ose":840,"Ġmoney":841,"uture":842,"Ġapp":843,"ens":844,"Ġinv":845,"Ġdec":846,"row":847,"ĠOn":848,"ite":849,"Ġlong":850,"Ġadv":851,"ĠNuclear":852,"Ġchild":853,"Ġbu":854,"io":855,"sy":856,"tain":857,"urther":858,"Ġact":859,"Ġ?":860,"ational":861,"ĠAl":862,"Ġeduc":863,"Ġcomm":864,"Ġable":865,"Ġinform":866,"Ġcountries":867,"Ġincreas":868,"urre":869,"ĠRe":870,"Ġdise":871,"ress":872,"Ġhuman":873,"Ġfuel":874,"ĠCh":875,"ember":876,"Ġfuture":877,"pl":878,"ific":879,"ĠOct":880,"ative":881,"ious":882,"ail":883,"Ġexample":884,"Ġeconomic":885,"erson":886,"Ġlife":887,"end":888,"duce":889,"Ġelectric":890,"Ġyears":891,"Ġno":892,"Ġvery":893,"ploy":894,"tter":895,"ruct":896,"Ġpart":897,"Ġstill":898,"ĠSept":899,"ober":900,"Ġ2008":901,"Ġdue":902,"Ġinst":903,"ind":904,"ob":905,"Ġeffect":906,"Ġbeing":907,"Ġbetter":908,"Ġbenefit":909,"Ġmain":910,"Ġengineering":911,"Ġmake":912,"ating":913,"sych":914,"Ġimportant":915,"Ġ3":916,"emper":917,"emperature":918,"iron":919,"org":920,"Ġmuch":921,"ree":922,"ium":923,"sycholo":924,"html":925,"viron":926,"ful":927,"ep":928,"200":929,"ĠSeptember":930,"ĠAn":931,"Ġoper":932,"Ġwere":933,"Ġgener":934,"ĠWith":935,"go":936,"Ġold":937,"urrent":938,"Ġrequ":939,"gra":940,"ics":941,"Ġtr":942,"ĠEn":943,"vironment":944,"Ġro":945,"Ġtechnolog":946,"Ġgrow":947,"Ġeven":948,"Ġret":949,"ution":950,"ĠOctober":951,"gen":952,"und":953,"Ġmedical":954,"Ġhis":955,"Ġprevent":956,"Ġcr":957,"che":958,"ates":959,"Ġchildren":960,"care":961,"Ġ4":962,"veill":963,"ck":964,"Ġeffic":965,"veillance":966,"Ġtesting":967,"erm":968,"ources":969,"Ġpolicies":970,"ove":971,"Ġeducation":972,"Ġfe":973,"Ġser":974,"ĠK":975,"own":976,"Ġincrease":977,"Ġrisk":978,"ph":979,"ory":980,"Ġatt":981,"Ġaff":982,"Ġlow":983,"Ġinformation":984,"ases":985,"ues":986,"ced":987,"Ġpri":988,"Ġfactor":989,"ves":990,"Ġwast":991,"Ġenvironment":992,"Ġneeds":993,"rib":994,"Ġph":995,"ĠIV":996,"Ġareas":997,"ame":998,"arent":999,"ince":1000,"ice":1001,"Ġfinan":1002,"Ġany":1003,"usion":1004,"get":1005,"Ġunder":1006,"Ġqu":1007,"Ġsp":1008,"Ġchan":1009,"ade":1010,"ĠSt":1011,"ĠThus":1012,"Ġcurrent":1013,"ise":1014,"Ġrequire":1015,"uring":1016,"Ġconcl":1017,"ĠRef":1018,"iver":1019,"other":1020,"Ġpsycholo":1021,"Ġ2007":1022,"Ġperson":1023,"sel":1024,"ted":1025,"Ġpat":1026,"Ġmight":1027,"Ġlar":1028,"ents":1029,"ach":1030,"ĠReferen":1031,"Ġresults":1032,"Ġless":1033,"Ġconcern":1034,"pd":1035,"Ġengineers":1036,"Ġsec":1037,"ĠHence":1038,"ass":1039,"fter":1040,"ĠUn":1041,"ews":1042,"ually":1043,"cept":1044,"oc":1045,"ons":1046,"Ġ6":1047,"Ġfinancial":1048,"cent":1049,"Ġemploy":1050,"Ġexpen":1051,"ok":1052,"atives":1053,"Ġ5":1054,"Ġthrough":1055,"Ġconsid":1056,"Ġrad":1057,"ten":1058,"Ġfac":1059,"pdf":1060,"ital":1061,"ting":1062,"ak":1063,"ential":1064,"Ġac":1065,"Ġamount":1066,"Ġtake":1067,"Ġhealthcare":1068,"Ġtw":1069,"duced":1070,"wn":1071,"Ġpossi":1072,"ject":1073,"ared":1074,"Ġsurveillance":1075,"Ġcompan":1076,"Ġimprove":1077,"ts":1078,"sure":1079,"pecial":1080,"ages":1081,"Ġplants":1082,"Ġevery":1083,"ides":1084,"Ġ2004":1085,"gov":1086,"Ġbuil":1087,"ark":1088,"Ġsub":1089,"arents":1090,"ring":1091,"Ġway":1092,"Ġaddition":1093,"li":1094,"Ġwaste":1095,"Ġlead":1096,"lement":1097,"Ġext":1098,"bility":1099,"Ġinf":1100,"urity":1101,"Ġconclusion":1102,"sion":1103,"iving":1104,"Ġ;":1105,"Ġca":1106,"Ġdisease":1107,"acy":1108,"we":1109,"oth":1110,"Ġinvest":1111,"Ġarg":1112,"Ġdef":1113,"Ġeconomy":1114,"Ġpatient":1115,"Ġget":1116,"err":1117,"ex":1118,"Ġlimited":1119,"Ġcre":1120,"Ġnow":1121,"urn":1122,"Ġyoun":1123,"ging":1124,"Ġtwo":1125,"Ġwhere":1126,"Ġmade":1127,"Ġeas":1128,"Ġtemperature":1129,"Ġworking":1130,"Ġrelatives":1131,"Ġinvent":1132,"ĠPro":1133,"les":1134,"aterial":1135,"pend":1136,"ĠBut":1137,"Ġcontrib":1138,"Ġ2005":1139,"Ġpriv":1140,"Ġcaus":1141,"ract":1142,"Ġprovide":1143,"Ġfact":1144,"ically":1145,"ness":1146,"pro":1147,"ices":1148,"Ġallow":1149,"by":1150,"vel":1151,"ann":1152,"Ġcit":1153,"ys":1154,"Ġelectricity":1155,"Ġlarge":1156,"pon":1157,"ording":1158,"more":1159,"ures":1160,"Ġorder":1161,"ĠChin":1162,"Ġparents":1163,"Ġconst":1164,"Ġhand":1165,"Ġthose":1166,"vi":1167,"Ġretire":1168,"ists":1169,"erent":1170,"Ġwater":1171,"Ġimplement":1172,"Ġissue":1173,"Ġdem":1174,"Ġdoes":1175,"Ġdeveloped":1176,"lob":1177,"Ġcarri":1178,"Ġmin":1179,"arm":1180,"Ġhig":1181,"though":1182,"Ġhad":1183,"ĠMore":1184,"Ġpo":1185,"Ġincreasing":1186,"cond":1187,"Ġear":1188,"ource":1189,"ooled":1190,"me":1191,"ertain":1192,"Ġdifferent":1193,"Ġinnovation":1194,"icle":1195,"elf":1196,"Ġmaterial":1197,"Ġke":1198,"Ġdet":1199,"ional":1200,"Ġbenefits":1201,"ĠReferences":1202,"utions":1203,"Ġthus":1204,"Ġ199":1205,"Ġsecurity":1206,"Ġreas":1207,"ĠFurther":1208,"ize":1209,"Ġtechnologies":1210,"Ġ&":1211,"ĠAcc":1212,"ĠFirst":1213,"Ġreduce":1214,"ĠTo":1215,"Ġease":1216,"Ġstud":1217,"Ġfirst":1218,"imin":1219,"ĠGeneration":1220,"wor":1221,"eth":1222,"Ġensure":1223,"Ġfactors":1224,"ĠInt":1225,"bers":1226,"Ġafter":1227,"Ġresources":1228,"ered":1229,"iency":1230,"Ġsign":1231,"Ġusing":1232,"Ġaffect":1233,"Ġsince":1234,"less":1235,"Ġissues":1236,"led":1237,"ink":1238,"Ġgrowth":1239,"ĠY":1240,"Ġgreat":1241,"ĠFurthermore":1242,"Ġsim":1243,"den":1244,"Ġ2006":1245,"Ġhigher":1246,"Ġexper":1247,"Ġproducts":1248,"Ġsci":1249,"Ġboth":1250,"Ġoff":1251,"Ġes":1252,"Ġenc":1253,"ute":1254,"ention":1255,"lobal":1256,"Ġmem":1257,"Ġreg":1258,"Ġopp":1259,"osp":1260,"Ġduring":1261,"Ġcl":1262,"imes":1263,"ffic":1264,"oura":1265,"Ġtrans":1266,"sg":1267,"Ġterm":1268,"int":1269,"ĠReactor":1270,"Ġob":1271,"Ġageing":1272,"Ġcommun":1273,"Ġgood":1274,"Ġnum":1275,"ead":1276,"Ġsit":1277,"ĠOne":1278,"aw":1279,"Ġide":1280,"Ġav":1281,"Ġpsychology":1282,"Ġsk":1283,"ord":1284,"round":1285,"Ġradio":1286,"Ġfurther":1287,"FR":1288,"Ġbas":1289,"ĠThese":1290,"ĠCom":1291,"ability":1292,"Ġjust":1293,"dust":1294,"Ġco":1295,"ĠIf":1296,"Ġown":1297,"Ġhow":1298,"Ġwithout":1299,"ges":1300,"Ġliving":1301,"Ġefficiency":1302,"rit":1303,"pecially":1304,"ĠSo":1305,"Ġins":1306,"ilities":1307,"iven":1308,"Ġolder":1309,"Ġprot":1310,"ĠThey":1311,"hen":1312,"Ġsame":1313,"Ġright":1314,"ĠChina":1315,"Ġgre":1316,"Ġbecome":1317,"Ġcompared":1318,"lu":1319,"pos":1320,"Ġfast":1321,"Ġcause":1322,"Ġgas":1323,"ĠWe":1324,"ards":1325,"vices":1326,"ler":1327,"de":1328,"Ġretirement":1329,"Ġhy":1330,"Ġsm":1331,"Ġpot":1332,"roup":1333,"Ġbur":1334,"Ġprivacy":1335,"red":1336,"ound":1337,"veal":1338,"Ġsolution":1339,"Ġfunds":1340,"Ġmark":1341,"Ġbring":1342,"ĠHe":1343,"Ġwhether":1344,"Ġdemand":1345,"illion":1346,"Ġespecially":1347,"dro":1348,"ivity":1349,"Ġindust":1350,"ĠMoreover":1351,"ish":1352,"day":1353,"Ġcertain":1354,"Ġaccidents":1355,"Ġcap":1356,"Ġreveal":1357,"Ġsafe":1358,"Ġpossible":1359,"Ġpotential":1360,"ular":1361,"Ġcontro":1362,"Ġmembers":1363,"og":1364,"Ġref":1365,"Ġstr":1366,"Ġrespon":1367,"ited":1368,"ĠWor":1369,"Ġvi":1370,"Ġcontin":1371,"Ġbefore":1372,"herno":1373,"Ġcitiz":1374,"Ġass":1375,"ield":1376,"Ġencoura":1377,"Ġprovid":1378,"hernoby":1379,"Ġtreat":1380,"selves":1381,"Ġcosts":1382,"Ġtrack":1383,"Ġbuilding":1384,"Ġ10":1385,"hernobyl":1386,"Ġworkers":1387,"news":1388,"ĠDe":1389,"ificant":1390,"Ġmust":1391,"ĠAlthough":1392,"Ġpolicy":1393,"Ġindividuals":1394,"ĠEnergy":1395,"Ġneg":1396,"Ġmon":1397,"Ġcase":1398,"ospital":1399,"Ġdeveloping":1400,"Ġsee":1401,"Ġshow":1402,"Ġrem":1403,"Ġfunding":1404,"Ġche":1405,"lic":1406,"Ġmod":1407,"error":1408,"Ġexperi":1409,"ized":1410,"ee":1411,"irect":1412,"ppen":1413,"Ġhappen":1414,"Ġher":1415,"Ġcompanies":1416,"Ġmarket":1417,"Ġrun":1418,"ĠAccording":1419,"Ġthemselves":1420,"ructure":1421,"ition":1422,"Ġlives":1423,"ied":1424,"mer":1425,"rast":1426,"Ġmeans":1427,"gram":1428,"Ġexpens":1429,"drogen":1430,"Ġhaving":1431,"Ġcome":1432,"Ġlevel":1433,"Ġinnovations":1434,"Ġsignificant":1435,"ĠRes":1436,"Ġdepend":1437,"echnology":1438,"Ġeffective":1439,"Ġsect":1440,"Ġwhile":1441,"ron":1442,"ĠIntern":1443,"res":1444,"Ġshort":1445,"av":1446,"Ġreal":1447,"ĠWh":1448,"Ġpress":1449,"10":1450,"Ġtoo":1451,"Ġnecess":1452,"Ġdown":1453,"inist":1454,"Ġsolve":1455,"jor":1456,"Ġrate":1457,"Ġmeet":1458,"Ġthen":1459,"Ġdiver":1460,"sequ":1461,"Ġjob":1462,"Ġset":1463,"Ġvar":1464,"ĠSecond":1465,"Ġtak":1466,"Ġocc":1467,"Ġlot":1468,"ieve":1469,"Ġcool":1470,"Ġfail":1471,"Ġcitizens":1472,"Ġagain":1473,"Ġperform":1474,"ĠGenetic":1475,"Ġpatients":1476,"Ġburden":1477,"ision":1478,"Ġwhat":1479,"Ġappro":1480,"active":1481,"udget":1482,"Ġglobal":1483,"uccess":1484,"Ġ8":1485,"Ġbet":1486,"Ġcho":1487,"Ġsolutions":1488,"Ġprom":1489,"Ġcarrier":1490,"ĠChernobyl":1491,"ween":1492,"ks":1493,"read":1494,"antages":1495,"ik":1496,"Ġbetween":1497,"ĠSome":1498,"Ġprocesses":1499,"Ġmajor":1500,"Ġsitu":1501,"the":1502,"itive":1503,"fficient":1504,"Ġpur":1505,"Ġaspect":1506,"WR":1507,"Ġpay":1508,"Ġproduce":1509,"Ġargue":1510,"icles":1511,"Ġrec":1512,"rain":1513,"Ġdiseases":1514,"ailable":1515,"Ġnumber":1516,"Ġsource":1517,"Ġ9":1518,"ĠButler":1519,"esides":1520,"ather":1521,"Ġprotect":1522,"Ġfew":1523,"Ġgroup":1524,"Ġconsum":1525,"Ġmaterials":1526,"ism":1527,"air":1528,"Ġlack":1529,"sid":1530,"Ġident":1531,"ty":1532,"Ġdone":1533,"Ġequ":1534,"Ġaround":1535,"Ġimpact":1536,"Ġte":1537,"ants":1538,"Ġknown":1539,"riend":1540,"Ġ2003":1541,"Ġintro":1542,"anced":1543,"tern":1544,"Ġform":1545,"Ġexpect":1546,"ĠMed":1547,"oss":1548,"Ġefficient":1549,"gical":1550,"Ġsay":1551,"ude":1552,"Ġput":1553,"Ġsche":1554,"Ġface":1555,"nuclear":1556,"Ġsmall":1557,"Ġresponsi":1558,"ĠFirstly":1559,"Ġ7":1560,"allen":1561,"gan":1562,"Ġconcept":1563,"ĠWorld":1564,"Ġsuccess":1565,"Ġthough":1566,"Ġprof":1567,"000":1568,"ior":1569,"Ġabove":1570,"Ġ$":1571,"ged":1572,"Ġcreat":1573,"2009":1574,"Ġcaused":1575,"ert":1576,"ission":1577,"Ġanother":1578,"ĠSecondly":1579,"50":1580,"Ġful":1581,"Ġspe":1582,"Ġdiscover":1583,"Ġlonger":1584,"Ġtoday":1585,"ood":1586,"pr":1587,"Ġda":1588,"cooled":1589,"Ġhydrogen":1590,"Ġve":1591,"ills":1592,"Ġpercent":1593,"ocus":1594,"force":1595,"Ġpres":1596,"Ġdefin":1597,"ouse":1598,"Ġkeep":1599,"Ġsen":1600,"ately":1601,"cal":1602,"Ġstand":1603,"ĠMan":1604,"ĠSC":1605,"Ġcars":1606,"top":1607,"ural":1608,"Ġconstruct":1609,"oll":1610,"ĠBesides":1611,"elfare":1612,"Ġhospital":1613,"Ġobl":1614,"Ġenough":1615,"ible":1616,"Ġthink":1617,"Ġproject":1618,"ization":1619,"Ġess":1620,"ossil":1621,"Ġent":1622,"Ġsaving":1623,"riendly":1624,"Ġoblig":1625,"Ġ*":1626,"Ġturn":1627,"atter":1628,"ĠSCWR":1629,"ways":1630,"Ġinstance":1631,"Ġveh":1632,"PF":1633,"icult":1634,"ledge":1635,"Ġscient":1636,"Ġcontrol":1637,"Ġfocus":1638,"ĠNew":1639,"Ġdifficult":1640,"mal":1641,"land":1642,"Ġsystems":1643,"Ġyoung":1644,"Ġfind":1645,"Ġaw":1646,"Ġbo":1647,"Ġvarious":1648,"Ġfeel":1649,"Ġradioactive":1650,"ning":1651,"Ġwelfare":1652,"ences":1653,"Ġcent":1654,"Ġpast":1655,"itable":1656,"Ġsituation":1657,"Ġgiven":1658,"Ġcor":1659,"Ġincl":1660,"Ġincreased":1661,"..":1662,"Ġill":1663,"Ġreason":1664,"Ġphys":1665,"Ġtrain":1666,"Ġinvol":1667,"cer":1668,"Ġamong":1669,"Ġ+":1670,"ethod":1671,"ators":1672,"Ġproduction":1673,"iness":1674,"Ġfossil":1675,"Ġnecessary":1676,"Ġtaken":1677,"urance":1678,"Ġbudget":1679,"Ġminim":1680,"ix":1681,"Ġproper":1682,"rimin":1683,"ĠAnother":1684,"Ġstep":1685,"Ġplace":1686,"Ġpass":1687,"Ġgovernments":1688,"Ġsal":1689,"ising":1690,"ality":1691,"Ġalways":1692,"Ġmethod":1693,"Ġstart":1694,"Ġsubsid":1695,"ier":1696,"ĠBy":1697,"Ġinter":1698,"Ġty":1699,"ised":1700,"ilit":1701,"ducing":1702,"Ġterror":1703,"Ġhelps":1704,"abl":1705,"ick":1706,"ĠEngine":1707,"Ġserious":1708,"Ġyounger":1709,"ĠAd":1710,"edu":1711,"Ġevent":1712,"ave":1713,"Ġothers":1714,"Ġinstead":1715,"esting":1716,"Ġtell":1717,"Ġach":1718,"Ġpressure":1719,"Ġspend":1720,"Ġeffects":1721,"ĠHealth":1722,"itt":1723,"apan":1724,"ft":1725,"Ġcompet":1726,"ortun":1727,"ĠCPF":1728,"ling":1729,"Ġarea":1730,"Ġsolar":1731,"ĠUS":1732,"Ġtechnological":1733,"Ġbest":1734,"Ġheat":1735,"Ġnation":1736,"Ġlower":1737,"ousing":1738,"als":1739,"ĠJapan":1740,"ug":1741,"its":1742,"ify":1743,"echn":1744,"Ġmak":1745,"anger":1746,"ird":1747,"Ġresear":1748,"Ġmeas":1749,"ĠUnited":1750,"Ġaccess":1751,"Ġeach":1752,"Ġlook":1753,"ivers":1754,"29":1755,"af":1756,"ilar":1757,"ĠMinist":1758,"Ġmedia":1759,"Ġneeded":1760,"Ġworkforce":1761,"Ġaut":1762,"co":1763,"ĠDes":1764,"Ġterms":1765,"ict":1766,"ĠCon":1767,"Ġimm":1768,"Ġback":1769,"inf":1770,"order":1771,"Ġknowledge":1772,"Ġagainst":1773,"Ġ-":1774,"ĠNational":1775,"Ġval":1776,"br":1777,"ĠTechnology":1778,"Ġchallen":1779,"Ġwhole":1780,"Ġfore":1781,"ery":1782,"Ġconf":1783,"ĠCent":1784,"Ġeffort":1785,"soci":1786,"Ġexplo":1787,"Ġur":1788,"Ġrecent":1789,"Ġprogram":1790,"ian":1791,"ral":1792,"Ġlive":1793,"Ġpr":1794,"ption":1795,"Ġmaking":1796,"ext":1797,"ĠInternational":1798,"ub":1799,"ings":1800,"Ġcommunic":1801,"Ġfinal":1802,"ĠComm":1803,"ath":1804,"Ġconvent":1805,"Ġexpendit":1806,"Ġaid":1807,"Ġaltern":1808,"Ġyou":1809,"Ġtag":1810,"Ġincome":1811,"Ġ198":1812,"Ġconsider":1813,"Ġimplemented":1814,"20":1815,"oid":1816,"Ġrece":1817,"Ġadvance":1818,"40":1819,"Ġexist":1820,"Ġcommon":1821,"Ġest":1822,"ances":1823,"Ġev":1824,"Ġspent":1825,"Ġperformance":1826,"Ġbel":1827,"Ġ2002":1828,"Ġstrong":1829,"stain":1830,"velopment":1831,"Ġconsequ":1832,"Ġdisorder":1833,"bot":1834,"edia":1835,"Ġtransport":1836,"Ġfamil":1837,"Ġinfrast":1838,"Ġdirect":1839,"aring":1840,"ently":1841,"Ġcrit":1842,"Ġ23":1843,"Ġsustain":1844,"Ġbuild":1845,"Ġcompany":1846,"Ġ15":1847,"view":1848,"Ġpract":1849,"Ġavailable":1850,"Ġrole":1851,"Ġsave":1852,"Ġair":1853,"Ġanal":1854,"Ġadd":1855,"Ġhelped":1856,"Ġoften":1857,"ĠWhen":1858,"Ġ2001":1859,"adays":1860,"Ġinde":1861,"Ġconcerns":1862,"Ġbig":1863,"30":1864,"Ġgra":1865,"anned":1866,"Ġindustry":1867,"Ġpoint":1868,"pite":1869,"ines":1870,"onents":1871,"Ġview":1872,"gress":1873,"wards":1874,"Ġproduced":1875,"Ġplay":1876,"Ġmaintain":1877,"Ġfacilities":1878,"cking":1879,"Ġclo":1880,"sing":1881,"Ġfuels":1882,"Ġchange":1883,"line":1884,"ody":1885,"hed":1886,"Ġreact":1887,"Ġenh":1888,"everal":1889,"Ġgreen":1890,"Ġtreatment":1891,"ne":1892,"nce":1893,"old":1894,"ĠInst":1895,"Ġhard":1896,"Ġgenerate":1897,"Ġoccur":1898,"Ġfield":1899,"Ġcontribut":1900,"usiness":1901,"Ġfund":1902,"Ġfl":1903,"Ġmention":1904,"Ġhence":1905,"aim":1906,"gest":1907,"Ġsc":1908,"ification":1909,"ang":1910,"Ġwithin":1911,"Ġoperating":1912,"Ġservices":1913,"ĠSince":1914,"Ġdiscrimin":1915,"earch":1916,"Ġrele":1917,"Ġrest":1918,"vice":1919,"Ġreport":1920,"Ġorgan":1921,"Ġplan":1922,"Ġfound":1923,"Ġstate":1924,"duces":1925,"uge":1926,"cle":1927,"Ġfeature":1928,"ready":1929,"Ġargu":1930,"te":1931,"Ġmy":1932,"asp":1933,"Ġcoal":1934,"ner":1935,"Ġtax":1936,"gency":1937,"SR":1938,"Ġwant":1939,"Ġways":1940,"Ġcreate":1941,"Ġcoolant":1942,"Ġalready":1943,"Ġsuff":1944,"Ġreasons":1945,"Ġclaim":1946,"Ġhuge":1947,"istics":1948,"gery":1949,"Ġactually":1950,"Ġgenerated":1951,"Ġseveral":1952,"ried":1953,"ator":1954,"Ġcondition":1955,"aper":1956,"arming":1957,"ritical":1958,"ars":1959,"Ġnear":1960,"aptop":1961,"ĠResearch":1962,"cing":1963,"perc":1964,"Ġreduced":1965,"Ġprep":1966,"obile":1967,"of":1968,"Ġadvantages":1969,"Ġstudents":1970,"Ġattention":1971,"Ġdanger":1972,"Ġbuilt":1973,"11":1974,"ones":1975,"Ġrelative":1976,"Ġones":1977,"Ġcomple":1978,"Ġquality":1979,"ĠMany":1980,"wik":1981,"Ġfunct":1982,"Ġafford":1983,"Ġadvanced":1984,"Ġcreated":1985,"Ġsector":1986,"Ġfamilies":1987,"Ġdid":1988,"bo":1989,"Ġbecom":1990,"vious":1991,"Ġsources":1992,"itor":1993,"Ġtowards":1994,"Ġ16":1995,"ĠDevelopment":1996,"Ġoperation":1997,"ronic":1998,"iss":1999,"Ġpersonal":2000,"hip":2001,"Ġidea":2002,"Ġdiverted":2003,"Ġtaking":2004,"Ġconstruction":2005,"Ġmentioned":2006,"Ġmillion":2007,"Ġactiv":2008,"Ġaspects":2009,"atural":2010,"Ġpartic":2011,"Ġtechn":2012,"Ġgive":2013,"Ġessential":2014,"Ġlaptop":2015,"Ġrequired":2016,"Ġextent":2017,"Ġexpenditure":2018,"Ġlaw":2019,"Ġphone":2020,"ĠIs":2021,"Ġproviding":2022,"Ġinfrastructure":2023,"ased":2024,"ĠSFR":2025,"Ġdeal":2026,"ĠLast":2027,"up":2028,"Ġtherefore":2029,"Ġnegative":2030,"ĠAnd":2031,"bs":2032,"Ġpric":2033,"Ġhome":2034,"ably":2035,"Ġillness":2036,"Ġmakes":2037,"hi":2038,"Ġoil":2039,"Ġweap":2040,"ĠAug":2041,"bon":2042,"ified":2043,"Ġdesigned":2044,"Ġskills":2045,"Ġinsurance":2046,"pri":2047,"Ġability":2048,"Ġtrue":2049,"xt":2050,"anium":2051,"Ġ12":2052,"self":2053,"ority":2054,"Ġlight":2055,"Ġdecre":2056,"Ġlab":2057,"Ġrobot":2058,"Ġsafer":2059,"Ġeasily":2060,"ĠHigh":2061,"net":2062,"Ġthreat":2063,"ĠVery":2064,"iqu":2065,"Ġbre":2066,"Ġhousing":2067,"Ġdeterm":2068,"ata":2069,"anding":2070,"ĠAt":2071,"Ġseem":2072,"Ġresponsibility":2073,"Ġmeasures":2074,"requ":2075,"ĠAll":2076,"Ġsimilar":2077,"Ġexpensive":2078,"Ġscheme":2079,"ilitary":2080,"put":2081,"loc":2082,"Ġbased":2083,"Ġassist":2084,"Ġsum":2085,"Ġwhy":2086,"ĠGovernment":2087,"percritical":2088,"por":2089,"here":2090,"Ġharm":2091,"Ġend":2092,"Ġaccept":2093,"Ġdiscovery":2094,"mes":2095,"Ġrather":2096,"Ġearly":2097,"Ġencourage":2098,"ec":2099,"Ġgu":2100,"Ġavoid":2101,"Ġintroduced":2102,"ticle":2103,"ĠInd":2104,"Ġcontribute":2105,"Ġusage":2106,"Ġtal":2107,"ĠAging":2108,"ĠMay":2109,"place":2110,"meric":2111,"Ġdou":2112,"ĠPet":2113,"Ġaccount":2114,"rig":2115,"Ġcall":2116,"Ġnor":2117,"ĠMSR":2118,"Ġ13":2119,"Ġcontinue":2120,"Ġcore":2121,"Ġ11":2122,"erest":2123,"Ġusually":2124,"Ġactivities":2125,"Ġday":2126,"ĠSur":2127,"Ġsufficient":2128,"Ġgenerations":2129,"Ġscientists":2130,"ĠMinistry":2131,"ises":2132,"Ġcomput":2133,"09":2134,"most":2135,"oy":2136,"Ġstage":2137,"Ġdist":2138,"Ġimportance":2139,"Ġnext":2140,"ĠNature":2141,"Ġconsidered":2142,"ĠAmeric":2143,"Ġpositive":2144,"rought":2145,"Ġallows":2146,"part":2147,"Ġmedic":2148,"Ġalternative":2149,"Ġcle":2150,"come":2151,"Ġbrought":2152,"ditions":2153,"graph":2154,"icial":2155,"Ġconven":2156,"Ġimpl":2157,"ĠAlso":2158,"pid":2159,"Ġslow":2160,"iversity":2161,"down":2162,"Ġtot":2163,"fact":2164,"eg":2165,"ĠAfter":2166,"hers":2167,"Ġconventional":2168,"ourn":2169,"Ġenvironmental":2170,"Ġbanned":2171,"Ġinit":2172,"Ġmove":2173,"ĠPower":2174,"istory":2175,"Ġunderst":2176,"sp":2177,"sed":2178,"Ġsix":2179,"Ġmean":2180,"Ġradi":2181,"Ġideas":2182,"Ġmilitary":2183,"Ġdaily":2184,"Ġprogress":2185,"ĠSingaporeans":2186,"Ġapplic":2187,"Ġexpenses":2188,"Ġsavings":2189,"Ġthree":2190,"ĠPublic":2191,"Ġhighly":2192,"Ġphysical":2193,"dip":2194,"ange":2195,"olten":2196,"erendip":2197,"Ġbasic":2198,"Ġwarming":2199,"Ġham":2200,"Ġpoll":2201,"Ġcommunity":2202,"Ġwide":2203,"Ġlast":2204,"irth":2205,"doc":2206,"ll":2207,"Ġut":2208,"Ġnatural":2209,"Ġdisast":2210,"gies":2211,"Ġbillion":2212,"Ġleast":2213,"Ġrapid":2214,"ĠReference":2215,"ĠEngineering":2216,"Ġusers":2217,"ees":2218,"Ġbeh":2219,"Ġgr":2220,"article":2221,"Ġrequires":2222,"cience":2223,"Ġrelated":2224,"Ġimproved":2225,"ev":2226,"Ġclear":2227,"07":2228,"Ġtry":2229,"atistics":2230,"ades":2231,"Ġlikely":2232,"Ġgrowing":2233,"ĠAct":2234,"Ġchance":2235,"itely":2236,"Ġcam":2237,"Ġdecision":2238,"Ġpresent":2239,"power":2240,"Ġnon":2241,"antage":2242,"ĠFrom":2243,"Ġintern":2244,"ples":2245,"Ġconditions":2246,"Ġhealthy":2247,"Ġrising":2248,"Ġproductivity":2249,"Ġjobs":2250,"Ġclean":2251,"Ġdevices":2252,"Ġfailure":2253,"Ġerr":2254,"ope":2255,"ĠEven":2256,"ĠStates":2257,"Ġinflu":2258,"Ġbelieve":2259,"Ġpromot":2260,"Ġdesigning":2261,"Ġreli":2262,"Ġfeatures":2263,"ĠPeople":2264,"Ġtracking":2265,"erence":2266,"Ġconsideration":2267,"Ġscience":2268,"hand":2269,"Ġserendip":2270,"Ġfol":2271,"Ġmanage":2272,"ĠAugust":2273,"oh":2274,"Ġsurgery":2275,"Ġprovided":2276,"Ġwheel":2277,"uro":2278,"unk":2279,"Ġopportun":2280,"Ġsuccessful":2281,"ends":2282,"Ġcut":2283,"Ġreally":2284,"Ġcancer":2285,"Ġemer":2286,"press":2287,"ats":2288,"Ġpsychological":2289,"Ġinventions":2290,"Ġequip":2291,"Ġbirth":2292,"Ġadop":2293,"Ġmonitor":2294,"Ġdiscrimination":2295,"reen":2296,"Ġchanges":2297,"Ġinvention":2298,"Ġdefinitely":2299,"Ġalloc":2300,"adv":2301,"ipedia":2302,"Ġgreatly":2303,"Ġtend":2304,"Ġnever":2305,"ĠFin":2306,"Ġ65":2307,"pin":2308,"Ġnational":2309,"Ġgreater":2310,"uk":2311,"Ġel":2312,"Ġchoice":2313,"Ġerrors":2314,"itous":2315,"Ġmodern":2316,"ĠSh":2317,"book":2318,"Ġuseful":2319,"Ġther":2320,"Ġprob":2321,"Ġshare":2322,"Ġdesigns":2323,"Ġseen":2324,"Ġremain":2325,"Ġplac":2326,"Ġinterest":2327,"ournal":2328,"lif":2329,"Ġstress":2330,"Ġ50":2331,"arri":2332,"Ġ17":2333,"ĠSystem":2334,"Ġemployment":2335,"Ġconsequences":2336,"Ġparticular":2337,"Ġlear":2338,"Ġ2000":2339,"ĠRog":2340,"Ġdevelopments":2341,"Ġdisclo":2342,"Ġforeign":2343,"ah":2344,"man":2345,"Ġcarbon":2346,"Ġgetting":2347,"Ġstandard":2348,"Ġaware":2349,"Ġaddress":2350,"Ġbody":2351,"Ġ25":2352,"Ġsecond":2353,"Ġactive":2354,"Ġsubst":2355,"Ġcauses":2356,"Ġvehicles":2357,"ĠEx":2358,"Ġkind":2359,"ĠNow":2360,"hes":2361,"Ġfriendly":2362,"atory":2363,"Ġment":2364,"Ġ14":2365,"afety":2366,"12":2367,"Ġself":2368,"Ġcy":2369,"Ġhum":2370,"Ġtop":2371,"Ġmobile":2372,"cyc":2373,"world":2374,"Ġtyp":2375,"Ġshe":2376,"Ġuses":2377,"Ġachieve":2378,"Ġ0":2379,"ension":2380,"house":2381,"ibility":2382,"to":2383,"Ġcases":2384,"Ġsupply":2385,"Ġexperience":2386,"Ġsom":2387,"ser":2388,"Ġconduct":2389,"Ġheart":2390,"Ġhelium":2391,"Ġmainly":2392,"Ġstudy":2393,"Ġrelatively":2394,"Ġradiation":2395,"ĠRogers":2396,"Ġpar":2397,"ĠSu":2398,"app":2399,"Ġaccording":2400,"anning":2401,"eb":2402,"Ġ18":2403,"Ġupgra":2404,"tenance":2405,"Ġsignificantly":2406,"pose":2407,"ton":2408,"Ġpossibility":2409,"33":2410,"Ġfar":2411,"ets":2412,"edi":2413,"Ġhim":2414,"lders":2415,"Ġdeath":2416,"Ġpred":2417,"Ġfood":2418,"Ġhospitals":2419,"Ġcommunication":2420,"Ġeth":2421,"Ġaffected":2422,"Ġrefrig":2423,"att":2424,"Ġadult":2425,"Ġloss":2426,"ĠUniversity":2427,"Ġdetect":2428,"theless":2429,"Ġinclude":2430,"Ġchar":2431,"joy":2432,"enced":2433,"formation":2434,"ined":2435,"vers":2436,"19":2437,"Ġgases":2438,"Ġshows":2439,"ĠWhat":2440,"ury":2441,"ucial":2442,"Ġautom":2443,"sc":2444,"ese":2445,"Ġenjoy":2446,"une":2447,"Ġlea":2448,"Ġsubsidies":2449,"chers":2450,"uth":2451,"Ġrights":2452,"Ġuranium":2453,"Ġexisting":2454,"Ġagree":2455,"istic":2456,"info":2457,"Ġtimes":2458,"itute":2459,"Ġlater":2460,"Ġcrucial":2461,"nel":2462,"Ġdoing":2463,"Ġ30":2464,"Ġemployers":2465,"Ġbusiness":2466,"ĠAge":2467,"aging":2468,"iod":2469,"ani":2470,"ank":2471,"Ġmor":2472,"Ġonce":2473,"olic":2474,"Ġshown":2475,"ches":2476,"Ġprice":2477,"Ġshap":2478,"cont":2479,"Ġserendipitous":2480,"ufact":2481,"Ġprovides":2482,"Ġprevented":2483,"Ġsaid":2484,"Ġattract":2485,"lied":2486,"Ġoppos":2487,"Ġneglect":2488,"Ġopin":2489,"Ġread":2490,"ĠNews":2491,"inking":2492,"Ġfil":2493,"Ġkey":2494,"Ġdependency":2495,"Ġdam":2496,"Ġsug":2497,"duction":2498,"gin":2499,"Ġdecades":2500,"overed":2501,"Ġattack":2502,"Ġquite":2503,"Ġspec":2504,"Ġchallenges":2505,"Ġhumans":2506,"Ġspecial":2507,"ĠNever":2508,"Ġcarry":2509,"Ġemployees":2510,"xide":2511,"ork":2512,"ports":2513,"Ġutil":2514,"&_":2515,"Ġcomb":2516,"gether":2517,"Ġsectors":2518,"Ġincident":2519,"Ġexpected":2520,"Ġreceive":2521,"'t":2522,"Ġcontinu":2523,"Ġrefriger":2524,"use":2525,"ison":2526,"elt":2527,"process":2528,"Ġvehicle":2529,"Ġfollow":2530,"orn":2531,"Ġprofess":2532,"Ġport":2533,"chool":2534,"uton":2535,"Ġconcerned":2536,"Ġidentify":2537,"Ġeventually":2538,"friendly":2539,"Ġemot":2540,"Ġimproving":2541,"Ġfaced":2542,"ĠWhile":2543,"Ġadvancement":2544,"13":2545,"Ġcell":2546,"Ġland":2547,"ittle":2548,"ĠNevertheless":2549,"Ġcomes":2550,"Ġmanufact":2551,"Ġdemands":2552,"Ġmach":2553,"ĠId":2554,"ĠElect":2555,"Ġdiscus":2556,"Ġfacing":2557,"works":2558,"Ġindepend":2559,"utonium":2560,"avi":2561,"Ġperiod":2562,"ms":2563,"Ġthings":2564,"esty":2565,"ĠThree":2566,"Ġloc":2567,"ancy":2568,"Ġrise":2569,"Ġweapons":2570,"Ġopen":2571,"Ġmis":2572,"Ġgenes":2573,"ĠEduc":2574,"Ġstructure":2575,"ograph":2576,"ration":2577,"Ġmult":2578,"Ġnet":2579,"Ġreducing":2580,"ĠComp":2581,"ination":2582,"ash":2583,"Ġconver":2584,"riends":2585,"Ġalmost":2586,"Ġstrate":2587,"Ġinvolved":2588,"xim":2589,"ond":2590,"idence":2591,"Ġstay":2592,"Ġadvantage":2593,"Ġincreases":2594,"Ġconcepts":2595,"Ġtags":2596,"dium":2597,"new":2598,"Ġbatter":2599,"Ġthird":2600,"Ġgain":2601,"phas":2602,"ĠDesign":2603,"ĠPl":2604,"Ġsenior":2605,"lt":2606,"mber":2607,"Ġfall":2608,"omes":2609,"ĠPopulation":2610,"Ġpolit":2611,"Ġconstant":2612,"Ġsuggest":2613,"Ġsat":2614,"Ġresulted":2615,"Ġlifesty":2616,"2008":2617,"urope":2618,"14":2619,"Ġfriends":2620,"ĠFund":2621,"Ġinvestment":2622,"hib":2623,"ca":2624,"Ġcat":2625,"Ġdri":2626,"ĠApr":2627,"Ġeveryone":2628,"ĠLastly":2629,"Ġcomputer":2630,"fer":2631,"Ġaim":2632,"Ġwar":2633,"ps":2634,"Ġblo":2635,"Ġquest":2636,"Ġtransportation":2637,"Ġet":2638,"employ":2639,"Ġdisadv":2640,"pective":2641,"Ġ1999":2642,"Ġdawn":2643,"Ġobligated":2644,"Ġgreenhouse":2645,"Ġhowever":2646,"Ġreach":2647,"ĠBo":2648,"70":2649,"sychology":2650,"Ġhamper":2651,"arding":2652,"lying":2653,"Ġworks":2654,"Ġthermal":2655,"ience":2656,"isis":2657,"Ġ29":2658,"ĠAr":2659,"Ġstop":2660,"Ġsodium":2661,"Ġresearchers":2662,"ored":2663,"ĠCentral":2664,"Ġreplace":2665,"Ġheav":2666,"Ġdoub":2667,"ying":2668,"eral":2669,"eng":2670,"Ġfree":2671,"Ġforce":2672,"ĠEconom":2673,"ours":2674,"Ġgoing":2675,"work":2676,"Ġimplant":2677,"be":2678,"articles":2679,"ĠProv":2680,"Ġshortage":2681,"Ġ21":2682,"ĠKhand":2683,"cl":2684,"ense":2685,"Ġopt":2686,"Ġwind":2687,"ither":2688,"ĠSafety":2689,"Ġcamer":2690,"Ġtre":2691,"Ġmass":2692,"Ġlittle":2693,"ĠAssoci":2694,"Ġimprovement":2695,"Ġcapital":2696,"Ġemphas":2697,"Ġrevealing":2698,"Ġpop":2699,"oking":2700,"Ġskunk":2701,"posed":2702,"25":2703,"IO":2704,"Ġdata":2705,"Ġinnovative":2706,"ioxide":2707,"Ġsalt":2708,"Ġanaly":2709,"ĠPeterson":2710,"ĠEducation":2711,"ĠApril":2712,"ĠKhandani":2713,"--":2714,"Ġalthough":2715,"pped":2716,"Ġmethods":2717,"ĠAdv":2718,"Ġsuffer":2719,"ished":2720,"ĠLee":2721,"Ġenhance":2722,"Ġtar":2723,"Ġste":2724,"ĠFast":2725,"Ġbeneficial":2726,"Ġnowadays":2727,"Ġeasier":2728,"ogn":2729,"ĠIsland":2730,"Ġwidely":2731,"Ġwr":2732,"Ġfear":2733,"Ġelders":2734,"Ġworry":2735,"Ġplanning":2736,"ips":2737,"road":2738,"Ġrecyc":2739,"imate":2740,"ĠInformation":2741,"udes":2742,"iveness":2743,"aking":2744,"fort":2745,"illed":2746,"luding":2747,"IF":2748,"omen":2749,"ĠTemperature":2750,"ived":2751,"aby":2752,"Ġpriority":2753,"requency":2754,"15":2755,"ake":2756,"Ġburn":2757,"Ġtogether":2758,"Ġgeneral":2759,"Ġteam":2760,"rial":2761,"Ġunable":2762,"Ġinvented":2763,"Ġimmedi":2764,"TA":2765,"isf":2766,"ĠThird":2767,"Ġcited":2768,"Ġhappened":2769,"Ġinher":2770,"Ġinev":2771,"Ġmind":2772,"Ġyour":2773,"idential":2774,"Ġtotal":2775,"Ġmanagement":2776,"uly":2777,"Ġhouse":2778,"Ġplutonium":2779,"Ġkin":2780,"Ġpoor":2781,"ĠNor":2782,"ired":2783,"php":2784,"Ġobject":2785,"Ġoperate":2786,"Ġpurpose":2787,"Ġdangerous":2788,"17":2789,"iety":2790,"Ġschool":2791,"Ġwilling":2792,"ĠMile":2793,"Ġweak":2794,"Ġoperators":2795,"Ġeffectively":2796,"Ġfully":2797,"Ġdecrease":2798,"ĠEurope":2799,"urred":2800,"Ġlarger":2801,"Ġtechnical":2802,"Ġseems":2803,"Ġfilial":2804,"Gen":2805,"light":2806,"ories":2807,"Ġreprocess":2808,"vere":2809,"lderly":2810,"pert":2811,"ĠOpp":2812,"Ġarticle":2813,"Ġcrisis":2814,"Ġundergo":2815,"ĠInternet":2816,"aspx":2817,"Ġopinion":2818,"Ġtarget":2819,"outh":2820,"Ġpros":2821,"ĠOther":2822,"Ġdespite":2823,"Ġschemes":2824,"unt":2825,"wh":2826,"ĠMe":2827,"ditional":2828,"ĠYork":2829,"Ġpollution":2830,"med":2831,"ward":2832,"Ġdia":2833,"Ġcurrently":2834,"Ġclose":2835,"Ġillnesses":2836,"Ġcalled":2837,"tion":2838,"reme":2839,"Ġfert":2840,"ĠHuman":2841,"Ġincluding":2842,"index":2843,"Ġcheaper":2844,"ĠInstitute":2845,"like":2846,"ross":2847,"Ġitself":2848,"Ġopponents":2849,"orders":2850,"Ġbrings":2851,"ĠCommun":2852,"Ġ1986":2853,"Ġmedicine":2854,"ply":2855,"Ġfive":2856,"iles":2857,"60":2858,"Ġant":2859,"ĠMost":2860,"ĠJune":2861,"Ġspace":2862,"ĠDespite":2863,"asing":2864,"ĠPress":2865,"ĠDue":2866,"Ġprojects":2867,"Ġtype":2868,"Ġapproach":2869,"Ġpopular":2870,"do":2871,"nature":2872,"Ġlimiting":2873,"Ġbreak":2874,"Ġopportunities":2875,"Ġcycle":2876,"Ġdioxide":2877,"ĠSuch":2878,"Ġdeb":2879,"riv":2880,"Ġresource":2881,"ĠJuly":2882,"ĠNowadays":2883,"Ġlifestyle":2884,"ĠForum":2885,"ĠSocial":2886,"Ġobligation":2887,"St":2888,"Ġcontain":2889,"Ġextreme":2890,"Ġprivate":2891,"Ġmonth":2892,"Ġefforts":2893,"ĠSurveillance":2894,"Ġcover":2895,"Ġhistory":2896,"Ġassoci":2897,"Ġdiscovered":2898,"Ġimplementation":2899,"Ġnormal":2900,"liferation":2901,"ĠTimes":2902,"Ġrates":2903,"Ġrecogn":2904,"DB":2905,"Ġ28":2906,"ĠLFR":2907,"Ġbecomes":2908,"Ġbehavi":2909,"Ġmoral":2910,"Ġmulti":2911,"Ġsatisf":2912,"Ġgene":2913,"abor":2914,"ched":2915,"ĠProvident":2916,"Ġnur":2917,"Ġproced":2918,"az":2919,"way":2920,"ĠAm":2921,"artment":2922,"Ġapplied":2923,"Ġprograms":2924,"content":2925,"240":2926,"Cooled":2927,"Ġbal":2928,"ads":2929,"Ġlocal":2930,"sible":2931,"Ġethical":2932,"ded":2933,"Ġmist":2934,"Ġdoct":2935,"Ġfinding":2936,"Ġinstall":2937,"Ġfeas":2938,"Ġsecure":2939,"23":2940,"65":2941,"rate":2942,"atic":2943,"Ġeither":2944,"Ġreduces":2945,"Ġrisks":2946,"Ġobtain":2947,"Ġfull":2948,"Ġspeed":2949,"ym":2950,"Ġworth":2951,"ĠNo":2952,"Ġyet":2953,"Ġcommer":2954,"Ġdisaster":2955,"Ġdra":2956,"Ġdevice":2957,"Ġwords":2958,"izing":2959,"Ġtravel":2960,"Ġdeter":2961,"Ġaway":2962,"iet":2963,"els":2964,"ĠWil":2965,"Ġemission":2966,"Ġtypes":2967,"nect":2968,"ĠScience":2969,"term":2970,"Ġgenerating":2971,"Ġ429":2972,"Ġchoose":2973,"Ġanalys":2974,"Ġemergency":2975,"Ġcoll":2976,"Ġmatter":2977,"Ġdeg":2978,"ĠCan":2979,"Ġcomfort":2980,"ĠBe":2981,"Ġincent":2982,"Ġselect":2983,"Ġleak":2984,"epartment":2985,"2007":2986,"Ġtele":2987,"Ġcontributed":2988,"Ġsing":2989,"Ġpp":2990,"ĠAv":2991,"Ġsuper":2992,"Ġprotection":2993,"Ġinitial":2994,"Ġsuitable":2995,"Ġmet":2996,"Ġdest":2997,"Ġproduces":2998,"Ġmaintenance":2999,"Ġconsumers":3000,"ĠAgeing":3001,"des":3002,"Ġaver":3003,"ins":3004,"Ġcol":3005,"Ġmot":3006,"Ġimpos":3007,"Ġhelping":3008,"rug":3009,"Ġdecide":3010,"Ġappropri":3011,"Ġpractical":3012,"Ġequipment":3013,"Ġcir":3014,"isions":3015,"owered":3016,"ĠNot":3017,"Ġsevere":3018,"Ġ60":3019,"ĠMedical":3020,"wiki":3021,"Ġcommercial":3022,"health":3023,"Ġplays":3024,"Ġcope":3025,"ĠPsychology":3026,"Ġprevious":3027,"lier":3028,"Ġcentury":3029,"Ġcomplete":3030,"Ġtool":3031,"ĠMal":3032,"Ġadver":3033,"wikipedia":3034,"Ġmental":3035,"Ġprofessional":3036,"Ġmolten":3037,"Ġproducing":3038,"ĠAsia":3039,"Ġ238":3040,"fid":3041,"high":3042,"Ġid":3043,"Ġpers":3044,"Ġunt":3045,"cies":3046,"Ġvia":3047,"Ġproductive":3048,"Ġconsumption":3049,"Ġbr":3050,"ĠSum":3051,"ĠOr":3052,"Ġtraditional":3053,"Ġminds":3054,"Ġtreatments":3055,"ints":3056,"Ġpension":3057,"isc":3058,"Ġled":3059,"ĠDepartment":3060,"ended":3061,"Ġfinancially":3062,"Ġregard":3063,"inal":3064,"rect":3065,"weigh":3066,"Ġtraining":3067,"ittee":3068,"Ġestabl":3069,"Ġrapidly":3070,"uments":3071,"ufficient":3072,"pending":3073,"Ġtests":3074,"Ġterrorists":3075,"ĠAssociation":3076,"27":3077,"ns":3078,"ĠChinese":3079,"Ġanalyz":3080,"Ġsize":3081,"Ġmelt":3082,"ode":3083,"Ġcrimin":3084,"Ġseek":3085,"Ġcompetitive":3086,"ique":3087,"08":3088,"ma":3089,"map":3090,"Ġmo":3091,"Ġraised":3092,"Ġpolitical":3093,"Ġbl":3094,"urb":3095,"ously":3096,"Ġexpectancy":3097,"Ġboost":3098,"etro":3099,"Ġsoci":3100,"Ġuser":3101,"Ġcostly":3102,"Ġwastes":3103,"Ġrestric":3104,"Ġbecoming":3105,"Ġemotional":3106,"ĠAvailable":3107,"aun":3108,"Ġsure":3109,"Ġgroups":3110,"Ġsense":3111,"Ġelimin":3112,"temperature":3113,"Ġcater":3114,"oline":3115,"idents":3116,"ĠJan":3117,"Ġann":3118,"ĠII":3119,"ands":3120,"Ġcompar":3121,"ĠWithout":3122,"Ġhappening":3123,"Ġbattery":3124,"Ġquestion":3125,"Ġdisadvantages":3126,"Ġcou":3127,"Ġconnect":3128,"aying":3129,"Ġrelations":3130,"Ġeasing":3131,"18":3132,"Ġleft":3133,"annel":3134,"Ġearn":3135,"Ġidentification":3136,"Ġimpacts":3137,"Ġkinds":3138,"ining":3139,"ulner":3140,"ĠHDB":3141,"ĠMarch":3142,"quate":3143,"Ġcareful":3144,"Ġindeed":3145,"Ġdoubt":3146,"79":3147,"Ġden":3148,"Ġexp":3149,"ustom":3150,"Ġovercome":3151,"sequently":3152,"brid":3153,"Ġreaction":3154,"issions":3155,"Ġsingle":3156,"Ġwealth":3157,"Ġaverage":3158,"nus":3159,"enic":3160,"Ġcame":3161,"Ġbad":3162,"Ġrenew":3163,"Ġeconomical":3164,"Ġsurv":3165,"Ġoutweigh":3166,"erences":3167,"Ġsimply":3168,"Ġsites":3169,"Ġorganiz":3170,"CR":3171,"Ġproliferation":3172,"oty":3173,"Ġstated":3174,"ulations":3175,"comm":3176,"ĠJournal":3177,"Ġgasoline":3178,"Ġcreativity":3179,"Ġdifficulties":3180,"Ġprepare":3181,"ĠCommunity":3182,"ret":3183,"alf":3184,"Ġresist":3185,"Ġchanging":3186,"Ġleads":3187,"Ġfunction":3188,"Ġunderstand":3189,"PS":3190,"iting":3191,"itted":3192,"Ġdays":3193,"Ġsolved":3194,"Ġsolving":3195,"Ġexamples":3196,"Ġdifference":3197,"....":3198,"Ġprobably":3199,"gno":3200,"vey":3201,"Ġdisorders":3202,"Ġchem":3203,"Ġmajority":3204,"Ġspecific":3205,"Ġrely":3206,"chair":3207,"Ġproport":3208,"Ġ26":3209,"acter":3210,"Ġvital":3211,"Ġexplosion":3212,"EN":3213,"rfid":3214,"wise":3215,"Ġhomes":3216,"ulate":3217,"Ġalone":3218,"Ġbeings":3219,"Ġresponsible":3220,"Ġstarted":3221,"Ġapplication":3222,"Ġadults":3223,"ĠBoard":3224,"enicill":3225,"vant":3226,"isave":3227,"asia":3228,"thing":3229,"ĠCurrent":3230,"Ġbegin":3231,"ĠThat":3232,"oshib":3233,"Ġcrime":3234,"Ġindustrial":3235,"Ġresearches":3236,"Ġreprocessing":3237,"rated":3238,"ancing":3239,"Ġtested":3240,"Ġdirectly":3241,"ĠInstead":3242,"Ġfields":3243,"bsite":3244,"Ġrobotic":3245,"Ġincentives":3246,"par":3247,"Ġengineer":3248,"Ġeasy":3249,"Ġcarried":3250,"Ġconvenience":3251,"28":3252,"IV":3253,"ionally":3254,"Ġsupporting":3255,"Ġposition":3256,"Ġregarding":3257,"ĠReactors":3258,"Ġcreating":3259,"Ġentire":3260,"Ġsteps":3261,"Ġ2030":3262,"poses":3263,"Ġfulf":3264,"ĠWilpert":3265,"16":3266,"ĠApp":3267,"ĠPolic":3268,"Ġleg":3269,"ĠSupercritical":3270,"Ġindependent":3271,"any":3272,"ĠToshib":3273,"Ġsupercritical":3274,"Ġstates":3275,"Ġinteg":3276,"Ġadditional":3277,"Ġconvenient":3278,"employment":3279,"Ġwrong":3280,"26":3281,"Ġpost":3282,"Ġdoll":3283,"ift":3284,"Ġrange":3285,"ĠOver":3286,"ĠGr":3287,"Ġcontr":3288,"Ġfewer":3289,"Ġharmful":3290,"Ġfertility":3291,"ping":3292,"Ġdel":3293,"uses":3294,"Ġunf":3295,"Ġearlier":3296,"Ġindustries":3297,"Ġcapable":3298,"ĠCommittee":3299,"enicillin":3300,"ĠToshiba":3301,"45":3302,"curity":3303,"Ġ\\":3304,"Ġer":3305,"rel":3306,"lex":3307,"Ġmut":3308,"ĠTesting":3309,"Ġvulner":3310,"Ġfeasible":3311,"nd":3312,"Ġcult":3313,"Ġstages":3314,"Ġvol":3315,"Ġnews":3316,"Ġservice":3317,"akes":3318,"ething":3319,"Ġpromising":3320,"sh":3321,"roun":3322,"omet":3323,"Ġdeple":3324,"ĠFried":3325,"ĠGIF":3326,"Ġupon":3327,"Ġtemperatures":3328,"Ġpercentage":3329,"ĠThirdly":3330,"Ġrelationship":3331,"gard":3332,"ming":3333,"atch":3334,"Ġinj":3335,"Ġhold":3336,"ĠSim":3337,"cient":3338,"ĠGFR":3339,"Ġoverall":3340,"Ġparties":3341,"Ġminimize":3342,"Ġterrorist":3343,"Ġsomething":3344,"Ġmeltdown":3345,"aff":3346,"Ġerror":3347,"Ġbaby":3348,"log":3349,"ĠIss":3350,"ĠAgency":3351,"Ġstat":3352,"Ġcontrast":3353,"Ġemissions":3354,"Ġparts":3355,"ĠSystems":3356,"Ġanalysis":3357,"Ġcirc":3358,"Ġproportion":3359,"Ġcustom":3360,"ĠSociety":3361,"Ġdependent":3362,"ĠAmerican":3363,"Ġrenewable":3364,"News":3365,"Ġign":3366,"Ġpetro":3367,"ĠPriv":3368,"iability":3369,"Ġphones":3370,"Ġencouraging":3371,"Ġassistance":3372,"Ġtack":3373,"omic":3374,"ĠIm":3375,"amily":3376,"ush":3377,"ĠPh":3378,"Ġimprovements":3379,"lications":3380,"Ġestim":3381,"Ġgradu":3382,"Ġreliable":3383,"Ġmonitoring":3384,"ĠSummer":3385,"Ġrefrigerator":3386,"kind":3387,"val":3388,"arant":3389,"Ġenabl":3390,"ethics":3391,"ĠMedisave":3392,"Ġprofit":3393,"Ġaffordable":3394,"Ġassociated":3395,"Ġmultiple":3396,"06":3397,"49":3398,"Ġfour":3399,"ivil":3400,"Ġcontact":3401,"Ġoutput":3402,"Ġdecisions":3403,"Ġreturn":3404,"Ġ40":3405,"Ġsimpl":3406,"Ġessay":3407,"Ġinevitable":3408,"bly":3409,"bilities":3410,"face":3411,"Ġbeli":3412,"ceed":3413,"Ġ22":3414,"Ġlaun":3415,"Ġstable":3416,"ĠCons":3417,"Ġaccom":3418,"Ġcreative":3419,"Ġauth":3420,"Ġprim":3421,"arrier":3422,"ION":3423,"Ġappropriate":3424,"bc":3425,"cf":3426,"ih":3427,"pa":3428,"public":3429,"uary":3430,"xy":3431,"Ġtas":3432,"Ġcure":3433,"Ġtour":3434,"Ġgiving":3435,"ĠTw":3436,"Ġproven":3437,"Ġhere":3438,"phone":3439,"Ġcontribution":3440,"ĠEngineers":3441,"Ġcritical":3442,"Ġdiagno":3443,"AR":3444,"ieved":3445,"Ġever":3446,"mental":3447,"Ġeng":3448,"ĠEm":3449,"Ġsearch":3450,"genetic":3451,"ĠStatistics":3452,"Ġaffects":3453,"Ġinteract":3454,"Ġlabor":3455,"Ġsubstant":3456,"Ġconstantly":3457,"Ġskunkworks":3458,"Ġgather":3459,"Ġhaz":3460,"ĠHy":3461,"ĠFeb":3462,"Ġlooking":3463,"Ġvir":3464,"Ġenvironmentally":3465,"Ġlevels":3466,"DP":3467,"High":3468,"TION":3469,"rans":3470,"Ġthous":3471,"Ġresol":3472,"ĠEvery":3473,"ĠElderly":3474,"ensive":3475,"Ġquick":3476,"Ġearth":3477,"Ġterrorism":3478,"Ġchallenge":3479,"Ġwheelchair":3480,"Ġextremely":3481,"En":3482,"inl":3483,"orpor":3484,"oms":3485,"Ġ27":3486,"ĠLabor":3487,"Ġconducted":3488,"Ġdamage":3489,"Ġcausing":3490,"Ġencouraged":3491,"Ġpurposes":3492,"Ġargument":3493,"ĠAmerica":3494,"Ġbalance":3495,"CA":3496,"Ġpace":3497,"Ġlost":3498,"Ġeducated":3499,"Ġchances":3500,"Ġimplementing":3501,"Ġinsufficient":3502,"Ġgraph":3503,"Ġnations":3504,"ĠDo":3505,"ovember":3506,"Ġchannel":3507,"Ġ1998":3508,"Ġpromote":3509,"Ġuntil":3510,"wide":3511,"Ġtren":3512,"erc":3513,"Ġnature":3514,"Ġreven":3515,"Ġonline":3516,"Ġ1000":3517,"Ġvis":3518,"Ġeconomically":3519,"Ġstudies":3520,"ĠSche":3521,"ĠRad":3522,"Ġstability":3523,"used":3524,"Ġindic":3525,"abilities":3526,"Ġclass":3527,"Ġincludes":3528,"Ġachieved":3529,"Ġvalue":3530,"Ġargued":3531,"Ġorganizations":3532,"ĠFriedland":3533,"77":3534,"__":3535,"energy":3536,"ĠThen":3537,"Ġalong":3538,"Ġelectr":3539,"Ġretri":3540,"ĠOpponents":3541,"shtml":3542,"Ġflo":3543,"Ġstor":3544,"ĠGDP":3545,"Ġmaxim":3546,"aged":3547,"ology":3548,"Ġcheck":3549,"Ġfunctions":3550,"ĠIndia":3551,"Ġleading":3552,"Ġheavy":3553,"water":3554,"ĠÃ":3555,"rop":3556,"ĠCo":3557,"Ġsocially":3558,"Ġscientific":3559,"Ġconfidential":3560,"Ġlearn":3561,"aho":3562,"Ġshaped":3563,"ĠElectronic":3564,"Ġdollars":3565,"singapore":3566,"ington":3567,"Ġhar":3568,"oph":3569,"Ġstatistics":3570,"ĠNovember":3571,"Ġblood":3572,"Ġetc":3573,"sive":3574,"ĠFr":3575,"ideo":3576,"Ġcontext":3577,"Ġraise":3578,"Ġappear":3579,"Ġdecid":3580,"Ġupgrading":3581,"ĠJanuary":3582,"su":3583,"enn":3584,"Ġthing":3585,"uted":3586,"ĠHow":3587,"ĠInnov":3588,"reng":3589,"Ġcheap":3590,"Ġiniti":3591,"ĠFinally":3592,"car":3593,"ĠSW":3594,"ĠPr":3595,"ĠGPS":3596,"Ġdesigners":3597,"Ġindirect":3598,"Ġ2050":3599,"Ġdifferences":3600,"Ġgoes":3601,"ĠReport":3602,"Ġconclude":3603,"Ġpurch":3604,"Ġsustainable":3605,"Ġrelevant":3606,"Ġclearly":3607,"Ġmanufacture":3608,"22":3609,"nam":3610,"rs":3611,"Ġsens":3612,"Ġwa":3613,"Ġmar":3614,"Ġgives":3615,"Ġsupported":3616,"Ġpsycholog":3617,"Ġsubject":3618,"lib":3619,"Ġthought":3620,"Ġprepared":3621,"Ġlabour":3622,"39":3623,"Temperature":3624,"moh":3625,"page":3626,"reactor":3627,"atal":3628,"Ġaside":3629,"ump":3630,"ffect":3631,"odium":3632,"Ġabs":3633,"Ġcarriers":3634,"Ġsimple":3635,"posal":3636,"Ġallocated":3637,"ographic":3638,"Ġvulnerable":3639,"reed":3640,"itude":3641,"Ġult":3642,"ĠThrough":3643,"ĠBu":3644,"Ġinvesting":3645,"Ġreported":3646,"Ġdetermine":3647,"Ġunderstanding":3648,"Ġpara":3649,"Ġsubstantial":3650,"CE":3651,"aving":3652,"sess":3653,"ties":3654,"inent":3655,"Ġwww":3656,"ĠLo":3657,"Ġresulting":3658,"Ġlimitations":3659,"Ġlesser":3660,"Ġprototy":3661,"Ġawareness":3662,"Ġportion":3663,"Ġprocedures":3664,"ĠSWCR":3665,"aily":3666,"stand":3667,"ĠRo":3668,"Ġplaces":3669,"Ġcells":3670,"arth":3671,"Ġ100":3672,"ĠThough":3673,"acc":3674,"oday":3675,"Ġlimitation":3676,"portal":3677,"Ġrequirements":3678,"cale":3679,"po":3680,"Ġfis":3681,"Ġfission":3682,"Ġ24":3683,"ĠCl":3684,"Ġsoon":3685,"Ġmankind":3686,"Ġtakes":3687,"Ġcorrect":3688,"Ġmistakes":3689,"ĠPrivacy":3690,"Ġ#":3691,"Ġmic":3692,"Ġrep":3693,"ĠAc":3694,"Ġrespect":3695,"Ġspread":3696,"Ġlargely":3697,"Ġobst":3698,"ĠMinister":3699,"brary":3700,"Ġrecycling":3701,"Ġsite":3702,"orities":3703,"Ġcomprom":3704,"Ġaction":3705,"Ġtrying":3706,"ĠNorr":3707,"alt":3708,"let":3709,"Ġrev":3710,"Ġunlike":3711,"Ġfinally":3712,"Ġpractice":3713,"Story":3714,"Ġdev":3715,"ĠRober":3716,"ĠCar":3717,"Ġserve":3718,"Ġinvestments":3719,"ĠProgram":3720,"Ġregulations":3721,"Ġestimated":3722,"Ġelectrical":3723,"38":3724,"cp":3725,"Ġ!":3726,"ane":3727,"ĠSodium":3728,"Ġorig":3729,"ĠGas":3730,"Ġade":3731,"Ġlose":3732,"Ġeconomics":3733,"proxy":3734,"Ġcomplex":3735,"ĠScheme":3736,"fect":3737,"ware":3738,"head":3739,"Ġcour":3740,"ĠInc":3741,"Ġneedy":3742,"Ġpreventing":3743,"Ġprevention":3744,"ĠStra":3745,"ault":3746,"ey":3747,"ume":3748,"ĠGlobal":3749,"Ġsurge":3750,"Ġactions":3751,"Ġleaders":3752,"Ġcamera":3753,"Ġsociet":3754,"Ġgraphite":3755,"libproxy":3756,"AN":3757,"gn":3758,"erous":3759,"arily":3760,"iring":3761,"Ġaccum":3762,"Ġneglected":3763,"24":3764,"The":3765,"Ġbills":3766,"Ġthinking":3767,"Ġproposed":3768,"imer":3769,"ĠAust":3770,"Ġenable":3771,"ĠHospital":3772,"thics":3773,"Ġshut":3774,"aysia":3775,"Ġshowed":3776,"ecause":3777,"documents":3778,"Ġinfluence":3779,"Ġplaced":3780,"ĠAmong":3781,"ĠMalaysia":3782,"ĠRadio":3783,"ĠNorrgard":3784,"99":3785,"ipped":3786,"inder":3787,"Ġphen":3788,"Ġhalf":3789,"uries":3790,"Ġcoming":3791,"Ġarise":3792,"Ġ1996":3793,"Ġobvious":3794,"ortunately":3795,"Ġguarant":3796,"Ġcontrary":3797,"Id":3798,"ST":3799,"ĠZ":3800,"inci":3801,"Ġbi":3802,"ĠTra":3803,"ĠWar":3804,"Ġplans":3805,"Ġphysically":3806,"Ġvalu":3807,"Ġinternet":3808,"Ġpredic":3809,"ĠIdent":3810,"ading":3811,"lies":3812,"minist":3813,"sia":3814,"lements":3815,"ote":3816,"ĠBecause":3817,"generation":3818,"Ġinvolves":3819,"Ġimmig":3820,"55":3821,"blog":3822,"hold":3823,"mod":3824,"Ġfig":3825,"Ġbom":3826,"ĠSk":3827,"ife":3828,"overty":3829,"about":3830,"Ġobser":3831,"ĠWeb":3832,"Ġcontrovers":3833,"Ġoccurred":3834,"Ġdiscoveries":3835,"Ġdeaths":3836,"Ġburning":3837,"ĠLaboratory":3838,"Re":3839,"sis":3840,"Ġcooled":3841,"Ġdom":3842,"ĠTechnolo":3843,"Ġstreng":3844,"uded":3845,"ioethics":3846,"Ġstandards":3847,"Ġcommunicate":3848,"Ġdegree":3849,"Ġrevenue":3850,"01":3851,"lish":3852,"ĠX":3853,"ĠCI":3854,"andon":3855,"ĠDuring":3856,"Ġfaces":3857,"Ġviol":3858,"Ġrealize":3859,"Ġcooling":3860,"Ġmeasure":3861,"Ġlaws":3862,"Ġsuccessfully":3863,"Ġstrategies":3864,"ai":3865,"yond":3866,"Ġoption":3867,"Ġhund":3868,"search":3869,"Ġsus":3870,"ival":3871,"Ġfees":3872,"Ġpersons":3873,"Ġtalents":3874,"Ġinternational":3875,"iors":3876,"zhe":3877,"Ġir":3878,"through":3879,"apse":3880,"Ġprefer":3881,"ruary":3882,"Ġ45":3883,"Ġpassive":3884,"Ġpredict":3885,"Ġoptim":3886,"Ġprimary":3887,"Ġphenomen":3888,"pan":3889,"cell":3890,"ĠHel":3891,"Ġrunning":3892,"Ġrobots":3893,"Ġanti":3894,"Ġcollect":3895,"ĠRobert":3896,"CT":3897,"ians":3898,"Ġcivil":3899,"ĠMolten":3900,"echan":3901,"Ġparty":3902,"Ġrequesting":3903,"ĠProcess":3904,"Ġoffer":3905,"Ġdivert":3906,"Ġlearning":3907,"ĠIdaho":3908,"Genetic":3909,"ĠFebruary":3910,"cil":3911,"ground":3912,"ĠHousing":3913,"aps":3914,"Ġworse":3915,"Ġatm":3916,"Ġaccur":3917,"Ġelectronic":3918,"Ġapply":3919,"obot":3920,"2006":3921,"Ġphase":3922,"Ġincreasingly":3923,"Ġsmaller":3924,"Ġattacks":3925,"Ġadverse":3926,"ented":3927,"emic":3928,"Ġexerc":3929,"ames":3930,"ĠInde":3931,"Ġimplications":3932,"Ġemb":3933,"Ġinvestig":3934,"Ġweapon":3935,"being":3936,"Ġtrem":3937,"Ġimpossible":3938,"Ġindirectly":3939,"she":3940,"itect":3941,"Ġinert":3942,"chitect":3943,"ĠAb":3944,"ĠNext":3945,"Ġcard":3946,"Ġtotally":3947,"Ġmindset":3948,"05":3949,"Ġfav":3950,"vention":3951,"ĠVol":3952,"Ġallowing":3953,"Ġhandle":3954,"Ġflaw":3955,"Ġnetwork":3956,"Ġemphasis":3957,"Ġinherited":3958,"set":3959,"Ġside":3960,"Ġsick":3961,"Ġpoverty":3962,"ald":3963,"Ġlink":3964,"ĠCrit":3965,"Ġkid":3966,"ouncil":3967,"Ġapplying":3968,"Ġadvances":3969,"Ġtruth":3970,"Ġallowed":3971,"Ġnumerous":3972,"Ġfaster":3973,"Ġexperienced":3974,"Ġefficiently":3975,"Ġimmediate":3976,"Ġatmosp":3977,"gu":3978,"Ġdepress":3979,"ĠMac":3980,"Ġchips":3981,"izes":3982,"Ġroad":3983,"ĠAccident":3984,"Ġbuildings":3985,"ĠEconomic":3986,"zheimer":3987,"04":3988,"rinking":3989,"ulated":3990,"ĠPre":3991,"Ġabandon":3992,"Ġfacilit":3993,"Ġcapac":3994,"ikipedia":3995,"Ġtackle":3996,"aid":3997,"back":3998,"time":3999,"Ġbrain":4000,"ĠHar":4001,"ĠBi":4002,"ĠOf":4003,"ĠAlzheimer":4004,"product":4005,"Ġcritics":4006,"Ġtaxes":4007,"Ġdoctors":4008,"ĠOrgan":4009,"Ġstorage":4010,"ĠCritics":4011,"BC":4012,"NA":4013,"Water":4014,"can":4015,"eed":4016,"ses":4017,"ero":4018,"Ġname":4019,"ĠSol":4020,"Ġexpl":4021,"Ġrat":4022,"Ġbecame":4023,"Ġtraffic":4024,"Ġinstit":4025,"Ġextra":4026,"Ġintroduction":4027,"Ġclaimed":4028,"Ġcriminals":4029,"erve":4030,"atically":4031,"illing":4032,"ĠFamily":4033,"ĠNon":4034,"ĠEarth":4035,"Ġsepar":4036,"Ġlet":4037,"Ġdecl":4038,"Ġgenerally":4039,"ĠKore":4040,"Ġenhanced":4041,"Ġsuffering":4042,"ĠÃĤ":4043,"Ġobstac":4044,"Ġtremend":4045,"48":4046,"hing":4047,"powered":4048,"sur":4049,"hel":4050,"atest":4051,"Ġalle":4052,"ĠDiff":4053,"Ġpossess":4054,"Ġrecover":4055,"Ġflats":4056,"Ġdisclose":4057,"Ġcomparison":4058,"Ġhazard":4059,"ĠStraits":4060,"gi":4061,"Ġsw":4062,"Ġago":4063,"ĠWater":4064,"Ġsurroun":4065,"Ġlifts":4066,"Ġart":4067,"ishing":4068,"Ġboom":4069,"Ġcorpor":4070,"Ġcharacter":4071,"Ġmachines":4072,"mak":4073,"Ġapart":4074,"Ġbeyond":4075,"ached":4076,"plac":4077,"Ġinvested":4078,"Ġevident":4079,"Ġmanufacturing":4080,"Ġtrend":4081,"long":4082,"Ġver":4083,"Ġscale":4084,"Ġcop":4085,"orm":4086,"Ġwise":4087,"anks":4088,"aries":4089,"ĠToday":4090,"aches":4091,"Ġperfect":4092,"Ġcontributions":4093,"Ġensures":4094,"ĠWork":4095,"Ġvalues":4096,"Ġrecently":4097,"cn":4098,"uff":4099,"Ġz":4100,"Ġey":4101,"ĠTrans":4102,"Ġunne":4103,"Ġworldwide":4104,"Ġpoints":4105,"Ġfailed":4106,"Ġyouth":4107,"Ġsomet":4108,"while":4109,"Ġbehavior":4110,"Ġperspective":4111,"ĠCurrently":4112,"Ġfiscal":4113,"Ġunnecess":4114,"OE":4115,"sw":4116,"sen":4117,"ugh":4118,"where":4119,"Ġi":4120,"encies":4121,"Ġpe":4122,"Ġdrug":4123,"ĠFree":4124,"Ġ1990":4125,"Ġrevealed":4126,"Ġconsequence":4127,"Ġdiscuss":4128,"Ġstatus":4129,"Ġsurrounding":4130,"67":4131,"ction":4132,"Ġdepen":4133,"Ġstore":4134,"Ġwithstand":4135,"Ġclimate":4136,"ĠCont":4137,"Ġcontributing":4138,"angers":4139,"Ġadopted":4140,"ĠIssues":4141,"ĠEmploy":4142,"Ġdepends":4143,"my":4144,"alu":4145,"ethe":4146,"actors":4147,"ateg":4148,"Ġcounter":4149,"Ġunp":4150,"ĠLead":4151,"Ġhealthier":4152,"pected":4153,"obility":4154,"raining":4155,"Ġlocation":4156,"Ġcarefully":4157,"ĠSimilar":4158,"ĠAustral":4159,"isk":4160,"Ġrul":4161,"Ġsaved":4162,"ageing":4163,"Ġeffectiveness":4164,"ĠState":4165,"Ġdefense":4166,"ĠYouth":4167,"Ġregular":4168,"Ġideal":4169,"Ġforms":4170,"Ġdisclosure":4171,"Ġfollowing":4172,"TATION":4173,"Ġcomfortable":4174,"Ġtourism":4175,"ĠCITATION":4176,"RC":4177,"Ġpiety":4178,"Ġbon":4179,"Ġmechan":4180,"Ġadap":4181,"ights":4182,"Ġwhereby":4183,"Ġexperts":4184,"Ġhybrid":4185,"Ġdistrib":4186,"Ġapplications":4187,"Ġmachine":4188,"Ġchemical":4189,"Ġgradually":4190,"cfm":4191,"Ġallevi":4192,"know":4193,"system":4194,"vision":4195,"ale":4196,"imately":4197,"ĠBrit":4198,"Ġsomeone":4199,"abled":4200,"Ġmakers":4201,"Ġopposition":4202,"Ġvaluable":4203,"iable":4204,"ov":4205,"ĠQ":4206,"hest":4207,"Ġtook":4208,"Ġdisposal":4209,"gineering":4210,"Ġleave":4211,"ĠSep":4212,"Ġsurvey":4213,"ildren":4214,"play":4215,"ĠStud":4216,"Ġeased":4217,"ĠCenter":4218,"Ġrelease":4219,"Ġretrieved":4220,"US":4221,"dom":4222,"ĠMain":4223,"elled":4224,"Ġdefect":4225,"Ġsetting":4226,"Ġreceived":4227,"Ġevidence":4228,"Ġimmediately":4229,"Ġunnecessary":4230,"based":4231,"cast":4232,"effect":4233,"journal":4234,"pub":4235,"testing":4236,"Ġpan":4237,"Ġnut":4238,"ĠScient":4239,"rad":4240,"Ġhearing":4241,"ĠGe":4242,"Ġsales":4243,"Ġcameras":4244,"Ġcompletely":4245,"Ġadequate":4246,"ĠIndeed":4247,"Ġsometimes":4248,"sk":4249,"Ġmus":4250,"look":4251,"activity":4252,"Ġneut":4253,"empt":4254,"ĠBBC":4255,"berg":4256,"Ġdecline":4257,"ructures":4258,"Ġimportantly":4259,"undant":4260,"Ġdefined":4261,"Ġinvolve":4262,"Ġstrongly":4263,"Ġreleased":4264,"Ġimplanted":4265,"Ġprofessionals":4266,"etheless":4267,"75":4268,"EA":4269,"aur":4270,"Ġfrequ":4271,"Ġbound":4272,"ĠWikipedia":4273,"Ġincur":4274,"Ġwebsite":4275,"Ġ1979":4276,"ensions":4277,"Ġofficial":4278,"Ġchoices":4279,"Ġreasonable":4280,"ĠIndones":4281,"related":4282,"Ġenables":4283,"cpf":4284,"free":4285,"rants":4286,"ream":4287,"Ġpain":4288,"rol":4289,"Ġretain":4290,"Ġline":4291,"ĠSp":4292,"ĠApart":4293,"ĠDis":4294,"Ġknowing":4295,"2005":4296,"Ġpersonnel":4297,"ĠUnder":4298,"Ġtransfer":4299,"Ġconsumer":4300,"Ġcommonly":4301,"ĠPeter":4302,"Ġdeterior":4303,"ĠPolicy":4304,"Ġphenomenon":4305,"Nuclear":4306,"cra":4307,"gent":4308,"sci":4309,"Ġexcess":4310,"Ġrespective":4311,"chede":4312,"Ġseries":4313,"Ġremo":4314,"Ġsituations":4315,"Ġrecord":4316,"Ġenter":4317,"Ġproperly":4318,"Ġcriter":4319,"Ġsustainability":4320,"Ġmovement":4321,"Ġbehind":4322,"Ġopportunity":4323,"Ġstrategy":4324,"Ġbreakthrough":4325,"Ġcourse":4326,"ĠIdentification":4327,"CY":4328,"Technology":4329,"ference":4330,"Ġsound":4331,"Ġsoph":4332,"Ġbroad":4333,"Ġlist":4334,"ĠParents":4335,"ĠEd":4336,"ĠGerm":4337,"Ġunc":4338,"Ġencount":4339,"Ġequipped":4340,"Ġaids":4341,"Ġquickly":4342,"Ġcapacity":4343,"CD":4344,"ael":4345,"bi":4346,"lation":4347,"Ġten":4348,"isory":4349,"Ġlatest":4350,"ured":4351,"ĠViet":4352,"Ġthroughout":4353,"Ġcertainly":4354,"Ġmodel":4355,"Ġsimilarities":4356,"Ġcutting":4357,"Ġfloor":4358,"econom":4359,"efficient":4360,"Ġflu":4361,"Ġreduction":4362,"Ġprove":4363,"Ġforward":4364,"utes":4365,"Ġsurgical":4366,"Ġbasis":4367,"Ġinstalled":4368,"Ġconfidentiality":4369,"ĠSimilarly":4370,"03":4371,"34":4372,"dis":4373,"isation":4374,"Ġmobility":4375,"Ġhours":4376,"standing":4377,"illions":4378,"Ġunemployment":4379,"Ġvideo":4380,"cys":4381,"ĠSecurity":4382,"Ġarchitect":4383,"Ġconsidering":4384,"ĠUSA":4385,"ĠConsequently":4386,"Ġtools":4387,"Ġestablished":4388,"ĠTan":4389,"ĠSen":4390,"irable":4391,"olution":4392,"ighb":4393,"Ġchronic":4394,"ĠChallen":4395,"ruction":4396,"Ġfeed":4397,"Ġoccup":4398,"Ġminimum":4399,"Ġmaintaining":4400,"Ġaccepted":4401,"ĠEuropean":4402,"ĠCancer":4403,"iscrimin":4404,"Ġatmosphere":4405,"AS":4406,"cap":4407,"ek":4408,"fe":4409,"mcys":4410,"tle":4411,"load":4412,"uck":4413,"ĠMc":4414,"ĠPat":4415,"augh":4416,"Ġinformed":4417,"Ġdetection":4418,"Ġvolunt":4419,"Ġbelieved":4420,"ĠNonetheless":4421,"mit":4422,"tech":4423,"Ġpenicillin":4424,"alk":4425,"cember":4426,"Ġstrain":4427,"ĠBoth":4428,"Ġfinance":4429,"ĠGeneral":4430,"grading":4431,"ception":4432,"Ġacross":4433,"Ġconstrain":4434,"Ġresponse":4435,"ĠHealthcare":4436,"Ġaccessible":4437,"ĠHydrogen":4438,"ĠFrance":4439,"Ġsophistic":4440,"66":4441,"hield":4442,"mo":4443,"Ġcal":4444,"Ġfight":4445,"Ġfreed":4446,"Ġeco":4447,"iling":4448,"ĠSer":4449,"elsi":4450,"empor":4451,"ĠFace":4452,"ĠUr":4453,"Ġreliability":4454,"ĠAsian":4455,"Ġoutcome":4456,"ounsel":4457,"ĠChannel":4458,"Ġevents":4459,"Ġcatast":4460,"roadmap":4461,"DF":4462,"Ġfair":4463,"Ġflex":4464,"Ġforget":4465,"irm":4466,"ĠMich":4467,"Ġbuy":4468,"ersonal":4469,"Ġnumbers":4470,"Ġradioactivity":4471,"topic":4472,"Ġorganization":4473,"Ġtreated":4474,"Ġsatisfy":4475,"Ġcustomers":4476,"Ġobstacles":4477,"89":4478,"cor":4479,"ea":4480,"iny":4481,"Ġcash":4482,"Ġpush":4483,"Ġstri":4484,"Ġstaff":4485,"Ġexpos":4486,"Ġdisabled":4487,"ĠOb":4488,"Ġuns":4489,"rict":4490,"expected":4491,"Ġrefers":4492,"Ġdouble":4493,"Ġrefrigerators":4494,"Ġsteam":4495,"Ġmotiv":4496,"ĠTwo":4497,"iscrimination":4498,"Ġsophisticated":4499,"In":4500,"pers":4501,"sory":4502,"Ġsym":4503,"Ġinade":4504,"Ġlatter":4505,"ĠSports":4506,"ulsory":4507,"Ġneighb":4508,"ĠDr":4509,"ĠLi":4510,"Ġraising":4511,"Ġattitude":4512,"respon":4513,"Ġdifficulty":4514,"Ġsubsidy":4515,"Ġscreen":4516,"Ġarguments":4517,"Ġprobability":4518,"Ġheavily":4519,"Ġdebate":4520,"Ġpredicted":4521,"Ar":4522,"ax":4523,"bbc":4524,"cgi":4525,"nih":4526,"tual":4527,"inter":4528,"Ġwomen":4529,"ano":4530,"Ġresidents":4531,"Ġraw":4532,"web":4533,"Ġdiverting":4534,"ube":4535,"Ġconventionally":4536,"Ġevalu":4537,"Ġguid":4538,"Ġparticularly":4539,"ina":4540,"report":4541,"ont":4542,"Ġpose":4543,"ĠMCY":4544,"Ġcommit":4545,"Ġcreation":4546,"Ġ80":4547,"ftware":4548,"Ġcompetition":4549,"Ġaccessibility":4550,"ĠElectric":4551,"Ġnursing":4552,"Ġcollapse":4553,"Ġthousands":4554,"ministration":4555,"ĠMCYS":4556,"21":4557,"RT":4558,"fi":4559,"ij":4560,"side":4561,"ening":4562,"Ġpensions":4563,"Ġflow":4564,"Ġhire":4565,"Ġhinder":4566,"ĠSpe":4567,"ĠCouncil":4568,"ĠNations":4569,"ĠDa":4570,"ĠDOE":4571,"ford":4572,"Ġoperates":4573,"ĠYet":4574,"Ġcitizen":4575,"Ġavoided":4576,"Ġconsiderations":4577,"Ġdiscussed":4578,"Ġleakage":4579,"paign":4580,"Ġoriginal":4581,"Ġstrength":4582,"Ġfreedom":4583,"37":4584,"Ġreplac":4585,"etary":4586,"Ġnothing":4587,"ademic":4588,"Ġsole":4589,"Ġextern":4590,"Ġcontinues":4591,"Ġminimal":4592,"Ġconfidence":4593,"Ġdraw":4594,"Ġanalyze":4595,"ĠTechnologies":4596,"ĠIndonesia":4597,"52":4598,"fr":4599,"Ġturb":4600,"ened":4601,"enty":4602,"Ġsharing":4603,"Ġincorpor":4604,"Ġinvestors":4605,"Ġ1997":4606,"Ġassess":4607,"Ġcorro":4608,"Ġinterp":4609,"Ġpromoting":4610,"Ġmonthly":4611,"Ġcontroversial":4612,"ĠKorea":4613,"ĠMaintenance":4614,"ĠFacebook":4615,"cu":4616,"fra":4617,"parent":4618,"ley":4619,"ĠGroup":4620,"Ġcomplic":4621,"Ġprec":4622,"ĠEnvironment":4623,"ĠDecember":4624,"Ġproperty":4625,"Ġcompetit":4626,"Ġprogrammes":4627,"Ġscar":4628,"Ġdetermined":4629,"Ġmeaning":4630,"Ġcontinuous":4631,"Ġobjective":4632,"how":4633,"tise":4634,"technology":4635,"ĠSw":4636,"Ġages":4637,"Ġshift":4638,"ĠPost":4639,"aster":4640,"Ġpreca":4641,"Ġunique":4642,"lectric":4643,"Ġkil":4644,"Ġresearching":4645,"Ġamounts":4646,"Ġhands":4647,"Ġpresence":4648,"Ġfocusing":4649,"Ġillust":4650,"ĠAtomic":4651,"Ġprosper":4652,"ĠBeing":4653,"Engineering":4654,"ĠPrime":4655,"Ġprototype":4656,"body":4657,"hood":4658,"off":4659,"erves":4660,"Ġsell":4661,"Ġwants":4662,"Ġbase":4663,"Ġdut":4664,"Ġhind":4665,"Ġglob":4666,"Ġlate":4667,"ĠAss":4668,"Ġhapp":4669,"Ġstim":4670,"Ġcompare":4671,"Ġunexpected":4672,"rence":4673,"ĠChan":4674,"Ġpaying":4675,"Ġidentified":4676,"ĠGovernments":4677,"Ġdoctor":4678,"Ġobtained":4679,"Ġtask":4680,"Ġimmigrants":4681,"Ġfacilitate":4682,"Ġcriteria":4683,"polic":4684,"tect":4685,"yed":4686,"itiz":4687,"Ġborn":4688,"stm":4689,"ĠIT":4690,"ĠHunt":4691,"ĠHaving":4692,"ĠCelsi":4693,"apers":4694,"Ġvast":4695,"ruption":4696,"pects":4697,"Ġdefence":4698,"ĠCentre":4699,"Ġaircra":4700,"Ġreactions":4701,"Ġnearly":4702,"Ġremains":4703,"Ġaccommod":4704,"systems":4705,"ĠCelsius":4706,"02":4707,"rees":4708,"Ġproved":4709,"ĠPer":4710,"Ġcompulsory":4711,"Ġchanged":4712,"Ġwhereas":4713,"Ġexperiences":4714,"Ġoccurring":4715,"Ġprices":4716,"Ġtalk":4717,"Ġequipments":4718,"Ġbeginning":4719,"ĠGraying":4720,"Ġinteraction":4721,"Ġpurchase":4722,"AP":4723,"kra":4724,"population":4725,"science":4726,"Ġfra":4727,"Ġbarrier":4728,"ĠSm":4729,"ĠTheir":4730,"ĠCol":4731,"ĠDem":4732,"Ġconcent":4733,"Ġconsist":4734,"Ġjo":4735,"ĠOnce":4736,"Ġoperations":4737,"Ġemployee":4738,"Ġhighest":4739,"Ġencourages":4740,"afe":4741,"Ġclosed":4742,"Ġcampaign":4743,"Ġcleaner":4744,"Ġcouples":4745,"publications":4746,"Ġratio":4747,"ĠDiffusion":4748,"kraine":4749,"mission":4750,"Ġred":4751,"ĠTe":4752,"Ġlay":4753,"ĠSouth":4754,"Ġitem":4755,"ĠRobot":4756,"estic":4757,"ĠGreen":4758,"Ġvacc":4759,"ilem":4760,"Ġeducational":4761,"Ġattempt":4762,"Ġqual":4763,"Ġsecret":4764,"iction":4765,"Ġprone":4766,"Ġexpenditures":4767,"Ġparticip":4768,"Ġadopt":4769,"Ġconversion":4770,"Ġfulfill":4771,"ĠMichael":4772,"36":4773,"OM":4774,"pass":4775,"rc":4776,"Ġcateg":4777,"iter":4778,"Ġfrequency":4779,"stat":4780,"uters":4781,"ĠCare":4782,"user":4783,"osing":4784,"Ġgoal":4785,"ditionally":4786,"ĠRecent":4787,"ĠReview":4788,"Ġ31":4789,"Ġcrimes":4790,"pdfs":4791,"Ġreflect":4792,"Ġexperiment":4793,"Ġreality":4794,"Ġpassed":4795,"Ġtelephone":4796,"ĠAccess":4797,"ĠGermany":4798,"then":4799,"vest":4800,"inted":4801,"Ġfault":4802,"versy":4803,"cious":4804,"Ġincurred":4805,"ĠLe":4806,"Ġhighlight":4807,"2004":4808,"Ġrequirement":4809,"ĠProf":4810,"Ġkept":4811,"airs":4812,"Ġflat":4813,"Ġaccounts":4814,"Ġdisasters":4815,"ĠAdvisory":4816,"Ġmutation":4817,"Ġexternal":4818,"47":4819,"87":4820,"iar":4821,"iew":4822,"ux":4823,"edical":4824,"Ġfit":4825,"ilver":4826,"Ġbear":4827,"ull":4828,"Ġens":4829,"Ġsun":4830,"Ġexposed":4831,"Ġexcell":4832,"Ġsold":4833,"ĠDNA":4834,"irement":4835,"ĠUkraine":4836,"Ġconsent":4837,"Ġinvas":4838,"Ġphot":4839,"Ġ62":4840,"Ġskilled":4841,"Ġthreats":4842,"Ġcomputers":4843,"Ġmovements":4844,"Ġincidents":4845,"Ġrules":4846,"Ġafra":4847,"Ġpage":4848,"ung":4849,"ĠFuture":4850,"Ġabuse":4851,"Ġpowerful":4852,"Ġpopulations":4853,"rick":4854,"Ġmeant":4855,"Ġemployer":4856,"Ġdefic":4857,"Ġcontroversy":4858,"Ġexperiments":4859,"Ġurgent":4860,"ĠActually":4861,"Ġdecided":4862,"Ġfigure":4863,"Ġafraid":4864,"31":4865,"eve":4866,"vis":4867,"inel":4868,"rep":4869,"Ġwon":4870,"Ġbar":4871,"rief":4872,"Ġdesc":4873,"Ġintr":4874,"Ġcaring":4875,"cycle":4876,"Ġjud":4877,"ĠManpower":4878,"Ġcontrolled":4879,"Ġalternatives":4880,"Ġbelong":4881,"Ġdealing":4882,"iques":4883,"Ġdeny":4884,"Ġresistance":4885,"Ġcircum":4886,"Asia":4887,"Res":4888,"gon":4889,"just":4890,"pgrading":4891,"Ġparent":4892,"Ġpowered":4893,"Ġwrit":4894,"educ":4895,"iced":4896,"Ġdilem":4897,"Ġreject":4898,"Ġthor":4899,"Ġshrinking":4900,"adget":4901,"Ġsoftware":4902,"ĠOur":4903,"ublished":4904,"aust":4905,"Ġpartial":4906,"Ġdemographic":4907,"Ġcapability":4908,"ĠGenetics":4909,"Ġplayed":4910,"Ġoccurs":4911,"Ġlaptops":4912,"Ġgrant":4913,"Ġlaunch":4914,"ĠOrganization":4915,"ĠAustralia":4916,"aura":4917,"35":4918,"PM":4919,"UR":4920,"green":4921,"km":4922,"nl":4923,"Ġahead":4924,"Ġcounsel":4925,"leum":4926,"Ġconv":4927,"ifically":4928,"Ġexec":4929,"lopedia":4930,"Ġmanpower":4931,"agn":4932,"Ġsurface":4933,"ĠEng":4934,"Ġhappens":4935,"Ġcreates":4936,"Ġstatement":4937,"graphy":4938,"docs":4939,"design":4940,"Ġeliminate":4941,"Ġgathering":4942,"Ġcircumst":4943,"reli":4944,"Ġcity":4945,"Ġpaper":4946,"orb":4947,"Ġfatal":4948,"icians":4949,"Ġgot":4950,"channel":4951,"igital":4952,"ĠLaura":4953,"ellig":4954,"Ġextensive":4955,"Ġpotentially":4956,"Ġprofits":4957,"Ġcarrying":4958,"Ġmoving":4959,"Ġlegal":4960,"Ġbomb":4961,"69":4962,"fuel":4963,"global":4964,"spe":4965,"Ġansw":4966,"Ġbelow":4967,"ĠSch":4968,"ĠCN":4969,"ĠEast":4970,"Ġplat":4971,"ĠJust":4972,"rupt":4973,"Ġlifes":4974,"ieving":4975,"full":4976,"Ġroads":4977,"aterials":4978,"Ġdetail":4979,"Ġ1033":4980,"Ġapproxim":4981,"Ġprotected":4982,"Ġadvancements":4983,"Ġhimself":4984,"scitable":4985,"Ġmonths":4986,"Ġcoverage":4987,"Ġdestro":4988,"ĠIII":4989,"Ġdelay":4990,"known":4991,"topicpage":4992,"ooth":4993,"aly":4994,"ication":4995,"Ġmember":4996,"Ġhot":4997,"operation":4998,"rif":4999,"ĠRet":5000,"Ġstored":5001,"Ġexpress":5002,"Ġworried":5003,"ĠEs":5004,"Ġunden":5005,"Ġactual":5006,"Ġprior":5007,"Ġlessen":5008,"ĠUnion":5009,"Ġcredit":5010,"Ġsalary":5011,"Ġcontributes":5012,"Ġscen":5013,"Ġdecreasing":5014,"Ġinfluenced":5015,"Ġrestricted":5016,"Ġsurvival":5017,"commun":5018,"Ġnamely":5019,"Ġuncertain":5020,"Ġensuring":5021,"64":5022,"well":5023,"onym":5024,"Ġpack":5025,"Ġinput":5026,"Ġdate":5027,"Ġdrast":5028,"Ġreview":5029,"Ġask":5030,"ĠAf":5031,"opping":5032,"Ġchip":5033,"Ġweb":5034,"ĠSingaporean":5035,"ĠJoh":5036,"Ġattrib":5037,"Ġanyone":5038,"library":5039,"ĠProduct":5040,"Ġretired":5041,"Ġinside":5042,"Ġtechniques":5043,"iquid":5044,"Ġgraying":5045,"arriers":5046,"Ġautomobile":5047,"Ġsurvive":5048,"Ġpetroleum":5049,"ĠInnovation":5050,"Ġaccumulate":5051,"Ġguarantee":5052,"Ġdepression":5053,"ĠUranium":5054,"corp":5055,"ĠHuntington":5056,"Ġplatform":5057,"business":5058,"haust":5059,"research":5060,"ergies":5061,"icip":5062,"Ġmid":5063,"Ġworsen":5064,"ĠPres":5065,"Ġcomponents":5066,"Ġworker":5067,"atures":5068,"Ġbringing":5069,"Ġmonetary":5070,"Ġseniors":5071,"Ġprinci":5072,"Ġconsiderable":5073,"Ġdistance":5074,"ĠShould":5075,"Ġupgrade":5076,"----":5077,"ometric":5078,"ĠConsum":5079,"Ġmaximum":5080,"Ġultimately":5081,"Ġdrugs":5082,"ES":5083,"IS":5084,"hy":5085,"mom":5086,"Â°":5087,"Ġpict":5088,"ederal":5089,"ĠCal":5090,"Ġexch":5091,"ada":5092,"ĠDise":5093,"iography":5094,"Ġteach":5095,"ixed":5096,"Ġmentally":5097,"Ġaims":5098,"Ġblock":5099,"ĠArticle":5100,"Ġweakness":5101,"Ġregardless":5102,"........":5103,"Ġhundred":5104,"Ġexcellent":5105,"Ġdilemma":5106,"Ġtempor":5107,"rele":5108,"Ġmother":5109,"Ġlies":5110,"ĠCount":5111,"Ġexact":5112,"ĠBudget":5113,"osen":5114,"Ġsupports":5115,"Ġoverlook":5116,"Ġoppose":5117,"Ġsafely":5118,"Ġviable":5119,"Ġmonit":5120,"Ġbigger":5121,"Ġbiggest":5122,"Ġhousehold":5123,"ĠRoad":5124,"Ġsurgeons":5125,"ĠAbout":5126,"GR":5127,"aut":5128,"limit":5129,"mary":5130,"erv":5131,"itions":5132,"itably":5133,"ilding":5134,"ĠSalt":5135,"Ġdeem":5136,"Ġnote":5137,"ĠIns":5138,"ĠFrequency":5139,"Ġhttps":5140,"ĠDay":5141,"Ġlots":5142,"Ġgoals":5143,"Ġappre":5144,"Ġactivity":5145,"Ġtrust":5146,"ĠUnlike":5147,"Ġemployed":5148,"Ġpossibilities":5149,"Ġextend":5150,"priv":5151,"ography":5152,"Ġdegrees":5153,"Ġsuperior":5154,"Ġdenied":5155,"Ġauthorities":5156,"onymous":5157,"bre":5158,"electric":5159,"Ġsays":5160,"Ġhop":5161,"Ġelements":5162,"Ġge":5163,"Ġstations":5164,"ĠDef":5165,"Ġyield":5166,"Ġsurpr":5167,"Ġlimits":5168,"ological":5169,"Ġeverything":5170,"ponents":5171,"Ġescap":5172,"Ġmemory":5173,"Ġputting":5174,"ĠCommission":5175,"Ġfunctional":5176,"Ġinterests":5177,"Ġleaving":5178,"Ġopposing":5179,"Ġidentifying":5180,"aught":5181,"Ġsympt":5182,"100":5183,"80":5184,"IB":5185,"db":5186,"hl":5187,"mat":5188,"pop":5189,"inc":5190,"Ġbed":5191,"Ġmom":5192,"mentia":5193,"ĠHistory":5194,"Ġstrict":5195,"amer":5196,"ĠMon":5197,"astic":5198,"bliography":5199,"Ġprem":5200,"Ġsea":5201,"ĠLong":5202,"alls":5203,"agaz":5204,"Ġdiscoura":5205,"ĠReg":5206,"Ġpath":5207,"Ġextract":5208,"Ġregards":5209,"newsasia":5210,"Ġmedication":5211,"Ġconvert":5212,"Ġculture":5213,"Ġpetrol":5214,"Ġpacemak":5215,"Ġmicro":5216,"Ġtremendous":5217,"Ġexposure":5218,"Ġinadequate":5219,"Ġcomplicated":5220,"Ġlifespan":5221,"haps":5222,"vard":5223,"Ġ~":5224,"Ġtill":5225,"Ġsac":5226,"ications":5227,"Ġdow":5228,"Ġdangers":5229,"Ġdepending":5230,"unction":5231,"ĠOE":5232,"Ġadjust":5233,"Ġloved":5234,"ĠLimit":5235,"Ġemit":5236,"htr":5237,"agers":5238,"Ġpert":5239,"going":5240,"Ġpossibly":5241,"Ġtrained":5242,"Ġimplies":5243,"Ġaddressed":5244,"apped":5245,"ĠCompared":5246,"Ġsuggested":5247,"Ġresistant":5248,"Reactor":5249,"Ġexcessive":5250,"Ġsolely":5251,"Ġduty":5252,"Ġvaccine":5253,"Ġapproximately":5254,"Ġsacrif":5255,"Ġdownt":5256,"84":5257,"BM":5258,"pes":5259,"rum":5260,"year":5261,"stats":5262,"ĠBar":5263,"Ġotherwise":5264,"Ġabundant":5265,"ĠUsing":5266,"ients":5267,"ustion":5268,"ĠChildren":5269,"Ġroot":5270,"Ġ500":5271,"Ġacqu":5272,"Ġsaying":5273,"Ġbook":5274,"Ġseriously":5275,"Ġnorm":5276,"Ġcriminal":5277,"Ġlaunched":5278,"Ġmarried":5279,"Ġdevast":5280,"ĠBibliography":5281,"Ġinterpersonal":5282,"Ġinvasion":5283,"Ġcircumstances":5284,"32":5285,"ending":5286,"Ġmess":5287,"Ġmand":5288,"Ġhope":5289,"ider":5290,"Ġdeli":5291,"Ġdepart":5292,"raw":5293,"Ġexc":5294,"Ġgets":5295,"Ġpointed":5296,"Ġkeeping":5297,"Ġbatteries":5298,"Ġrecycled":5299,"Ġinitially":5300,"Ġinjuries":5301,"Ġtasks":5302,"Ġflaws":5303,"Ġzero":5304,"Ġalleviate":5305,"Ġpertinent":5306,"Ġdownturn":5307,"Testing":5308,"bioethics":5309,"file":5310,"host":5311,"mitted":5312,"ture":5313,"rest":5314,"Ġfif":5315,"icoll":5316,"roph":5317,"Ġmillions":5318,"Ġdrop":5319,"Ġliquid":5320,"ĠAir":5321,"Ġrich":5322,"iaea":5323,"Ġlift":5324,"Ġmostly":5325,"ĠAnonymous":5326,"Ġgenerators":5327,"Ġoffers":5328,"Ġshorter":5329,"Ġpressing":5330,"Ġintroduce":5331,"Ġproperties":5332,"ĠAdditionally":5333,"Ġtopic":5334,"Ġoptions":5335,"Ġera":5336,"ĠProgramme":5337,"Ġsocieties":5338,"Ġcharacteristics":5339,"ha":5340,"oring":5341,"Ġmature":5342,"Ġdied":5343,"Ġdrain":5344,"Ġreform":5345,"Ġprolong":5346,"imb":5347,"Ġforced":5348,"Ġdead":5349,"Ġexhaust":5350,"pendit":5351,"Ġword":5352,"Ġworries":5353,"Ġchair":5354,"ĠOff":5355,"Ġvision":5356,"Ġwhose":5357,"Ġconsult":5358,"Ġexpense":5359,"Ġgoods":5360,"Ġmarketing":5361,"Ġidentity":5362,"Ġdefinition":5363,"Ġentertain":5364,"Ġminimized":5365,"Ġfunded":5366,"Ġautomatically":5367,"Ġschools":5368,"Ġswit":5369,"Ġadapt":5370,"effective":5371,"ĠOECD":5372,"ny":5373,"uplo":5374,"Ġtheory":5375,"onent":5376,"encing":5377,"Ġce":5378,"Ġcode":5379,"Ġpump":5380,"Ġtouch":5381,"Ġdur":5382,"arin":5383,"aration":5384,"story":5385,"Ġforces":5386,"Ġalert":5387,"ĠHsi":5388,"raph":5389,"Ġhead":5390,"appro":5391,"ĠEthics":5392,"ĠLike":5393,"Ġram":5394,"Ġposes":5395,"chem":5396,"Ġextended":5397,"resent":5398,"Ġapproaches":5399,"Ġteac":5400,"Ġresponsibilities":5401,"Ġcentres":5402,"Ġincluded":5403,"ĠJapanese":5404,"Ġstronger":5405,"Ġadded":5406,"Ġacceptable":5407,"Ġinevitably":5408,"____":5409,"Ġmanufacturers":5410,"ĠLoong":5411,"ĠHsien":5412,"Pro":5413,"Ġing":5414,"Ġbarriers":5415,"Ġanx":5416,"urs":5417,"ĠHome":5418,"ĠCost":5419,"ĠWell":5420,"ĠBased":5421,"osition":5422,"odies":5423,"Ġprocessing":5424,"Ġworked":5425,"ewable":5426,"Ġvict":5427,"Ġeveryday":5428,"Ġintervention":5429,"Ġfunda":5430,"Ġutilize":5431,"Ġutilized":5432,"Ġportable":5433,"Ġmassive":5434,"Ġanticip":5435,"Ġconnected":5436,"Ġsuscept":5437,"Ġrespectively":5438,"Ethics":5439,"lv":5440,"ray":5441,"run":5442,"xic":5443,"ites":5444,"Ġbul":5445,"security":5446,"ĠCCT":5447,"ĠOut":5448,"cons":5449,"Ġweight":5450,"outube":5451,"ĠUK":5452,"Ġconsists":5453,"ĠGener":5454,"ĠAnn":5455,"ĠUnf":5456,"Ġ55":5457,"Ġinfect":5458,"ĠWebsite":5459,"Ġcapabilities":5460,"Ġviews":5461,"Ġequally":5462,"...":5463,"Ġpassing":5464,"ĠAdministration":5465,"Ġexplore":5466,"Ġtypical":5467,"ĠSupp":5468,"Ġdrive":5469,"Ġprocedure":5470,"Ġanalyzing":5471,"ĠApple":5472,"Ġintegrated":5473,"mohcorp":5474,"Ġmicrow":5475,"Ġkidn":5476,"Ġpeace":5477,"Ġenterpr":5478,"Ġprecise":5479,"nlm":5480,"ĠAfric":5481,"ĠJohn":5482,"ĠCCTV":5483,"IT":5484,"pat":5485,"rd":5486,"onald":5487,"Ġtough":5488,"Ġnight":5489,"Ġgl":5490,"ĠFuel":5491,"Ġimage":5492,"Ġran":5493,"Ġworkplace":5494,"Ġoverse":5495,"Ġpreventive":5496,"ĠYou":5497,"Ġtelling":5498,"Ġinfrastructures":5499,"life":5500,"Ġreadily":5501,"Ġrecognized":5502,"Ġannual":5503,"Ġignored":5504,"Ġdeciding":5505,"Ġsocietal":5506,"ĠHarvard":5507,"Ġfrequently":5508,"ĠChallenger":5509,"43":5510,"429":5511,"51":5512,"home":5513,"vhtr":5514,"Ġtri":5515,"Ġtried":5516,"essel":5517,"itro":5518,"stract":5519,"stories":5520,"verse":5521,"ĠSub":5522,"illi":5523,"olute":5524,"Ġdesire":5525,"Ġmedian":5526,"Ġfamous":5527,"INA":5528,"pectrum":5529,"ĠOnly":5530,"Ġactin":5531,"Ġdefine":5532,"ĠInter":5533,"Ġvariety":5534,"singstat":5535,"Ġcombustion":5536,"Ġcontinuously":5537,"ornia":5538,"doe":5539,"Ġexplain":5540,"Ġeyes":5541,"Ġconstraints":5542,"Article":5543,"channelnewsasia":5544,"Ġappreci":5545,"Ġmoment":5546,"DA":5547,"ran":5548,"Ġsend":5549,"Ġbodies":5550,"Ġmere":5551,"Ġdetri":5552,"Ġrecycle":5553,"Ġenergies":5554,"ĠMo":5555,"ĠMod":5556,"pens":5557,"ĠBef":5558,"Ġlosing":5559,"coming":5560,"Ġkilled":5561,"ĠOnline":5562,"Ġlargest":5563,"ront":5564,"Ġrealized":5565,"ĠWhy":5566,"Ġ70":5567,"Ġsalts":5568,"Ġhardly":5569,"Ġshape":5570,"ashington":5571,"ĠMean":5572,"Ġdram":5573,"Ġannoun":5574,"Ġengines":5575,"Ġharder":5576,"Ġpsychologists":5577,"ĠIncre":5578,"ĠScientists":5579,"Ġaircraft":5580,"Ġaccommodate":5581,"Ġmonitored":5582,"Ġpacemaker":5583,"penditure":5584,"CFR":5585,"HY":5586,"Ins":5587,"Medical":5588,"OR":5589,"vity":5590,"reports":5591,"ony":5592,"Ġban":5593,"Ġbuses":5594,"room":5595,"Ġelement":5596,"Ġrepos":5597,"ĠSc":5598,"ĠRel":5599,"Ġagencies":5600,"ifornia":5601,"ĠMiz":5602,"ĠFun":5603,"ĠPenicillin":5604,"ĠGu":5605,"ĠDav":5606,"Ġintended":5607,"Ġund":5608,"Ġunw":5609,"Ġarises":5610,"Ġappe":5611,"ificial":5612,"ĠKh":5613,"Ġtracked":5614,"echnical":5615,"ney":5616,"Ġallocation":5617,"Ġallocate":5618,"Ġbusinesses":5619,"Ġutilization":5620,"Ġreplacement":5621,"651":5622,"Ġmetal":5623,"Ġrestrict":5624,"Ġrelationships":5625,"Ġthousand":5626,"Ġdomin":5627,"scienced":5628,"ĠVietnam":5629,"Ġwonder":5630,"ĠInsurance":5631,"ĠUnfortunately":5632,"Ġmicrowave":5633,"bet":5634,"hone":5635,"erved":5636,"Ġsy":5637,"etically":5638,"igation":5639,"ĠSpending":5640,"Ġformer":5641,"amed":5642,"ĠGM":5643,"Ġeconomies":5644,"ĠIts":5645,"Ġtrig":5646,"Ġ1994":5647,"fficiency":5648,"Ġturned":5649,"Ġbackground":5650,"Ġreliance":5651,"ĠPolicies":5652,"Ġlegis":5653,"Ġresolve":5654,"Ġcorrosion":5655,"ĠMeanwhile":5656,"59":5657,"Int":5658,"eu":5659,"gic":5660,"na":5661,"onst":5662,"Ġcities":5663,"Ġinex":5664,"leg":5665,"icro":5666,"Ġrecess":5667,"ĠTest":5668,"Ġstory":5669,"tting":5670,"ĠMar":5671,"ĠNAS":5672,"Ġmagn":5673,"ditary":5674,"Ġupd":5675,"Ġoverw":5676,"Ġgold":5677,"Ġhandling":5678,"ĠYour":5679,"Ġskin":5680,"Ġequal":5681,"Ġintroducing":5682,"Ġcorruption":5683,"Ġresearched":5684,"ĠMSRs":5685,"Ġgrand":5686,"ĠFinance":5687,"Ġcatch":5688,"Ġdriven":5689,"english":5690,"238":5691,"Ġunfair":5692,"Ġvirtual":5693,"ĠHelium":5694,"cancer":5695,"ĠSolar":5696,"ĠEschede":5697,"ĠCalifornia":5698,"ĠRoadmap":5699,"Ġdeemed":5700,"privacy":5701,"ED":5702,"bu":5703,"cles":5704,"dle":5705,"dden":5706,"times":5707,"erted":5708,"Ġsent":5709,"leming":5710,"Ġmig":5711,"ĠTake":5712,"Ġluck":5713,"Ġsudden":5714,"dule":5715,"Ġsolid":5716,"ĠUpgrading":5717,"Ġrail":5718,"Ġpolice":5719,"Ġarising":5720,"pled":5721,"plant":5722,"2003":5723,"Ġrequest":5724,"Ġquant":5725,"Ġemployability":5726,"Ġ1995":5727,"Ġensured":5728,"oundation":5729,"ĠHeart":5730,"Ġshowing":5731,"Ġnecessity":5732,"ĠHighway":5733,"Ġsuggests":5734,"Ġwarning":5735,"Ġclosely":5736,"Ġblind":5737,"Ġaccurate":5738,"Ġcalc":5739,"Ġvictim":5740,"ĠMizog":5741,"58":5742,"Page":5743,"cern":5744,"fo":5745,"farin":5746,"hard":5747,"lig":5748,"nor":5749,"tic":5750,"erated":5751,"itan":5752,"Ġbro":5753,"Ġbus":5754,"Ġbio":5755,"Ġbesides":5756,"Ġdiet":5757,"etail":5758,"ott":5759,"ellect":5760,"ĠCor":5761,"aste":5762,"Ġplanned":5763,"Ġvessel":5764,"Ġsurf":5765,"Ġrace":5766,"Ġ1970":5767,"uchi":5768,"Ġadvoc":5769,"Ġ33":5770,"Ġ300":5771,"Ġoperated":5772,"Ġroom":5773,"development":5774,"Ġmeeting":5775,"Ġdefining":5776,"Ġ1980":5777,"ĠAndre":5778,"Ġtalent":5779,"spring":5780,"Ġgrants":5781,"attle":5782,"ĠNorth":5783,"Ġcommercialization":5784,"Ġdiagnosed":5785,"Ġhazardous":5786,"Th":5787,"dens":5788,"ii":5789,"law":5790,"mark":5791,"Ġsqu":5792,"Ġtoxic":5793,"icine":5794,"Ġgadget":5795,"Ġsuit":5796,"ĠClear":5797,"ĠFleming":5798,"ĠNUS":5799,"pping":5800,"ĠBusiness":5801,"Ġchat":5802,"ĠElder":5803,"ults":5804,"ĠKing":5805,"Ġinfring":5806,"Ġtransl":5807,"Ġowners":5808,"Ġfocused":5809,"Ġstarts":5810,"viously":5811,"Ġadoption":5812,"Ġexpans":5813,"Ġbelief":5814,"Ġcompetitiveness":5815,"Ġentertainment":5816,"ĠBefore":5817,"42":5818,"Ch":5819,"FA":5820,"LIO":5821,"PDF":5822,"ban":5823,"son":5824,"Ġtap":5825,"Ġwire":5826,"itter":5827,"ara":5828,"Ġreached":5829,"state":5830,"Ġdepri":5831,"ĠCitiz":5832,"estern":5833,"ĠNet":5834,"Ġrig":5835,"ĠBIB":5836,"Ġchosen":5837,"ĠLaw":5838,"ĠLife":5839,"ĠJac":5840,"Ġimproves":5841,"Ġ35":5842,"Ġtechnologically":5843,"Ġ66":5844,"ĠProblem":5845,"ĠYear":5846,"Ġsafegu":5847,"Ġmodels":5848,"Ġconstructing":5849,"Ġfeeling":5850,"Ġexistence":5851,"Ġpollut":5852,"apping":5853,"199":5854,"Ġquestions":5855,"Ġundergoing":5856,"Ġeliminated":5857,"Ġpsychologist":5858,"Ġabsolute":5859,"ĠBuilding":5860,"Ġexercise":5861,"shell":5862,"Ġinstitutions":5863,"ĠBritain":5864,"Ġnutshell":5865,"APHY":5866,"ĠProfess":5867,"Ġanswer":5868,"GRAPHY":5869,"Ġdevastating":5870,"upload":5871,"ĠNASA":5872,"LIOGRAPHY":5873,"ĠBIBLIOGRAPHY":5874,"IA":5875,"ners":5876,"risk":5877,"site":5878,"Ġspl":5879,"Ġcur":5880,"orized":5881,"Ġwent":5882,"los":5883,"Ġlik":5884,"ĠIN":5885,"Ġassure":5886,"Ġdeep":5887,"Ġhab":5888,"ĠMot":5889,"Ġcomponent":5890,"Ġeducate":5891,"Ġafflu":5892,"Ġacademic":5893,"ĠProject":5894,"ĠAccidents":5895,"working":5896,"Ġassum":5897,"Ġneglig":5898,"Ġinvolving":5899,"Ġbudgets":5900,"issues":5901,"herent":5902,"Ġelse":5903,"Ġready":5904,"Ġgained":5905,"employed":5906,"Ġregarded":5907,"Ġestablish":5908,"Ġreturns":5909,"surveillance":5910,"ĠGeorg":5911,"Ġturbine":5912,"ĠMizoguchi":5913,"ĠClearly":5914,"Ġexpansion":5915,"68":5916,"PA":5917,"RFID":5918,"chernobyl":5919,"frequency":5920,"gif":5921,"human":5922,"rink":5923,"online":5924,"Ġsl":5925,"Ġsuc":5926,"orrow":5927,"Ġfirm":5928,"Ġbab":5929,"lege":5930,"robot":5931,"Ġdream":5932,"Ġisol":5933,"stra":5934,"Ġproceed":5935,"ĠICE":5936,"aya":5937,"Ġhack":5938,"ĠRus":5939,"Ġstation":5940,"Ġshall":5941,"Ġshared":5942,"ĠCO":5943,"ĠCooled":5944,"Ġexcept":5945,"using":5946,"ĠMr":5947,"ĠThose":5948,"ĠPo":5949,"ĠPenn":5950,"aces":5951,"Ġru":5952,"Ġunav":5953,"Ġundes":5954,"Ġmanner":5955,"eful":5956,"Ġcontent":5957,"Ġperce":5958,"Ġacts":5959,"Ġgenerates":5960,"Ġfactories":5961,"Ġaffecting":5962,"Ġasset":5963,"Ġremember":5964,"Ġfailures":5965,"Ġvalid":5966,"303":5967,"Ġdiscriminated":5968,"atters":5969,"Ġsatisfied":5970,"ĠCanada":5971,"Ġtelevision":5972,"Ġexpand":5973,"Ġdepleting":5974,"Ġdeclining":5975,"ĠSpeech":5976,"Ġitems":5977,"Ġsymptoms":5978,"rophic":5979,"Ġdetrimental":5980,"Ġoverwhel":5981,"gr":5982,"papers":5983,"rehen":5984,"Ġwis":5985,"lets":5986,"idden":5987,"Ġleng":5988,"0000":5989,"ĠAg":5990,"Ġstead":5991,"amil":5992,"Ġcompr":5993,"Ġthereby":5994,"Ġcontract":5995,"ags":5996,"ĠJames":5997,"Ġoutside":5998,"Ġtrade":5999,"Ġdiffer":6000,"Ġdecade":6001,"atively":6002,"Ġfinancing":6003,"Ġconcerning":6004,"Ġremote":6005,"resh":6006,"Ġwheels":6007,"Ġactively":6008,"Ġcontinued":6009,"ĠCompany":6010,"Ġfalls":6011,"ourses":6012,"Ġtargets":6013,"Ġnurses":6014,"Ġselecting":6015,"Ġappearance":6016,"Ġwaiting":6017,"Ġrecovery":6018,"Ġundeniable":6019,"ĠCountries":6020,"Ġmandatory":6021,"ĠKingdom":6022,"Dis":6023,"Public":6024,"budget":6025,"cd":6026,"ez":6027,"elderly":6028,"range":6029,"reds":6030,"ania":6031,"chips":6032,"idge":6033,"ĠAuth":6034,"Ġalarm":6035,"Ġagent":6036,"ĠMRT":6037,"ĠMaterials":6038,"ĠNeed":6039,"ĠNicoll":6040,"Ġchain":6041,"Ġincom":6042,"Ġraises":6043,"ruit":6044,"Ġprovision":6045,"Ġ1950":6046,"Ġ2012":6047,"ensus":6048,"sylv":6049,"ifications":6050,"cknow":6051,"Ġserves":6052,"Ġearning":6053,"Ġ1993":6054,"Ġoffered":6055,"ishield":6056,"Ġdependence":6057,"Ġnecessarily":6058,"type":6059,"Ġformed":6060,"ifying":6061,"Ġevol":6062,"Ġcritic":6063,"Ġcharge":6064,"ĠEconomist":6065,"Ġcompromised":6066,"Ġunlikely":6067,"ĠSkunk":6068,"Ġcorporate":6069,"ĠStudies":6070,"Ġpanels":6071,"ĠSenior":6072,"features":6073,"Ġvolunte":6074,"ĠDawn":6075,"Ġcampaigns":6076,"ictionary":6077,"ĠDisease":6078,"agazine":6079,"ĠAfrica":6080,"ellectual":6081,"BS":6082,"SS":6083,"Ġslight":6084,"anel":6085,"olit":6086,"Ġstrug":6087,"ĠChe":6088,"ĠMark":6089,"ĠFac":6090,"ĠEr":6091,"Ġsaves":6092,"Ġunst":6093,"Ġuniversity":6094,"ĠAng":6095,"Ġoffspring":6096,"Ġruns":6097,"Ġcorrespon":6098,"Ġachieving":6099,"Ġcompete":6100,"Ġestates":6101,"Ġviewed":6102,"Ġacceptance":6103,"arriage":6104,"Ġsubstances":6105,"Ġpopularity":6106,"Ġmistake":6107,"Ġbright":6108,"ndrom":6109,"ĠPhys":6110,"Ġresolved":6111,"ĠQu":6112,"Ġprecautions":6113,"ĠConsumer":6114,"Ġfundamental":6115,"Ġstrugg":6116,"56":6117,"82":6118,"cular":6119,"def":6120,"ky":6121,"lan":6122,"pread":6123,"sions":6124,"Ġtro":6125,"Ġtrou":6126,"Ġtru":6127,"athe":6128,"Ġpool":6129,"Ġwides":6130,"itory":6131,"aling":6132,"Ġanim":6133,"arp":6134,"omel":6135,"Ġonto":6136,"Ġforum":6137,"irty":6138,"Ġenviron":6139,"ama":6140,"ami":6141,"acking":6142,"Ġreserves":6143,"ĠBern":6144,"ĠEth":6145,"Ġdesigner":6146,"Ġatomic":6147,"abase":6148,"Ġ2020":6149,"ailability":6150,"Ġinstru":6151,"Ġanything":6152,"Ġinventing":6153,"prod":6154,"viet":6155,"Ġdemonst":6156,"Ġexpertise":6157,"Ġsmart":6158,"Ġvibr":6159,"Ġcentre":6160,"Ġplaying":6161,"hips":6162,"Ġtechnique":6163,"Ġattractive":6164,"Ġfalling":6165,"Ġhereditary":6166,"Ġcompromise":6167,"Ġabandoned":6168,"Ġarchitecture":6169,"Ġcatastrophic":6170,"ĠCNG":6171,"ĠRetirement":6172,"Insurance":6173,"normal":6174,"ĠPennsylv":6175,"Ġtrouble":6176,"Ġwidespread":6177,"ĠPennsylvania":6178,"hop":6179,"Ġpublished":6180,"Ġwatch":6181,"Ġinject":6182,"icated":6183,"omy":6184,"Ġgone":6185,"ĠTour":6186,"char":6187,"Ġlang":6188,"Ġdementia":6189,"ĠHaw":6190,"key":6191,"ĠNE":6192,"ĠGiven":6193,"arter":6194,"ouses":6195,"Ġunivers":6196,"Ġvo":6197,"renewable":6198,"Ġrods":6199,"Ġpriorities":6200,"Ġacute":6201,"develop":6202,"Ġassets":6203,"uccessful":6204,"Ġobliged":6205,"Ġreceiving":6206,"Ġdiabet":6207,"Ġinvestigation":6208,"Ġdescrib":6209,"Ġscenar":6210,"Ġenvironments":6211,"Free":6212,"Retri":6213,"files":6214,"gas":6215,"rich":6216,"rete":6217,"Ġspectrum":6218,"atur":6219,"ords":6220,"Ġfire":6221,"Ġfarm":6222,"Ġbra":6223,"omics":6224,"Ġenorm":6225,"Ġshopping":6226,"ĠCr":6227,"amm":6228,"ĠIndust":6229,"ĠMass":6230,"ĠBer":6231,"soft":6232,"ĠLew":6233,"Ġconcrete":6234,"Ġsupplies":6235,"Ġbutton":6236,"Ġedge":6237,"ogle":6238,"Ġprofitable":6239,"Ġobligations":6240,"Ġslower":6241,"Ġhampers":6242,"cyclopedia":6243,"ĠPlan":6244,"Ġdisadvantage":6245,"Ġdoubts":6246,"Ġrecognize":6247,"Ġpreviously":6248,"Ġfourth":6249,"Ġwheelchairs":6250,"Ġindicates":6251,"points":6252,"Ġhundreds":6253,"Ġfavor":6254,"Ġversion":6255,"Ġdistribution":6256,"Ġglobally":6257,"ĠEnglish":6258,"Ġfifty":6259,"Ġoverseas":6260,"Ġgolden":6261,"Ġbabies":6262,"city":6263,"mon":6264,"ror":6265,"Ġtext":6266,"Ġacknow":6267,"erative":6268,"Ġcra":6269,"Ġpill":6270,"Ġinherent":6271,"ouch":6272,"Ġground":6273,"Ġlon":6274,"ulating":6275,"ĠCorpor":6276,"Ġresort":6277,"ĠBas":6278,"istant":6279,"Ġdesirable":6280,"Ġintensive":6281,"ĠJe":6282,"Ġroles":6283,"Ġattain":6284,"Ġsubsequently":6285,"Ġminor":6286,"Ġburdens":6287,"Ġremove":6288,"ĠMedi":6289,"ĠMedishield":6290,"print":6291,"Ġentit":6292,"Ġoccurrence":6293,"Ġcalls":6294,"ĠNewsAsia":6295,"Ġcombination":6296,"ĠIssue":6297,"Ġinitiatives":6298,"Ġrepresent":6299,"Ġrevolution":6300,"ĠRecently":6301,"ĠDavid":6302,"Ġsplit":6303,"Ġunstable":6304,"ĠHawk":6305,"Ġdiabetes":6306,"Ġenormous":6307,"53":6308,"HS":6309,"VRC":6310,"bro":6311,"from":6312,"ios":6313,"lin":6314,"mar":6315,"nkm":6316,"ped":6317,"publ":6318,"ze":6319,"atabase":6320,"Ġoven":6321,"Ġpen":6322,"Ġwalk":6323,"itness":6324,"Ġfelt":6325,"Ġfixed":6326,"Ġbacter":6327,"rous":6328,"Ġdie":6329,"ilot":6330,"ĠTen":6331,"iller":6332,"under":6333,"Ġdisabilities":6334,"ĠOVRC":6335,"ĠGCFR":6336,"Ġweather":6337,"agraph":6338,"Ġperman":6339,"Ġadvice":6340,"taining":6341,"Ġinstant":6342,"Ġgrown":6343,"ĠKnow":6344,"Ġcrew":6345,"iorno":6346,"Ġconstructed":6347,"Ġprojected":6348,"Ġturning":6349,"Ġscientist":6350,"Ġboiling":6351,"ables":6352,"Ġexploded":6353,"Ġenhancing":6354,"Ġreports":6355,"Ġdisastrous":6356,"Ġopinions":6357,"Ġspecifically":6358,"engers":6359,"Ġignore":6360,"Ġsimpler":6361,"ĠTransport":6362,"Ġencounter":6363,"Ġneighbour":6364,"Ġswitch":6365,"Ġteachers":6366,"Ġunavoid":6367,"Publications":6368,"Ġtruly":6369,"iers":6370,"rating":6371,"Ġtable":6372,"Ġtheft":6373,"Ġpie":6374,"Ġwish":6375,"Ġded":6376,"Ġrein":6377,"etown":6378,"apter":6379,"Ġgenetically":6380,"ĠOld":6381,"Ġcomprehen":6382,"Ġabnormal":6383,"forced":6384,"Ġtraged":6385,"Ġ2052":6386,"ĠAltern":6387,"ĠDecl":6388,"Ġapproval":6389,"Ġkeeps":6390,"Ġamongst":6391,"Ġforemost":6392,"Ġinternal":6393,"Ġdestruction":6394,"Ġcouple":6395,"Ġentirely":6396,"Ġdiagnosis":6397,"Ġchanneled":6398,"Ġwaves":6399,"Ġartificial":6400,"Ġboomers":6401,"Ġapartments":6402,"Ġneutron":6403,"policies":6404,"Ġtemporary":6405,"ĠOffice":6406,"Ġsusceptible":6407,"Ġmerely":6408,"itanic":6409,"88":6410,"AEA":6411,"CPF":6412,"Cont":6413,"Doc":6414,"EE":6415,"Shield":6416,"gm":6417,"history":6418,"ned":6419,"oo":6420,"Ġ_":6421,"heast":6422,"inations":6423,"atimes":6424,"Ġwin":6425,"Ġwitness":6426,"ancial":6427,"Ġfo":6428,"Ġtold":6429,"Ġmen":6430,"ason":6431,"cel":6432,"version":6433,"sem":6434,"Ġdeploy":6435,"ĠAre":6436,"ĠHere":6437,"ifund":6438,"elines":6439,"ĠMor":6440,"oster":6441,"ĠThom":6442,"ĠPart":6443,"ĠEV":6444,"Ġcompl":6445,"Ġunless":6446,"outheast":6447,"Ġdoi":6448,"iaone":6449,"Ġknows":6450,"Ġoperational":6451,"Ġprevents":6452,"Ġ400":6453,"Ġtwenty":6454,"ĠProtect":6455,"Ġfastest":6456,"Ġseeking":6457,"Ġmoder":6458,"Ġprominent":6459,"Ġpursu":6460,"Ġ90":6461,"Ġprotecting":6462,"Ġsubsidized":6463,"2050":6464,"ĠFinancial":6465,"ĠPlant":6466,"ĠPlants":6467,"Ġ293":6468,"Ġinherit":6469,"Ġimposed":6470,"Ġharness":6471,"ĠInnovations":6472,"ĠBuong":6473,"Ġhighlighted":6474,"releases":6475,"Ġnormally":6476,"Ġingred":6477,"Ġtroubl":6478,"Ġlangu":6479,"Ġunavoidable":6480,"big":6481,"iro":6482,"ief":6483,"inical":6484,"Ġhour":6485,"ĠTaking":6486,"Ġongoing":6487,"ĠSpecial":6488,"ĠAnt":6489,"Ġnoted":6490,"Ġstre":6491,"elih":6492,"amin":6493,"usive":6494,"ĠMa":6495,"ĠNe":6496,"ĠBioethics":6497,"Ġincon":6498,"ĠEvent":6499,"Ġlove":6500,"artin":6501,"ager":6502,"Ġdiffusion":6503,"Ġinforming":6504,"ructural":6505,"Ġfinances":6506,"Ġpattern":6507,"Ġstudent":6508,"Ġgreatest":6509,"Ġsmooth":6510,"redict":6511,"Ġcoolants":6512,"Ġcloser":6513,"Ġwanted":6514,"Ġclaims":6515,"Ġinterested":6516,"Ġparagraph":6517,"Ġshaping":6518,"Ġopposite":6519,"Ġcombined":6520,"Ġlocate":6521,"Ġhampering":6522,"ĠAdvanced":6523,"Ġearned":6524,"Ġvisit":6525,"aneously":6526,"Ġbombs":6527,"Ġembed":6528,"ĠBritish":6529,"Ġreplaced":6530,"agnetic":6531,"limited":6532,"Ġdelivery":6533,"Ġenterprises":6534,"Ġannounced":6535,"Ġrecession":6536,"Ġlikelih":6537,"Ġlikelihood":6538,"1000":6539,"ME":6540,"ein":6541,"find":6542,"tra":6543,"yn":6544,"Ġtank":6545,"reg":6546,"ingly":6547,"ita":6548,"itst":6549,"Ġmel":6550,"iding":6551,"Ġconce":6552,"ĠRE":6553,"Ġwhom":6554,"elong":6555,"Ġexists":6556,"gevity":6557,"ĠMoney":6558,"ĠFortunately":6559,"ĠWij":6560,"Ġcomparing":6561,"ĠDom":6562,"ĠDaily":6563,"Ġload":6564,"Ġabilities":6565,"ĠLin":6566,"ĠLet":6567,"ĠLiving":6568,"ĠLWR":6569,"ING":6570,"Ġcommitted":6571,"cket":6572,"Ġeverywhere":6573,"project":6574,"program":6575,"Ġhandic":6576,"ĠResear":6577,"ĠResources":6578,"resources":6579,"Ġrecords":6580,"Ġcenter":6581,"Ġprogramme":6582,"Ġtagged":6583,"Ġdirection":6584,"Ġbreast":6585,"ĠIndividual":6586,"Ġserendipitously":6587,"msn":6588,"Ġmisuse":6589,"Ġstaying":6590,"Ġcontainment":6591,"inson":6592,"Ġsimplified":6593,"Ġguaranteed":6594,"STI":6595,"ĠTracking":6596,"Ġviolation":6597,"Ġunpre":6598,"Ġmechanism":6599,"Ġofficials":6600,"Ġbreakthroughs":6601,"Ġflexible":6602,"Ġramps":6603,"Ġaffluent":6604,"Ġundesirable":6605,"ĠEthical":6606,"ĠBuongiorno":6607,"ĠWijaya":6608,"44":6609,"gment":6610,"rons":6611,"sol":6612,"vas":6613,"Ġvers":6614,"Ġcurb":6615,"Ġpark":6616,"Ġpaid":6617,"Ġinsure":6618,"Ġhur":6619,"Ġbeg":6620,"Ġbegan":6621,"ĠSing":6622,"Ġalt":6623,"Ġallo":6624,"Ġwithd":6625,"Ġexceed":6626,"ĠPark":6627,"ĠBl":6628,"osed":6629,"Ġintention":6630,"Ġhelpful":6631,"Ġcards":6632,"Ġuseless":6633,"ustain":6634,"Ġperhaps":6635,"Ġcareer":6636,"Ġconsuming":6637,"Ġcenturies":6638,"ĠConcern":6639,"Ġlighten":6640,"Ġtendency":6641,"Ġindependently":6642,"Ġdebates":6643,"Ġtravelling":6644,"ĠOverview":6645,"Ġobserved":6646,"Ġmotivation":6647,"Ġescape":6648,"ĠGeorgetown":6649,"Human":6650,"LM":6651,"Singapore":6652,"born":6653,"cost":6654,"hdb":6655,"md":6656,"ument":6657,"Ġast":6658,"inary":6659,"Ġpick":6660,"local":6661,"Ġgave":6662,"celer":6663,"ĠIAEA":6664,"Ġfort":6665,"ulatory":6666,"ĠRally":6667,"ifies":6668,"rail":6669,"Ġstra":6670,"ĠCong":6671,"pensive":6672,"Ġdevelops":6673,"ĠDest":6674,"Ġintellig":6675,"ĠView":6676,"agement":6677,"Ġnewsp":6678,"peace":6679,"Ġoutlet":6680,"Ġoutstanding":6681,"ĠFors":6682,"ounds":6683,"ĠReuters":6684,"plants":6685,"cedented":6686,"Ġemploying":6687,"Ġinventors":6688,"word":6689,"intern":6690,"Ġavailability":6691,"Ġspeaking":6692,"ĠSurvey":6693,"Ġreliant":6694,"Ġserendipity":6695,"server":6696,"Ġupgraded":6697,"Ġfollowed":6698,"Ġemotionally":6699,"ondon":6700,"Ġworrying":6701,"Ġwillingness":6702,"Ġexpanding":6703,"Ġdepletion":6704,"inlportal":6705,"eye":6706,"Ġbiometric":6707,"Ġaccuracy":6708,"Ġlinked":6709,"Ġtremendously":6710,"Ġcorporations":6711,"ĠObviously":6712,"ĠDemography":6713,"ĠRobotic":6714,"Ġthorough":6715,"Ġdrastically":6716,"Ġattributed":6717,"Ġoverlooked":6718,"Ġrepository":6719,"Ġwireless":6720,"Ġsucceed":6721,"efully":6722,"RI":6723,"hab":6724,"iation":6725,"oke":6726,"Ġil":6727,"Ġtons":6728,"Ġcourses":6729,"Ġpra":6730,"itudes":6731,"Ġbank":6732,"Ġnav":6733,"Ġrelying":6734,"Ġrecomm":6735,"Ġlie":6736,"Ġnotice":6737,"Ġshif":6738,"ĠFact":6739,"ĠFall":6740,"ĠFoundation":6741,"perate":6742,"ĠDiscrimination":6743,"Ġunemployed":6744,"ought":6745,"rene":6746,"Ġexamination":6747,"Ġgrows":6748,"Ġattend":6749,"Ġanywhere":6750,"Ġfacts":6751,"viation":6752,"ĠAccount":6753,"Ġsigns":6754,"Ġcommunities":6755,"Ġskill":6756,"Ġrefuse":6757,"ĠMedifund":6758,"Ġstands":6759,"Ġlooked":6760,"Ġairport":6761,"Ġmaintained":6762,"Ġguil":6763,"ĠExper":6764,"Ġmaximize":6765,"Ġabsorb":6766,"Ġdefects":6767,"Ġscarcity":6768,"ĠSmith":6769,"reprene":6770,"Ġpremium":6771,"Ġlegislation":6772,"anellos":6773,"CH":6774,"He":6775,"Wh":6776,"auth":6777,"bal":6778,"mode":6779,"national":6780,"right":6781,"with":6782,"Ġtends":6783,"inst":6784,"Ġtheories":6785,"Ġpeb":6786,"Ġwal":6787,"Ġfriend":6788,"alys":6789,"Ġmatters":6790,"Ġdigital":6791,"Ġreput":6792,"Ġgap":6793,"ams":6794,"ĠMicro":6795,"umb":6796,"Ġord":6797,"ĠBaby":6798,"ĠGINA":6799,"istance":6800,"istry":6801,"Ġdesired":6802,"Ġgovernmental":6803,"ĠData":6804,"Ġintellectual":6805,"Ġunre":6806,"ĠLTA":6807,"Ġrelieve":6808,"agger":6809,"Ġperception":6810,"Ġaccidental":6811,"Ġeducating":6812,"Ġgenerator":6813,"Ġspan":6814,"Ġspouse":6815,"Ġ600":6816,"Ġhydro":6817,"Ġ75":6818,"Ġ700":6819,"Ġentreprene":6820,"Ġstudying":6821,"ldershield":6822,"136":6823,"ĠMehl":6824,"Ġfindings":6825,"Ġselected":6826,"Ġseverely":6827,"nsf":6828,"Ġinjured":6829,"Ġcustomer":6830,"namic":6831,"Ġorigin":6832,"ĠXiaone":6833,"Ġcatastrop":6834,"Ġstimulate":6835,"Ġconvin":6836,"Ġexactly":6837,"Ġanxiety":6838,"Ġactinides":6839,"ĠAuthority":6840,"Retrieved":6841,"aturally":6842,"aggerated":6843,"ĠMehlman":6844,"ĠXiaonei":6845,"bate":6846,"field":6847,"nc":6848,"pir":6849,"pay":6850,"uf":6851,"reading":6852,"ene":6853,"Ġfederal":6854,"Ġmatch":6855,"Ġdro":6856,"Ġhiring":6857,"ĠTV":6858,"ĠTitanic":6859,"oted":6860,"ĠRich":6861,"ĠFour":6862,"Ġworst":6863,"aced":6864,"Ġunlimited":6865,"Ġpermission":6866,"Ġpertaining":6867,"Ġproves":6868,"Ġ1960":6869,"ivided":6870,"Ġappli":6871,"ĠChar":6872,"Ġretraining":6873,"Ġprivile":6874,"Ġoffic":6875,"Ġclimb":6876,"Ġcooperation":6877,"ĠDec":6878,"Ġexperiencing":6879,"Ġapproved":6880,"Ġbreach":6881,"Ġstressful":6882,"Ġemphasize":6883,"Ġcoupled":6884,"Ġpreferred":6885,"Ġexercises":6886,"ĠControl":6887,"ĠEmployment":6888,"Ġbonding":6889,"Ġmechanical":6890,"Ġneutrons":6891,"ĠEnvironmental":6892,"ĠSwed":6893,"Ġselling":6894,"appropri":6895,"Ġdramatically":6896,"Ġuniversities":6897,"46":6898,"73":6899,"AC":6900,"AL":6901,"Bre":6902,"data":6903,"iary":6904,"jsp":6905,"rative":6906,"vation":6907,"wan":6908,"Ġri":6909,"Ġcents":6910,"Ġcovered":6911,"Ġpilot":6912,"Ġfresh":6913,"Ġinefficient":6914,"Ġineffective":6915,"icide":6916,"Ġmit":6917,"Ġhit":6918,"Ġgam":6919,"Ġliability":6920,"Ġenforce":6921,"Ġaggress":6922,"Ġstem":6923,"Ġcand":6924,"ĠCity":6925,"ĠInvest":6926,"Ġimpart":6927,"ĠPa":6928,"ĠPan":6929,"ĠPsycholo":6930,"ĠBon":6931,"ister":6932,"Ġwear":6933,"ĠLoc":6934,"ĠLondon":6935,"ricult":6936,"abstract":6937,"Ġconserv":6938,"iley":6939,"ieves":6940,"ĠRevis":6941,"ĠChang":6942,"Ġmining":6943,"Ġrefer":6944,"Ġrespond":6945,"Ġproviders":6946,"ĠResults":6947,"Ġcontrolling":6948,"Ġpassengers":6949,"Ġexploit":6950,"Ġurban":6951,"Ġ1987":6952,"ĠSurgery":6953,"Ġadopting":6954,"advantages":6955,"Ġelig":6956,"Ġsecondary":6957,"Ġdetected":6958,"Ġcharging":6959,"Ġindependence":6960,"Ġdriving":6961,"Ġmotor":6962,"Ġdepleted":6963,"ĠTwitter":6964,"Ġvirus":6965,"Ġinitiated":6966,"Ġprototypes":6967,"backs":6968,"products":6969,"Ġcopy":6970,"display":6971,"Ġlayer":6972,"gonomics":6973,"ĠGenerally":6974,"ĠSupport":6975,"ndrome":6976,"publish":6977,"ĠCongress":6978,"cher":6979,"family":6980,"men":6981,"Ġtaught":6982,"Ġtoile":6983,"Ġgames":6984,"see":6985,"Ġli":6986,"Ġliter":6987,"ĠID":6988,"Ġforth":6989,"ĠAff":6990,"ĠMIT":6991,"ĠFactors":6992,"Ġdisag":6993,"ĠWashington":6994,"quality":6995,"bles":6996,"Ġincap":6997,"ĠDisc":6998,"ĠLine":6999,"earning":7000,"ĠJones":7001,"Ġarms":7002,"Ġanymore":7003,"ĠUnivers":7004,"Ġoffering":7005,"Ġthoughts":7006,"Ġtrains":7007,"Ġstarting":7008,"ups":7009,"Ġreaching":7010,"Ġrecognition":7011,"Ġvolume":7012,"ĠSpace":7013,"Ġvoluntary":7014,"Ġteaching":7015,"Ġweaknesses":7016,"Ġdepartment":7017,"chemical":7018,"Ġanimals":7019,"ĠEventually":7020,"Ġilleg":7021,"Health":7022,"/.":7023,"010":7024,"97":7025,"Age":7026,"CO":7027,"Files":7028,"da":7029,"mate":7030,"oe":7031,"oint":7032,"win":7033,"ya":7034,"Ġcross":7035,"Ġpure":7036,"isme":7037,"Ġfal":7038,"Ġbrief":7039,"icious":7040,"Ġmal":7041,"Ġdict":7042,"Ġdatabase":7043,"Ġhol":7044,"Ġhidden":7045,"Ġeight":7046,"ask":7047,"Ġrect":7048,"Ġrepe":7049,"etp":7050,"chip":7051,"ids":7052,"ima":7053,"Ġlux":7054,"anton":7055,"ĠCa":7056,"Ġexcl":7057,"overy":7058,"ĠPM":7059,"ĠOlder":7060,"Ġplag":7061,"Ġplastic":7062,"ĠDirect":7063,"Ġmanaged":7064,"Ġnewly":7065,"Ġrelation":7066,"Ġwhenever":7067,"Ġelectrom":7068,"Ġsupporters":7069,"ĠGenome":7070,"Ġattitudes":7071,"Ġspite":7072,"Ġwhereabout":7073,"Ġpoly":7074,"ĠInteg":7075,"Ġsignal":7076,"Ġcoefficient":7077,"ĠSoviet":7078,"Ġpressur":7079,"1038":7080,"Ġpurs":7081,"Ġfocuses":7082,"cogeneration":7083,"Ġdirected":7084,"Ġairb":7085,"arsh":7086,"Ġtalented":7087,"ournals":7088,"Ġapplicable":7089,"Ġfolks":7090,"Ġenjoying":7091,"Ġlocated":7092,"Ġsteel":7093,"Ġfertil":7094,"Ġbehaviour":7095,"Ġfigures":7096,"Ġdomestic":7097,"mycpf":7098,"Ġdefective":7099,"Ġremoved":7100,"Ġassessment":7101,"Ġhappy":7102,"Ġcounseling":7103,"Ġprinciple":7104,"Ġgadgets":7105,"Ġassured":7106,"ĠAngel":7107,"ĠLewan":7108,"itstimes":7109,"Ġunprecedented":7110,"localnews":7111,"ĠDestiny":7112,"ĠForsberg":7113,"Ġdisagree":7114,"Ġfalse":7115,"ament":7116,"ias":7117,"pered":7118,"uct":7119,"Ġice":7120,"oret":7121,"Ġnotion":7122,"ĠCertain":7123,"Ġimaging":7124,"asters":7125,"ĠBre":7126,"ĠBur":7127,"ĠGo":7128,"Ġdeserve":7129,"ultaneously":7130,"Ġcompelled":7131,"ĠLand":7132,"iably":7133,"ĠUs":7134,"Ġsupposed":7135,"ĠKanellos":7136,"Ġlowest":7137,"Ġspot":7138,"Ġinflation":7139,"week":7140,"Ġremind":7141,"Ġpayout":7142,"Ġpractices":7143,"Ġplayer":7144,"issue":7145,"Ġdecreases":7146,"Ġsummary":7147,"Ġhampered":7148,"Ġinfluences":7149,"Ġrelief":7150,"Ġmissing":7151,"Ġinheriting":7152,"Ġprospects":7153,"Ġfeasibility":7154,"omsday":7155,"Ġsurgeon":7156,"makers":7157,"Ġbonus":7158,"ĠService":7159,"Ġreplacing":7160,"Ġconcentrate":7161,"ĠCitizens":7162,"ĠCorporation":7163,"Ġtragedy":7164,"Ġreputation":7165,"Ġwhereabouts":7166,"86":7167,"AT":7168,"Com":7169,"LE":7170,"PP":7171,"bin":7172,"cri":7173,"danger":7174,"gence":7175,"jID":7176,"ock":7177,"source":7178,"will":7179,"Ġsports":7180,"Ġcas":7181,"Ġwom":7182,"ician":7183,"Ġmiles":7184,"iled":7185,"Ġprohib":7186,"oto":7187,"otic":7188,"uting":7189,"uttle":7190,"owatt":7191,"ĠRen":7192,"ĠRisk":7193,"anted":7194,"aren":7195,"ively":7196,"unami":7197,"ĠMO":7198,"ĠMin":7199,"kept":7200,"ĠNam":7201,"ache":7202,"Ġresidential":7203,"Ġrank":7204,"ĠBro":7205,"ĠBell":7206,"ĠBCA":7207,"ĠGra":7208,"Ġsake":7209,"ĠDC":7210,"Ġunknown":7211,"ideos":7212,"comes":7213,"Ġdocu":7214,"Ġcareg":7215,"obiles":7216,"objID":7217,"Ġ36":7218,"Ġ37":7219,"ĠAny":7220,"Ġattached":7221,"Ġ514":7222,"Ġacceler":7223,"Ġtwice":7224,"ractical":7225,"Ġminority":7226,"Ġstudio":7227,"Ġescal":7228,"Ġassume":7229,"Ġ85":7230,"Ġpromises":7231,"Ġfacebook":7232,"Ġbackup":7233,"Ġprison":7234,"Ġconsequently":7235,"Ġreactivity":7236,"atories":7237,"Ġdetermin":7238,"Ġguide":7239,"Ġdisturb":7240,"Ġinteresting":7241,"Ġdisclosed":7242,"Ġautomatic":7243,"Ġreader":7244,"Ġdiscussion":7245,"Ġtargeted":7246,"Ġappropriately":7247,"Ġauthority":7248,"Ġvisual":7249,"singaporelocalnews":7250,"Ġmargin":7251,"liest":7252,"Ġcontroversies":7253,"Ġwisely":7254,"Ġparticipate":7255,"Ġphotos":7256,"reliance":7257,"Ġpictures":7258,"sciencedirect":7259,"Ġquantity":7260,"ĠProblems":7261,"straitstimes":7262,"ĠRussia":7263,"Ġoverwhelming":7264,"Ġlengthen":7265,"Ġcomprehensive":7266,"Content":7267,"Ġingredient":7268,"Ġembedded":7269,"Ġentrepreneurs":7270,"ĠRevisited":7271,"Ġdocument":7272,"fts":7273,"people":7274,"rity":7275,"sl":7276,"sm":7277,"ua":7278,"Ġtight":7279,"inct":7280,"Ġbill":7281,"lease":7282,"Ġmalf":7283,"Ġisland":7284,"idences":7285,"Ġnotes":7286,"ĠCreat":7287,"Ġimped":7288,"ĠPri":7289,"isted":7290,"ublishing":7291,"Ġvoid":7292,"Ġnewer":7293,"ĠUN":7294,"Ġemitted":7295,"Ġreluct":7296,"arded":7297,"Ġ2010":7298,"Ġposed":7299,"Ġundert":7300,"arked":7301,"Ġregulation":7302,"Ġregions":7303,"ĠDevelop":7304,"ĠResource":7305,"Ġfails":7306,"Ġchoosing":7307,"Ġpayment":7308,"ĠNewater":7309,"Ġbox":7310,"ĠConst":7311,"Ġlights":7312,"ĠAllen":7313,"Ġdistress":7314,"Ġshel":7315,"Ġworthwhile":7316,"Ġoutweighs":7317,"Ġhazards":7318,"Ġsubjected":7319,"Ġeye":7320,"Ġregularly":7321,"economic":7322,"Ġscreening":7323,"Ġincorporated":7324,"Ġmiddle":7325,"Ġexchange":7326,"ĠIncreasing":7327,"Ġentitled":7328,"Ġpiece":7329,"Ġpursue":7330,"Ab":7331,"An":7332,"Aging":7333,"IC":7334,"It":7335,"LC":7336,"LO":7337,"Very":7338,"cology":7339,"ebs":7340,"fan":7341,"hcf":7342,"iisme":7343,"ken":7344,"morrow":7345,"psychology":7346,"test":7347,"Ġ09":7348,"Ġtum":7349,"Ġpus":7350,"Ġpads":7351,"orient":7352,"Ġwat":7353,"edy":7354,"Ġfract":7355,"Ġfront":7356,"Ġbattle":7357,"Ġtomorrow":7358,"alination":7359,"Ġdry":7360,"Ġhomel":7361,"login":7362,"ĠTechnical":7363,"Ġlacking":7364,"ĠRose":7365,"Ġagricult":7366,"rap":7367,"Ġstick":7368,"Ġexten":7369,"Ġimpress":7370,"eopard":7371,"ignificant":7372,"ĠOpen":7373,"ĠEl":7374,"ander":7375,"ĠUlt":7376,"Ġlifelong":7377,"Ġoverhe":7378,"Ġjeopard":7379,"rown":7380,"ificance":7381,"Ġpartly":7382,"Ġacid":7383,"Ġoffset":7384,"Ġ99":7385,"Ġturns":7386,"Ġcontrols":7387,"Ġcentral":7388,"Ġpassport":7389,"Ġconflic":7390,"Ġexplode":7391,"Ġrestructure":7392,"Ġfoundation":7393,"percus":7394,"Ġpreparation":7395,"Ġoneself":7396,"Ġdeterminist":7397,"Ġsixty":7398,"Ġremaining":7399,"Ġ08":7400,"Ġnetworking":7401,"Ġlifestyles":7402,"erald":7403,"IFE":7404,"ĠOtherwise":7405,"Ġadvert":7406,"Ġchemically":7407,"shima":7408,"Ġrepair":7409,"moderated":7410,"Ġobserve":7411,"aidu":7412,"Ġnutrit":7413,"ĠScientific":7414,"Ġpainful":7415,"Ġremoval":7416,"Ġunsafe":7417,"Ġguidelines":7418,"Ġmeaningful":7419,"Ġwritten":7420,"Ġdestroy":7421,"ĠPresident":7422,"nytimes":7423,"ĠAnnual":7424,"ĠFunds":7425,"Ġpollutants":7426,"ĠBernhard":7427,"developed":7428,"ĠPaul":7429,"Ġelectromagnetic":7430,"bas":7431,"col":7432,"rance":7433,"Ġwestern":7434,"isons":7435,"Ġfat":7436,"Ġinappropri":7437,"Ġmix":7438,"Ġdrinking":7439,"Ġdivided":7440,"Ġrepercus":7441,"Ġgovern":7442,"ĠTH":7443,"ĠTom":7444,"etime":7445,"children":7446,"ĠIM":7447,"owers":7448,"irms":7449,"ucle":7450,"Ġenem":7451,"Ġheld":7452,"amples":7453,"ĠInf":7454,"quately":7455,"Ġincomes":7456,"Ġadding":7457,"Ġinterm":7458,"Ġpreval":7459,"Ġunit":7460,"earing":7461,"Ġaccidentally":7462,"Ġourselves":7463,"ensity":7464,"Ġconcluded":7465,"Ġpatents":7466,"Ġoffice":7467,"ĠComput":7468,"Ġmodified":7469,"Ġprompt":7470,"Ġconsumed":7471,"ĠMedicine":7472,"Ġimplants":7473,"Ġslowing":7474,"ĠExpenditure":7475,"Ġachievements":7476,"ediate":7477,"Ġneglecting":7478,"Ġfreely":7479,"Ġcontains":7480,"ĠEveryone":7481,"ĠDoomsday":7482,"Ġsensor":7483,"Ġstrengthen":7484,"Ġflexibility":7485,"Ġglobe":7486,"policy":7487,"Ġcategories":7488,"ĠKhal":7489,"Ġinexpensive":7490,"Ġvictims":7491,"Ġcorresponding":7492,"Ġinconven":7493,"Ġwithdraw":7494,"NR":7495,"PR":7496,"Power":7497,"WP":7498,"daily":7499,"future":7500,"iate":7501,"lia":7502,"paper":7503,"safety":7504,"uan":7505,"yle":7506,"income":7507,"inancing":7508,"Ġsides":7509,"Ġpip":7510,"iti":7511,"icing":7512,"Ġhouses":7513,"Ġren":7514,"Ġreap":7515,"sters":7516,"Ġ225":7517,"Ġdeaf":7518,"ĠRap":7519,"ĠHer":7520,"ureau":7521,"Ġstructures":7522,"Ġstructural":7523,"Ġcompens":7524,"Ġimpair":7525,"ĠWilli":7526,"ĠBureau":7527,"odes":7528,"ĠDen":7529,"Ġmaybe":7530,"archive":7531,"formed":7532,"ĠUse":7533,"ĠForrest":7534,"Ġarrange":7535,"olog":7536,"fullt":7537,"Ġrout":7538,"Ġpharm":7539,"Ġunderground":7540,"Ġpatent":7541,"Ġsignificance":7542,"ĠYap":7543,"Ġgreying":7544,"Ġmonop":7545,"merce":7546,"resistant":7547,"Ġperformed":7548,"Ġcompetent":7549,"Ġconsiderably":7550,"Ġenhances":7551,"Ġdecreased":7552,"ĠAmericans":7553,"Ġslowly":7554,"ĠActive":7555,"books":7556,"Ġautomobiles":7557,"Ġmorally":7558,"Ġcombat":7559,"ornl":7560,"Ġlocations":7561,"Ġconverted":7562,"Ġdrivers":7563,"Ġimplanting":7564,"ĠAdvantages":7565,"Generation":7566,"ĠOpposing":7567,"Ġcontained":7568,"Ġsecured":7569,"Ġmutated":7570,"Ġauthor":7571,"ĠFrank":7572,"Ġinitiative":7573,"ĠTechnological":7574,"surgery":7575,"Ġmusic":7576,"Ġbroadcast":7577,"Ġkilowatt":7578,"Ġprosperity":7579,"ĠAccessibility":7580,"ĠLimiting":7581,"Ġacquire":7582,"Ġmessage":7583,"Ġpumped":7584,"patient":7585,"Ġperceived":7586,"Ġsteady":7587,"STIStory":7588,"Ġwalking":7589,"ĠBonus":7590,"hcfinancing":7591,"fulltext":7592,"agine":7593,"efficiency":7594,"lar":7595,"nas":7596,"techn":7597,"zz":7598,"erate":7599,"Ġswe":7600,"oride":7601,"Ġwider":7602,"ctor":7603,"Ġnamed":7604,"stor":7605,"Ġproof":7606,"idering":7607,"Ġlone":7608,"ula":7609,"Ġenforced":7610,"aysi":7611,"raint":7612,"Ġheated":7613,"Ġcomment":7614,"Ġimagine":7615,"Ġchose":7616,"ĠOper":7617,"ĠGross":7618,"istor":7619,"conds":7620,"Ġprecious":7621,"Ġinnovators":7622,"Ġjet":7623,"Ġdecay":7624,"Ġadvancing":7625,"plan":7626,"Ġrob":7627,"Ġlowering":7628,"ĠProgress":7629,"Ġsignals":7630,"Ġtreating":7631,"Ġmeets":7632,"Ġalternate":7633,"Ġtagging":7634,"Ġplanet":7635,"Ġlighter":7636,"Ġtalking":7637,"Ġtherm":7638,"Ġforeigners":7639,"Ġaddressing":7640,"Ġmachin":7641,"Ġaimed":7642,"ĠEconomics":7643,"Ġfears":7644,"ĠConsidering":7645,"supp":7646,"Ġsensitive":7647,"Ġflawed":7648,"uffield":7649,"Ġunpredict":7650,"Ġdistributed":7651,"Ġfrequent":7652,"Ġarchitectural":7653,"ĠTele":7654,"ĠResearchers":7655,"Ġappliances":7656,"Ġunpredictable":7657,"110":7658,"76":7659,"GE":7660,"NE":7661,"ao":7662,"bide":7663,"dated":7664,"fa":7665,"fin":7666,"gb":7667,"ham":7668,"pet":7669,"pages":7670,"ta":7671,"xford":7672,"Ġtheoret":7673,"erry":7674,"enz":7675,"Ġcrow":7676,"anobot":7677,"Ġmat":7678,"Ġder":7679,"Ġdign":7680,"etter":7681,"ideop":7682,"Ġlens":7683,"ĠSP":7684,"ĠAN":7685,"ĠAut":7686,"Ġenrich":7687,"olen":7688,"ĠRem":7689,"ĠRights":7690,"ĠHiro":7691,"ram":7692,"Ġstro":7693,"Ġstolen":7694,"ĠCA":7695,"ĠCivil":7696,"ĠPass":7697,"access":7698,"acific":7699,"ĠBack":7700,"Ġchrom":7701,"Ġdesalination":7702,"ghr":7703,"Ġweigh":7704,"ventors":7705,"ĠVinci":7706,"ĠRetrived":7707,"Ġkilling":7708,"ĠSey":7709,"Ġrare":7710,"ĠAnalys":7711,"Ġcrash":7712,"Ġ44":7713,"Ġ48":7714,"Ġfee":7715,"Ġeverybody":7716,"Ġargues":7717,"ĠProponents":7718,"ĠYoutube":7719,"sequent":7720,"ternal":7721,"Ġreleases":7722,"Ġorganis":7723,"Ġcompleted":7724,"handbook":7725,"Ġallocating":7726,"Ġstressed":7727,"Ġsubstit":7728,"Ġsubstance":7729,"ĠCompar":7730,"Ġconverting":7731,"medical":7732,"Ġbalanced":7733,"Ġcollabor":7734,"Ġmotion":7735,"Ġcircle":7736,"Ġadvertise":7737,"Ġbridge":7738,"bridge":7739,"ENT":7740,"rounds":7741,"ĠImpro":7742,"Ġlaboratories":7743,"Ġindicate":7744,"blogs":7745,"ĠVolume":7746,"Ġtransferred":7747,"parentid":7748,"Ġprecaution":7749,"ĠCollege":7750,"Ġdetails":7751,"Ġuncertainty":7752,"Ġpicture":7753,"Ġsurprising":7754,"Ġextracted":7755,"ĠAndrew":7756,"Ġdescribed":7757,"Ġtroubles":7758,"ĠParkinson":7759,"Ġcandid":7760,"Ġmalfunction":7761,"About":7762,"Ġprevalent":7763,"Ġ2251":7764,"Ġlonely":7765,"Ġdignity":7766,"ĠHiroshima":7767,"cue":7768,"kes":7769,"liness":7770,"pre":7771,"Ġail":7772,"inate":7773,"Ġsch":7774,"orial":7775,"Ġwall":7776,"eds":7777,"Ġtoward":7778,"Ġmarriage":7779,"Ġrevel":7780,"sec":7781,"oting":7782,"ĠSchool":7783,"oles":7784,"Ġsuns":7785,"ares":7786,"unct":7787,"Ġimag":7788,"ĠWhe":7789,"oses":7790,"quest":7791,"Ġsegment":7792,"Ġmanagers":7793,"Ġgenetics":7794,"Ġfinds":7795,"Ġindis":7796,"alled":7797,"Ġfamine":7798,"aceut":7799,"Ġlifetime":7800,"Ġamen":7801,"Ġbuff":7802,"ĠRec":7803,"Ġnobody":7804,"Ġparticles":7805,"Ġretail":7806,"cked":7807,"ĠIntellig":7808,"position":7809,"Ġmodification":7810,"Ġconsume":7811,"ĠManagement":7812,"Ġsustained":7813,"Ġnegatively":7814,"reening":7815,"Ġdisclosing":7816,"Ġinstallation":7817,"ĠNov":7818,"Ġdestruct":7819,"Ġcomparable":7820,"Ġcultural":7821,"Ġinjury":7822,"Ġaccompl":7823,"Ġengage":7824,"Ġpurchasing":7825,"Ġcollected":7826,"Ġadversely":7827,"Ġmuscle":7828,"ĠServices":7829,"Ġturbines":7830,"Ġthorium":7831,"Ġsacrifice":7832,"Ġunwilling":7833,"Ġdedicated":7834,"Ġstreets":7835,"ĠIndividuals":7836,"83":7837,"AV":7838,"CS":7839,"Group":7840,"eches":7841,"gl":7842,"gone":7843,"gans":7844,"iencies":7845,"jp":7846,"lor":7847,"live":7848,"magazine":7849,"name":7850,"oC":7851,"post":7852,"pace":7853,"parents":7854,"successful":7855,"wr":7856,"Ġtiny":7857,"Ġspecially":7858,"Ġskept":7859,"esa":7860,"eschede":7861,"Ġwars":7862,"eding":7863,"anford":7864,"Ġfa":7865,"Ġfi":7866,"level":7867,"Ġmer":7868,"Ġdy":7869,"Ġreb":7870,"Ġlic":7871,"otes":7872,"ĠSy":7873,"irtual":7874,"Ġcongest":7875,"olars":7876,"ĠHop":7877,"Ġagreed":7878,"Ġhear":7879,"Ġheating":7880,"than":7881,"ĠCode":7882,"ĠMy":7883,"ĠMOM":7884,"ĠFood":7885,"atever":7886,"ĠNum":7887,"ĠPaper":7888,"acu":7889,"Ġdisability":7890,"Ġdisplay":7891,"Ġric":7892,"osh":7893,"Ġlogical":7894,"Ġunauth":7895,"Ġvary":7896,"Ġrelating":7897,"hta":7898,"Ġoutcomes":7899,"Ġcareless":7900,"Ġinnovate":7901,"Ġapparent":7902,"Ġbenefited":7903,"2001":7904,"google":7905,"Ġrequiring":7906,"ĠKLM":7907,"ĠStat":7908,"ocol":7909,"Ġ56":7910,"Ġsubsequent":7911,"Ġconstraint":7912,"Ġdifferently":7913,"Ġnecessities":7914,"Ġlooks":7915,"Ġ1988":7916,"Ġfamiliar":7917,"SRC":7918,"Ġdealt":7919,"Ġsimilarity":7920,"spot":7921,"Ġautomated":7922,"Ġdamaged":7923,"Ġnetworks":7924,"ĠMehta":7925,"Ġbreakdown":7926,"Ġestablishing":7927,"Ġsurely":7928,"commission":7929,"Ġcultiv":7930,"Ġholds":7931,"ARS":7932,"Ġretrieve":7933,"ĠCogeneration":7934,"reactors":7935,"Ġultimate":7936,"pox":7937,"ĠCarl":7938,"Ġobviously":7939,"Ġsickness":7940,"Ġseparate":7941,"ĠEmployers":7942,"Ġevaluate":7943,"momportal":7944,"ĠLikewise":7945,"Ġtrigger":7946,"uploadfile":7947,"Ġvoice":7948,"Ġscenario":7949,"Ġbacteria":7950,"Ġpermanent":7951,"Ġmelting":7952,"Ġnewspaper":7953,"international":7954,"Breaking":7955,"Ġhomeless":7956,"ĠUltimately":7957,"ĠRapid":7958,"nasa":7959,"ĠSeyyed":7960,"Sh":7961,"TH":7962,"UC":7963,"cr":7964,"wing":7965,"Ġvent":7966,"ica":7967,"Ġmil":7968,"Ġdying":7969,"Ġnaturally":7970,"Ġrepro":7971,"Ġreading":7972,"ĠTr":7973,"ĠTu":7974,"Ġproponents":7975,"ĠAT":7976,"Ġstairs":7977,"ĠMer":7978,"ĠMem":7979,"ĠMartin":7980,"ĠNob":7981,"ains":7982,"ĠWhere":7983,"ĠBFA":7984,"ĠGEN":7985,"Ġplenty":7986,"Ġseconds":7987,"ĠLearning":7988,"Ġkill":7989,"Ġcarries":7990,"sile":7991,"geries":7992,"pectives":7993,"ĠGene":7994,"ĠKe":7995,"Ġinventor":7996,"worth":7997,"Ġsimultaneously":7998,"Ġregion":7999,"Ġbasically":8000,"Ġcoating":8001,"Ġpressures":8002,"Ġperforming":8003,"Ġglobalization":8004,"Ġspeech":8005,"coal":8006,"Ġplanes":8007,"Ġutmost":8008,"Ġpromoted":8009,"Ġplacing":8010,"Ġlosses":8011,"Ġattracting":8012,"Ġopposed":8013,"Ġskunkwork":8014,"Ġanalyzed":8015,"Ġannually":8016,"Ġwait":8017,"Ġdeteriorate":8018,"Ġfeedback":8019,"Ġoccupational":8020,"Ġqualified":8021,"Ġintrusion":8022,"Ġgranted":8023,"Ġpriorit":8024,"Ġrestrictions":8025,"Ġdominant":8026,"Ġrigid":8027,"Ġnegligence":8028,"amilies":8029,"ĠBasically":8030,"Ġordinary":8031,"Ġranked":8032,"aceutical":8033,"Ġamenities":8034,"85":8035,"AM":8036,"Con":8037,"SA":8038,"bur":8039,"band":8040,"bted":8041,"cnet":8042,"mc":8043,"pb":8044,"ris":8045,"special":8046,"sunami":8047,"tour":8048,"uous":8049,"yl":8050,"Ġtension":8051,"Ġaro":8052,"information":8053,"reuters":8054,"erife":8055,"Ġsil":8056,"ati":8057,"Ġox":8058,"Ġwel":8059,"edious":8060,"rops":8061,"ils":8062,"Ġgame":8063,"ĠTerror":8064,"ĠTata":8065,"change":8066,"Ġproposal":8067,"sey":8068,"ĠSomet":8069,"ĠIBM":8070,"ulc":8071,"nthes":8072,"Ġwhatever":8073,"Ġwithhold":8074,"umps":8075,"overview":8076,"ĠNond":8077,"ĠPe":8078,"ĠPublishing":8079,"Ġrural":8080,"ĠEldershield":8081,"ĠGer":8082,"Ġsaw":8083,"Ġadminist":8084,"Ġloop":8085,"ourney":8086,"ĠLim":8087,"ĠLight":8088,"Ġdoc":8089,"Ġrain":8090,"Ġsomehow":8091,"Ġbuying":8092,"Ġnoise":8093,"obs":8094,"fully":8095,"eping":8096,"genIV":8097,"Ġ49":8098,"owned":8099,"Ġlowered":8100,"Ġundergone":8101,"others":8102,"Ġ64":8103,"aki":8104,"Ġcitation":8105,"Ġpoison":8106,"Ġrealise":8107,"Ġrecre":8108,"Ġteen":8109,"Ġpresident":8110,"cohost":8111,"208":8112,"Ġthreatening":8113,"Ġprogression":8114,"Ġ03":8115,"Ġconductor":8116,"Ġprofessor":8117,"Ġmisunder":8118,"Ġsatell":8119,"ĠBook":8120,"ĠArt":8121,"Ġstopped":8122,"Ġenhancement":8123,"Ġobjects":8124,"Ġbehaviours":8125,"ĠMalaysi":8126,"Ġmindsets":8127,"Ġconnection":8128,"Ġfulfilling":8129,"ĠRoger":8130,"Ġshuttle":8131,"Ġimmigration":8132,"Ġantibi":8133,"Ġkids":8134,"productive":8135,"ught":8136,"Ġsurroundings":8137,"ĠPatients":8138,"Ġillustrate":8139,"Ġhindered":8140,"iarism":8141,"Ġjudge":8142,"communication":8143,"Ġdrastic":8144,"Ġblocks":8145,"________":8146,"Ġkidnapping":8147,"ĠSubsequently":8148,"Intro":8149,"ĠHeartmate":8150,"ĠProfessor":8151,"Ġrule":8152,"default":8153,"Ġfarmers":8154,"gmatic":8155,"Ġparks":8156,"railfan":8157,"ĠMicrosoft":8158,"Ġmitig":8159,"Ġcasual":8160,"Ġwoman":8161,"ebscohost":8162,"Ġrender":8163,"Ġroutine":8164,"ideophone":8165,"Ġricher":8166,"ĠSometimes":8167,"ĠNondiscrimination":8168,"ement":8169,"fired":8170,"mail":8171,"older":8172,"sight":8173,"sufficient":8174,"yal":8175,"Ġiron":8176,"Ġsight":8177,"Ġsilver":8178,"Ġpul":8179,"itle":8180,"Ġmission":8181,"Ġdrink":8182,"loads":8183,"Ġonset":8184,"ĠSelf":8185,"ĠRa":8186,"Ġimpose":8187,"ĠEv":8188,"ĠDet":8189,"elling":8190,"Ġupcoming":8191,"Ġsupplements":8192,"Ġsurgeries":8193,"Ġexamine":8194,"Ġinnovating":8195,"ĠEncyclopedia":8196,"ĠKey":8197,"Ġquarter":8198,"Ġspreading":8199,"Ġcontinual":8200,"Ġsection":8201,"Ġrealistic":8202,"Ġdivers":8203,"Ġrecu":8204,"Ġsending":8205,"Ġimmense":8206,"Ġchallenging":8207,"Ġestate":8208,"Ġflight":8209,"Ġorganized":8210,"Ġaddresses":8211,"Ġethics":8212,"Ġleaking":8213,"Ġanalyse":8214,"Ġdeliver":8215,"Ġtackling":8216,"Ġprimarily":8217,"ARP":8218,"Ġtrends":8219,"Ġclassified":8220,"Ġsubjects":8221,"ĠLooking":8222,"point":8223,"Ġshutdown":8224,"ĠHelp":8225,"Ġseparated":8226,"Ġencountered":8227,"Ġsoldiers":8228,"ĠRegulatory":8229,"Ġranging":8230,"Ġdeprived":8231,"Ġhackers":8232,"ĠDomestic":8233,"Ġcatastrophe":8234,"Ġincapable":8235,"Ġinappropriate":8236,"Ġrevelation":8237,"Ac":8238,"FP":8239,"Lee":8240,"TO":8241,"View":8242,"WS":8243,"ahead":8244,"detail":8245,"eem":8246,"eia":8247,"gal":8248,"nes":8249,"polit":8250,"rist":8251,"scient":8252,"text":8253,"ued":8254,"your":8255,"youtube":8256,"Ġ@":8257,"ĠĊ":8258,"Ġtedious":8259,"heed":8260,"inics":8261,"reference":8262,"Ġsul":8263,"atric":8264,"Ġfirms":8265,"Ġdensity":8266,"oubted":8267,"ĠTime":8268,"Ġprop":8269,"ĠSM":8270,"ĠSources":8271,"ĠSource":8272,"irit":8273,"Ġdecommission":8274,"ullet":8275,"action":8276,"Ġsuicide":8277,"ĠHen":8278,"ĠHong":8279,"ĠHave":8280,"Ġheavi":8281,"eliver":8282,"ĠMW":8283,"aded":8284,"Ġorgans":8285,"ĠWest":8286,"inearticles":8287,"society":8288,"ĠGSRC":8289,"Ġdeserves":8290,"ultation":8291,"ĠDonald":8292,"ptember":8293,"vents":8294,"ĠVar":8295,"ĠLow":8296,"ĠList":8297,"ĠLeg":8298,"ĠItaly":8299,"Ġelectro":8300,"Ġarri":8301,"ĠAlan":8302,"enders":8303,"Ġunderlying":8304,"ĠPros":8305,"pendix":8306,"anny":8307,"Ġhandled":8308,"Ġdemanding":8309,"ĠIntro":8310,"rounded":8311,"Ġreference":8312,"Ġremark":8313,"ronics":8314,"Ġexpectations":8315,"Ġpreserve":8316,"topics":8317,"Ġinterference":8318,"ĠConference":8319,"Ġforesee":8320,"Ġexplosive":8321,"3010":8322,"Ġscope":8323,"119":8324,"bsites":8325,"Ġthreaten":8326,"Ġavoiding":8327,"Ġlearnt":8328,"hesive":8329,"Ġparad":8330,"Ġleaves":8331,"ĠPlutonium":8332,"Ġwarfarin":8333,"ĠCommunityPage":8334,"Ġenabled":8335,"Ġlaboratory":8336,"Ġearthqu":8337,"singaporebudget":8338,"Ġsensors":8339,"Ġultra":8340,"ĠClimate":8341,"ĠCarbon":8342,"Ġbiological":8343,"Ġfavour":8344,"Ġdepressed":8345,"ĠPrevention":8346,"Ġcoping":8347,"Ġhinders":8348,"itizen":8349,"Ġconsistent":8350,"Ġredundant":8351,"Ġcategory":8352,"Ġdeficit":8353,"Ġexecut":8354,"ĠDefense":8355,"Ġdiscourage":8356,"Ġanticipated":8357,"Ġinfections":8358,"Ġappreciate":8359,"Ġbroken":8360,"Ġhabits":8361,"ĠMotors":8362,"ĠPoly":8363,"Ġcontracting":8364,"Ġinstruments":8365,"ammad":8366,"Document":8367,"Ġhandicapped":8368,"Ġstraight":8369,"Ġpragmatic":8370,"ufl":8371,"Ġconservative":8372,"ĠIntegrated":8373,"ĠMOH":8374,"Ġreluctant":8375,"oriented":8376,"Ġwatched":8377,"liament":8378,"anobots":8379,"Ġchromos":8380,"oubtedly":8381,"ulletin":8382,"Ġheavier":8383,"New":8384,"RP":8385,"fty":8386,"ktop":8387,"ole":8388,"rates":8389,"tons":8390,"Ġtissues":8391,"insp":8392,"Ġwave":8393,"Ġinability":8394,"ales":8395,"icators":8396,"Ġdire":8397,"Ġnucle":8398,"Ġrehab":8399,"Ġgross":8400,"Ġgathe":8401,"eting":8402,"ĠAlex":8403,"rible":8404,"Ġhefty":8405,"ĠCase":8406,"amination":8407,"ortality":8408,"ĠMas":8409,"ĠMult":8410,"ĠEach":8411,"Ġsequ":8412,"ework":8413,"ĠVal":8414,"Ġsystematic":8415,"Ġthanks":8416,"Ġexaminations":8417,"enda":8418,"Ġwastage":8419,"rained":8420,"Ġminimizing":8421,"Ġsalaries":8422,"Ġinterf":8423,"Ġconfident":8424,"Ġessentially":8425,"Ġmedications":8426,"ĠExaggerated":8427,"Ġachievement":8428,"Ġdamages":8429,"Ġcontinuing":8430,"Ġemphasized":8431,"Ġobjectives":8432,"Ġpersist":8433,"Ġignor":8434,"Ġvirt":8435,"carbon":8436,"ĠOrganisation":8437,"Ġinstitutes":8438,"Ġyouths":8439,"Ġrecorded":8440,"Ġfluoride":8441,"Ġstrike":8442,"Ġguidance":8443,"Ġscarce":8444,"educated":8445,"Ġfunctionality":8446,"Ġslightly":8447,"ĠTourism":8448,"Ġlongevity":8449,"Ġneighbourhood":8450,"ĠAffairs":8451,"Ġimpede":8452,"Ġextending":8453,"ĠComputer":8454,"Ġorganisations":8455,"Ġdestructive":8456,"Ġrehabilit":8457,"Ġgathered":8458,"120":8459,"96":8460,"BNews":8461,"IM":8462,"KH":8463,"NST":8464,"Su":8465,"ae":8466,"clopedia":8467,"dy":8468,"five":8469,"fast":8470,"fidential":8471,"ga":8472,"journals":8473,"nr":8474,"natural":8475,"poll":8476,"silver":8477,"tab":8478,"trans":8479,"Ġtert":8480,"Ġtanks":8481,"Ġtsunami":8482,"heart":8483,"Ġaviation":8484,"erpr":8485,"orig":8486,"Ġwages":8487,"Ġfem":8488,"Ġbanning":8489,"alo":8490,"ican":8491,"Ġmould":8492,"Ġmish":8493,"aract":8494,"Ġnitro":8495,"ili":8496,"ĠTay":8497,"etts":8498,"seen":8499,"Ġlig":8500,"url":8501,"otechnology":8502,"opic":8503,"ersion":8504,"ĠClo":8505,"ĠCensus":8506,"ivision":8507,"usetts":8508,"ĠMoh":8509,"actory":8510,"ĠPosition":8511,"Ġdischar":8512,"ĠBig":8513,"sole":8514,"ĠEnt":8515,"Ġusable":8516,"Ġsex":8517,"Ġunits":8518,"ventions":8519,"forum":8520,"Ġvideos":8521,"commerce":8522,"oung":8523,"Ġrises":8524,"Ġ2040":8525,"encyclopedia":8526,"Ġjourney":8527,"Ġbenefic":8528,"ĠRelease":8529,"plications":8530,"Ġ38":8531,"Ġoperator":8532,"Ġcrude":8533,"phones":8534,"Ġanytime":8535,"achusetts":8536,"central":8537,"proof":8538,"protect":8539,"Ġconstit":8540,"Ġearliest":8541,"Ġ1991":8542,"Ġclinical":8543,"Ġtransmit":8544,"Ġcold":8545,"Ġcogn":8546,"Ġrefuel":8547,"Ġmarkets":8548,"sider":8549,"ĠMedia":8550,"Ġhospitalization":8551,"ĠUSD":8552,"Ġ1984":8553,"Ġdetermining":8554,"Ġendless":8555,"Ġmedicines":8556,"egroup":8557,"Ġreaders":8558,"Ġadvantageous":8559,"Ġimplantable":8560,"ĠAssociated":8561,"Ġwrite":8562,"what":8563,"doctor":8564,"Ġincentive":8565,"Ġcolle":8566,"ENCE":8567,"Ġconveniently":8568,"ĠGrant":8569,"Ġholding":8570,"ĠWarfarin":8571,"ovrc":8572,"Ġpanel":8573,"Ġdeterioration":8574,"economist":8575,"Ġdeficiency":8576,"Ġpartially":8577,"Ġsurprise":8578,"Ġbooks":8579,"Ġdeadly":8580,"Ġchatting":8581,"ezinearticles":8582,"ĠMassachusetts":8583,"Ġcomplain":8584,"ĠLinux":8585,"Ġhurt":8586,"Ġpremiums":8587,"Ġdropped":8588,"ĠOpenDocument":8589,"Ġconflicts":8590,"Ġintermediate":8591,"WPDis":8592,"Ġimpairment":8593,"ĠSPUR":8594,"Ġscholars":8595,"tourist":8596,"galegroup":8597,"Ġtertiary":8598,"95":8599,"TS":8600,"cre":8601,"eas":8602,"gs":8603,"nelled":8604,"oon":8605,"Ġrough":8606,"ino":8607,"rey":8608,"reet":8609,"Ġsle":8610,"Ġcures":8611,"Ġpic":8612,"Ġwo":8613,"Ġtoll":8614,"icy":8615,"Ġang":8616,"Ġlines":8617,"ĠIphone":8618,"ĠHum":8619,"Ġnoticed":8620,"Ġsharp":8621,"ĠMA":8622,"ĠFederal":8623,"ĠThanks":8624,"bled":8625,"ĠEver":8626,"Ġadministration":8627,"Ġcomplications":8628,"Ġmanaging":8629,"Ġletting":8630,"Ġsafest":8631,"abil":8632,"Ġmedium":8633,"Ġpolices":8634,"rench":8635,"Ġinstruct":8636,"Ġspaces":8637,"Ġchannelled":8638,"aker":8639,"lihood":8640,"views":8641,"Ġretirees":8642,"ĠTogether":8643,"Ġowner":8644,"Ġreminder":8645,"Ġmodifications":8646,"Ġherself":8647,"ronary":8648,"Ġrecruit":8649,"Ġconfirm":8650,"Ġlivelihood":8651,"Ġexisted":8652,"Ġstresses":8653,"ĠComparing":8654,"144":8655,"Ġcovers":8656,"Ġcomfortably":8657,"Ġselection":8658,"healthy":8659,"Ġrestriction":8660,"Ġintegrity":8661,"Ġcircu":8662,"genetics":8663,"ĠDoes":8664,"Ġindicated":8665,"ĠCoal":8666,"Ġsuspects":8667,"Ġinstitution":8668,"Ġdeteriorating":8669,"ĠChallenges":8670,"Ġkilomet":8671,"Reserved":8672,"Ġexhausted":8673,"Ġbusy":8674,"Ġstruggle":8675,"Ġacknowledge":8676,"Ġwitnessed":8677,"Ġmoderator":8678,"ĠMajor":8679,"Ġbegun":8680,"Ġnavigation":8681,"ĠSweden":8682,"ĠUniversal":8683,"Ġdictronary":8684,"Ġshelter":8685,"Ġpushed":8686,"Ġrepercussions":8687,"ĠTHE":8688,"Ġpharmaceutical":8689,"74":8690,"78":8691,"CN":8692,"EM":8693,"NP":8694,"RO":8695,"There":8696,"bit":8697,"bca":8698,"cs":8699,"cars":8700,"deliver":8701,"hr":8702,"ibl":8703,"ibrary":8704,"night":8705,"ractors":8706,"sub":8707,"salt":8708,"vesting":8709,"ype":8710,"erts":8711,"Ġsess":8712,"Ġslop":8713,"Ġple":8714,"isure":8715,"itage":8716,"anies":8717,"Ġfruit":8718,"Ġbott":8719,"Ġtown":8720,"Ġhor":8721,"Ġhards":8722,"Ġeating":8723,"Ġnin":8724,"Ġnus":8725,"ilight":8726,"losure":8727,"Ġisot":8728,"start":8729,"cek":8730,"opia":8731,"option":8732,"ĠRBM":8733,"Ġaggra":8734,"iful":8735,"Ġstig":8736,"thrit":8737,"Ġship":8738,"ĠCR":8739,"ĠCore":8740,"ĠCam":8741,"ĠCamer":8742,"apy":8743,"ĠMent":8744,"Ġimplic":8745,"ĠPar":8746,"ĠBen":8747,"ĠEJ":8748,"ĠGoh":8749,"Ġweek":8750,"ĠDu":8751,"ptions":8752,"Ġabund":8753,"Ġmanual":8754,"comfort":8755,"ĠVirtual":8756,"ĠLift":8757,"Ġleisure":8758,"ĠRetrieve":8759,"ystic":8760,"riched":8761,"ĠJur":8762,"Ġ2025":8763,"Ġinvades":8764,"Ġinvaded":8765,"Ġdecides":8766,"ĠChange":8767,"Ġ34":8768,"ĠWithin":8769,"genome":8770,"ckheed":8771,"Ġwasted":8772,"Ġpersonally":8773,"expenditure":8774,"aws":8775,"Ġsky":8776,"Ġcoord":8777,"Ġinsignificant":8778,"deep":8779,"Ġmarketed":8780,"ĠResort":8781,"Ġfailing":8782,"nucleartourist":8783,"Ġsmallpox":8784,"502050":8785,"Ġphysician":8786,"Ġvalve":8787,"Ġconvention":8788,"Ġtaxation":8789,"Ġsuffers":8790,"Ġsuffered":8791,"Ġaccepting":8792,"space":8793,"docId":8794,"Ġemerged":8795,"ĠShuttle":8796,"worldageing":8797,"Ġaccordingly":8798,"19502050":8799,"scwr":8800,"Ġattracted":8801,"Ġlands":8802,"ĠCompanies":8803,"Ġcataract":8804,"pson":8805,"Ġimplantation":8806,"157":8807,"Ġteams":8808,"GenIV":8809,"Ġreprocessed":8810,"Ġcontaining":8811,"contentS":8812,"Ġinstalling":8813,"Ġdrawn":8814,"Ġcollision":8815,"Ġbrilli":8816,"asiaone":8817,"ĠApplied":8818,"Ġintegral":8819,"Ġcultures":8820,"Ġaccompan":8821,"Ġsearching":8822,"genetictesting":8823,"Ġappears":8824,"Ġsubstantially":8825,"blogspot":8826,"Report":8827,"Ġirrespon":8828,"Ġembra":8829,"ĠPrep":8830,"Ġarticles":8831,"Ġinvolvement":8832,"Ġretaining":8833,"ĠDisaster":8834,"ĠEdison":8835,"Ġpushing":8836,"ĠObama":8837,"Ġevaluation":8838,"parentname":8839,"Ġprosperous":8840,"ĠAssess":8841,"userGroup":8842,"Ġsunlight":8843,"Ġdestroyed":8844,"communities":8845,"--------":8846,"ĠYears":8847,"Ġsafeguard":8848,"Ġcriticism":8849,"hopal":8850,"brosis":8851,"ĠTenerife":8852,"ĠThomas":8853,"ĠProtection":8854,"ĠViewpoints":8855,"Ġguilty":8856,"ĠUsually":8857,"Ġnutrition":8858,"enza":8859,"Ġbuffer":8860,"Ġcongestion":8861,"ĠHopefully":8862,"Ġcarelessness":8863,"Ġnitrogen":8864,"deliverables":8865,"Ġnusself":8866,"ĠRBMK":8867,"Ġabundance":8868,"Ġbrilliant":8869,"userGroupN":8870,"aired":8871,"dri":8872,"hus":8873,"miss":8874,"rid":8875,"sort":8876,"td":8877,"uw":8878,"Ġter":8879,"Ġtissue":8880,"inated":8881,"orous":8882,"anch":8883,"ancies":8884,"Ġfell":8885,"Ġfab":8886,"Ġfusion":8887,"Ġdimin":8888,"arrow":8889,"ĠTreat":8890,"eton":8891,"stic":8892,"igm":8893,"otel":8894,"ĠSun":8895,"ĠAged":8896,"Ġstar":8897,"eline":8898,"eliness":8899,"empl":8900,"ĠColl":8901,"ivered":8902,"Ġdisrupt":8903,"ĠBarrier":8904,"ĠOF":8905,"Ġdesktop":8906,"Ġrelax":8907,"Ġ32":8908,"Ġlessons":8909,"pendent":8910,"ourable":8911,"ĠSoci":8912,"Ġinsist":8913,"Ġhypert":8914,"Ġputs":8915,"Ġentering":8916,"Ġfeelings":8917,"Ġminimizes":8918,"Ġinterface":8919,"ortunate":8920,"Ġ--":8921,"Ġforecast":8922,"Ġprud":8923,"Ġfamilial":8924,"Ġplayers":8925,"board":8926,"Ġencouragement":8927,"Ġprogressing":8928,"Ġpresented":8929,"Ġemerging":8930,"ĠSharing":8931,"ĠSuper":8932,"processing":8933,"Ġdebated":8934,"Ġbehaviors":8935,"Ġcollap":8936,"Ġintegrate":8937,"Ġdelivered":8938,"Ġunfortunate":8939,"Ġerad":8940,"ĠEverything":8941,"Ġchecks":8942,"Ġinertia":8943,"Ġperfectly":8944,"Ġstores":8945,"ĠPatrick":8946,"Ġcommitment":8947,"Ġbelongs":8948,"Ġrejected":8949,"designed":8950,"Ġfatalities":8951,"Ġasked":8952,"Ġmessages":8953,"Ġanticipate":8954,"Ġfavorable":8955,"Ġlanguages":8956,"Ġinsurers":8957,"Ġfortun":8958,"ĠPsycholog":8959,"Ġtoilets":8960,"Ġfertilization":8961,"Ġailments":8962,"Ġimagination":8963,"Ġmisunderstanding":8964,"Ġrecuperate":8965,"ĠAlexander":8966,"Barrier":8967,"FER":8968,"LA":8969,"Or":8970,"QK":8971,"SI":8972,"Web":8973,"ba":8974,"bul":8975,"eh":8976,"euro":8977,"europe":8978,"events":8979,"flow":8980,"iaries":8981,"jz":8982,"ki":8983,"met":8984,"may":8985,"million":8986,"media":8987,"making":8988,"src":8989,"turing":8990,"technical":8991,"ycar":8992,"Ġ>":8993,"Ġties":8994,"inis":8995,"innov":8996,"eries":8997,"oning":8998,"only":8999,"onik":9000,"Ġsibl":9001,"Ġcaught":9002,"Ġpand":9003,"oral":9004,"Ġfoster":9005,"Ġtomat":9006,"iche":9007,"icon":9008,"icapp":9009,"Ġhide":9010,"Ġhub":9011,"asaki":9012,"Ġrecon":9013,"Ġthick":9014,"logy":9015,"ĠTech":9016,"ĠTren":9017,"ĠTai":9018,"etooth":9019,"Ġlived":9020,"igration":9021,"ores":9022,"ĠSeveral":9023,"ĠIran":9024,"illa":9025,"ucs":9026,"ĠAD":9027,"ĠRob":9028,"think":9029,"ĠCH":9030,"amp":9031,"ĠMeg":9032,"Ġimages":9033,"Ġimperative":9034,"Ġimpractical":9035,"ĠNation":9036,"ĠNag":9037,"ĠPA":9038,"ĠWill":9039,"ĠWang":9040,"ĠWiley":9041,"Ġeldercare":9042,"Ġrational":9043,"ĠBill":9044,"ĠBog":9045,"ĠBetter":9046,"osis":9047,"ĠEffect":9048,"ĠDivision":9049,"Ġvap":9050,"ĠLS":9051,"ĠLIFE":9052,"vens":9053,"Ġouter":9054,"Ġoutdated":9055,"ĠFord":9056,"Ġarthrit":9057,"olos":9058,"enefits":9059,"Ġimprov":9060,"Ġpartner":9061,"Ġ43":9062,"ĠKong":9063,"Ġquoted":9064,"assets":9065,"Ġ67":9066,"Ġ52":9067,"Ġ53":9068,"Ġ54":9069,"prof":9070,"Ġfirstly":9071,"Ġtransmission":9072,"awa":9073,"Ġcoated":9074,"Ġmode":9075,"Ġpromise":9076,"Ġ900":9077,"Ġequival":9078,"Ġminimise":9079,"Ġconfron":9080,"Ġexplosions":9081,"Ġcommunications":9082,"Ġaided":9083,"Ġsustaining":9084,"Ġhardware":9085,"Ġcontributors":9086,"Ġdiscriminate":9087,"Ġthreatened":9088,"ecolo":9089,"Ġdistinct":9090,"Ġpollute":9091,"ĠFinancing":9092,"Ġthermo":9093,"ahn":9094,"Ġtopics":9095,"Ġ05":9096,"333":9097,"Ġcharged":9098,"Ġdriver":9099,"Ġstepped":9100,"Ġweaker":9101,"Ġsatisfying":9102,"Ġlocals":9103,"Ġworthy":9104,"rfidjournal":9105,"Ġfulfil":9106,"ĠAppro":9107,"ĠOverall":9108,"Ġmutual":9109,"Energy":9110,"ĠSolutions":9111,"ĠTransit":9112,"ĠSeniors":9113,"ĠMcC":9114,"Ġfairly":9115,"Art":9116,"Ġkilo":9117,"ĠPercy":9118,"ĠPerhaps":9119,"ĠGreenpeace":9120,"ĠAccessed":9121,"education":9122,"Ġcounselling":9123,"fuels":9124,"speed":9125,"Ġdelayed":9126,"................":9127,"ĠModel":9128,"Ġownership":9129,"Ġbeliefs":9130,"Ġabsolutely":9131,"Ġcomprises":9132,"Ġevolved":9133,"prodId":9134,"ĠDeclan":9135,"ĠBlack":9136,"Ġpebble":9137,"ncbi":9138,"abstracts":9139,"Ġeligible":9140,"Ġillegal":9141,"Ġrectify":9142,"ĠDeveloping":9143,"Ġoverheating":9144,"Ġrestructured":9145,"basics":9146,"ĠAnalysis":9147,"Ġdynamic":9148,"Ġunauthorized":9149,"ĠTucek":9150,"ĠWhereas":9151,"Ġrecreational":9152,"Ġantibiotic":9153,"Ġcasualties":9154,"Ġdecommissioning":9155,"ĠHenry":9156,"Ġremarkable":9157,"inspi":9158,"NSTL":9159,"Ġrefueling":9160,"ĠJurong":9161,"contentSet":9162,"ĠPreparing":9163,"FERENCE":9164,"inisnkm":9165,"onikolos":9166,"Ġtomato":9167,"ĠBogonikolos":9168,"CC":9169,"aments":9170,"fare":9171,"final":9172,"gments":9173,"lon":9174,"natal":9175,"pons":9176,"rust":9177,"inity":9178,"Ġsizes":9179,"Ġpir":9180,"Ġfill":9181,"Ġble":9182,"Ġbars":9183,"Ġmiss":9184,"Ġnarrow":9185,"asons":9186,"Ġreverse":9187,"ilt":9188,"Ġbeaut":9189,"Ġgi":9190,"etus":9191,"ster":9192,"urious":9193,"ĠSci":9194,"rian":9195,"ĠRather":9196,"Ġalarming":9197,"ĠHis":9198,"Ġshop":9199,"unity":9200,"ĠFamilies":9201,"ĠNatural":9202,"ĠProm":9203,"ĠPred":9204,"ĠPolit":9205,"ĠWatch":9206,"Ġchief":9207,"ĠOxford":9208,"Ġcountless":9209,"Ġusages":9210,"ĠDictionary":9211,"Ġintent":9212,"Ġknew":9213,"Ġemits":9214,"Ġsupplement":9215,"ĠJul":9216,"plete":9217,"Ġbuttons":9218,"Ġrisen":9219,"Ġcommittee":9220,"Ġrod":9221,"Ġround":9222,"Ġphr":9223,"Ġspons":9224,"ceptions":9225,"aken":9226,"Ġoffices":9227,"Ġtransit":9228,"away":9229,"Ġjustify":9230,"Ġinsp":9231,"deav":9232,"Ġcapture":9233,"Ġassign":9234,"ĠWho":9235,"Ġdiscovering":9236,"Ġpresents":9237,"Ġinclined":9238,"sociated":9239,"Ġcommunicating":9240,"Ġflour":9241,"Ġreleasing":9242,"Ġprepar":9243,"Ġcycles":9244,"Ġupgrades":9245,"Ġautomation":9246,"control":9247,"Ġspecialized":9248,"Ġmisused":9249,"Ġstops":9250,"Ġdeterrence":9251,"Ġorganizational":9252,"Ġenabling":9253,"Ġchannels":9254,"Ġcourt":9255,"Ġirre":9256,"Ġinvestigations":9257,"ĠDifferent":9258,"Ġcompetitors":9259,"Ġaircrafts":9260,"Ġqualities":9261,"Ġreflected":9262,"Ġtemporarily":9263,"Ġdepartments":9264,"mittedly":9265,"Ġappeal":9266,"Ġadvocate":9267,"ĠElderShield":9268,"Ġearnings":9269,"Ġstruggling":9270,"ĠMediShield":9271,"Ġversus":9272,"Ġhydroelectric":9273,"ĠRichard":9274,"Ġdeterminism":9275,"Ġagriculture":9276,"storming":9277,"Ġstroke":9278,"Ġparadigm":9279,"ĠPolytechn":9280,"ĠHumans":9281,"Ġfabric":9282,"ĠSciences":9283,".,":9284,"41":9285,"54":9286,"61":9287,"98":9288,"Al":9289,"Care":9290,"Cost":9291,"ET":9292,"ETR":9293,"IPA":9294,"MW":9295,"MCD":9296,"Se":9297,"SFiles":9298,"UP":9299,"biz":9300,"cpp":9301,"categ":9302,"eper":9303,"hub":9304,"mof":9305,"next":9306,"ook":9307,"pres":9308,"scale":9309,"vn":9310,"var":9311,"vable":9312,"vitro":9313,"Ġ000":9314,"hetic":9315,"review":9316,"Ġtherap":9317,"ona":9318,"enger":9319,"atable":9320,"Ġoxide":9321,"Ġought":9322,"Ġpowers":9323,"Ġpumps":9324,"orrect":9325,"anasia":9326,"Ġfing":9327,"Ġfend":9328,"Ġbor":9329,"Ġbrow":9330,"Ġdiv":9331,"Ġnone":9332,"veys":9333,"omal":9334,"omark":9335,"Ġgale":9336,"ett":9337,"stud":9338,"chin":9339,"seey":9340,"orer":9341,"ots":9342,"ĠSyed":9343,"ĠSoutheast":9344,"irmed":9345,"ĠAtt":9346,"ĠHans":9347,"ĠHarm":9348,"ĠHold":9349,"Ġstyle":9350,"ĠCell":9351,"ĠMax":9352,"estions":9353,"ĠNano":9354,"Ġdevelopers":9355,"Ġdisapp":9356,"ĠWH":9357,"ĠWelfare":9358,"ĠWaste":9359,"ĠBlu":9360,"ĠBank":9361,"ques":9362,"ĠOil":9363,"rypt":9364,"ĠGet":9365,"Ġwebsites":9366,"oded":9367,"ĠDou":9368,"Ġintense":9369,"Ġworkload":9370,"Ġunhealthy":9371,"archives":9372,"ĠVideo":9373,"ĠLa":9374,"Ġatoms":9375,"earth":9376,"Ġfinish":9377,"htgr":9378,"Ġsupplied":9379,"agu":9380,"Ġageism":9381,"Ġtrace":9382,"ounow":9383,"Ġcommand":9384,"Ġhumanity":9385,"ĠChapter":9386,"indv":9387,"grade":9388,"Ġ47":9389,"phys":9390,"Ġsparked":9391,"otherapy":9392,"Ġ69":9393,"Ġ550":9394,"entially":9395,"Ġextension":9396,"proliferation":9397,"Ġpoorer":9398,"ĠYoung":9399,"Ġterminal":9400,"intend":9401,"Ġmarks":9402,"ĠHeath":9403,"Ġdemanded":9404,"Ġseeing":9405,"themes":9406,"thedoctor":9407,"nuclearpower":9408,"Ġ78":9409,"Ġessence":9410,"Ġcorrupt":9411,"Ġpasses":9412,"ĠEngineer":9413,"Ġimmune":9414,"infomark":9415,"Ġaiding":9416,"Ġplane":9417,"Ġnearby":9418,"116":9419,"Ġsummar":9420,"Ġsufficiently":9421,"Ġinfluenza":9422,"Ġpromotes":9423,"Ġsubstitute":9424,"Ġsupplying":9425,"uthanasia":9426,"Ġemotions":9427,"Ġmiscon":9428,"Ġpoliticians":9429,"lights":9430,"Ġbrand":9431,"Ġmoon":9432,"Ġblue":9433,"Ġblame":9434,"Ġsocio":9435,"Ġindustrialization":9436,"show":9437,"Ġcirculation":9438,"CAI":9439,"Ġstoring":9440,"221":9441,"Ġpsychologically":9442,"Ġfissile":9443,"Ġrespected":9444,"Ġoptimistic":9445,"Ġapartment":9446,"cnn":9447,"ĠAustralian":9448,"skin":9449,"Ġboundaries":9450,"Ġfighting":9451,"ĠLibrary":9452,"Ġfaulty":9453,"Ġphoto":9454,"Ġdetailed":9455,"Ġhouseholds":9456,"1008":9457,"Ġadjustments":9458,"Ġconsultation":9459,"Ġcement":9460,"Ġduration":9461,"pensable":9462,"ĠFunding":9463,"sciencedaily":9464,"Ġsyndrome":9465,"Ġupdate":9466,"Ġgrandchildren":9467,"Ġassumed":9468,"ĠNeeds":9469,"ĠIndustry":9470,"Ġacknowled":9471,"ĠJeff":9472,"Ġparagraphs":9473,"Ġvisitors":9474,"ĠREFERENCE":9475,"ĠLWRs":9476,"ĠConcerns":9477,"ĠCharles":9478,"Ġpolycl":9479,"willseey":9480,"ĠBellis":9481,"Ġundertake":9482,"ĠConstruction":9483,"Ġindispensable":9484,"nthesis":9485,"ĠGerst":9486,"Ġchromosomes":9487,"fidentiality":9488,"ĠMohammad":9489,"srcprod":9490,"ĠNagasaki":9491,"ĠLSD":9492,"Ġarthritis":9493,"IPAA":9494,"MCDSFiles":9495,"ĠBluetooth":9496,"thedoctorwillseey":9497,"thedoctorwillseeyounow":9498,"bed":9499,"clo":9500,"disc":9501,"guments":9502,"link":9503,"money":9504,"pic":9505,"pact":9506,"sa":9507,"erg":9508,"erving":9509,"Ġsever":9510,"Ġsword":9511,"oration":9512,"itation":9513,"itate":9514,"Ġbanks":9515,"Ġbillions":9516,"Ġbicy":9517,"associated":9518,"ĠTax":9519,"ĠSafe":9520,"ĠSilver":9521,"utious":9522,"irs":9523,"ĠAARP":9524,"Ġendeav":9525,"ntil":9526,"ĠHig":9527,"Ġstagn":9528,"ĠCra":9529,"ĠCap":9530,"ĠFore":9531,"Ġimply":9532,"Ġimpaired":9533,"ĠNRC":9534,"ĠPerson":9535,"ĠParent":9536,"Ġdismiss":9537,"aind":9538,"Ġshoulder":9539,"Ġincorrect":9540,"ĠEmer":9541,"Ġusual":9542,"Ġcompat":9543,"Ġcompact":9544,"Ġintens":9545,"Ġloans":9546,"Ġloyal":9547,"Ġabused":9548,"archy":9549,"Ġincrement":9550,"Ġsolves":9551,"formance":9552,"ĠUntil":9553,"Ġsurpass":9554,"Ġcared":9555,"Ġpositions":9556,"Ġimproper":9557,"Ġapplies":9558,"ĠReason":9559,"ĠStep":9560,"ocking":9561,"Ġinfer":9562,"Ġcreations":9563,"Ġinsur":9564,"Ġgrew":9565,"Ġmodify":9566,"ĠRespon":9567,"Ġshortages":9568,"Ġlacks":9569,"Ġcenters":9570,"Ġcorner":9571,"Ġresearcher":9572,"Ġaccessed":9573,"Ġevolution":9574,"Ġtaxpay":9575,"Ġthreatens":9576,"Ġopening":9577,"ĠArchitect":9578,"Ġunfortunately":9579,"ĠImm":9580,"Ġtourists":9581,"Ġengaging":9582,"Ġengaged":9583,"Ġrevenues":9584,"Ġadequately":9585,"Ġaccumulated":9586,"Ġirrele":9587,"Ġcivilian":9588,"Ġcharacteristic":9589,"ĠWorkers":9590,"radiation":9591,"Ġoccupied":9592,"Ġfram":9593,"ĠSmall":9594,"reliant":9595,"Ġuncertainties":9596,"Ġprinciples":9597,"break":9598,"ĠRegarding":9599,"Ġanxious":9600,"Ġunwanted":9601,"Ġmigrate":9602,"Ġadvocates":9603,"Ġsquare":9604,"Ġwiser":9605,"ĠJean":9606,"Ġreinforce":9607,"Ġlanguage":9608,"ĠAnti":9609,"Ġalloys":9610,"Ġfriendliness":9611,"ĠFourth":9612,"Ġfraction":9613,"Ġimpression":9614,"Ġadvertising":9615,"istorical":9616,"Ġteenagers":9617,"Ġroughly":9618,"Ġsiblings":9619,"ponses":9620,"associatedcontent":9621,"Ġirrelevant":9622,"022":9623,"233":9624,"500":9625,"71":9626,"72":9627,"700":9628,"BOr":9629,"Cent":9630,"DT":9631,"Fi":9632,"Library":9633,"Mon":9634,"Mem":9635,"Of":9636,"Oct":9637,"VAN":9638,"auc":9639,"bb":9640,"buff":9641,"baidu":9642,"gig":9643,"gps":9644,"hour":9645,"hire":9646,"lfr":9647,"nan":9648,"oly":9649,"rong":9650,"safe":9651,"sustain":9652,"technolo":9653,"wp":9654,"wired":9655,"Ġ<":9656,"Ġtech":9657,"Ġaven":9658,"inds":9659,"eri":9660,"Ġori":9661,"Ġpg":9662,"Ġpion":9663,"Ġpel":9664,"Ġpays":9665,"Ġwid":9666,"Ġwife":9667,"Ġfine":9668,"Ġfile":9669,"Ġtoug":9670,"Ġmortality":9671,"Ġdi":9672,"arr":9673,"Ġhosp":9674,"Ġharsh":9675,"Ġeat":9676,"Ġnanobots":9677,"aser":9678,"Ġreward":9679,"Ġthirty":9680,"ĠTrib":9681,"ĠTraining":9682,"statistics":9683,"Ġproxim":9684,"ceu":9685,"Ġ240":9686,"imated":9687,"ĠSri":9688,"ĠSpen":9689,"ĠSaving":9690,"ĠSBS":9691,"ĠIra":9692,"ĠAp":9693,"Ġcondu":9694,"heric":9695,"opes":9696,"Ġstays":9697,"Ġstream":9698,"nocent":9699,"ĠCited":9700,"Ġexcel":9701,"usa":9702,"ĠMid":9703,"ĠMagazine":9704,"ĠFu":9705,"ĠFrequ":9706,"Ġimpending":9707,"Ġsoil":9708,"Ġsoaring":9709,"Ġ150":9710,"oston":9711,"ĠPop":9712,"ĠPric":9713,"ĠPDF":9714,"ĠWal":9715,"Ġrid":9716,"ĠBry":9717,"social":9718,"quir":9719,"ĠEds":9720,"ĠEco":9721,"ĠGood":9722,"ĠGale":9723,"Ġsabot":9724,"berry":9725,"Ġprocessed":9726,"Ġseven":9727,"Ġmanager":9728,"Ġvill":9729,"Ġvending":9730,"comings":9731,"Ġspends":9732,"ĠLater":9733,"ĠLab":9734,"Ġatom":9735,"Ġinduc":9736,"agging":9737,"ĠJack":9738,"Ġconscious":9739,"render":9740,"Ġ1955":9741,"Ġarmy":9742,"Ġinvade":9743,"ĠRev":9744,"ructuring":9745,"2002":9746,"gene":9747,"cker":9748,"Ġfactory":9749,"Ġunderm":9750,"ĠStanton":9751,"pdate":9752,"Ġtwilight":9753,"Ġdemoc":9754,"Ġ1992":9755,"Ġsciences":9756,"Ġmemories":9757,"Ġsitting":9758,"aware":9759,"Ġfurthermore":9760,"ĠHejz":9761,"Ġrefused":9762,"ĠWorking":9763,"mercial":9764,"Ġshortcomings":9765,"Ġrealised":9766,"Ġ850":9767,"Ġprotects":9768,"Ġconstructive":9769,"Ġthinks":9770,"Ġenthus":9771,"Ġpassenger":9772,"Ġconfig":9773,"Ġconfirmed":9774,"atha":9775,"201":9776,"Ġevidences":9777,"Ġevacu":9778,"Ġbelieves":9779,"nei":9780,"Ġscann":9781,"nett":9782,"Ġnorms":9783,"076":9784,"Ġ252":9785,"Ġfoods":9786,"agingresearch":9787,"ographical":9788,"Ġwrist":9789,"TAGE":9790,"medicine":9791,"Ġdebatable":9792,"Ġassociation":9793,"rategy":9794,"Ġanalysing":9795,"ĠImplications":9796,"Ġtourist":9797,"geneticinfo":9798,"Ġharvest":9799,"ĠSkills":9800,"Ġobservation":9801,"Ġviolates":9802,"Ġcollecting":9803,"ĠProcesses":9804,"Ġinvestigate":9805,"ĠPrevent":9806,"ĠiP":9807,"ĠStudents":9808,"pubmed":9809,"Ġincurable":9810,"ĠDisorders":9811,"module":9812,"Ġmotivated":9813,"Info":9814,"Ġillustrated":9815,"ĠColumb":9816,"Ġconcentration":9817,"Ġlayers":9818,"Ġattempts":9819,"Ġfaults":9820,"URE":9821,"URL":9822,"Ġplatforms":9823,"electricity":9824,"popn":9825,"Ġdiscouraged":9826,"Ġsacrificed":9827,"Ġdeliber":9828,"Ġdurable":9829,"Program":9830,"consum":9831,"429238":9832,"Ġappeared":9833,"Ġmagnetic":9834,"Ġmigration":9835,"Ġrailway":9836,"PDFs":9837,"Ġisolated":9838,"ĠAgatha":9839,"Ġincomplete":9840,"Ġvolunteer":9841,"lancast":9842,"ĠTourist":9843,"ĠIndustrial":9844,"Ġloneliness":9845,"ĠKnowledge":9846,"ĠDeclaration":9847,"Ġdeployed":9848,"Ġaltered":9849,"Ġastron":9850,"Ġintelligent":9851,"Ġconvinced":9852,"Ġenforcement":9853,"ĠSupporters":9854,"ĠCauses":9855,"cript":9856,"Ġdocuments":9857,"Ġdrinkable":9858,"Access":9859,"Ġsequence":9860,"Ġinterfere":9861,"Ġisotopes":9862,"Ġaggrav":9863,"ĠMegaw":9864,"Ġequivalent":9865,"Articles":9866,"September":9867,"ĠHeathfield":9868,"ĠGerstner":9869,"VANTAGE":9870,"buffalo":9871,"Ġpione":9872,"Ġpellets":9873,"Ġtougher":9874,"ĠIraq":9875,"ĠColumbia":9876,"AE":9877,"II":9878,"One":9879,"Us":9880,"dep":9881,"dog":9882,"got":9883,"main":9884,"made":9885,"num":9886,"rant":9887,"saving":9888,"vy":9889,"Ġtrial":9890,"Ġaer":9891,"eside":9892,"orge":9893,"Ġrent":9894,"Ġreaches":9895,"eter":9896,"stuff":9897,"imbs":9898,"Ġluc":9899,"Ġlimbs":9900,"urric":9901,"Ġforgot":9902,"ules":9903,"Ġencyclopedia":9904,"Ġagenda":9905,"Ġstanding":9906,"eman":9907,"ape":9908,"Ġexpon":9909,"ĠMet":9910,"umping":9911,"Ġrescue":9912,"Ġadds":9913,"Ġcomplement":9914,"Ġcompound":9915,"Ġlog":9916,"Ġpregn":9917,"Ġvic":9918,"Ġvideophone":9919,"ernity":9920,"ĠLar":9921,"Ġnewborn":9922,"Ġupset":9923,"Ġtraum":9924,"Ġinstability":9925,"Ġroute":9926,"Ġserving":9927,"ĠStill":9928,"Ġsecre":9929,"lessly":9930,"Ġassert":9931,"Ġformation":9932,"Ġboard":9933,"Ġphysics":9934,"Ġsubsidize":9935,"ĠAdmittedly":9936,"ĠHealthy":9937,"Ġprime":9938,"Ġcompletion":9939,"Ġseemingly":9940,"Ġsums":9941,"ĠIndicators":9942,"Ġdistances":9943,"download":9944,"downloads":9945,"Ġinfluencing":9946,"appy":9947,"Ġcombine":9948,"Ġcombining":9949,"Ġgaining":9950,"Ġsuggestion":9951,"hibit":9952,"Ġdrives":9953,"ĠArguments":9954,"ĠOthers":9955,"Ġperspectives":9956,"Ġmoved":9957,"Ġeliminates":9958,"Ġbadly":9959,"Ġbegins":9960,"Ġfulfilled":9961,"Ġinteractions":9962,"ĠÃĥ":9963,"Ġvalued":9964,"Ġprediction":9965,"Ġoptimize":9966,"Ġbrainstorming":9967,"Ġobstacle":9968,"Ġremoving":9969,"Ġlisted":9970,"Ġcommitting":9971,"ĠSwRI":9972,"Ġstimul":9973,"Ġscene":9974,"Ġhopes":9975,"Ġreforms":9976,"Ġprolonged":9977,"Ġkidnapped":9978,"versely":9979,"Ġinfringement":9980,"ĠMotor":9981,"ĠAgain":9982,"Ġdemonstrated":9983,"Ġneighbouring":9984,"ĠAlternatively":9985,"Ġthoroughly":9986,"Ġrecommended":9987,"Ġofficers":9988,"Ġclimbing":9989,"Ġliteracy":9990,"ĠKhalik":9991,"Ġcommented":9992,"Ġsunsh":9993,"ĠIntelligence":9994,"Ġrebates":9995,"Ġrehabilitation":9996,"Ġcircuit":9997,"Ġhypertension":9998,"Ġphrase":9999,"217":10000,"300":10001,"400":10002,"De":10003,"Dr":10004,"IR":10005,"Im":10006,"ICA":10007,"Materials":10008,"QE":10009,"Save":10010,"Upgrading":10011,"aus":10012,"biqu":10013,"cir":10014,"cover":10015,"dp":10016,"dna":10017,"fm":10018,"fcgi":10019,"his":10020,"http":10021,"kr":10022,"ked":10023,"lived":10024,"mi":10025,"math":10026,"pric":10027,"uya":10028,"Ġ07":10029,"Ġton":10030,"eram":10031,"Ġ...":10032,"Ġowing":10033,"Ġcush":10034,"Ġcodes":10035,"Ġceram":10036,"Ġwage":10037,"Ġwarm":10038,"Ġfish":10039,"Ġfilled":10040,"Ġfitted":10041,"ico":10042,"Ġmaster":10043,"arb":10044,"arn":10045,"Ġhon":10046,"Ġreci":10047,"ilst":10048,"ilience":10049,"Ġgun":10050,"ĠTher":10051,"ĠTri":10052,"ĠTam":10053,"ĠTok":10054,"ching":10055,"Ġpropose":10056,"idUS":10057,"ota":10058,"ĠSARS":10059,"Ġubiqu":10060,"ulous":10061,"Ġsusp":10062,"ĠHearing":10063,"iflu":10064,"Ġstone":10065,"Ġstating":10066,"Ġstring":10067,"Ġheight":10068,"Ġneither":10069,"Ġshield":10070,"iesel":10071,"ĠCou":10072,"ĠCould":10073,"ĠMat":10074,"ĠMun":10075,"ĠMobile":10076,"ĠFol":10077,"Ġ1119":10078,"ĠNan":10079,"ĠNur":10080,"ĠNER":10081,"ĠNLC":10082,"ĠPu":10083,"ĠPos":10084,"ĠPage":10085,"pper":10086,"pple":10087,"ĠWong":10088,"ĠWald":10089,"Ġrats":10090,"ĠBrain":10091,"ĠOS":10092,"ĠOpin":10093,"Ġinculc":10094,"ĠGill":10095,"istical":10096,"istically":10097,"arts":10098,"Ġseat":10099,"Ġunh":10100,"ires":10101,"ventional":10102,"compass":10103,"ĠVel":10104,"ĠLank":10105,"Ġdoors":10106,"Ġletter":10107,"answ":10108,"ĠUAV":10109,"pection":10110,"Ġsupportive":10111,"Ġamaz":10112,"Ġjournal":10113,"ĠReal":10114,"plus":10115,"planned":10116,"ailand":10117,"Ġroof":10118,"Ġ41":10119,"Ġefficiencies":10120,"Ġwasting":10121,"Ġspirit":10122,"ĠSte":10123,"ĠUnless":10124,"Ġ63":10125,"Ġcautious":10126,"external":10127,"ĠProt":10128,"pros":10129,"Ġallowance":10130,"Ġexpert":10131,"Ġmemor":10132,"Ġtreatable":10133,"Ġexperimental":10134,"101":10135,"Ġoccas":10136,"Ġ88":10137,"sidies":10138,"200909":10139,"Ġspecies":10140,"Ġphysicians":10141,"Ġsubsidised":10142,"Ġsubsidizing":10143,"ĠAdding":10144,"Ġauton":10145,"Ġconfined":10146,"Ġprinter":10147,"Ġ1985":10148,"Ġcritically":10149,"Ġrestructuring":10150,"Ġdetermines":10151,"0907":10152,"Ġunderstood":10153,"Ġpolluted":10154,"Ġlastly":10155,"pressure":10156,"Ġnevertheless":10157,"Ġstressing":10158,"Ġcyber":10159,"serv":10160,"Ġpredis":10161,"Ġenjoyable":10162,"Ġagreement":10163,"eltdown":10164,"Ġopened":10165,"Ġstrategic":10166,"Ġgains":10167,"Ġmasses":10168,"158":10169,"Ġprospect":10170,"why":10171,"ĠCommunication":10172,"603":10173,"Ġrecognizing":10174,"Ġmorale":10175,"Ġobtaining":10176,"ĠBeij":10177,"Ġmetall":10178,"Ġmole":10179,"Ġdollar":10180,"ĠGray":10181,"Ġergonomics":10182,"Ġstatistic":10183,"Ġabsence":10184,"ĠThroughout":10185,"session":10186,"ĠLockheed":10187,"accident":10188,"Ġcompromising":10189,"Ġrevol":10190,"Ġcomplexity":10191,"Ġpassively":10192,"Genetics":10193,"Ġexercising":10194,"Ġsickle":10195,"Ġatmospheric":10196,"Ġchemicals":10197,"ovol":10198,"ĠStudy":10199,"ĠSpring":10200,"NuclearPower":10201,"feature":10202,"666":10203,"Ġincorporate":10204,"Ġcorrosive":10205,"ĠAssistance":10206,"Ġhappiness":10207,"populationasia":10208,"Ġframe":10209,"Ġconsistently":10210,"Ġjoin":10211,"Ġjoint":10212,"Ġparticipation":10213,"Ġbelonging":10214,"Ġundeniably":10215,"wellness":10216,"Ġinputs":10217,"Ġwebworks":10218,"ometrics":10219,"ĠDiseases":10220,"inceton":10221,"american":10222,"Ġdurability":10223,"ĠWellness":10224,"consultation":10225,"rdonly":10226,"Ġactinide":10227,"Ġdramatic":10228,"Ġundoubtedly":10229,"Ġupdated":10230,"Ġsuddenly":10231,"ĠJacques":10232,"Ġvolunteers":10233,"ĠQuestions":10234,"athemat":10235,"monitor":10236,"Ġpillars":10237,"ouchard":10238,"Ġwalkway":10239,"projects":10240,"ĠFacts":10241,"Ġofficer":10242,"ĠLineberry":10243,"Ġcaregivers":10244,"Ġentrepreneurship":10245,"Ann":10246,"Ġmixture":10247,"ĠWilliam":10248,"Ġarrangements":10249,"Ġrobust":10250,"Ġmachinery":10251,"ĠImprove":10252,"Ġaccomplish":10253,"Ġmitigate":10254,"scientific":10255,"Ġexecutives":10256,"tabID":10257,"ĠPositioning":10258,"Ġsessions":10259,"Ġirresponsible":10260,"userGroupName":10261,"uwen":10262,"BarrierFree":10263,"innovation":10264,"ĠADVANTAGE":10265,"Ġconfronted":10266,"cppr":10267,"category":10268,"Ġborne":10269,"ĠWHO":10270,"physics":10271,"Ġmisconception":10272,"Ġpolyclinics":10273,"Ġloyalty":10274,"technologies":10275,"Ġproximity":10276,"Ġforgotten":10277,"ĠTamiflu":10278,"Ġstringent":10279,"Ġ111989":10280,"ĠNERAC":10281,"ĠBeijing":10282,"rdonlyres":10283,"NC":10284,"bra":10285,"cers":10286,"count":10287,"case":10288,"dictionary":10289,"eins":10290,"rights":10291,"ship":10292,"spending":10293,"inition":10294,"orium":10295,"Ġdon":10296,"Ġdys":10297,"Ġreactive":10298,"Ġrewards":10299,"Ġrechar":10300,"ilos":10301,"versible":10302,"imming":10303,"otal":10304,"ĠSerendip":10305,"Ġconj":10306,"Ġconduc":10307,"Ġends":10308,"ifest":10309,"Ġstabil":10310,"Ġheads":10311,"Ġshocking":10312,"Ġimper":10313,"ĠNT":10314,"ĠNuffield":10315,"Ġdissem":10316,"ĠWood":10317,"ĠWarming":10318,"ĠWestern":10319,"Ġworkplac":10320,"Ġuncon":10321,"Ġunfore":10322,"Ġdoor":10323,"ago":10324,"ĠRegency":10325,"erman":10326,"Ġsecuring":10327,"Ġconstitute":10328,"ĠInterest":10329,"ĠYes":10330,"Ġtransmitted":10331,"Ġtransformed":10332,"Ġproteins":10333,"Ġassurance":10334,"Ġmodifying":10335,"thes":10336,"Ġpayers":10337,"Ġspeak":10338,"Ġcontroller":10339,"ierarchy":10340,"Ġcompeting":10341,"ĠCentury":10342,"ĠSurgical":10343,"Ġslows":10344,"Ġprogresses":10345,"Ġpromotion":10346,"Ġadopts":10347,"ĠExamples":10348,"Ġconducting":10349,"1999":10350,"Ġutilizes":10351,"Ġwarn":10352,"Ġemphasizes":10353,"Ġsteal":10354,"who":10355,"gardless":10356,"Ġdiagnostic":10357,"Ġcheckups":10358,"Ġsenses":10359,"Ġrevised":10360,"Ġphenomena":10361,"Ġlinks":10362,"Ġpeak":10363,"Ġadapting":10364,"Ġconstrained":10365,"Ġstaffs":10366,"ĠPerformance":10367,"iterate":10368,"Ġreflects":10369,"Ġpackages":10370,"years":10371,"This":10372,"Ġhabit":10373,"Ġcomprise":10374,"Ġdemonstrate":10375,"Ġscenarios":10376,"Ġpenet":10377,"Ġfoot":10378,"Ġsmoothly":10379,"vasive":10380,"Ġpicked":10381,"Ġliber":10382,"Ġluxury":10383,"Ġplagiarism":10384,"ĠCreative":10385,"Ġinconvenience":10386,"Ġtheoretical":10387,"accessible":10388,"ĠWhether":10389,"Ġadministrative":10390,"naturalnews":10391,"Ġinstructions":10392,"Ġslopes":10393,"Ġaccompanied":10394,"Ġcollapsed":10395,"Ġpandemic":10396,"Ġseverity":10397,"Ġlucrative":10398,"Ġvicinity":10399,"Ġconducive":10400,"Ġworkplaces":10401,"/_":10402,"140":10403,"218":10404,"Ae":10405,"Berry":10406,"Chernobyl":10407,"DS":10408,"Daily":10409,"HP":10410,"IL":10411,"Lift":10412,"MI":10413,"OL":10414,"PI":10415,"RIS":10416,"SB":10417,"Sur":10418,"Southeast":10419,"Type":10420,"Un":10421,"card":10422,"dst":10423,"dra":10424,"elder":10425,"eks":10426,"gaz":10427,"iy":10428,"iative":10429,"mach":10430,"molten":10431,"sfr":10432,"tu":10433,"tw":10434,"tures":10435,"vs":10436,"video":10437,"ws":10438,"yo":10439,"zone":10440,"Ġtim":10441,"Ġtun":10442,"hem":10443,"Ġaud":10444,"inventors":10445,"real":10446,"reens":10447,"engineering":10448,"Ġsan":10449,"Ġsort":10450,"Ġozone":10451,"Ġcate":10452,"Ġcast":10453,"Ġpit":10454,"Ġpour":10455,"Ġpsych":10456,"anc":10457,"Ġfel":10458,"Ġbond":10459,"Ġinnocent":10460,"lev":10461,"lean":10462,"lett":10463,"icate":10464,"rosion":10465,"Ġmixed":10466,"ioned":10467,"arly":10468,"entz":10469,"Ġhost":10470,"Ġhorm":10471,"oured":10472,"Ġehost":10473,"asi":10474,"asant":10475,"Ġrew":10476,"ldom":10477,"ĠTets":10478,"china":10479,"mentation":10480,"imary":10481,"implants":10482,"Ġlump":10483,"ĠSO":10484,"ĠSus":10485,"ĠIma":10486,"ĠICT":10487,"Ġdepos":10488,"ĠAh":10489,"Ġconvers":10490,"herland":10491,"ĠRM":10492,"ĠRP":10493,"ĠRoy":10494,"ĠROM":10495,"ĠRIM":10496,"ĠHa":10497,"racy":10498,"Ġheights":10499,"ĠCy":10500,"ĠCars":10501,"apin":10502,"apon":10503,"Ġexception":10504,"iva":10505,"ivities":10506,"amu":10507,"amount":10508,"unal":10509,"ĠIncome":10510,"ĠFY":10511,"esteem":10512,"ichip":10513,"ĠPers":10514,"ĠPach":10515,"ĠPoll":10516,"Ġresponses":10517,"ancement":10518,"perty":10519,"ĠWi":10520,"ĠWii":10521,"ĠWFP":10522,"ĠBult":10523,"ĠBrief":10524,"osm":10525,"ĠEqu":10526,"ĠGl":10527,"Ġdesperate":10528,"Ġadvent":10529,"Ġadhesive":10530,"Ġcomposition":10531,"Ġunint":10532,"Ġunaware":10533,"Ġmanip":10534,"Ġmail":10535,"Ġmavens":10536,"izations":10537,"Ġcontamin":10538,"Ġcontamination":10539,"ĠVeh":10540,"ĠLink":10541,"ĠLtd":10542,"udi":10543,"ĠUpon":10544,"Ġconcurrent":10545,"abin":10546,"alliative":10547,"Ġrelig":10548,"Ġtracing":10549,"ĠVHT":10550,"sip":10551,"Ġexams":10552,"Ġimporting":10553,"Ġampl":10554,"Ġdiffers":10555,"lowing":10556,"ensing":10557,"Ġbug":10558,"Ġbuh":10559,"ĠChapin":10560,"ailure":10561,"Ġpartners":10562,"Ġinstill":10563,"Ġmakeup":10564,"2000":10565,"Ġoldsters":10566,"Ġretro":10567,"Ġretrain":10568,"gencies":10569,"Ġ46":10570,"cks":10571,"ĠKn":10572,"ĠKim":10573,"Ġrisky":10574,"Ġattach":10575,"othermal":10576,"Ġ57":10577,"Ġinfert":10578,"Ġwherever":10579,"Ġmini":10580,"Ġtransplant":10581,"intosh":10582,"ĠCommercial":10583,"Ġprotocol":10584,"Ġcaptain":10585,"ĠResilience":10586,"ava":10587,"108":10588,"Ġconsumes":10589,"Ġexpectancies":10590,"ĠMedic":10591,"nuclearinfo":10592,"Ġcontroll":10593,"Ġpassports":10594,"ittees":10595,"ortune":10596,"Ġimminent":10597,"Ġurl":10598,"Ġ1981":10599,"Ġ1983":10600,"Ġreceives":10601,"Ġgreener":10602,"ĠInstit":10603,"Ġtaxing":10604,"Ġpreparing":10605,"Ġended":10606,"Ġlasting":10607,"Ġgrat":10608,"Ġemergence":10609,"Ġemergencies":10610,"Ġusefulness":10611,"Ġattractions":10612,"Ġprofession":10613,"msr":10614,"Ġopener":10615,"Ġpolitics":10616,"ĠAdvoc":10617,"ĠAdvances":10618,"ĠMeeting":10619,"ĠCanad":10620,"Ġcommercially":10621,"Ġbrands":10622,"Ġeliminating":10623,"Ġconnections":10624,"18076":10625,"Ġprepares":10626,"Ġcontractors":10627,"Ġunfav":10628,"Ġcured":10629,"ĠHyatt":10630,"ĠHybrid":10631,"ahoo":10632,"ĠAcademic":10633,"Ġaccumulation":10634,"ĠTrade":10635,"ĠIdentity":10636,"ĠSkycar":10637,"Ġirrig":10638,"Ġaccurately":10639,"ĠMacintosh":10640,"ĠQue":10641,"Ġstrive":10642,"Ġexposing":10643,"ĠElectricity":10644,"Ġhindrance":10645,"Ġintrudes":10646,"Ġwriting":10647,"PMC":10648,"greenpeace":10649,"Ġextensively":10650,"speeches":10651,"Ġreviewed":10652,"Ġmothers":10653,"Ġhoping":10654,"Ġhopefully":10655,"Ġgeographical":10656,"Ġbulk":10657,"Ġbulky":10658,"Ġtrials":10659,"ĠMoore":10660,"Ġcalculations":10661,"Ġsquee":10662,"Ġtranslate":10663,"Ġtranslates":10664,"cdi":10665,"ĠErgonomics":10666,"Ġinjected":10667,"5318076":10668,"ĠTransportation":10669,"ĠThompson":10670,"biguous":10671,"Ġpatterns":10672,"msnbc":10673,"Ġintelligence":10674,"ĠExperi":10675,"Ġpebbles":10676,"Ġaggressively":10677,"Ġreferred":10678,"ĠDiscovery":10679,"Ġrepeat":10680,"Ġairbag":10681,"Ġairbags":10682,"Ġescalating":10683,"slip":10684,"ĠPriority":10685,"Ġtumors":10686,"Ġenemy":10687,"Ġpipes":10688,"ologists":10689,"Ġthermody":10690,"Ġcrowded":10691,"ĠAND":10692,"ĠAutom":10693,"Ġadvertisements":10694,"Ġaroused":10695,"Ġoxides":10696,"politics":10697,"ĠLegal":10698,"ĠIntroduction":10699,"Supercritical":10700,"Ġcognitive":10701,"Ġbottom":10702,"Ġhardship":10703,"Ġfortunate":10704,"bulb":10705,"europa":10706,"ucsusa":10707,"ĠBlackBerry":10708,"ĠHarmon":10709,"ĠMaxwell":10710,"ĠArchitecture":10711,"ĠSpencer":10712,"Ġconduit":10713,"ĠFrequently":10714,"pubmedcentral":10715,"Programme":10716,"Ġceramic":10717,"ĠOpinion":10718,"ĠTetsuya":10719,"ĠImagine":10720,"ĠROMAN":10721,"ĠBulter":10722,"93":10723,"Ad":10724,"aves":10725,"bike":10726,"bound":10727,"cents":10728,"certain":10729,"critical":10730,"cifically":10731,"gers":10732,"la":10733,"not":10734,"vol":10735,"Ġtiles":10736,"Ġsingapore":10737,"atisf":10738,"itial":10739,"anging":10740,"Ġbike":10741,"Ġbought":10742,"icit":10743,"icts":10744,"icago":10745,"roll":10746,"Ġmir":10747,"Ġmalls":10748,"Ġdoses":10749,"lot":10750,"Ġgri":10751,"step":10752,"sex":10753,"Ġforty":10754,"ows":10755,"Ġenact":10756,"rians":10757,"ĠRest":10758,"ĠHu":10759,"Ġstories":10760,"elior":10761,"Ġshar":10762,"ĠCritical":10763,"Ġexpose":10764,"Ġcomments":10765,"ĠInitial":10766,"ĠFossil":10767,"umn":10768,"ĠPract":10769,"Ġreserve":10770,"Ġdisp":10771,"ĠWide":10772,"ĠOrig":10773,"ĠGold":10774,"Ġwearing":10775,"ĠDigital":10776,"Ġmanifest":10777,"izers":10778,"ĠVTH":10779,"Ġoutbreak":10780,"ruits":10781,"ĠVHTRs":10782,"Ġarrest":10783,"Ġinnovated":10784,"Ġtimely":10785,"Ġamelior":10786,"ĠReports":10787,"ĠRegardless":10788,"plane":10789,"Ġrose":10790,"ĠKev":10791,"Ġinfl":10792,"Ġimplementations":10793,"Ġaftermath":10794,"ĠYe":10795,"Ġburnt":10796,"Ġremedy":10797,"Ġreminds":10798,"Ġdiverse":10799,"Ġdiversion":10800,"Ġsets":10801,"Ġpromised":10802,"Ġrecovered":10803,"Ġchallenger":10804,"iang":10805,"Ġgrade":10806,"Ġtechnicians":10807,"Ġbreed":10808,"Ġcleaning":10809,"Ġelabor":10810,"ĠShan":10811,"Ġrefrigeration":10812,"Ġshapes":10813,"Ġdamaging":10814,"Ġcontinuation":10815,"Ġfollows":10816,"ĠProviding":10817,"Ġapproaching":10818,"Ġsatisfactory":10819,"Ġnurturing":10820,"ĠBeh":10821,"Ġleaks":10822,"Ġleaked":10823,"Ġtelecommunication":10824,"Ġmeters":10825,"ĠSummary":10826,"Ġcomparatively":10827,"Ġsimplify":10828,"ĠClinical":10829,"Ġoptimal":10830,"Ġcivilians":10831,"guide":10832,"Ġpossesses":10833,"Ġbooming":10834,"Ġcounterpart":10835,"Ġbonds":10836,"ĠGerman":10837,"economy":10838,"loaded":10839,"ĠSpecifically":10840,"Ġdrawbacks":10841,"ĠDemographic":10842,"Ġhighlights":10843,"Ġexecute":10844,"ĠEastern":10845,"Ġworsening":10846,"incre":10847,"Ġexcuse":10848,"Ġunderest":10849,"ĠCitizen":10850,"Ġrigorous":10851,"Ġbrighter":10852,"ĠPhysical":10853,"Ġmechanisms":10854,"Ġguilt":10855,"Ġconvincing":10856,"Ġimparting":10857,"Ġrespondents":10858,"Ġtightly":10859,"Ġenemies":10860,"ĠInfrast":10861,"Ġsweet":10862,"Ġsatellites":10863,"Ġpreparations":10864,"Ġirreversible":10865,"ĠPolytechnic":10866,"Ġacknowledged":10867,"ĠHigher":10868,"ĠForeign":10869,"Ġframework":10870,"Ġexponentially":10871,"Ġdysf":10872,"ĠNTUC":10873,"ĠVTHR":10874,"045":10875,"160":10876,"91":10877,"900":10878,"Act":10879,"Apr":10880,"All":10881,"Business":10882,"Cl":10883,"Educ":10884,"Frequency":10885,"MA":10886,"No":10887,"Pages":10888,"RCA":10889,"So":10890,"TM":10891,"Tube":10892,"WO":10893,"aa":10894,"aq":10895,"aver":10896,"bm":10897,"bar":10898,"bst":10899,"cat":10900,"cest":10901,"dh":10902,"fp":10903,"fu":10904,"first":10905,"fund":10906,"fossil":10907,"fcd":10908,"iac":10909,"ja":10910,"ji":10911,"ka":10912,"kg":10913,"lat":10914,"mount":10915,"nell":10916,"ox":10917,"oec":10918,"pmo":10919,"pmc":10920,"tm":10921,"tz":10922,"tical":10923,"tamu":10924,"uis":10925,"wind":10926,"washington":10927,"ysi":10928,"zona":10929,"Ġtapping":10930,"inh":10931,"ref":10932,"Ġsand":10933,"Ġsought":10934,"atl":10935,"atrick":10936,"Ġoxy":10937,"Ġcru":10938,"Ġcrop":10939,"Ġped":10940,"Ġpull":10941,"Ġpalliative":10942,"orhood":10943,"Ġwild":10944,"item":10945,"Ġfate":10946,"Ġfans":10947,"Ġfix":10948,"Ġbow":10949,"Ġbath":10950,"lebr":10951,"icted":10952,"rot":10953,"Ġmathemat":10954,"Ġdig":10955,"Ġdial":10956,"asure":10957,"Ġreused":10958,"ilial":10959,"Ġbeat":10960,"lym":10961,"ationally":10962,"ĠTO":10963,"ĠTy":10964,"ĠTim":10965,"ĠTable":10966,"ĠTod":10967,"ĠTMI":10968,"ida":10969,"idone":10970,"ĠSA":10971,"ĠSign":10972,"ĠSony":10973,"ĠSME":10974,"Ġdeeper":10975,"ĠAri":10976,"ĠAID":10977,"Ġending":10978,"Ġencompass":10979,"oller":10980,"ĠReduc":10981,"Ġalike":10982,"ĠHap":10983,"Ġagency":10984,"ifiable":10985,"Ġheard":10986,"cipl":10987,"emot":10988,"emia":10989,"orton":10990,"ected":10991,"unger":10992,"ĠInfo":10993,"ĠIniti":10994,"ĠInvesting":10995,"ĠMount":10996,"ĠMary":10997,"ĠMarsh":10998,"ĠFOR":10999,"ĠFoster":11000,"Ġgenome":11001,"ĠNG":11002,"ĠNatal":11003,"ĠThailand":11004,"ĠPol":11005,"ĠPort":11006,"ĠPension":11007,"aclu":11008,"ereoty":11009,"ereano":11010,"peridone":11011,"Ġdissip":11012,"ĠWNA":11013,"Ġrice":11014,"ĠBlog":11015,"ĠBhopal":11016,"ĠBenefits":11017,"ĠBouchard":11018,"Ġcha":11019,"quire":11020,"quotes":11021,"ĠEric":11022,"ĠEdit":11023,"ĠEdition":11024,"ĠGreat":11025,"istan":11026,"Ġweeks":11027,"oda":11028,"ĠDown":11029,"ĠDiver":11030,"ĠDanger":11031,"Ġpreced":11032,"Ġseats":11033,"Ġseldom":11034,"uality":11035,"forces":11036,"ĠVI":11037,"ĠVWO":11038,"ĠLif":11039,"sson":11040,"ears":11041,"Ġkn":11042,"Ġkiller":11043,"Ġcarbide":11044,"vene":11045,"Ġempt":11046,"abs":11047,"ĠJen":11048,"ĠJun":11049,"Ġoutdo":11050,"TRE":11051,"Ġ1940":11052,"Ġelectronics":11053,"Ġ2015":11054,"Ġinnovator":11055,"ievable":11056,"portant":11057,"Ġovernight":11058,"Ġdecent":11059,"rowing":11060,"iovas":11061,"ĠAlong":11062,"ĠChild":11063,"ĠChair":11064,"20070":11065,"Ġretiring":11066,"genet":11067,"general":11068,"ĠKW":11069,"phur":11070,"Ġquote":11071,"Ġ51":11072,"Ġfacility":11073,"Ġinflic":11074,"weight":11075,"problem":11076,"progress":11077,"Ġminutes":11078,"ĠYew":11079,"Ġregional":11080,"Ġregulated":11081,"Ġsmoking":11082,"Ġreveals":11083,"Ġreferences":11084,"Ġ101":11085,"newshub":11086,"ĠDeatrick":11087,"Ġpolicymakers":11088,"Ġnegot":11089,"Ġrealities":11090,"10208":11091,"Ġpurification":11092,"Ġrecall":11093,"Ġ950":11094,"Ġformal":11095,"Ġexpectation":11096,"502":11097,"princeton":11098,"ĠSCWRs":11099,"Ġpassion":11100,"ĠConversely":11101,"Ġimmunity":11102,"bris":11103,"Ġtransported":11104,"Ġdirector":11105,"Ġpractic":11106,"Ġpractition":11107,"Ġviewpoints":11108,"Ġclothes":11109,"angible":11110,"Ġrestaur":11111,"teen":11112,"Ġguard":11113,"ĠMaybe":11114,"Ġdoubled":11115,"Ġcores":11116,"Ġcomputing":11117,"articlerender":11118,"Ġclearance":11119,"Ġemerge":11120,"services":11121,"scrib":11122,"screening":11123,"scape":11124,"Ġdams":11125,"Ġspecialists":11126,"132":11127,"ĠCompaq":11128,"ĠPlus":11129,"Ġkinetic":11130,"ĠarticleID":11131,"white":11132,"Ġcovering":11133,"Ġassociate":11134,"Ġnurse":11135,"elson":11136,"Ġdestination":11137,"Ġmov":11138,"Ġblamed":11139,"etroit":11140,"Ġquestioned":11141,"CRP":11142,"retirement":11143,"rfidconsultation":11144,"164":11145,"Ġcontractor":11146,"ĠImpact":11147,"Ġdiagnose":11148,"Ġresolution":11149,"ĠCohen":11150,"ĠInnovative":11151,"Ġcheapest":11152,"ĠBuy":11153,"standards":11154,"Ġcorrective":11155,"ĠZha":11156,"ĠTraffic":11157,"Ġviolated":11158,"Ġweaponry":11159,"sheets":11160,"Ġkidney":11161,"Ġartid":11162,"Ġzone":11163,"Ġalleviated":11164,"pubs":11165,"Ġneighboring":11166,"Ġstrengths":11167,"ĠGroups":11168,"Ġprecision":11169,"Ġillustrates":11170,"Ġduties":11171,"ĠTeck":11172,"Ġrejection":11173,"PMAnn":11174,"reliable":11175,"speech":11176,"ĠConsumers":11177,"hydrogen":11178,"Ġexchanger":11179,"ĠArticleURL":11180,"ĠMonitor":11181,"ĠLonger":11182,"agazines":11183,"Ġmicrochip":11184,"Ġteacher":11185,"Ġglue":11186,"ĠFuels":11187,"Ġappreciated":11188,"ĠKhoo":11189,"Ġlegisl":11190,"Ġdeprive":11191,"ĠNetwork":11192,"ĠJacobs":11193,"Ġassumption":11194,"Ġnegligible":11195,"PACT":11196,"robotic":11197,"Ġisolation":11198,"Ġperceive":11199,"Ġsteadily":11200,"ĠFacility":11201,"Ġpermanently":11202,"ĠKnowing":11203,"ĠNeil":11204,"ustainable":11205,"Ġrecommend":11206,"Ġshifted":11207,"Ġshifting":11208,"Ġprivileges":11209,"Ġeligibility":11210,"Ġholistic":11211,"ĠDirector":11212,"Ġpressurized":11213,"ĠAngelique":11214,"ĠCertainly":11215,"cription":11216,"Ġcaregiver":11217,"Item":11218,"Ġcompensate":11219,"Ġmonopol":11220,"support":11221,"Ġcandidate":11222,"Ġcandidates":11223,"Ġskeptics":11224,"Ġfibrosis":11225,"ĠMemory":11226,"AMCRP":11227,"ĠMalaysian":11228,"details":11229,"Ġsulphur":11230,"ĠVarga":11231,"erprise":11232,"Ġbeneficiaries":11233,"Ġcolleag":11234,"Ġstigma":11235,"ĠMentor":11236,"ĠParliament":11237,"ĠAssessment":11238,"Ġprudent":11239,"ĠHansen":11240,"ĠGetz":11241,"Ġdismissed":11242,"quiry":11243,"ĠHejzlar":11244,"ĠTokyo":11245,"ĠPuat":11246,"Ġautonomy":11247,"Ġimperfect":11248,"Ġtunnel":11249,"Ġcatered":11250,"Ġfellow":11251,"Ġrewarding":11252,"ĠPollution":11253,"Ġgratitude":11254,"ĠArizona":11255,"iovascular":11256,"ĠZhao":11257,"PMAnnex":11258,"gile":11259,"hospital":11260,"ien":11261,"ipping":11262,"lines":11263,"mas":11264,"oor":11265,"Ġx":11266,"Ġtu":11267,"Ġtries":11268,"Ġtens":11269,"Ġaest":11270,"Ġsounds":11271,"Ġpy":11272,"isive":11273,"isfact":11274,"Ġfruits":11275,"Ġdim":11276,"Ġdedu":11277,"Ġeases":11278,"ctors":11279,"Ġbearing":11280,"ĠTill":11281,"street":11282,"Ġproduc":11283,"Ġforcing":11284,"ĠAward":11285,"ĠRam":11286,"Ġalter":11287,"ĠHotel":11288,"Ġstereoty":11289,"Ġsho":11290,"Ġshrink":11291,"Ġexport":11292,"ample":11293,"ĠFA":11294,"Ġimbal":11295,"ĠThorium":11296,"ĠWW":11297,"Ġrub":11298,"ĠBr":11299,"ĠBan":11300,"ĠBanks":11301,"Ġcounty":11302,"Ġadmit":11303,"Ġlever":11304,"ĠSelect":11305,"Ġrelies":11306,"Ġtraced":11307,"Ġtrapped":11308,"Ġarray":11309,"Ġjump":11310,"oseph":11311,"Ġadvisory":11312,"ĠReprocessing":11313,"ailed":11314,"Ġinstilled":11315,"generate":11316,"ĠKel":11317,"Ġlowers":11318,"ĠUnit":11319,"exas":11320,"exts":11321,"Ġhandy":11322,"Ġstudied":11323,"Ġregist":11324,"Ġtransition":11325,"depend":11326,"Ġchecking":11327,"Ġ911":11328,"Ġentrance":11329,"Ġboil":11330,"Ġfeels":11331,"Ġminimization":11332,"Ġsubsidise":11333,"Ġconsiderate":11334,"Ġestimate":11335,"Ġlightbulb":11336,"Ġbreaking":11337,"Ġseemed":11338,"Ġharms":11339,"Ġguards":11340,"Ġenvironmentalists":11341,"Ġinflux":11342,"Ġremained":11343,"Ġ146":11344,"Ġdetecting":11345,"Ġperiods":11346,"Ġstructured":11347,"ĠDesigning":11348,"Ġaiming":11349,"Ġworkshop":11350,"Ġburns":11351,"Ġinheritable":11352,"Ġprospective":11353,"ĠLFRs":11354,"Ġnurture":11355,"Ġspeeds":11356,"Ġsuperv":11357,"Ġquestionable":11358,"Ġconnecting":11359,"Ġposted":11360,"ometer":11361,"Ġgraduate":11362,"Ġrepres":11363,"Ġexploration":11364,"Ġverify":11365,"ĠWorkforce":11366,"Ġstorey":11367,"Ġruling":11368,"skilled":11369,"ĠPatient":11370,"emporary":11371,"Ġstimulated":11372,"Ġexecuted":11373,"Ġsymptom":11374,"Ġbeds":11375,"ĠLimited":11376,"Ġprecisely":11377,"ĠScreening":11378,"ĠRelatives":11379,"Ġsafeguards":11380,"Ġdeeply":11381,"Ġisolate":11382,"Ġlength":11383,"Ġpursuit":11384,"Ġharnessing":11385,"Ġexploitation":11386,"Ġpurely":11387,"ĠBreast":11388,"Ġenrichment":11389,"ĠNobel":11390,"Ġignorance":11391,"Ġvirtually":11392,"ĠCollapse":11393,"Ġpirated":11394,"Ġbeautiful":11395,"ĠPredications":11396,"ĠWatchdog":11397,"ĠEmergency":11398,"Ġcompatible":11399,"Ġinferior":11400,"ĠiPhone":11401,"depth":11402,"stuffworks":11403,"ĠLarge":11404,"Ġamazing":11405,"Ġsharply":11406,"isfaction":11407,"220":11408,"440":11409,"438":11410,"57":11411,"63":11412,"609":11413,"717":11414,"81":11415,"800":11416,"839":11417,"AA":11418,"BI":11419,"CM":11420,"Current":11421,"Chem":11422,"DI":11423,"Date":11424,"EL":11425,"Feb":11426,"GT":11427,"GIF":11428,"HDB":11429,"Ind":11430,"IST":11431,"Net":11432,"Qu":11433,"RF":11434,"Spe":11435,"UN":11436,"Vol":11437,"Version":11438,"bid":11439,"baby":11440,"bentz":11441,"cin":11442,"cure":11443,"di":11444,"dem":11445,"dia":11446,"eing":11447,"equ":11448,"euthanasia":11449,"foundation":11450,"gp":11451,"hd":11452,"hon":11453,"ko":11454,"kol":11455,"lap":11456,"nst":11457,"nman":11458,"nrc":11459,"nuffield":11460,"oen":11461,"pg":11462,"pal":11463,"pie":11464,"pany":11465,"rdoc":11466,"rank":11467,"tj":11468,"zS":11469,"Ġtire":11470,"inational":11471,"reach":11472,"Ġsem":11473,"Ġsport":11474,"Ġoct":11475,"Ġost":11476,"Ġcuring":11477,"Ġcrops":11478,"esign":11479,"orosis":11480,"edge":11481,"Ġfut":11482,"icity":11483,"Ġmill":11484,"Ġmac":11485,"Ġmice":11486,"Ġdirty":11487,"Ġdiesel":11488,"ari":11489,"Ġerect":11490,"Ġredesign":11491,"Ġthri":11492,"Ġgift":11493,"ĠTrain":11494,"stanford":11495,"chm":11496,"cht":11497,"Ġproactive":11498,"sein":11499,"igra":11500,"ĠSal":11501,"ĠSter":11502,"ĠSie":11503,"ĠSeng":11504,"ĠIll":11505,"utting":11506,"ucl":11507,"ucca":11508,"Ġconve":11509,"Ġenriched":11510,"opin":11511,"opics":11512,"olved":11513,"ayton":11514,"ĠRight":11515,"ĠREA":11516,"Ġalerted":11517,"ĠHT":11518,"ĠHam":11519,"ĠHouse":11520,"ĠHomel":11521,"ĠHanny":11522,"ithium":11523,"Ġagents":11524,"Ġwhilst":11525,"Ġhes":11526,"tta":11527,"thal":11528,"iest":11529,"ĠCi":11530,"ĠCre":11531,"ĠCard":11532,"usable":11533,"gered":11534,"ĠMail":11535,"ĠMilitary":11536,"ĠMiles":11537,"ĠFis":11538,"ĠFar":11539,"ĠFull":11540,"Ġsoar":11541,"ĠNish":11542,"eoporosis":11543,"ĠThink":11544,"ĠPg":11545,"ĠPad":11546,"acct":11547,"Ġresident":11548,"Ġdisput":11549,"Ġdisposed":11550,"ĠWind":11551,"ĠBal":11552,"ĠBra":11553,"ĠBall":11554,"ĠBurn":11555,"ĠBrad":11556,"ĠBrown":11557,"ĠBaidu":11558,"ĠBoston":11559,"ĠBRCA":11560,"quez":11561,"ĠOcc":11562,"ĠOffic":11563,"ĠExt":11564,"ĠGord":11565,"andal":11566,"Ġadhere":11567,"ĠDi":11568,"ĠDrug":11569,"ĠDetroit":11570,"Ġlocked":11571,"Ġpref":11572,"Ġprev":11573,"Ġunim":11574,"Ġuncomfort":11575,"Ġunreliable":11576,"Ġabstract":11577,"Ġmanually":11578,"Ġvs":11579,"Ġvicious":11580,"ĠLou":11581,"ĠLaptop":11582,"ĠLaun":11583,"ĠLUP":11584,"Ġlease":11585,"Ġemail":11586,"abt":11587,"ĠSeah":11588,"terity":11589,"Ġperceptions":11590,"ĠJon":11591,"ĠJae":11592,"Ġconsensus":11593,"sian":11594,"Ġ1930":11595,"Ġimports":11596,"Ġarbit":11597,"Ġedition":11598,"Ġappoint":11599,"rowse":11600,"rowth":11601,"ĠOncology":11602,"iokol":11603,"Ġcommission":11604,"Ġcommittees":11605,"ĠRepublic":11606,"Ġrot":11607,"genic":11608,"Ġ42":11609,"ckets":11610,"Ġserved":11611,"ĠKenn":11612,"ĠKuan":11613,"Ġphysi":11614,"ĠStaff":11615,"isease":11616,"Ġ68":11617,"Ġ510":11618,"Ġ5000":11619,"Ġcompanions":11620,"rings":11621,"Ġinfant":11622,"Ġinflex":11623,"Ġcred":11624,"byopia":11625,"yspace":11626,"ĠTock":11627,"Ġsigned":11628,"ĠYucca":11629,"Ġoffenders":11630,"Ġclick":11631,"intensive":11632,"Ġobsole":11633,"Ġcoop":11634,"Ġcook":11635,"heng":11636,"positions":11637,"Ġsmog":11638,"Ġsmoke":11639,"ounded":11640,"Ġstrangers":11641,"Ġmodular":11642,"eeb":11643,"ronically":11644,"1011":11645,"Ġsett":11646,"Ġvaries":11647,"Ġglobalised":11648,"Ġ800":11649,"Ġequate":11650,"Ġprofile":11651,"Ġprescription":11652,"Ġdefinite":11653,"Ġawarded":11654,"Ġcentigra":11655,"Ġsale":11656,"ierce":11657,"Ġintervene":11658,"Ġtells":11659,"295":11660,"Ġexplored":11661,"209":11662,"309":11663,"Ġgrace":11664,"itories":11665,"Ġassisting":11666,"riger":11667,"docanch":11668,"Ġinfluential":11669,"Ġrelieved":11670,"ukes":11671,"Ġshares":11672,"Ġ253":11673,"Ġ01":11674,"Ġ02":11675,"Ġcharity":11676,"Ġcharges":11677,"1951":11678,"screen":11679,"ĠNewspaper":11680,"Ġattacked":11681,"Ġutilised":11682,"Ġdiscussing":11683,"Ġcatal":11684,"Ġobjected":11685,"Genome":11686,"6567":11687,"ĠScienceDaily":11688,"insight":11689,"Ġboosts":11690,"Ġpositioning":11691,"Ġdelays":11692,"Ġvulnerability":11693,"Ġresolving":11694,"Ġvisually":11695,"Ġflood":11696,"ĠCooperation":11697,"enna":11698,"ĠPrimary":11699,"Ġmanufactured":11700,"ĠClar":11701,"eynman":11702,"Ġleadership":11703,"ĠRadioactive":11704,"Ġbiom":11705,"Ġviolence":11706,"Ġoptimized":11707,"Ġembry":11708,"sheet":11709,"ĠAbra":11710,"Ġcardiovascular":11711,"ĠMacbook":11712,"Ġroadmap":11713,"Ġabandoning":11714,"Ġfacilitates":11715,"Ġcapacities":11716,"ĠKorean":11717,"help":11718,"Ġcorporation":11719,"Ġdiscussions":11720,"Ġadapted":11721,"Ġdistribute":11722,"pubn":11723,"Ġpanic":11724,"ski":11725,"Ġincurring":11726,"ĠDisadvantages":11727,"Nuclearpower":11728,"disasters":11729,"ĠMcK":11730,"techresources":11731,"ĠObst":11732,"371":11733,"Ġinterpret":11734,"Ġhappier":11735,"Ġtalked":11736,"Ġredef":11737,"ĠLease":11738,"PMGT":11739,"Ġconvince":11740,"Ġexpressed":11741,"Ġattributes":11742,"brecht":11743,"fileLibrary":11744,"Ġcelebr":11745,"resentation":11746,"ĠOutlook":11747,"Ġpeaceful":11748,"ĠYouTube":11749,"Ġtriple":11750,"Ġappreciation":11751,"ĠGuide":11752,"Ġwonderful":11753,"Ġtriggered":11754,"Ġmagnitude":11755,"Ġrailings":11756,"Ġcalculated":11757,"Ġbroke":11758,"ĠCorrosion":11759,"Ġvessels":11760,"Ġsurfaces":11761,"Ġsurfaced":11762,"ĠNetherland":11763,"Ġpolluting":11764,"Display":11765,"ĠChem":11766,"Ġcorrespond":11767,"Ġsmartphones":11768,"Ġbrake":11769,"Ġpillar":11770,"ĠMediSave":11771,"sembly":11772,"Ġdeployment":11773,"Ġcomplac":11774,"findarticles":11775,"track":11776,"Ġalloy":11777,"piratory":11778,"Ġprivileged":11779,"Ġtoilet":11780,"ĠDisclosure":11781,"Ġrepeated":11782,"ĠAnyway":11783,"Ġprisoners":11784,"Ġfatig":11785,"ĠIMPACT":11786,"Ġprompted":11787,"dailymail":11788,"Ġpiping":11789,"ĠWilliams":11790,"ĠDenise":11791,"ĠDenmark":11792,"faq":11793,"ĠComparisons":11794,"Ġsurprisingly":11795,"ĠSyndrome":11796,"Ġvarying":11797,"Ġsilicon":11798,"sighted":11799,"Ġarrive":11800,"polluting":11801,"Ġmishap":11802,"ĠTaylor":11803,"urlVersion":11804,"protected":11805,"Ġcomplaints":11806,"Ġkilometers":11807,"ĠCambridge":11808,"baike":11809,"ĠTrends":11810,"Ġvapor":11811,"profit":11812,"Ġkilogram":11813,"ĠPolitical":11814,"Ġsponsors":11815,"Ġinspired":11816,"Ġflourish":11817,"controlled":11818,"ETRY":11819,"Ġtherapy":11820,"ĠAttack":11821,"Ġsummarize":11822,"aindur":11823,"ĠStephen":11824,"Members":11825,"ĠAppendix":11826,"Ġconfigur":11827,"ĠMegawati":11828,"ausible":11829,"coverDate":11830,"fmt":11831,"Ġubiquitous":11832,"Ġsuspicious":11833,"Ġshielding":11834,"ovolta":11835,"scientificamerican":11836,"Ġunforeseen":11837,"Surveillance":11838,"ĠPachano":11839,"Ġirrigation":11840,"Ġsqueeze":11841,"ĠInitially":11842,"washingtonpost":11843,"Ġpedest":11844,"ĠTodd":11845,"ĠAIDS":11846,"ĠHaptic":11847,"ĠMarshall":11848,"ĠNGNP":11849,"ĠPolice":11850,"ĠDiverting":11851,"Ġempty":11852,"Itemid":11853,"Ġcolleagues":11854,"839371":11855,"nuffieldbioethics":11856,"ĠSterbentz":11857,"ĠSieberg":11858,"Ġuncomfortable":11859,"ĠJaeger":11860,"Ġobsolete":11861,"Ġcentigrade":11862,"docanchor":11863,"AD":11864,"May":11865,"base":11866,"burn":11867,"camer":11868,"called":11869,"date":11870,"fight":11871,"government":11872,"grounds":11873,"hang":11874,"mally":11875,"mates":11876,"rary":11877,"sides":11878,"task":11879,"uity":11880,"inic":11881,"rec":11882,"rew":11883,"Ġcub":11884,"iser":11885,"eday":11886,"edged":11887,"itting":11888,"Ġfed":11889,"Ġbone":11890,"Ġdare":11891,"Ġdual":11892,"Ġec":11893,"ashes":11894,"ldly":11895,"omical":11896,"Ġgrounds":11897,"ĠTop":11898,"Ġproving":11899,"idst":11900,"irds":11901,"Ġdep":11902,"Ġcancers":11903,"this":11904,"Ġexac":11905,"Ġexaggerated":11906,"ĠMus":11907,"ĠMuch":11908,"adem":11909,"Ġworn":11910,"ĠNO":11911,"Ġdisappro":11912,"ĠBlo":11913,"Ġprede":11914,"Ġabort":11915,"Ġabroad":11916,"Ġvit":11917,"Ġvig":11918,"Ġvac":11919,"Ġconting":11920,"Ġcontemporary":11921,"Ġaccord":11922,"terror":11923,"ĠJoseph":11924,"ĠForce":11925,"Ġyearly":11926,"renched":11927,"Ġcareers":11928,"Ġexamined":11929,"Ġwellness":11930,"Ġoverly":11931,"Ġdiscarded":11932,"Ġgov":11933,"Ġdecisive":11934,"Ġadvised":11935,"ressing":11936,"ĠChicago":11937,"ailing":11938,"Ġnovel":11939,"Ġattended":11940,"Ġattending":11941,"Ġquiet":11942,"ĠStand":11943,"Ġradar":11944,"Ġdetractors":11945,"Ġtransform":11946,"Ġtransformation":11947,"Ġtermed":11948,"ĠWorks":11949,"Ġcontinually":11950,"ĠDementia":11951,"Ġ96":11952,"isms":11953,"Ġforming":11954,"Ġschedule":11955,"Ġsensible":11956,"Ġmethodology":11957,"Ġ---":11958,"Ġairplane":11959,"Ġviewpoint":11960,"Ġclaiming":11961,"Ġaffordability":11962,"Ġdetermination":11963,"Ġassistant":11964,"Ġaccounted":11965,"Ġapplicants":11966,"Ġcuts":11967,"Ġtyping":11968,"Ġsomeday":11969,"Ġhearts":11970,"Ġethically":11971,"Ġutilizing":11972,"Ġopens":11973,"ĠEconomy":11974,"class":11975,"---":11976,"ĠNormally":11977,"Ġrecognised":11978,"Ġfullest":11979,"Ġviability":11980,"Ġboosting":11981,"Ġfunctioning":11982,"Ġunderstandable":11983,"Ġchemistry":11984,"Ġdeplete":11985,"ĠPrivate":11986,"ĠImple":11987,"Ġprofitability":11988,"Ġinteracting":11989,"Ġvisiting":11990,"Ġfloors":11991,"Ġsooner":11992,"Ġcorrectly":11993,"Ġpredicting":11994,"Ġfavourable":11995,"Ġseparation":11996,"Ġcopying":11997,"ĠTransfer":11998,"Ġalleviating":11999,"ĠGeorge":12000,"Ġmuscles":12001,"ĠUnderstanding":12002,"Ġstrikes":12003,"Ġevaluating":12004,"Ġhindering":12005,"cuit":12006,"howstuffworks":12007,"Ġaccommodation":12008,"Ġparticipating":12009,"Ġdescend":12010,"ĠEspecially":12011,"Ġpackage":12012,"Ġescaping":12013,"Ġenterprise":12014,"ĠIncrease":12015,"Ġinexper":12016,"Ġquantities":12017,"market":12018,"Ġoverwhelmed":12019,"Ġwisdom":12020,"Ġvibration":12021,"Ġwatching":12022,"Ġburdensome":12023,"Ġpursuing":12024,"wordpress":12025,"ĠPsychological":12026,"Ġexclusive":12027,"Ġmarginal":12028,"Ġgoverning":12029,"Ġtheoretically":12030,"Ġretailers":12031,"Ġcultivating":12032,"Ġprioritized":12033,"Ġearthquake":12034,"Ġearthquakes":12035,"ĠMulti":12036,"Ġfemale":12037,"Ġligaments":12038,"Therefore":12039,"Ġhorrible":12040,"Ġembrace":12041,"Ġgiant":12042,"Ġassigned":12043,"ĠPersonally":12044,"Ġtaxpayers":12045,"Ġorient":12046,"Ġinduced":12047,"Ġcushion":12048,"ilosoph":12049,"Ġconjunction":12050,"Ġdispute":12051,"Ġexacer":12052,"Ġpredecess":12053,"020":12054,"211":12055,"449":12056,"477":12057,"709":12058,"819":12059,"865":12060,"845":12061,"90":12062,"As":12063,"ATION":12064,"BE":12065,"Bu":12066,"Bulletin":12067,"Can":12068,"City":12069,"DO":12070,"Down":12071,"Donald":12072,"Detail":12073,"EAR":12074,"GL":12075,"GS":12076,"Global":12077,"Home":12078,"HTR":12079,"History":12080,"IQ":12081,"NSS":12082,"OP":12083,"Pr":12084,"Polic":12085,"RL":12086,"Safety":12087,"TC":12088,"TE":12089,"Work":12090,"bour":12091,"bia":12092,"bank":12093,"browse":12094,"cool":12095,"council":12096,"curric":12097,"discrimination":12098,"een":12099,"elect":12100,"fig":12101,"fac":12102,"fall":12103,"gc":12104,"gg":12105,"hill":12106,"hatt":12107,"haz":12108,"iences":12109,"jm":12110,"jud":12111,"kids":12112,"mm":12113,"min":12114,"mann":12115,"personal":12116,"published":12117,"paren":12118,"rm":12119,"ratic":12120,"sest":12121,"sens":12122,"train":12123,"tai":12124,"vo":12125,"vob":12126,"watch":12127,"winter":12128,"waste":12129,"yours":12130,"zV":12131,"zo":12132,"Ġ00":12133,"Ġtear":12134,"heum":12135,"initely":12136,"inction":12137,"rev":12138,"Ġtheat":12139,"erating":12140,"ersey":12141,"environment":12142,"Ġsli":12143,"aty":12144,"Ġcul":12145,"Ġpa":12146,"Ġwet":12147,"itance":12148,"Ġfan":12149,"Ġfly":12150,"Ġfather":12151,"Ġfash":12152,"Ġfierce":12153,"Ġboss":12154,"Ġinduce":12155,"icks":12156,"roft":12157,"Ġmount":12158,"Ġancient":12159,"Ġancest":12160,"Ġdil":12161,"Ġdark":12162,"Ġdumping":12163,"Ġhalt":12164,"Ġhunger":12165,"Ġelev":12166,"ctu":12167,"asquez":12168,"Ġrepl":12169,"ilia":12170,"loved":12171,"Ġglo":12172,"ĠTs":12173,"ĠTem":12174,"ĠTef":12175,"etitive":12176,"ette":12177,"chill":12178,"sevi":12179,"ided":12180,"Ġlung":12181,"uranium":12182,"otive":12183,"ĠSher":12184,"ĠSay":12185,"ĠSons":12186,"ĠSvob":12187,"ĠIde":12188,"owder":12189,"Ġasking":12190,"Ġdebris":12191,"opo":12192,"ĠHand":12193,"ĠHappy":12194,"Ġnotify":12195,"ifier":12196,"Ġstock":12197,"anti":12198,"antly":12199,"Ġshot":12200,"Ġshock":12201,"ĠCop":12202,"ĠCult":12203,"ĠChen":12204,"ĠCOM":12205,"ĠCarriage":12206,"ĠClean":12207,"arer":12208,"unch":12209,"ĠMic":12210,"ĠMag":12211,"ĠMex":12212,"ĠMath":12213,"ĠMorton":12214,"ĠMyspace":12215,"ĠFDA":12216,"ĠFailure":12217,"ester":12218,"umes":12219,"Ġ120":12220,"echnovel":12221,"ĠNelson":12222,"ĠPU":12223,"ĠPublished":12224,"ĠPacific":12225,"ĠPRO":12226,"asts":12227,"astava":12228,"Ġdisting":12229,"Ġdispar":12230,"Ġdiscipl":12231,"ĠWider":12232,"Ġring":12233,"Ġrated":12234,"ĠBed":12235,"ĠBest":12236,"ĠBush":12237,"ĠBulletin":12238,"osomal":12239,"ĠOst":12240,"ĠOak":12241,"ĠEarly":12242,"ĠGi":12243,"ĠGar":12244,"ĠGree":12245,"ĠGraph":12246,"ĠGerald":12247,"istive":12248,"conf":12249,"Ġplausible":12250,"Ġcompos":12251,"Ġcompress":12252,"Ġcompounds":12253,"Ġloses":12254,"Ġunion":12255,"Ġcontrad":12256,"ĠVis":12257,"ductions":12258,"ĠLess":12259,"ĠLyn":12260,"early":12261,"Ġkills":12262,"ĠkWh":12263,"ĠAsked":12264,"terms":12265,"ĠJoint":12266,"ĠJersey":12267,"Ġtraits":12268,"ounding":12269,"Ġ1964":12270,"Ġrisperidone":12271,"Ġ202005":12272,"ĠGenIV":12273,"ologies":12274,"Ġissued":12275,"Ġadvise":12276,"ĠAlbrecht":12277,"Ġinformal":12278,"ĠRead":12279,"ailment":12280,"ĠAnaly":12281,"ĠEnh":12282,"Ġrocket":12283,"Ġ4000":12284,"Ġfeared":12285,"ĠKy":12286,"ĠKahn":12287,"phy":12288,"Ġphases":12289,"ĠStar":12290,"ĠStone":12291,"ĠStructure":12292,"ĠStump":12293,"ĠStanford":12294,"ĠStrong":12295,"ĠStrategy":12296,"oken":12297,"Ġ58":12298,"liance":12299,"othing":12300,"ĠProduction":12301,"lobe":12302,"ethical":12303,"Ġsimulation":12304,"Ġtransm":12305,"integ":12306,"ordable":12307,"Ġcoinc":12308,"Ġowning":12309,"Ġinserted":12310,"Ġinspection":12311,"Ġhyp":12312,"Ġsmell":12313,"ĠHeat":12314,"ĠDebate":12315,"irectly":12316,"Ġdependable":12317,"Ġshortest":12318,"ĠWhit":12319,"ĠWhittle":12320,"Ġapprove":12321,"Ġchooses":12322,"Ġ747":12323,"Ġprofound":12324,"200907":12325,"Ġpresbyopia":12326,"Ġdefines":12327,"Ġsenile":12328,"Ġyoungsters":12329,"Ġcorners":12330,"Ġseriousness":12331,"ĠAdams":12332,"Ġautosomal":12333,"ĠConfidentiality":12334,"Ġimmoral":12335,"aths":12336,"Ġ239":12337,"Ġgravity":12338,"Ġclosest":12339,"Ġreactants":12340,"Ġwanting":12341,"boom":12342,"Ġactivate":12343,"Ġtechnically":12344,"netwellness":12345,"Ġendanger":12346,"ecology":12347,"ĠIndian":12348,"Ġpositively":12349,"facts":12350,"spy":12351,"Ġutility":12352,"Ġmanageable":12353,"Ġbirthrate":12354,"ĠFinland":12355,"ĠShort":12356,"128":12357,"Ġcycl":12358,"Ġ06":12359,"Ġethic":12360,"195":12361,"Ġ303":12362,"Ġspecified":12363,"useum":12364,"Ġlocating":12365,"ĠArrange":12366,"259":12367,"Ġanalytical":12368,"Ġburned":12369,"TAR":12370,"Ġpoorly":12371,"ĠOpportun":12372,"dock":12373,"rival":12374,"Ġsatisfies":12375,"239":12376,"Ġsupervision":12377,"insurance":12378,"rugge":12379,"healthcare":12380,"iscoll":12381,"Ġcatering":12382,"Ġdenying":12383,"Ġintegration":12384,"Ġvolat":12385,"ĠPhD":12386,"Ġcontacts":12387,"Ġsimplification":12388,"Ġsimplicity":12389,"Ġvisits":12390,"Ġclasses":12391,"ophilia":12392,"artha":12393,"Ġ2400":12394,"ĠClayton":12395,"ĠAcadem":12396,"Ġrevise":12397,"Ġdevised":12398,"Ġaccumulating":12399,"ĠCIA":12400,"Ġpredictable":12401,"Ġpredictions":12402,"Ġcivilization":12403,"ĠBiometrics":12404,"cano":12405,"Ġexplan":12406,"Ġswift":12407,"ĠEmployees":12408,"ovt":12409,"ĠQuality":12410,"radio":12411,"ĠGeographic":12412,"Ġbroadband":12413,"Ġfluctu":12414,"Ġoccupy":12415,"Ġstriking":12416,"Ġneighborhood":12417,"ĠLiber":12418,"Ġincorporates":12419,"Ġillustration":12420,"ĠChanging":12421,"ĠRobots":12422,"ĠGreenha":12423,"Ġcategorized":12424,"userid":12425,"Ġfitness":12426,"Ġbarrel":12427,"Resource":12428,"Research":12429,"353":12430,"Ġexecution":12431,"ĠSchoen":12432,"ĠCNN":12433,"businessweek":12434,"ĠPresently":12435,"auto":12436,"Ġgeothermal":12437,"Ġmicrochips":12438,"rayton":12439,"Ġinfected":12440,"Ġinfection":12441,".../":12442,"Ġranges":12443,"ĠSubsidies":12444,"Ġbanking":12445,"Ġrepositories":12446,"Ġappealing":12447,"Intern":12448,"ĠTests":12449,"Ġtranslated":12450,"Chapter":12451,"Ġexpanded":12452,"ĠPhysics":12453,"Ġinjection":12454,"ĠNEWater":12455,"Ġvoices":12456,"Ġcrack":12457,"Ġwalkways":12458,"Ġabnormalities":12459,"ĠAlternative":12460,"Documents":12461,"Ġpursued":12462,"Ġinheritance":12463,"Ġharnessed":12464,"Ġstreet":12465,"Ġconceal":12466,"Ġbiometrics":12467,"ĠExperience":12468,"Ġcrossing":12469,"Ġluxurious":12470,"antonio":12471,"Ġprohibit":12472,"Ġwithdrawal":12473,"ĠHerring":12474,"ĠCAI":12475,"ĠComparison":12476,"ĠAndrews":12477,"ĠCarlsson":12478,"Sharing":12479,"ĠMercer":12480,"ĠNobody":12481,"ĠMalaysians":12482,"Ġelectroly":12483,"ĠClotting":12484,"Ġscholarships":12485,"ĠCamera":12486,"Ġterrible":12487,"ĠTaiwan":12488,"Ġshops":12489,"varian":12490,"ĠREFERENCES":12491,"Ġavenues":12492,"Ġhospice":12493,"ĠMiddle":12494,"ĠPopatl":12495,"ĠLabour":12496,"Ġscanner":12497,"21729":12498,"hisi":12499,"ĠThermal":12500,"ĠFollowing":12501,"ĠNursing":12502,"ĠVelasquez":12503,"ĠLanka":12504,"servlets":12505,"Ġmetallic":12506,"machine":12507,"ĠRoyal":12508,"ĠCanadian":12509,"ĠYeoh":12510,"oecd":12511,"windling":12512,"ĠMountain":12513,"ĠEditorial":12514,"ĠJenner":12515,"genetest":12516,"Ġmillenn":12517,"ĠPaddock":12518,"ĠGordon":12519,"Ġcompanionship":12520,"eebrugge":12521,"19516567":12522,"NSSC":12523,"curricular":12524,"hattan":12525,"parency":12526,"yoursdp":12527,"heumat":12528,"sevier":12529,"ĠSvoboda":12530,"echnovelgy":12531,"ĠGreenhaven":12532,"ĠPopatlal":12533,"Gas":12534,"HR":12535,"Hy":12536,"NO":12537,"System":12538,"blo":12539,"cence":12540,"coll":12541,"dd":12542,"fam":12543,"rances":12544,"west":12545,"enc":12546,"eness":12547,"Ġson":12548,"Ġsad":12549,"Ġscare":12550,"Ġsamples":12551,"Ġoce":12552,"Ġcouncil":12553,"Ġpoured":12554,"orised":12555,"itic":12556,"Ġbrib":12557,"Ġmile":12558,"Ġmood":12559,"Ġdump":12560,"Ġhierarchy":12561,"Ġreass":12562,"Ġgate":12563,"eties":12564,"stop":12565,"stream":12566,"Ġ250":12567,"ĠShe":12568,"ĠSect":12569,"Ġfork":12570,"Ġconvey":12571,"Ġenrol":12572,"ola":12573,"Ġalerts":12574,"Ġsuited":12575,"Ġstuff":12576,"usions":12577,"ĠFight":12578,"ĠFocus":12579,"Ġbyproduct":12580,"keley":12581,"Ġimpetus":12582,"Ġranks":12583,"ĠBel":12584,"ĠBio":12585,"Ġusability":12586,"isting":12587,"ulty":12588,"Ġunknow":12589,"Ġuneducated":12590,"identification":12591,"forth":12592,"comed":12593,"ĠLon":12594,"Ġleap":12595,"Ġmedisave":12596,"Ġtragic":12597,"ĠForm":12598,"Ġample":12599,"Ġwellbeing":12600,"ĠReveal":12601,"ĠReasons":12602,"Ġbenefiting":12603,"Ġretrenched":12604,"unday":12605,"Ġspo":12606,"ĠStein":12607,"Ġcaution":12608,"Ġmines":12609,"ĠToy":12610,"iminary":12611,"Ġclients":12612,"ĠComing":12613,"ĠSoon":12614,"Ġinsert":12615,"Ġpotable":12616,"Ġprovider":12617,"Ġshorten":12618,"Ġrealizing":12619,"Ġburdened":12620,"Ġformula":12621,"Ġilliterate":12622,"Ġbackgrounds":12623,"Ġknowledgeable":12624,"Ġprint":12625,"Ġ1982":12626,"Ġtransports":12627,"Ġdirections":12628,"Ġcontributor":12629,"Ġscr":12630,"tele":12631,"Ġhousings":12632,"Ġslowed":12633,"ĠExcess":12634,"Ġbusinessmen":12635,"Ġoppositions":12636,"Ġspecialist":12637,"Ġutilise":12638,"Ġportions":12639,"146":12640,"Ġbreaks":12641,"Ġpracticality":12642,"Ġpersu":12643,"Ġbooster":12644,"Ġviruses":12645,"Ġchanneling":12646,"Ġvisible":12647,"Ġalongside":12648,"Ġabsor":12649,"Ġcorrected":12650,"Ġobstruct":12651,"Ġdevoted":12652,"Ġdomains":12653,"Ġoptimum":12654,"ĠHelping":12655,"Ġcollection":12656,"ĠIndependent":12657,"ĠVolunt":12658,"ĠOften":12659,"Ġseparates":12660,"Ġdeclined":12661,"Ġii":12662,"Ġpeers":12663,"Ġstrains":12664,"Ġunsatisf":12665,"persed":12666,"Ġinadequately":12667,"Ġevaluated":12668,"Ġflows":12669,"Ġincorporating":12670,"Ġfragile":12671,"repared":12672,"Ġgotten":12673,"Ġhotels":12674,"ĠProducts":12675,"ĠProductivity":12676,"Ġemitting":12677,"Ġroots":12678,"Ġacquired":12679,"Ġexcite":12680,"Ġexplained":12681,"Ġcalculate":12682,"ĠFacilities":12683,"Ġvibrations":12684,"Ġattained":12685,"Ġpenal":12686,"ĠConcerned":12687,"Ġcatastrophes":12688,"ĠChangi":12689,"ĠGoing":12690,"Ġfatality":12691,"Ġbroadcasting":12692,"ĠOperating":12693,"Ġmaternity":12694,"Ġcollaborate":12695,"Ġventure":12696,"coaled":12697,"Ġwelcome":12698,"Ġsatellite":12699,"Ġnucleus":12700,"Ġligament":12701,"Ġangle":12702,"ĠMajority":12703,"ĠResponse":12704,"Ġdeliberate":12705,"Ġpioneer":12706,"Ġtrauma":12707,"circuit":12708,"Ġcounterparts":12709,"ĠInfrastructure":12710,"Ġdysfunction":12711,"Ġmovie":12712,"Ġimbalance":12713,"Ġconfiguration":12714,"Ġpedestrians":12715,"Ġdepth":12716,"Ġaccordance":12717,"Ġgovt":12718,"ilosophy":12719,"Ġfashion":12720,"Ġmillennium":12721,"040":12722,"060":12723,"026":12724,"213":12725,"450":12726,"470":12727,"426":12728,"62":12729,"711":12730,"849":12731,"92":12732,"956":12733,"Aug":12734,"Cr":12735,"Coll":12736,"DD":12737,"EC":12738,"Es":12739,"Fast":12740,"File":12741,"Flat":12742,"GEN":12743,"HL":12744,"However":12745,"IG":12746,"IH":12747,"JV":12748,"Link":12749,"LIFE":12750,"Num":12751,"Nature":12752,"NRC":12753,"Nicoll":12754,"On":12755,"Qs":12756,"Ro":12757,"Ret":12758,"Rel":12759,"SC":12760,"Sm":12761,"WK":12762,"Wor":12763,"Your":12764,"after":12765,"acious":12766,"bod":12767,"billion":12768,"bism":12769,"cm":12770,"cke":12771,"caring":12772,"dav":12773,"eo":12774,"eldershield":12775,"equality":12776,"flu":12777,"food":12778,"fang":12779,"gling":12780,"gently":12781,"ho":12782,"hor":12783,"hol":12784,"ibr":12785,"ju":12786,"june":12787,"lable":12788,"lans":12789,"mot":12790,"mag":12791,"mpr":12792,"mits":12793,"np":12794,"nuc":12795,"nest":12796,"nia":12797,"nav":12798,"oia":12799,"py":12800,"pol":12801,"pool":12802,"rue":12803,"rish":12804,"sim":12805,"shi":12806,"ters":12807,"title":12808,"upl":12809,"vin":12810,"wa":12811,"went":12812,"wire":12813,"wage":12814,"yahoo":12815,"zed":12816,"Ġtub":12817,"ini":12818,"inable":12819,"Ġscal":12820,"Ġ.................":12821,"ato":12822,"Ġcri":12823,"Ġcoura":12824,"Ġcattle":12825,"Ġcystic":12826,"Ġpin":12827,"Ġpages":12828,"orious":12829,"isks":12830,"itz":12831,"itative":12832,"Ġbol":12833,"Ġbure":12834,"Ġbones":12835,"Ġbirds":12836,"Ġinactive":12837,"alid":12838,"icient":12839,"icating":12840,"rology":12841,"Ġmur":12842,"Ġdwindling":12843,"Ġdupl":12844,"Ġhired":12845,"Ġhtm":12846,"cter":12847,"Ġnan":12848,"asures":12849,"Ġrecept":12850,"Ġreductions":12851,"illy":12852,"Ġthin":12853,"omb":12854,"Ġgym":12855,"ĠTagging":12856,"stone":12857,"storm":12858,"Ġprost":12859,"cea":12860,"igest":12861,"urable":12862,"otech":12863,"othes":12864,"ĠSens":12865,"ĠSriv":12866,"ĠSands":12867,"uts":12868,"utt":12869,"utive":12870,"utron":12871,"ĠAhead":12872,"Ġconsole":12873,"Ġenvision":12874,"Ġenlar":12875,"ription":12876,"activ":12877,"ayak":12878,"ĠRate":12879,"ĠRos":12880,"ĠRout":12881,"ĠRonald":12882,"ĠHas":12883,"ĠHall":12884,"ĠHug":12885,"ĠHaz":12886,"ĠHIPAA":12887,"Ġnotified":12888,"ifth":12889,"Ġstove":12890,"Ġstair":12891,"node":12892,"Ġhem":12893,"Ġneuro":12894,"Ġcans":12895,"Ġcancel":12896,"ĠCool":12897,"ĠCarrier":12898,"ĠCRC":12899,"apons":12900,"appendix":12901,"amber":12902,"ortium":12903,"uscript":12904,"ĠInsider":12905,"geographic":12906,"ĠMP":12907,"ĠMaterial":12908,"ĠMink":12909,"ĠMah":12910,"ĠMaking":12911,"ĠMiller":12912,"ĠFed":12913,"ĠFrench":12914,"ĠFeynman":12915,"ummary":12916,"ado":12917,"osti":12918,"icals":12919,"Ġimpover":12920,"ĠNY":12921,"ĠNich":12922,"ĠNoy":12923,"ĠThreat":12924,"ĠPal":12925,"ĠPope":12926,"ĠPara":12927,"ĠPredict":12928,"perts":12929,"Ġhass":12930,"Ġdisinteg":12931,"ĠWay":12932,"ĠWired":12933,"Ġrating":12934,"Ġrheumat":12935,"ĠBa":12936,"ĠBereano":12937,"ĠBrayton":12938,"soc":12939,"que":12940,"ĠON":12941,"ĠOtt":12942,"ĠOlym":12943,"Ġincision":12944,"ĠEst":12945,"ĠEcology":12946,"Ġcounties":12947,"ĠGru":12948,"ĠGather":12949,"istrib":12950,"andparents":12951,"condition":12952,"connect":12953,"Ġplural":12954,"Ġadmitted":12955,"Ġcompelling":12956,"ĠDel":12957,"ĠDub":12958,"Ġintangible":12959,"oneous":12960,"Ġprejud":12961,"Ġsevent":12962,"Ġseaw":12963,"Ġseeds":12964,"Ġunaff":12965,"Ġmanuscript":12966,"Ġven":12967,"Ġmagaz":12968,"ĠVer":12969,"ĠVia":12970,"ĠVulner":12971,"ĠVersion":12972,"ĠLy":12973,"ĠLind":12974,"ĠLCFR":12975,"Ġlect":12976,"Ġlethal":12977,"iah":12978,"reatable":12979,"Ġrelate":12980,"Ġrelied":12981,"Ġrelieving":12982,"ĠAsh":12983,"Ġconsortium":12984,"ounder":12985,"ardation":12986,"Ġ1900":12987,"Ġ1975":12988,"Ġlimitless":12989,"Ġimported":12990,"Ġ2011":12991,"Ġambiguous":12992,"Ġoverflow":12993,"Ġjoy":12994,"Ġedges":12995,"ĠRFIDs":12996,"enses":12997,"ensed":12998,"ĠRein":12999,"ĠReviews":13000,"ĠChris":13001,"ĠChrist":13002,"india":13003,"Ġbenefitted":13004,"Ġ3000":13005,"icsw":13006,"ĠEnc":13007,"Ġ436":13008,"ĠKar":13009,"ĠKaly":13010,"ĠKaren":13011,"arently":13012,"Ġunderwent":13013,"Ġspare":13014,"Ġspew":13015,"adeh":13016,"ĠStan":13017,"ĠStop":13018,"Ġ670":13019,"Ġdefend":13020,"Ġcreatures":13021,"ĠProcter":13022,"prove":13023,"Ġcarriage":13024,"Ġminist":13025,"Ġminute":13026,"Ġkeen":13027,"ĠYang":13028,"Ġencrypt":13029,"Ġideology":13030,"Ġjustified":13031,"Ġcoals":13032,"Ġinsisted":13033,"posing":13034,"Ġmarked":13035,"Ġcaps":13036,"Ġcapita":13037,"Ġrefined":13038,"Ġassists":13039,"Ġ104":13040,"Ġshortened":13041,"Ġrealization":13042,"Ġrealloc":13043,"Ġperformances":13044,"Ġ81":13045,"Ġ82":13046,"Ġ86":13047,"Ġ809":13048,"Ġ95":13049,"Ġ97":13050,"Ġlacked":13051,"Ġequation":13052,"Ġformulated":13053,"ossfoundation":13054,"Ġ76":13055,"Ġentry":13056,"ĠAdam":13057,"Ġpressured":13058,"293":13059,"ĠDesert":13060,"ĠConventional":13061,"Ġurgently":13062,"athy":13063,"Ġ1989":13064,"Ġ158":13065,"Ġpracticing":13066,"Ġgrab":13067,"Ġgrams":13068,"Ġgrades":13069,"Ġgracious":13070,"Ġviewing":13071,"Ġhardworking":13072,"anga":13073,"Ġorganize":13074,"Ġarguing":13075,"issance":13076,"Ġlawsu":13077,"Ġsummer":13078,"Ġ136":13079,"Ġslowdown":13080,"Ġmeanwhile":13081,"Ġradius":13082,"ĠActivities":13083,"Ġmodernization":13084,"ĠShopping":13085,"ĠShrops":13086,"Ġprobable":13087,"Ġ2520":13088,"Ġmentality":13089,"Ġcyc":13090,"together":13091,"Ġparamount":13092,"ediatric":13093,"Ġsugar":13094,"Ġportability":13095,"Ġperiodically":13096,"Ġcataly":13097,"Ġwarned":13098,"ĠArmy":13099,"workplace":13100,"climate":13101,"ĠAssociates":13102,"Ġemphasizing":13103,"Ġenhancements":13104,"Ġstealing":13105,"Ġwrink":13106,"Ġyourself":13107,"Ġkinship":13108,"Ġobjection":13109,"Ġpopularization":13110,"Ġworthless":13111,"Ġtravelers":13112,"Ġdeterred":13113,"ĠWilcke":13114,"ĠBeyond":13115,"Ġsuperiors":13116,"Ġsupervis":13117,"Ġcolon":13118,"Ġmotorb":13119,"Ġimposing":13120,"healthtopics":13121,"Ġsizeable":13122,"Ġwealthy":13123,"Ġwealthier":13124,"Ġsurviv":13125,"gnosis":13126,"ĠApplying":13127,"ĠApparently":13128,"Ġlegs":13129,"Ġposts":13130,"Ġunfounded":13131,"shared":13132,"shuttle":13133,"ĠImportant":13134,"Ġestimation":13135,"Ġgraduates":13136,"Ġcreatively":13137,"Highlights":13138,"Eng":13139,"ercity":13140,"Ġindication":13141,"Ġclassic":13142,"Ġpurchased":13143,"Ġmanufacturer":13144,"Ġfissionable":13145,"ĠAustrian":13146,"Ident":13147,"ĠZe":13148,"ĠZhang":13149,"Ġmeasured":13150,"Ġmeasurement":13151,"Ġsuspected":13152,"Ġirradiation":13153,"Ġoptimally":13154,"Ġembarr":13155,"Ġbrainstorm":13156,"Ġexplicit":13157,"Ġdeclared":13158,"ĠWorkplace":13159,"knowledge":13160,"Ġboundary":13161,"Ġofficially":13162,"Ġcriterion":13163,"Ġlistening":13164,"Ġencountering":13165,"mitting":13166,"moe":13167,"Ġunsolved":13168,"ĠAssistive":13169,"Ġunexpectedly":13170,"ĠITER":13171,"Ġvastly":13172,"Ġconcentrated":13173,"Ġjoining":13174,"Ġqualification":13175,"Ġinvasive":13176,"Ġphotovolta":13177,"Ġdescription":13178,"Ġjudgment":13179,"icedetail":13180,"ĠEngland":13181,"ĠEaston":13182,"Ġdestroying":13183,"communications":13184,"Ġworsened":13185,"Ġprincipal":13186,"hybrid":13187,"ĠCountry":13188,"breaking":13189,"Ġstrictly":13190,"ĠBarb":13191,"Ġexciting":13192,"Ġreforming":13193,"Ġchairman":13194,"Ġramp":13195,"Ġfundament":13196,"Ġsusceptibility":13197,"Ġglass":13198,"Ġdesires":13199,"Ġeyesight":13200,"ĠModule":13201,"ĠScott":13202,"Ġundet":13203,"ĠVietnamese":13204,"icrosoft":13205,"Ġupdates":13206,"EDIA":13207,"building":13208,"buzz":13209,"Ġlucky":13210,"Ġsurfing":13211,"ĠJacopo":13212,"Ġsafeguarding":13213,"ĠProfessions":13214,"humanresources":13215,"robotics":13216,"Ġdreams":13217,"Ġwishes":13218,"Ġevolving":13219,"Ġvolunteering":13220,"ĠFacing":13221,"ĠError":13222,"ĠPhysicians":13223,"ĠBernard":13224,"ĠNEWS":13225,"ĠCrime":13226,"ĠBerg":13227,"Ġinherently":13228,"Ġrepresenting":13229,"Ġsplitting":13230,"Ġbacterial":13231,"Ġabnormality":13232,"bigfuture":13233,"Ġalteration":13234,"Ġnewspapers":13235,"Ġnoticeable":13236,"Ġabsorbed":13237,"balanced":13238,"nationalgeographic":13239,"instein":13240,"wanfang":13241,"Ġgaming":13242,"Ġgamers":13243,"Ġaggressive":13244,"ĠLocal":13245,"displaystory":13246,"familytest":13247,"Ġlibrary":13248,"Healthcare":13249,"Ageing":13250,"Ġmalign":13251,"Ġholid":13252,"Ġeighty":13253,"Ġrectified":13254,"Ġiceberg":13255,"ĠBurton":13256,"ATURE":13257,"ĠRenewable":13258,"ĠMinim":13259,"ĠBrother":13260,"ĠGraham":13261,"Ġaccelerate":13262,"Ġaccelerated":13263,"Ġdryers":13264,"Ġagricultural":13265,"ĠElsevier":13266,"ĠTomita":13267,"ĠKhalil":13268,"Ġinconvenient":13269,"Ġmonopoly":13270,"NEWS":13271,"Ġderived":13272,"Ġprecautionary":13273,"Ġsunset":13274,"ĠIntelligent":13275,"Ġfaith":13276,"Ġfacial":13277,"Ġlicense":13278,"ĠNumerous":13279,"Ġmilest":13280,"ĠTruth":13281,"ĠATC":13282,"pbma":13283,"Ġoxid":13284,"________________":13285,"ĠRaven":13286,"ĠEvans":13287,"Ġsulf":13288,"ĠVarious":13289,"3010220":13290,"Ġnuclei":13291,"Ġignorant":13292,"Ġmishaps":13293,"ĠEnterprise":13294,"Ġninety":13295,"ĠCameras":13296,"ĠPsychologists":13297,"ĠApproach":13298,"NSTLQK":13299,"Ġbleeding":13300,"nextbigfuture":13301,"students":13302,"aguilar":13303,"intendo":13304,"clotting":13305,"Ġbicycles":13306,"022116":13307,"OfNuclearPower":13308,"ĠTribunal":13309,"Ġsabotage":13310,"Ġvillages":13311,"ĠRevolution":13312,"consuming":13313,"lancastercity":13314,"Ġrental":13315,"idUSTRE":13316,"ĠCoupled":13317,"ĠPositive":13318,"ĠSpringer":13319,"Ġstabilize":13320,"Ġsanitation":13321,"Ġconversation":13322,"ĠMedicare":13323,"Ġthermodynamic":13324,"ĠAutomotive":13325,"increasing":13326,"April":13327,"Education":13328,"fuelled":13329,"funded":13330,"Ġoxygen":13331,"problems":13332,"Ġpractitioners":13333,"ĠMonitoring":13334,"hospitals":13335,"Ġpyram":13336,"dependency":13337,"Speeches":13338,"Ġoctober":13339,"Ġosteoporosis":13340,"Ġmacro":13341,"opinion":13342,"Ġappointments":13343,"Ġcatalyst":13344,"Ġbiomedical":13345,"ĠNetherlands":13346,"Ġfatigue":13347,"Ġcontingency":13348,"Ġdescendants":13349,"Ġpredecessors":13350,"Cancer":13351,"Ġculp":13352,"ĠTeflon":13353,"ĠHandbook":13354,"ĠArrangements":13355,"ĠOpportunities":13356,"ĠAcademy":13357,"Ġexplanation":13358,"ĠFormula":13359,"Retirement":13360,"bismuth":13361,"oiaf":13362,"Ġcourage":13363,"Ġbureauc":13364,"Ġhtml":13365,"ĠSensory":13366,"ĠSrivastava":13367,"ĠNoyes":13368,"Ġseawater":13369,"ĠViagra":13370,"ĠKalyani":13371,"ĠShropshire":13372,"Ġsupervisors":13373,"Ġphotovoltaic":13374,"wanfangdata":13375,"940":13376,"Electric":13377,"dible":13378,"late":13379,"mare":13380,"mile":13381,"paced":13382,"table":13383,"tically":13384,"zy":13385,"held":13386,"heres":13387,"erable":13388,"erting":13389,"Ġsister":13390,"Ġovere":13391,"Ġcry":13392,"Ġcosm":13393,"Ġpapers":13394,"Ġpestic":13395,"Ġwond":13396,"Ġwikipedia":13397,"Ġwalls":13398,"isen":13399,"Ġfake":13400,"Ġinhuman":13401,"Ġinhab":13402,"lew":13403,"rooms":13404,"enth":13405,"Ġholder":13406,"Ġecommerce":13407,"Ġnice":13408,"Ġreck":13409,"Ġreuse":13410,"Ġrend":13411,"logical":13412,"omed":13413,"Ġgod":13414,"ĠTexas":13415,"versed":13416,"mentioned":13417,"image":13418,"otion":13419,"ĠSad":13420,"Ġdele":13421,"Ġdelic":13422,"Ġdeals":13423,"ĠAviation":13424,"Ġheater":13425,"Ġheading":13426,"antaged":13427,"emics":13428,"ĠCir":13429,"ĠCaring":13430,"Ġexert":13431,"ĠMad":13432,"ĠMasters":13433,"ĠMNC":13434,"ĠFe":13435,"Ġimpul":13436,"ĠNaturally":13437,"duates":13438,"ĠPersonal":13439,"erer":13440,"Ġdispose":13441,"Ġdissol":13442,"ĠWalk":13443,"ĠBirth":13444,"ĠBeside":13445,"Ġchores":13446,"bling":13447,"ĠGre":13448,"Ġproblematic":13449,"Ġintru":13450,"Ġlooph":13451,"Ġworkable":13452,"Ġsees":13453,"Ġunrelated":13454,"forward":13455,"Ġvice":13456,"Ġhelpless":13457,"ĠVacc":13458,"Ġeconomists":13459,"riction":13460,"ĠUp":13461,"Ġproductions":13462,"alling":13463,"agiarism":13464,"Ġsurveys":13465,"Ġrainy":13466,"ĠJud":13467,"rences":13468,"ERS":13469,"Ġdiscre":13470,"Ġinvading":13471,"Ġacting":13472,"Ġinstances":13473,"Ġbenefitting":13474,"achs":13475,"Ġlessened":13476,"Ġsubsides":13477,"Ġministry":13478,"Ġterminate":13479,"Ġcoin":13480,"Ġinsu":13481,"ĠWeek":13482,"dropping":13483,"Ġsettle":13484,"ikes":13485,"Ġpresently":13486,"Ġentered":13487,"Ġtrainings":13488,"Ġminimised":13489,"Ġmaker":13490,"Ġauto":13491,"ĠCentres":13492,"Ġexploited":13493,"Ġexploiting":13494,"ĠCommon":13495,"Ġgrave":13496,"Ġclover":13497,"Ġdiscriminations":13498,"Ġrestore":13499,"Ġpricing":13500,"Ġsimilarly":13501,"Ġtalks":13502,"Ġtypically":13503,"Ġethn":13504,"Ġdetects":13505,"ĠPlagiarism":13506,"Ġsuggestions":13507,"Ġcaters":13508,"Ġdisadvantaged":13509,"Ġreplacements":13510,"Ġstepping":13511,"Ġrecycles":13512,"ĠOpposition":13513,"ĠCommunications":13514,"Ġcontainer":13515,"Ġanalyses":13516,"Ġstatistical":13517,"ĠConsult":13518,"ĠDoctors":13519,"Ġdevote":13520,"aneous":13521,"Ġbiased":13522,"generational":13523,"Ġdomain":13524,"Ġviolate":13525,"Ġsuspect":13526,"ĠPreviously":13527,"Ġpossessed":13528,"Ġmusical":13529,"Ġneutral":13530,"Ġbounded":13531,"ĠIndonesian":13532,"ĠSpain":13533,"Ġguided":13534,"Ġcommitments":13535,"Ġdrawing":13536,"Ġfrail":13537,"Ġconsisting":13538,"Ġqualifications":13539,"Ġmeantime":13540,"Ġdeficiencies":13541,"Ġjudging":13542,"Ġjudgments":13543,"Ġhotel":13544,"ĠDefence":13545,"Ġprolonging":13546,"Ġswitched":13547,"Ġnightmare":13548,"Ġexplains":13549,"ĠModern":13550,"Ġdominate":13551,"Ġrequests":13552,"Ġcurren":13553,"Ġcriticize":13554,"ndromes":13555,"Ġanimal":13556,"Ġdescribe":13557,"ĠBerkeley":13558,"Ġbankrupt":13559,"ĠExperts":13560,"Ġillegally":13561,"Ġprohibited":13562,"Ġdisturbance":13563,"ĠPrize":13564,"Ġmachineries":13565,"ĠStatistic":13566,"crime":13567,"Ġreproduce":13568,"worthy":13569,"Ġprioritize":13570,"Ġwithholding":13571,"Ġpulled":13572,"Ġarrived":13573,"Ġfemales":13574,"Ġdischarged":13575,"Ġconstitutes":13576,"Ġcoordination":13577,"ĠTreatment":13578,"Ġeradicate":13579,"ĠPsychologist":13580,"Ġstagnation":13581,"Ġpregnancy":13582,"Ġsunshades":13583,"ĠPractice":13584,"Ġunderestimated":13585,"Ġinflicted":13586,"Ġdeduct":13587,"Ġrubber":13588,"Ġworkshops":13589,"Ġcubic":13590,"Ġcomposite":13591,"Ġhypothes":13592,"Ġexcitement":13593,"Ġembarrass":13594,"ĠMNCs":13595,"210":13596,"230":13597,"265":13598,"325":13599,"412":13600,"414":13601,"423":13602,"422":13603,"550":13604,"61011":13605,"939":13606,"Acc":13607,"Bi":13608,"Bull":13609,"Book":13610,"CF":13611,"DE":13612,"EO":13613,"EV":13614,"HEA":13615,"HIPAA":13616,"IP":13617,"Is":13618,"ILE":13619,"June":13620,"Le":13621,"Me":13622,"Ms":13623,"Mode":13624,"Magazines":13625,"Par":13626,"Psychology":13627,"RA":13628,"Soo":13629,"Tech":13630,"Text":13631,"UL":13632,"VG":13633,"We":13634,"aer":13635,"bel":13636,"bio":13637,"cop":13638,"cam":13639,"crow":13640,"citizen":13641,"croft":13642,"dn":13643,"darticle":13644,"dioxide":13645,"digital":13646,"disease":13647,"ece":13648,"eff":13649,"fy":13650,"father":13651,"focus":13652,"gering":13653,"gawa":13654,"hid":13655,"iel":13656,"ius":13657,"ipe":13658,"ienced":13659,"jun":13660,"jhtml":13661,"jamin":13662,"kas":13663,"kov":13664,"lives":13665,"mac":13666,"ng":13667,"nu":13668,"nw":13669,"oop":13670,"oding":13671,"pad":13672,"purl":13673,"powder":13674,"rpt":13675,"rations":13676,"spect":13677,"sdarticle":13678,"tat":13679,"tim":13680,"training":13681,"trained":13682,"uation":13683,"uine":13684,"update":13685,"vag":13686,"visions":13687,"wch":13688,"wall":13689,"wave":13690,"warming":13691,"wii":13692,"wiley":13693,"zil":13694,"Ġion":13695,"Ġlying":13696,"heaged":13697,"Ġap":13698,"ĠaMode":13699,"inating":13700,"inting":13701,"indust":13702,"initi":13703,"informed":13704,"Ġthefts":13705,"onic":13706,"onio":13707,"enious":13708,"Ġsample":13709,"atilla":13710,"Ġovarian":13711,"Ġcolo":13712,"Ġchernobyl":13713,"Ġpubl":13714,"Ġpills":13715,"Ġpunct":13716,"escap":13717,"Ġwro":13718,"Ġwood":13719,"isdom":13720,"edition":13721,"iton":13722,"anol":13723,"Ġfired":13724,"Ġfrust":13725,"Ġfumes":13726,"Ġbother":13727,"Ġbatt":13728,"Ġbioethics":13729,"aland":13730,"alph":13731,"lef":13732,"lein":13733,"icular":13734,"ĠdGL":13735,"arified":13736,"Ġhi":13737,"Ġhus":13738,"Ġnano":13739,
[...]
